<unk>	0
<s>	0
</s>	0
▁the	-2.78361
,	-3.07546
.	-3.37972
▁of	-3.46168
▁to	-3.53465
▁and	-3.69845
▁in	-3.95484
▁that	-4.18557
▁a	-4.23243
▁is	-4.23361
▁	-4.53422
▁for	-4.62239
▁I	-4.63413
▁on	-4.75294
▁be	-4.85079
▁this	-4.85416
▁we	-4.8912
▁are	-5.03747
▁have	-5.08556
▁it	-5.0912
▁not	-5.13603
▁as	-5.19543
▁with	-5.20195
▁which	-5.22446
0	-5.26042
▁European	-5.27967
-	-5.35834
▁will	-5.40123
▁by	-5.40187
▁The	-5.40835
s	-5.45174
▁has	-5.51722
'	-5.60765
▁Mr	-5.68308
▁Commission	-5.77786
2	-5.81723
▁an	-5.83106
▁would	-5.83307
▁at	-5.84706
▁also	-5.85264
1	-5.87214
▁all	-5.8988
▁should	-5.89959
▁from	-5.94489
▁President	-5.95863
▁-	-5.96416
▁We	-5.96432
▁our	-5.9695
▁must	-5.97497
▁but	-6.03278
▁been	-6.0623
▁Union	-6.11291
▁Parliament	-6.15492
▁It	-6.17183
▁can	-6.19522
▁you	-6.20919
▁was	-6.23979
▁Member	-6.24374
▁more	-6.24827
▁report	-6.27108
▁or	-6.27219
▁States	-6.28453
▁its	-6.29077
▁their	-6.32061
▁Council	-6.3259
▁there	-6.33361
▁do	-6.33516
▁like	-6.33567
9	-6.34249
▁very	-6.37935
▁Europe	-6.39
▁This	-6.42353
▁In	-6.426
▁these	-6.42895
▁they	-6.44909
▁EU	-6.45456
▁one	-6.47389
▁countries	-6.49426
▁who	-6.53693
▁so	-6.54136
▁about	-6.56806
▁other	-6.57288
▁what	-6.57573
▁us	-6.59456
)	-6.59528
▁need	-6.60526
▁(	-6.62168
▁important	-6.63891
▁people	-6.65004
▁my	-6.65034
▁only	-6.66053
▁new	-6.67683
5	-6.68644
▁policy	-6.69143
▁time	-6.69503
▁because	-6.70641
▁if	-6.70686
:	-6.72738
▁no	-6.75126
▁up	-6.80679
▁am	-6.81392
▁support	-6.82177
▁now	-6.82438
▁out	-6.829
?	-6.83281
▁such	-6.83503
3	-6.8578
▁make	-6.8656
▁into	-6.87758
▁between	-6.8908
▁those	-6.89378
▁take	-6.9084
▁work	-6.90952
▁rights	-6.96009
▁when	-6.96053
▁therefore	-6.96528
▁some	-6.97311
▁being	-6.98635
▁any	-6.99512
4	-7.00481
▁them	-7.00775
▁political	-7.01144
▁made	-7.02711
▁were	-7.0316
▁way	-7.0482
▁than	-7.05165
▁believe	-7.06468
▁economic	-7.07577
▁Commissioner	-7.07916
;	-7.10121
▁say	-7.10628
▁many	-7.12291
▁fact	-7.12648
▁proposal	-7.1273
▁against	-7.13797
7	-7.14934
▁first	-7.15721
▁social	-7.17616
6	-7.17763
8	-7.18313
▁market	-7.18513
▁think	-7.20885
▁Committee	-7.21388
▁just	-7.22716
▁That	-7.23115
▁development	-7.23157
▁issue	-7.23226
▁well	-7.23473
▁point	-7.24315
▁years	-7.25381
▁future	-7.27307
▁situation	-7.27534
▁order	-7.27548
▁human	-7.28037
▁right	-7.28371
▁two	-7.29208
’	-7.2928
▁question	-7.29374
▁country	-7.29533
▁cannot	-7.29572
▁debate	-7.29723
▁here	-7.3004
▁citizens	-7.30161
▁does	-7.30208
▁want	-7.30518
▁even	-7.30702
▁same	-7.30925
▁possible	-7.31278
▁had	-7.31327
▁measures	-7.31343
▁As	-7.32944
▁could	-7.33652
▁part	-7.3431
▁public	-7.34724
▁said	-7.3566
▁most	-7.35852
▁'	-7.36105
/	-7.36177
▁today	-7.36575
▁agreement	-7.37487
▁already	-7.38385
▁where	-7.3917
▁clear	-7.39485
▁me	-7.3953
▁national	-7.39663
▁good	-7.3998
▁much	-7.40565
▁too	-7.40571
▁within	-7.40634
▁still	-7.42736
▁know	-7.43018
ing	-7.43589
▁how	-7.43599
▁year	-7.44351
▁financial	-7.4436
▁Mrs	-7.44647
▁There	-7.45042
▁However	-7.45388
▁use	-7.45523
▁particular	-7.45664
▁–	-7.45903
▁both	-7.45904
▁common	-7.46062
▁over	-7.47217
▁Community	-7.47462
▁cooperation	-7.4808
▁view	-7.48143
▁course	-7.48311
▁under	-7.48499
▁hope	-7.4923
▁world	-7.50488
▁taken	-7.51153
▁your	-7.51661
▁own	-7.51781
▁ensure	-7.51822
▁international	-7.51886
▁see	-7.52019
▁level	-7.52216
▁case	-7.52334
▁able	-7.52484
▁system	-7.53021
▁area	-7.53679
▁his	-7.5383
▁process	-7.55984
▁vote	-7.56999
▁why	-7.57249
▁put	-7.57888
▁then	-7.58319
▁rapporteur	-7.58673
▁energy	-7.59018
▁means	-7.59705
▁last	-7.59946
▁number	-7.6016
▁information	-7.60257
▁problem	-7.60289
▁example	-7.60487
▁action	-7.61
▁may	-7.61019
▁without	-7.62558
▁gentlemen	-7.63126
▁through	-7.63543
▁House	-7.64235
▁If	-7.64373
▁directive	-7.6438
▁however	-7.64579
▁problems	-7.64732
▁place	-7.65413
▁budget	-7.66724
▁he	-7.67939
▁particularly	-7.68161
▁necessary	-7.68165
▁give	-7.68692
▁great	-7.6887
▁Madam	-7.69133
▁before	-7.69756
▁end	-7.69974
▁issues	-7.70272
▁protection	-7.70458
▁long	-7.70572
▁given	-7.71652
▁areas	-7.72021
▁far	-7.7249
▁regard	-7.7255
▁respect	-7.72726
▁position	-7.73185
▁security	-7.73332
▁Treaty	-7.73426
▁matter	-7.7394
▁legal	-7.74437
▁law	-7.74682
▁women	-7.74973
▁resolution	-7.75579
▁whether	-7.77329
%	-7.7761
▁amendments	-7.78099
▁again	-7.78128
▁decision	-7.78502
▁sector	-7.78503
▁Group	-7.78627
▁set	-7.78962
▁ladies	-7.79921
▁thank	-7.80005
▁further	-7.80369
▁role	-7.80432
▁United	-7.80639
▁since	-7.81034
▁Members	-7.81281
▁programme	-7.81338
▁proposals	-7.82099
▁behalf	-7.82419
▁terms	-7.82614
▁basis	-7.82646
▁certain	-7.84065
▁trade	-7.84403
▁services	-7.84444
▁aid	-7.85346
▁come	-7.85991
▁rules	-7.86128
▁done	-7.86414
▁favour	-7.86482
▁A	-7.87428
▁legislation	-7.87526
▁health	-7.87731
▁next	-7.88571
▁different	-7.88606
▁better	-7.88904
▁present	-7.89119
▁help	-7.89309
▁agree	-7.89404
▁framework	-7.90382
▁But	-7.91686
▁What	-7.91755
▁adopted	-7.92015
▁needs	-7.92274
▁opinion	-7.9251
▁continue	-7.92528
▁crisis	-7.9284
▁institutions	-7.93165
▁ask	-7.93749
▁change	-7.94966
▁progress	-7.95258
▁wish	-7.95568
▁after	-7.95579
▁concerned	-7.95812
▁going	-7.96849
▁For	-7.96911
▁result	-7.97559
▁group	-7.97756
▁State	-7.97899
▁whole	-7.98837
▁three	-7.99564
▁towards	-7.99848
▁forward	-7.9989
▁few	-7.99912
▁welcome	-8.00467
▁working	-8.01146
▁approach	-8.01203
▁something	-8.01436
▁principle	-8.01713
▁s	-8.02562
▁resources	-8.03988
▁conditions	-8.04489
▁subject	-8.0457
▁current	-8.05103
▁go	-8.0575
▁including	-8.05824
▁proposed	-8.06504
▁voted	-8.06705
▁opportunity	-8.06912
▁really	-8.07516
▁Presidency	-8.07521
▁importance	-8.07526
▁shall	-8.07823
▁million	-8.0792
▁specific	-8.0801
▁did	-8.08058
▁provide	-8.08255
▁employment	-8.08678
▁used	-8.08729
▁together	-8.0884
▁authorities	-8.08869
▁increase	-8.08955
▁policies	-8.09085
▁especially	-8.09093
▁state	-8.09126
▁On	-8.09664
▁every	-8.10263
▁second	-8.10579
▁transport	-8.1062
▁during	-8.10812
▁regulation	-8.11179
▁find	-8.11334
▁industry	-8.11567
▁clearly	-8.1158
▁general	-8.11742
▁negotiations	-8.11746
▁strategy	-8.11864
▁safety	-8.12005
▁account	-8.12051
▁become	-8.12531
▁down	-8.12854
▁itself	-8.12957
▁products	-8.1302
▁quite	-8.13023
▁another	-8.13097
▁responsibility	-8.13106
▁high	-8.13354
▁greater	-8.13574
▁least	-8.13694
▁environmental	-8.13901
▁rather	-8.14282
▁serious	-8.14868
▁research	-8.15063
▁small	-8.1545
▁third	-8.15906
▁They	-8.16827
▁No	-8.18301
▁always	-8.1895
▁regions	-8.19057
▁difficult	-8.1907
▁democracy	-8.19201
▁reason	-8.19267
▁call	-8.19318
▁fundamental	-8.19327
▁once	-8.19418
▁making	-8.19709
▁essential	-8.19734
▁access	-8.19879
▁deal	-8.20183
▁effective	-8.20705
▁real	-8.20847
▁These	-8.20885
▁achieve	-8.20942
▁interests	-8.21339
▁attention	-8.21667
▁things	-8.21883
▁society	-8.21927
▁freedom	-8.22007
▁major	-8.22187
▁taking	-8.22376
▁democratic	-8.22479
▁implementation	-8.23136
▁based	-8.23147
▁internal	-8.23479
▁money	-8.2349
▁get	-8.23566
▁At	-8.23993
▁government	-8.24034
▁economy	-8.25052
▁various	-8.25076
▁efforts	-8.25119
▁large	-8.25591
▁environment	-8.25808
▁positive	-8.25913
▁each	-8.26548
▁points	-8.27259
▁yet	-8.27744
▁hand	-8.28015
▁words	-8.28099
▁committee	-8.28261
▁procedure	-8.28748
▁free	-8.2927
▁back	-8.29346
▁while	-8.29372
▁allow	-8.29674
▁competition	-8.30139
▁involved	-8.30233
▁consider	-8.30611
▁region	-8.30684
▁less	-8.30846
▁look	-8.31006
▁single	-8.31055
▁full	-8.32317
▁reform	-8.32389
▁funds	-8.32412
▁Affairs	-8.32435
▁concerns	-8.32461
▁Government	-8.32518
▁having	-8.32628
▁growth	-8.33151
▁programmes	-8.33419
▁companies	-8.33862
▁control	-8.34273
▁step	-8.34454
▁majority	-8.35048
▁So	-8.35594
▁power	-8.35853
▁EUR	-8.3598
▁objectives	-8.36225
▁children	-8.36325
▁best	-8.36483
▁peace	-8.36721
▁fully	-8.36756
▁food	-8.36848
▁quality	-8.36945
▁solution	-8.37194
▁interest	-8.37222
▁standards	-8.37257
▁Lisbon	-8.37533
▁agreements	-8.3768
▁certainly	-8.37868
▁workers	-8.37894
▁often	-8.38033
▁simply	-8.38362
▁amendment	-8.3844
▁decisions	-8.38796
▁recent	-8.39148
in	-8.39221
▁Turkey	-8.39681
▁agricultural	-8.40121
▁her	-8.40128
▁aware	-8.40133
▁concern	-8.40227
▁extremely	-8.40339
▁production	-8.40384
▁bring	-8.40452
▁force	-8.40532
▁global	-8.41363
▁accept	-8.41628
▁relations	-8.41937
▁dialogue	-8.41986
▁text	-8.4227
▁main	-8.42522
▁create	-8.42583
▁groups	-8.4278
▁following	-8.43195
▁enlargement	-8.43601
▁form	-8.43627
▁context	-8.4393
▁initiative	-8.44134
▁ago	-8.44228
▁actually	-8.44357
▁might	-8.44499
▁risk	-8.44811
▁objective	-8.44922
▁period	-8.4502
▁Article	-8.45831
▁life	-8.46
▁developing	-8.46334
▁available	-8.46413
▁mentioned	-8.46797
▁non	-8.47026
▁states	-8.47284
▁fight	-8.47686
▁Court	-8.47735
▁improve	-8.47784
▁indeed	-8.48045
▁jobs	-8.48116
▁start	-8.48154
▁questions	-8.48401
▁Let	-8.48596
▁field	-8.48723
▁Finally	-8.48764
▁meeting	-8.48872
▁regional	-8.48984
▁open	-8.49342
ou	-8.49485
▁currently	-8.49544
▁appropriate	-8.49887
▁others	-8.50486
▁results	-8.50632
▁concerning	-8.51016
▁impact	-8.51143
▁And	-8.51342
▁understand	-8.51589
▁consumers	-8.51964
▁responsible	-8.52213
▁management	-8.53175
▁themselves	-8.5324
▁To	-8.53463
▁let	-8.53559
▁members	-8.53748
▁climate	-8.53826
▁months	-8.54254
▁Russia	-8.5434
▁euro	-8.54439
▁doing	-8.54774
▁cases	-8.55306
▁education	-8.5571
▁needed	-8.5573
▁key	-8.55757
▁matters	-8.55955
▁With	-8.56142
▁principles	-8.56356
▁data	-8.56586
▁thing	-8.56627
▁systems	-8.56767
▁reasons	-8.57149
▁enough	-8.57661
▁kind	-8.58155
▁feel	-8.58271
▁day	-8.58315
▁parties	-8.58664
▁compromise	-8.58864
▁longer	-8.5915
▁costs	-8.60094
▁individual	-8.60144
▁projects	-8.60285
▁regards	-8.60495
▁funding	-8.60578
▁though	-8.60651
▁activities	-8.60736
▁achieved	-8.60833
▁Convention	-8.60871
▁tax	-8.6112
▁idea	-8.61465
▁commitment	-8.61739
▁priority	-8.61945
▁although	-8.62169
▁among	-8.62394
▁draft	-8.62563
▁local	-8.62904
▁little	-8.63255
▁significant	-8.63412
▁lack	-8.63619
▁reports	-8.63736
▁promote	-8.63785
▁due	-8.63921
▁governments	-8.64131
▁past	-8.6415
▁aim	-8.64406
▁sure	-8.64449
▁line	-8.64569
▁excellent	-8.64662
▁congratulate	-8.64746
▁mean	-8.64964
▁true	-8.64971
▁Amendment	-8.65055
▁provided	-8.65111
▁nothing	-8.65173
▁plan	-8.65254
▁My	-8.65687
▁perhaps	-8.65704
▁effect	-8.65912
▁special	-8.65984
▁Rights	-8.66063
▁sustainable	-8.66375
▁act	-8.66378
▁final	-8.66706
▁lead	-8.67129
▁prevent	-8.67193
▁include	-8.67285
▁strong	-8.67295
▁labour	-8.67439
▁writing	-8.6789
▁nuclear	-8.67909
▁guarantee	-8.68033
▁solidarity	-8.68296
▁young	-8.68351
▁regarding	-8.68527
▁legislative	-8.68586
▁moment	-8.69241
▁above	-8.6951
▁aspects	-8.69747
▁agenda	-8.69758
▁play	-8.70101
▁joint	-8.70185
▁seen	-8.70334
▁remain	-8.70427
▁integration	-8.70444
(	-8.7045
▁consumer	-8.70674
▁project	-8.70766
▁foreign	-8.7094
▁agreed	-8.71078
▁several	-8.71215
▁transparency	-8.7149
▁Our	-8.71991
▁Directive	-8.72157
▁upon	-8.72205
Office	-8.72509
▁makes	-8.72526
▁apply	-8.72545
▁comes	-8.72616
▁markets	-8.72649
▁contribution	-8.72663
▁relation	-8.72872
▁benefit	-8.73236
▁civil	-8.73457
ed	-8.73764
▁population	-8.74002
▁response	-8.74083
▁discussion	-8.74428
▁addition	-8.74642
▁actions	-8.74701
▁communication	-8.74974
▁Secondly	-8.7548
▁Therefore	-8.7549
▁practice	-8.75673
▁share	-8.7582
▁technical	-8.75831
▁speak	-8.76063
▁values	-8.76118
▁pay	-8.76183
▁criteria	-8.76253
▁him	-8.76355
▁move	-8.76501
▁existing	-8.76762
▁seems	-8.7723
▁colleagues	-8.77323
▁provisions	-8.77513
▁short	-8.77658
▁business	-8.77757
▁investment	-8.78049
▁pleased	-8.78066
▁answer	-8.781
▁procedures	-8.78112
▁elections	-8.78369
▁One	-8.78851
▁accession	-8.79076
▁changes	-8.79097
▁soon	-8.79138
▁assistance	-8.79309
▁ourselves	-8.79353
▁stability	-8.79653
term	-8.79753
▁service	-8.79903
▁until	-8.80088
▁violence	-8.80493
▁express	-8.80498
▁Minister	-8.8082
▁adopt	-8.81177
▁terrorism	-8.81352
▁carried	-8.81379
▁crucial	-8.81406
▁creation	-8.81449
▁basic	-8.81531
▁cohesion	-8.81661
▁success	-8.81707
▁voting	-8.81793
▁organisations	-8.81857
▁everyone	-8.81891
▁poverty	-8.81915
▁mind	-8.82304
▁never	-8.82352
▁China	-8.82477
▁saying	-8.82735
▁asked	-8.828
▁military	-8.83087
▁regulations	-8.83172
▁tabled	-8.83201
▁farmers	-8.83439
▁consequences	-8.83747
▁statement	-8.83809
se	-8.84246
▁sense	-8.84392
▁war	-8.84474
▁fishing	-8.84625
▁held	-8.8463
▁protect	-8.84813
▁application	-8.84936
▁increased	-8.85071
▁balance	-8.8508
▁increasing	-8.85494
▁namely	-8.85513
▁reduce	-8.85589
▁cultural	-8.85684
▁relating	-8.85708
▁show	-8.86371
▁training	-8.8639
▁presented	-8.86686
▁request	-8.867
▁develop	-8.86887
▁term	-8.86901
▁required	-8.86951
▁close	-8.87
▁requirements	-8.87046
▁opportunities	-8.87177
▁everything	-8.8726
▁draw	-8.87431
▁meet	-8.87667
▁budgetary	-8.87706
▁When	-8.88053
▁job	-8.88177
▁value	-8.88287
▁rule	-8.884
▁stage	-8.88417
▁throughout	-8.88431
▁instruments	-8.88607
▁equal	-8.88978
▁thus	-8.88991
▁nature	-8.89031
▁priorities	-8.89264
▁either	-8.89634
y	-8.89948
▁All	-8.90152
▁cost	-8.9031
▁times	-8.90348
DE	-8.90404
▁UN	-8.90653
▁mention	-8.90774
▁called	-8.91024
▁around	-8.91289
▁face	-8.91603
▁keep	-8.91814
▁week	-8.91909
▁demand	-8.92049
▁tell	-8.92095
▁initiatives	-8.92138
▁community	-8.92626
▁conflict	-8.92902
▁prepared	-8.93036
▁powers	-8.93493
▁pressure	-8.93579
▁instrument	-8.93598
▁task	-8.93774
▁reached	-8.93794
▁she	-8.93912
▁road	-8.93915
▁Party	-8.93972
▁external	-8.9417
▁decided	-8.94228
▁across	-8.94307
▁movement	-8.94462
▁potential	-8.9469
▁five	-8.94923
▁expressed	-8.9495
▁fisheries	-8.94973
▁talking	-8.95236
▁tomorrow	-8.95276
▁address	-8.9528
▁establish	-8.95382
▁raised	-8.95723
▁four	-8.96081
▁using	-8.96243
▁monitoring	-8.96323
▁reading	-8.96367
▁conclusion	-8.96549
▁implemented	-8.96627
▁waste	-8.96958
▁experience	-8.97307
▁item	-8.97382
▁effort	-8.97439
▁direction	-8.97484
▁Fund	-8.97679
▁off	-8.97706
▁quickly	-8.97741
▁justice	-8.97932
▁included	-8.97991
▁crime	-8.98016
▁victims	-8.98062
▁levels	-8.98154
▁medium	-8.9823
▁established	-8.98291
▁try	-8.98566
▁focus	-8.98586
▁review	-8.98638
▁doubt	-8.98639
▁previous	-8.98758
▁recently	-8.98924
▁implement	-8.99023
▁challenges	-8.99113
▁fellow	-8.99196
▁enable	-8.99252
▁fair	-8.99545
▁France	-8.99662
▁absolutely	-8.99689
▁partners	-8.99695
▁Ireland	-8.99863
▁private	-8.99903
▁vital	-8.99969
▁coming	-8.99971
▁ever	-9.0002
▁French	-9.00127
▁Conference	-9.00334
▁illegal	-9.005
▁talk	-9.00601
▁billion	-9.00748
▁effects	-9.01121
▁agriculture	-9.01262
▁borders	-9.01356
▁completely	-9.01546
▁supported	-9.01746
▁water	-9.01767
▁reality	-9.01895
▁reduction	-9.02005
▁reforms	-9.02221
▁note	-9.02286
▁found	-9.02316
▁Development	-9.02328
▁sectors	-9.02431
▁brought	-9.02591
▁immigration	-9.02732
▁outside	-9.02813
▁package	-9.03072
▁thanks	-9.03244
▁giving	-9.03913
▁extent	-9.0418
▁live	-9.04269
▁finally	-9.04405
▁reach	-9.04662
▁cause	-9.0478
▁along	-9.04982
▁light	-9.05111
▁took	-9.05204
▁businesses	-9.05258
▁structural	-9.05364
▁applied	-9.0543
▁price	-9.05497
▁amount	-9.05509
▁almost	-9.05584
▁representatives	-9.05979
▁unemployment	-9.06013
▁encourage	-9.06103
▁possibility	-9.06104
▁presidency	-9.06245
▁stress	-9.06365
▁heard	-9.06372
▁Republic	-9.06414
▁behind	-9.06614
▁Firstly	-9.06621
▁discussed	-9.06758
▁December	-9.06819
▁document	-9.06885
▁left	-9.07091
▁additional	-9.07134
▁direct	-9.07246
▁coordination	-9.0741
▁Nations	-9.07786
▁relevant	-9.07833
▁model	-9.07842
▁motion	-9.07844
▁list	-9.07914
▁ensuring	-9.07954
▁follow	-9.08159
▁away	-9.08273
▁Furthermore	-9.08364
▁prices	-9.08441
▁Africa	-9.08445
▁natural	-9.08487
▁assessment	-9.08591
▁treatment	-9.08654
▁British	-9.08692
▁living	-9.08874
m	-9.09066
▁competitiveness	-9.09116
▁emissions	-9.09147
▁creating	-9.09193
▁offer	-9.09441
▁discussions	-9.09458
▁strengthen	-9.09611
▁confidence	-9.09669
▁received	-9.09784
▁events	-9.0987
▁parliamentary	-9.10143
▁begin	-9.10187
▁US	-9.10317
▁practical	-9.10571
▁East	-9.106
▁discuss	-9.10677
▁guidelines	-9.10813
▁nor	-9.10815
▁turn	-9.10869
▁discrimination	-9.11001
▁air	-9.11253
▁proper	-9.11446
▁remains	-9.11479
▁capacity	-9.116
▁expect	-9.11683
▁approved	-9.1174
▁add	-9.11872
▁adoption	-9.12108
▁scope	-9.12221
▁takes	-9.1223
▁Of	-9.12343
▁unacceptable	-9.12551
▁care	-9.12779
▁days	-9.13025
▁avoid	-9.13042
▁considered	-9.13086
▁affected	-9.13425
▁despite	-9.13658
▁lot	-9.13763
▁family	-9.1382
▁old	-9.14035
▁precisely	-9.14243
▁humanitarian	-9.143
▁Central	-9.14311
▁men	-9.14321
▁knowledge	-9.14344
▁cross	-9.14355
▁asylum	-9.14612
▁rate	-9.14684
▁carry	-9.14769
▁trying	-9.14879
▁effectively	-9.15038
▁difficulties	-9.15181
▁solutions	-9.15236
A	-9.15242
▁goods	-9.15618
e	-9.15651
▁summit	-9.15688
▁aimed	-9.15715
▁developed	-9.15761
▁connection	-9.15804
▁Bank	-9.16001
▁defence	-9.16002
▁First	-9.16074
▁reference	-9.16101
▁instead	-9.16202
▁shown	-9.16244
▁side	-9.16298
▁contribute	-9.16328
▁regime	-9.16331
▁honourable	-9.16404
▁efficiency	-9.16761
▁remind	-9.17112
▁Agreement	-9.17143
▁six	-9.17221
▁Policy	-9.17571
▁Democrats	-9.1761
▁huge	-9.1765
▁Justice	-9.17662
▁stop	-9.1772
▁circumstances	-9.17823
▁message	-9.18115
▁C	-9.18185
▁partnership	-9.1828
▁Germany	-9.18314
▁June	-9.18514
▁according	-9.18526
▁May	-9.18565
▁World	-9.18844
▁International	-9.18929
▁administrative	-9.18986
▁improving	-9.19054
▁beginning	-9.19262
▁accordance	-9.19297
▁Economic	-9.19454
▁active	-9.19482
▁committed	-9.19493
▁status	-9.19511
▁forces	-9.19604
▁challenge	-9.19641
▁conclusions	-9.19746
▁Regulation	-9.19755
▁created	-9.19807
▁minimum	-9.19848
▁allowed	-9.19955
▁propose	-9.20008
▁hard	-9.20018
▁technology	-9.20138
▁consideration	-9.20234
▁oil	-9.20237
▁speech	-9.20245
▁providing	-9.2036
▁goes	-9.20393
▁WTO	-9.204
▁culture	-9.20448
▁date	-9.2047
▁People	-9.20577
▁combat	-9.2059
▁independent	-9.20698
▁rightly	-9.2077
▁considerable	-9.20985
▁enterprises	-9.2102
▁death	-9.21041
▁participation	-9.21059
▁half	-9.21193
▁duty	-9.21218
▁criminal	-9.21263
▁total	-9.2137
▁content	-9.21528
▁benefits	-9.21567
▁innovation	-9.21606
▁Now	-9.21793
▁personal	-9.21845
▁rural	-9.21888
▁Social	-9.21903
▁institutional	-9.21914
▁capital	-9.21934
▁He	-9.22014
▁stand	-9.22035
▁provides	-9.22092
▁return	-9.22106
▁supply	-9.22119
▁successful	-9.22181
▁provision	-9.22352
▁self	-9.22557
▁referred	-9.22587
▁implementing	-9.22594
▁forms	-9.23262
▁stated	-9.23283
▁Brussels	-9.23346
▁calls	-9.23388
▁dealing	-9.23462
▁specifically	-9.23485
▁purpose	-9.23789
▁accepted	-9.23848
▁Kosovo	-9.23906
▁lives	-9.24037
▁scientific	-9.24038
▁seriously	-9.24075
▁colleague	-9.24177
▁promoting	-9.24189
▁unfortunately	-9.24221
▁overall	-9.2428
▁receive	-9.24724
▁closely	-9.24859
▁beyond	-9.25127
▁decide	-9.25292
▁views	-9.25902
▁comments	-9.26165
▁introduction	-9.2618
▁Mediterranean	-9.26246
▁wanted	-9.26365
▁plans	-9.26415
▁%	-9.26474
▁directly	-9.26678
▁steps	-9.26856
▁measure	-9.2696
▁happen	-9.27163
▁equality	-9.27704
▁commitments	-9.27851
▁produce	-9.27928
▁financing	-9.27941
▁complete	-9.27961
▁ban	-9.27981
▁strategic	-9.27982
▁expenditure	-9.28015
▁Israel	-9.28038
European	-9.28096
▁requires	-9.28118
▁Today	-9.28352
▁media	-9.28368
▁history	-9.28443
▁leave	-9.28772
▁animal	-9.28893
▁Summit	-9.29021
▁setting	-9.29068
▁intended	-9.29133
▁Greece	-9.29163
▁maintain	-9.29259
▁urgent	-9.29331
▁Constitution	-9.2941
▁myself	-9.2951
▁January	-9.29531
sized	-9.29717
▁German	-9.29904
▁How	-9.3001
▁demands	-9.30014
▁industrial	-9.30073
▁event	-9.3023
▁product	-9.30253
a	-9.30406
▁sufficient	-9.30467
▁party	-9.30506
▁entire	-9.30597
▁activity	-9.30706
▁exchange	-9.30766
n	-9.30836
▁Iraq	-9.30885
▁per	-9.30911
▁paid	-9.30949
▁aspect	-9.31067
▁central	-9.31091
▁poor	-9.31275
▁home	-9.31401
▁supporting	-9.31458
▁alone	-9.31501
▁exist	-9.31581
▁wrong	-9.31601
▁bodies	-9.31675
▁ways	-9.3176
▁anything	-9.31895
▁competitive	-9.31965
▁candidate	-9.31992
▁low	-9.3202
▁efficient	-9.32176
▁properly	-9.32444
▁police	-9.32591
▁speaking	-9.32602
▁represent	-9.32613
▁Human	-9.32679
▁join	-9.32728
▁authority	-9.32737
▁paragraph	-9.33045
▁led	-9.33394
▁gas	-9.33591
▁highly	-9.33593
▁refer	-9.33792
▁discussing	-9.33819
▁limited	-9.33857
▁establishing	-9.3386
▁weeks	-9.33887
▁known	-9.33908
▁type	-9.33921
▁Although	-9.33949
▁anti	-9.33982
▁conclude	-9.34065
▁similar	-9.34085
▁Charter	-9.34299
▁Irish	-9.34302
▁higher	-9.3433
▁genuine	-9.3441
▁caused	-9.34467
▁shows	-9.34517
▁calling	-9.34544
▁fund	-9.34677
▁study	-9.34893
▁Unfortunately	-9.34911
▁producers	-9.35046
al	-9.35072
▁respond	-9.35109
▁yesterday	-9.35219
▁whom	-9.35223
▁early	-9.35285
▁ambitious	-9.35571
▁urge	-9.35717
▁improved	-9.35733
▁increasingly	-9.35853
▁risks	-9.35968
▁represents	-9.36365
▁emphasise	-9.36366
▁produced	-9.36426
▁Since	-9.3655
▁animals	-9.3657
▁gives	-9.36579
▁opposition	-9.36653
▁re	-9.36721
▁obviously	-9.36953
▁happened	-9.37026
▁border	-9.37154
▁Thank	-9.37362
▁developments	-9.37379
▁strengthening	-9.37384
▁achieving	-9.37509
▁manner	-9.37578
▁Security	-9.37579
▁language	-9.3759
▁Italy	-9.3773
▁later	-9.37784
border	-9.38125
called	-9.38171
▁infrastructure	-9.38212
▁hear	-9.3827
▁currency	-9.38301
▁require	-9.38417
▁South	-9.38516
▁reducing	-9.38559
▁threat	-9.38747
▁regret	-9.38786
▁Spanish	-9.38837
▁convinced	-9.38853
▁Rules	-9.39069
▁Moreover	-9.39109
▁annual	-9.39174
▁limit	-9.39177
▁useful	-9.39232
▁aims	-9.39238
▁name	-9.39336
▁March	-9.39352
▁sometimes	-9.39373
▁earlier	-9.39409
▁conference	-9.39415
▁outcome	-9.39456
▁remember	-9.3953
▁broad	-9.39568
▁damage	-9.39645
▁looking	-9.39792
▁recognise	-9.39818
responsibilities	-9.39926
▁rise	-9.40011
▁former	-9.40058
▁Foreign	-9.40102
up	-9.4054
▁firstly	-9.40589
▁spirit	-9.40591
ly	-9.40655
▁elements	-9.40746
▁concept	-9.40839
▁recognition	-9.40978
▁ten	-9.40991
▁hold	-9.4105
▁influence	-9.41192
▁acceptable	-9.41216
▁B	-9.41246
▁analysis	-9.413
▁member	-9.41306
▁comment	-9.41674
▁introduce	-9.41706
▁documents	-9.41858
▁entirely	-9.419
▁word	-9.41971
▁prevention	-9.41975
▁monetary	-9.42088
▁introduced	-9.42123
▁balanced	-9.42126
making	-9.42169
▁Spain	-9.42295
▁reduced	-9.42303
▁contrary	-9.424
▁thought	-9.42553
▁pointed	-9.42598
▁thinking	-9.42732
▁comprehensive	-9.4286
▁building	-9.42897
▁consensus	-9.42997
▁delegation	-9.43043
▁American	-9.43079
▁combating	-9.43144
▁Nevertheless	-9.4329
▁wants	-9.43297
▁liberalisation	-9.4345
▁becoming	-9.43549
▁press	-9.43617
▁facing	-9.43679
▁says	-9.43684
▁concrete	-9.44068
▁asking	-9.44122
▁sources	-9.44151
▁origin	-9.44214
▁Environment	-9.44481
▁differences	-9.44655
▁After	-9.448
▁establishment	-9.44901
▁dangerous	-9.45067
▁perspective	-9.45123
▁relationship	-9.4517
▁probably	-9.453
▁methods	-9.45319
▁morning	-9.45463
▁alternative	-9.45483
FR	-9.45529
▁Indeed	-9.4555
▁closer	-9.4557
▁union	-9.45571
▁networks	-9.4567
▁organisation	-9.45697
▁added	-9.45704
▁Internet	-9.45762
▁flexibility	-9.45763
▁parts	-9.45788
▁commercial	-9.45845
▁raise	-9.45899
▁rest	-9.45923
▁rapporteurs	-9.45941
▁America	-9.45983
▁recommendations	-9.46034
▁September	-9.4622
▁met	-9.46249
▁applies	-9.46423
▁body	-9.46524
▁company	-9.46681
▁sitting	-9.46759
▁de	-9.46814
▁Ministers	-9.46878
▁sort	-9.46917
▁else	-9.47001
▁exactly	-9.47026
▁laws	-9.47031
▁refugees	-9.47052
▁staff	-9.4716
▁strongly	-9.47184
▁UK	-9.47285
▁sanctions	-9.4739
▁forget	-9.477
▁practices	-9.47923
▁Some	-9.47934
▁negative	-9.48027
▁drawn	-9.48215
▁bear	-9.48398
▁network	-9.48469
▁laid	-9.48501
▁Paper	-9.48587
▁attempt	-9.48679
▁trust	-9.48902
▁MEPs	-9.48935
▁chance	-9.48995
▁directives	-9.49142
▁seek	-9.49631
▁failure	-9.4971
▁Green	-9.49759
▁dealt	-9.4985
▁opening	-9.49886
▁submitted	-9.49901
▁mechanism	-9.49924
▁method	-9.50042
▁ideas	-9.50072
▁Palestinian	-9.50113
▁intervention	-9.50119
▁constructive	-9.50155
▁parliaments	-9.50326
▁enormous	-9.50344
▁dimension	-9.50478
▁November	-9.5055
▁Italian	-9.50679
▁institution	-9.50884
▁correct	-9.51178
▁informed	-9.51219
▁definition	-9.51424
▁Romania	-9.51529
▁critical	-9.51548
▁Ladies	-9.51756
▁immediately	-9.51859
▁improvement	-9.51988
▁person	-9.52017
▁integrated	-9.52133
▁transparent	-9.52161
▁putting	-9.52247
▁targets	-9.52387
▁agencies	-9.52461
▁obligations	-9.52523
▁fall	-9.52537
▁happy	-9.52634
▁reply	-9.52818
▁mandate	-9.52987
▁addressed	-9.53004
▁unable	-9.53099
▁organised	-9.5313
▁contains	-9.53147
▁Kingdom	-9.53222
▁administration	-9.53443
▁growing	-9.53464
▁discharge	-9.53533
▁send	-9.53625
▁mutual	-9.53737
▁managed	-9.53763
▁fraud	-9.53791
▁Middle	-9.53843
▁mainly	-9.53945
▁consultation	-9.54039
▁ahead	-9.54075
▁sensitive	-9.54138
▁By	-9.54184
▁ground	-9.5421
▁fear	-9.54255
▁build	-9.54301
▁seem	-9.54596
▁Prime	-9.54618
▁Iran	-9.54619
▁Turkish	-9.54705
▁big	-9.54728
▁age	-9.54796
▁Agency	-9.54867
▁Trade	-9.54894
▁governance	-9.54906
▁October	-9.55022
▁merely	-9.55119
▁choice	-9.55144
▁mechanisms	-9.55189
▁Chamber	-9.55344
▁Amsterdam	-9.55477
▁simple	-9.55716
t	-9.55788
▁Even	-9.55927
▁Procedure	-9.55954
▁disaster	-9.56087
▁run	-9.56162
▁exercise	-9.56255
▁Programme	-9.56314
▁Amendments	-9.56412
▁leaders	-9.5642
▁operation	-9.5642
▁signed	-9.56494
▁leading	-9.56532
▁elected	-9.56546
▁thousands	-9.56646
▁resolve	-9.56662
▁complex	-9.56733
▁read	-9.56827
▁Health	-9.56837
▁persons	-9.56935
▁ought	-9.57203
▁Russian	-9.57209
▁continuing	-9.57358
▁understanding	-9.57407
▁impossible	-9.57434
▁burden	-9.57515
▁easy	-9.57593
▁child	-9.57601
▁lost	-9.57616
▁told	-9.57727
▁statements	-9.57785
▁Strategy	-9.57795
▁evidence	-9.58125
▁substantial	-9.58233
▁came	-9.58259
▁figures	-9.5843
▁worked	-9.58623
et	-9.5868
▁intention	-9.58784
▁Ukraine	-9.58917
▁guarantees	-9.58978
▁independence	-9.59005
▁subsidiarity	-9.59073
▁payments	-9.59084
▁speakers	-9.59125
▁repeat	-9.5922
▁degree	-9.59408
▁totally	-9.59579
▁positions	-9.59638
▁attitude	-9.5964
▁desire	-9.5966
▁includes	-9.59774
▁Many	-9.5999
▁renewable	-9.60033
▁adequate	-9.60068
▁Europeans	-9.60154
▁membership	-9.60206
▁rejected	-9.60217
▁wishes	-9.60256
▁extend	-9.6039
▁structure	-9.60406
▁traffic	-9.60446
▁promotion	-9.60595
▁recommendation	-9.60783
▁cover	-9.60916
▁table	-9.60983
▁bringing	-9.61116
▁trafficking	-9.61231
▁related	-9.61435
▁territory	-9.61454
▁debates	-9.61497
▁expression	-9.6162
▁grateful	-9.6164
▁treaty	-9.61786
▁instance	-9.6186
▁rates	-9.61921
▁fish	-9.62109
▁affairs	-9.62119
▁Portugal	-9.62238
▁income	-9.6225
▁technologies	-9.62263
▁Cyprus	-9.62401
▁SMEs	-9.62486
▁failed	-9.62543
▁actual	-9.62577
▁highlight	-9.62626
▁opposed	-9.62642
▁economies	-9.62776
▁intend	-9.6287
▁obvious	-9.62875
▁families	-9.6302
▁controls	-9.63097
▁involvement	-9.63213
▁involving	-9.63278
▁Thirdly	-9.63377
▁Schengen	-9.63416
▁office	-9.63548
▁getting	-9.63651
▁lines	-9.63702
▁Structural	-9.63758
▁secure	-9.63775
▁linked	-9.63904
▁forced	-9.63975
▁official	-9.64108
▁resolutions	-9.64258
▁immediate	-9.64412
▁substances	-9.64631
▁Monetar	-9.6484
▁sound	-9.65074
▁truly	-9.65194
▁original	-9.65343
▁adopting	-9.65386
▁Pact	-9.65585
▁happening	-9.65587
▁North	-9.6562
▁weapons	-9.65689
▁Nos	-9.65743
▁situations	-9.65757
▁ready	-9.65798
▁ones	-9.65896
▁talks	-9.65896
▁recognised	-9.65909
▁faced	-9.65948
▁greatest	-9.65961
▁appeal	-9.66035
▁Funds	-9.66065
▁land	-9.66123
▁goal	-9.66127
▁enter	-9.66251
▁plenary	-9.66344
▁tourism	-9.66409
▁granted	-9.6652
▁advantage	-9.66754
▁seeking	-9.66772
▁protecting	-9.67383
▁travel	-9.67389
▁peoples	-9.67487
▁Poland	-9.67534
▁drugs	-9.67607
▁election	-9.67658
▁minorities	-9.67817
▁disease	-9.67841
▁cut	-9.67868
▁defend	-9.67969
▁appear	-9.67973
▁finance	-9.67981
▁starting	-9.68049
▁followed	-9.68074
▁Public	-9.68075
▁covered	-9.68123
▁acts	-9.68195
▁Sweden	-9.68334
▁July	-9.68513
▁interesting	-9.68513
▁sides	-9.68558
▁Why	-9.68611
▁subsidies	-9.68684
▁votes	-9.68968
▁danger	-9.69001
▁explain	-9.69042
▁heart	-9.69114
▁sea	-9.69217
▁element	-9.69232
▁diversity	-9.69409
▁meetings	-9.69433
▁S	-9.69452
▁carefully	-9.69579
▁reject	-9.69682
▁gender	-9.69711
▁pollution	-9.69822
▁suffering	-9.69843
▁tackle	-9.69927
▁supports	-9.69948
▁shared	-9.69975
▁proposing	-9.7004
▁designed	-9.70259
▁conduct	-9.70323
▁ability	-9.70353
▁co	-9.70604
▁thereby	-9.70676
▁globalisation	-9.70771
▁comply	-9.70805
▁spent	-9.70808
▁safe	-9.70908
▁range	-9.7093
▁export	-9.70951
▁detailed	-9.70967
▁sign	-9.71052
d	-9.71069
▁changed	-9.71109
▁involve	-9.7117
▁bad	-9.71188
▁minority	-9.71192
▁structures	-9.71221
▁mobility	-9.7125
▁Swedish	-9.71456
▁floor	-9.71516
▁communities	-9.71541
▁binding	-9.71617
▁serve	-9.71636
▁taxation	-9.7167
▁naturally	-9.71676
▁evaluation	-9.71825
▁presence	-9.71898
▁African	-9.71903
▁arms	-9.72073
▁harmonisation	-9.72143
▁criticism	-9.72242
▁delay	-9.72352
▁ACP	-9.7243
PL	-9.72448
▁competence	-9.72729
▁committees	-9.72961
▁Auditors	-9.73007
▁judicial	-9.73086
▁series	-9.73215
▁While	-9.73278
▁emphasis	-9.73308
▁continues	-9.73496
▁Greek	-9.73578
▁Belarus	-9.74008
▁anyone	-9.74033
▁bilateral	-9.74087
▁reasonable	-9.74133
▁voice	-9.74302
▁expected	-9.74308
▁target	-9.74365
▁approval	-9.74444
▁Eastern	-9.745
▁consumption	-9.74656
▁credibility	-9.74675
▁planning	-9.74748
▁detail	-9.74909
▁consistent	-9.75034
▁amongst	-9.75167
▁credit	-9.75368
▁nations	-9.75496
▁causes	-9.75506
▁improvements	-9.75519
▁representative	-9.7554
▁standard	-9.75594
▁Energy	-9.75792
▁campaign	-9.75803
▁vehicles	-9.75838
▁late	-9.75862
▁otherwise	-9.75939
▁affect	-9.7602
▁participate	-9.76029
▁limits	-9.76134
uestion	-9.76254
▁Sea	-9.76296
▁maximum	-9.76405
▁declaration	-9.76414
▁employees	-9.7668
▁April	-9.76689
▁arrangements	-9.76934
▁hours	-9.76935
▁worth	-9.77017
▁grounds	-9.77316
▁monitor	-9.77408
▁obligation	-9.77449
▁board	-9.77616
▁initial	-9.77741
▁obtain	-9.77876
▁tobacco	-9.77945
▁neither	-9.78033
▁lower	-9.78065
▁Only	-9.78333
▁Agriculture	-9.78352
▁factor	-9.78357
▁citizen	-9.78374
▁generally	-9.78394
▁signal	-9.78518
▁Such	-9.78541
▁gave	-9.78569
▁rail	-9.78661
▁domestic	-9.78676
▁inform	-9.78733
▁An	-9.78775
▁immigrants	-9.78821
▁rapid	-9.78887
▁compensation	-9.78966
▁source	-9.78987
▁Western	-9.79145
▁constitutional	-9.79175
▁entry	-9.79203
▁Barroso	-9.79214
▁easier	-9.79243
▁religious	-9.79294
▁started	-9.79339
▁appears	-9.79497
▁languages	-9.79539
▁lies	-9.79642
▁delighted	-9.79661
▁encouraging	-9.79825
▁respected	-9.79953
▁Those	-9.80018
▁factors	-9.80323
ice	-9.80373
▁fail	-9.80455
▁moving	-9.80487
▁attacks	-9.80533
▁politicians	-9.80576
▁goals	-9.80669
▁permanent	-9.80862
▁round	-9.80891
▁freedoms	-9.80931
▁contributions	-9.81011
▁whilst	-9.81022
▁Research	-9.81091
▁facilitate	-9.81208
▁politics	-9.81253
▁From	-9.81285
▁debt	-9.81578
▁Bulgaria	-9.81606
▁Socialist	-9.81612
▁sent	-9.81614
▁month	-9.8166
▁continent	-9.8174
▁welfare	-9.81809
▁G	-9.82012
▁professional	-9.82047
based	-9.82083
▁regulatory	-9.82364
▁proposes	-9.8237
▁PPE	-9.82416
▁Afghanistan	-9.825
▁flexible	-9.82542
▁terrorist	-9.82544
▁imposed	-9.82765
es	-9.82836
▁experts	-9.82938
▁modern	-9.83144
▁negotiating	-9.83197
▁General	-9.83281
▁evening	-9.83296
▁recovery	-9.83338
▁interested	-9.83506
▁endorse	-9.83563
▁maritime	-9.83569
▁requirement	-9.83607
▁visa	-9.83745
▁Roma	-9.83749
▁equally	-9.83784
▁placed	-9.8383
▁NATO	-9.83835
▁restrictions	-9.83898
▁construction	-9.84004
▁reflect	-9.84047
the	-9.84062
▁crimes	-9.84074
▁Czech	-9.84086
▁appropriations	-9.84142
▁conflicts	-9.84322
▁transfer	-9.84387
▁Legal	-9.84395
▁impose	-9.84512
▁link	-9.8455
▁century	-9.8457
▁Balkans	-9.84583
▁spending	-9.84649
▁oral	-9.84728
▁guaranteed	-9.84834
▁capable	-9.84911
▁tasks	-9.84921
▁inclusion	-9.8502
▁compliance	-9.85129
▁personally	-9.85163
▁resolved	-9.85192
▁closed	-9.85239
▁partner	-9.85342
▁Euro	-9.854
▁likely	-9.85422
▁solve	-9.85498
▁traditional	-9.85543
▁Budgets	-9.85682
▁referendum	-9.85751
▁scale	-9.85765
▁numerous	-9.85828
▁Copenhagen	-9.85868
▁firm	-9.85936
▁Netherlands	-9.86004
▁Strasbourg	-9.8601
▁defined	-9.86018
▁helping	-9.86043
▁labelling	-9.86091
▁Commissioners	-9.86229
IT	-9.86256
▁fighting	-9.86355
▁continued	-9.8639
▁opinions	-9.8649
▁payment	-9.8663
▁forthcoming	-9.86793
▁awareness	-9.86943
▁migration	-9.87022
▁Treaties	-9.87033
▁separate	-9.87144
▁allowing	-9.87178
▁Stability	-9.8721
▁Portuguese	-9.87212
▁glad	-9.87232
▁exists	-9.8757
▁Austria	-9.87615
▁diseases	-9.87656
▁investments	-9.87683
▁purposes	-9.87805
▁Market	-9.87834
▁letter	-9.87936
▁trading	-9.87939
▁existence	-9.87939
▁operations	-9.88069
▁According	-9.88074
▁voluntary	-9.88193
▁banks	-9.88212
▁customs	-9.8822
▁demonstrated	-9.88328
▁distribution	-9.88468
▁Rule	-9.88469
▁effectiveness	-9.8854
PT	-9.88553
▁officials	-9.88656
▁demonstrate	-9.88662
▁occasions	-9.88704
▁worse	-9.88771
▁safeguard	-9.88846
▁disasters	-9.88878
▁via	-9.88917
▁learn	-9.88936
▁peaceful	-9.88992
▁Framework	-9.89065
▁Baltic	-9.89198
▁assure	-9.89202
th	-9.89302
▁operators	-9.89337
▁Luxembourg	-9.89416
▁functioning	-9.89423
▁Ombudsman	-9.89594
▁operate	-9.89813
▁remarks	-9.89876
▁protected	-9.89938
▁associated	-9.90183
▁post	-9.90238
▁entitled	-9.9027
▁legitimate	-9.90329
▁tried	-9.90558
▁Another	-9.90595
▁constitution	-9.90679
▁option	-9.9072
▁USA	-9.9082
▁top	-9.90834
▁justified	-9.90924
▁attack	-9.90993
▁Lastly	-9.90994
▁manage	-9.91057
▁Fundamental	-9.91238
▁contained	-9.91264
▁ECU	-9.91395
▁realise	-9.91531
▁primarily	-9.91567
▁Nice	-9.91609
▁passengers	-9.91629
▁ultimately	-9.91677
▁strict	-9.91739
▁overcome	-9.9182
▁wide	-9.9191
▁base	-9.91965
▁suggest	-9.91971
▁concluded	-9.91978
▁H	-9.92101
▁path	-9.92122
▁millions	-9.92182
▁difference	-9.92636
▁dignity	-9.92696
▁approve	-9.927
▁scheme	-9.92707
▁amounts	-9.92732
President	-9.9277
▁individuals	-9.92803
The	-9.92875
▁speed	-9.92948
▁allocated	-9.92961
▁Action	-9.93007
▁loss	-9.93023
▁substance	-9.93115
▁mission	-9.93284
r	-9.93398
▁extended	-9.93417
▁passed	-9.93596
▁played	-9.93635
▁material	-9.93667
▁examine	-9.93818
▁Despite	-9.93874
▁Do	-9.93884
▁average	-9.93888
▁involves	-9.9404
▁imports	-9.94174
▁corruption	-9.94241
▁pension	-9.94263
▁Chinese	-9.9433
▁knows	-9.94338
▁emergency	-9.94363
▁works	-9.94435
▁Not	-9.9445
▁truth	-9.94529
▁i	-9.94585
▁nevertheless	-9.94618
▁II	-9.94644
▁cooperate	-9.94668
▁planned	-9.94706
▁Prodi	-9.94732
▁visit	-9.94788
▁p	-9.949
▁violations	-9.94983
▁Given	-9.94993
▁unless	-9.95108
▁firmly	-9.95114
▁revision	-9.95356
▁penalty	-9.95408
▁somewhat	-9.95409
▁treated	-9.95494
▁whatever	-9.95523
▁lose	-9.95583
▁hands	-9.95616
▁High	-9.95633
▁noted	-9.95658
▁Organisation	-9.95734
▁sexual	-9.95757
▁vision	-9.95854
▁taxes	-9.95928
▁Perhaps	-9.95935
▁lay	-9.96109
▁February	-9.96133
▁CAP	-9.96157
▁impression	-9.96187
▁examples	-9.96193
▁got	-9.96215
▁Here	-9.96302
▁Financial	-9.96436
▁Women	-9.96543
▁ethnic	-9.96543
▁decisive	-9.96573
▁farming	-9.96632
▁Transport	-9.96696
▁vulnerable	-9.96815
▁ministers	-9.96818
▁confirm	-9.96843
▁exclusion	-9.96844
▁requested	-9.96894
▁Assembly	-9.96923
▁written	-9.96994
▁NGOs	-9.97022
▁statistics	-9.97095
▁Croatia	-9.9715
▁technological	-9.97199
▁Agenda	-9.9728
▁obstacles	-9.97471
▁collective	-9.97534
▁temporary	-9.97897
▁secondly	-9.97936
an	-9.97987
▁happens	-9.98033
▁please	-9.98033
▁fishermen	-9.98161
▁drawing	-9.98177
▁preparing	-9.98193
▁India	-9.98201
▁prove	-9.98214
▁property	-9.98231
▁industries	-9.98232
▁Serbia	-9.9827
▁considering	-9.98352
▁Head	-9.9839
▁offers	-9.9842
▁mass	-9.9852
▁man	-9.98566
▁Dutch	-9.98591
▁clause	-9.9862
▁Fisheries	-9.987
▁highest	-9.98711
EC	-9.98764
▁Because	-9.98777
▁prepare	-9.98926
▁spoken	-9.98942
▁gone	-9.99012
▁quotas	-9.99121
▁insurance	-9.99139
▁phase	-9.99212
▁latter	-9.99273
▁car	-9.9946
▁duties	-9.99477
▁compared	-9.99559
▁applying	-9.996
▁abuse	-9.99606
▁excessive	-9.99671
▁fulfil	-9.99713
▁preventing	-9.9978
▁occasion	-9.99811
▁latest	-9.99835
▁gain	-10
▁session	-10.0005
▁sensible	-10.0023
▁counter	-10.0027
▁urgently	-10.0028
▁expectations	-10.003
▁contact	-10.003
▁Then	-10.0034
▁agency	-10.004
▁codecision	-10.005
▁fuel	-10.0057
▁spoke	-10.0057
▁appreciate	-10.0058
▁proceedings	-10.0063
▁extension	-10.0075
▁processes	-10.008
▁constantly	-10.0087
▁Asia	-10.0087
▁record	-10.0087
▁operational	-10.0091
▁centre	-10.0092
▁wonder	-10.0095
▁undoubtedly	-10.0098
▁space	-10.0104
▁fiscal	-10.0109
▁relates	-10.0113
▁pursue	-10.0114
▁prosperity	-10.0118
▁electronic	-10.0124
▁announced	-10.013
▁allows	-10.0136
▁precise	-10.0157
▁courage	-10.0158
▁New	-10.0168
▁court	-10.0181
▁described	-10.0182
▁stronger	-10.0183
▁Consumer	-10.0187
▁conciliation	-10.0195
▁association	-10.0195
▁operating	-10.0199
▁keeping	-10.0205
▁stocks	-10.0213
▁introducing	-10.0223
▁represented	-10.0232
▁accounts	-10.027
▁intends	-10.029
▁types	-10.0295
▁Israeli	-10.0311
▁tool	-10.0311
▁historic	-10.0311
▁studies	-10.0319
▁proceed	-10.0322
▁arguments	-10.0327
▁clarify	-10.033
▁welcomed	-10.0344
▁strategies	-10.0356
▁normal	-10.0364
▁submit	-10.038
▁largely	-10.0406
▁succeed	-10.0408
▁brief	-10.0409
▁pillar	-10.0409
▁barriers	-10.041
▁kept	-10.0418
▁exploitation	-10.042
▁confirmed	-10.0432
▁politically	-10.044
▁innovative	-10.0442
▁behaviour	-10.0445
▁determined	-10.0447
▁seven	-10.0451
▁convergence	-10.0451
▁briefly	-10.0459
▁debating	-10.0463
▁published	-10.0463
▁strengthened	-10.0471
▁pre	-10.0478
▁ratification	-10.0478
▁materials	-10.0486
▁pass	-10.0493
▁contracts	-10.0505
terinstitutional	-10.0522
▁equipment	-10.0529
General	-10.0534
▁places	-10.0546
▁function	-10.0561
▁realistic	-10.0575
▁Constitutional	-10.0581
▁sovereignty	-10.0592
▁Alliance	-10.06
▁details	-10.0608
▁electricity	-10.0613
▁willing	-10.062
▁perfectly	-10.063
▁Report	-10.0631
▁insist	-10.0646
▁maintaining	-10.0659
▁amending	-10.0673
▁undertaken	-10.068
▁fields	-10.0693
▁largest	-10.07
▁Employment	-10.0731
▁suffer	-10.0756
▁paper	-10.0759
▁leadership	-10.0769
▁Instead	-10.0781
▁finding	-10.0788
▁condemn	-10.0791
▁coordinated	-10.0792
▁urgency	-10.0803
▁define	-10.0807
▁unfair	-10.0819
▁felt	-10.0838
▁Protection	-10.0841
▁follows	-10.085
▁brings	-10.0852
▁universal	-10.086
▁parliament	-10.0865
▁waiting	-10.0882
▁supervision	-10.0885
▁determination	-10.0885
▁coherent	-10.0927
▁advance	-10.0932
▁absence	-10.0941
▁careful	-10.0953
▁significantly	-10.0957
▁offered	-10.0958
▁ongoing	-10.0978
S	-10.0979
▁legally	-10.0984
▁argument	-10.0989
▁identity	-10.0997
▁dependent	-10.0998
▁wait	-10.0998
▁answers	-10.1004
▁transition	-10.1014
▁nation	-10.1016
▁facts	-10.1021
▁qualified	-10.1023
▁united	-10.1025
to	-10.1026
▁proved	-10.1041
▁minutes	-10.1048
▁Finland	-10.1058
▁difficulty	-10.1058
▁test	-10.1062
AT	-10.107
▁disposal	-10.1081
▁restructuring	-10.109
▁highlighted	-10.1091
▁acknowledge	-10.1098
▁stable	-10.1107
▁changing	-10.111
▁assess	-10.1112
year	-10.1136
▁significance	-10.1146
▁CO	-10.1149
▁Subject	-10.115
▁medical	-10.1151
ntergovernmental	-10.1168
▁accidents	-10.1174
▁fine	-10.1183
▁genuinely	-10.1192
▁Protocol	-10.1196
▁driving	-10.1197
NL	-10.1205
▁wine	-10.1224
▁understood	-10.1231
▁territorial	-10.1244
▁claim	-10.1261
▁figure	-10.1269
B	-10.127
▁near	-10.1279
▁Latin	-10.1295
▁exports	-10.1309
▁vessels	-10.1309
▁valuable	-10.1311
▁beings	-10.1313
▁deficit	-10.1318
▁negotiation	-10.1318
▁Consequently	-10.132
▁satisfactory	-10.1325
▁holding	-10.1336
▁seeing	-10.1351
▁waters	-10.1353
▁referring	-10.1356
▁patients	-10.1378
▁sport	-10.138
▁ports	-10.1381
▁absolute	-10.1387
▁choose	-10.139
▁television	-10.139
▁remove	-10.1396
▁Control	-10.1399
▁Last	-10.14
▁Hungarian	-10.1402
▁grant	-10.1415
▁invest	-10.1424
▁budgets	-10.1432
▁resulting	-10.1439
▁apart	-10.1442
▁primary	-10.1447
▁White	-10.1451
▁BSE	-10.1452
▁assume	-10.1454
▁enjoy	-10.146
▁Internal	-10.1462
▁Dur	-10.1488
▁condition	-10.1488
▁meat	-10.1502
▁suggested	-10.1503
▁code	-10.1519
▁neighbours	-10.1541
▁daily	-10.1552
▁amended	-10.1563
▁playing	-10.1574
▁leads	-10.1575
▁transitional	-10.1586
▁constitute	-10.1587
▁Once	-10.1594
▁preparation	-10.1602
▁someone	-10.1607
▁saw	-10.1612
▁room	-10.1613
▁M	-10.1625
▁Food	-10.1627
▁Regional	-10.1631
▁More	-10.1637
▁etc	-10.1649
▁neighbouring	-10.1651
▁built	-10.1656
▁plants	-10.1661
▁destruction	-10.1673
▁Cooperation	-10.1678
▁actively	-10.168
▁elsewhere	-10.1682
▁sustainability	-10.1682
▁double	-10.1683
▁Northern	-10.1687
▁maintained	-10.17
▁zone	-10.1707
▁Greens	-10.1709
▁Safety	-10.171
▁External	-10.1715
▁deep	-10.1719
▁learning	-10.1721
▁considers	-10.1724
▁users	-10.1731
▁extra	-10.1736
▁drug	-10.1749
▁concentrate	-10.1751
▁investigation	-10.1752
▁Britain	-10.1757
▁shadow	-10.1758
▁regular	-10.1765
▁version	-10.1771
▁release	-10.1784
▁deliver	-10.1789
▁Austrian	-10.1791
▁becomes	-10.1792
▁requests	-10.1792
▁partly	-10.1808
▁prisoners	-10.1809
▁listen	-10.1814
▁identify	-10.1817
▁friends	-10.1818
▁cars	-10.1822
▁wider	-10.1833
▁sufficiently	-10.1834
▁milk	-10.1836
▁Can	-10.1841
▁satisfied	-10.1842
▁medicines	-10.1843
▁honour	-10.1844
▁GDP	-10.1846
▁inadequate	-10.1848
▁previously	-10.1849
▁timetable	-10.1855
▁reconstruction	-10.1856
▁believes	-10.186
▁Georgia	-10.1861
▁opposite	-10.1865
▁interpretation	-10.1876
▁moreover	-10.1877
▁meant	-10.188
▁aviation	-10.1884
▁indicated	-10.1894
▁obliged	-10.1899
▁greatly	-10.1904
▁tragic	-10.1908
▁Europol	-10.1914
▁Kyoto	-10.1917
▁possibly	-10.1919
▁formal	-10.1924
▁identified	-10.1929
▁thanking	-10.193
▁running	-10.1931
▁contain	-10.1934
l	-10.1944
▁stands	-10.1944
▁Does	-10.1947
COM	-10.1968
▁head	-10.1976
▁proportion	-10.1986
▁links	-10.2002
▁R	-10.2005
▁implications	-10.2007
▁deserves	-10.202
▁compulsory	-10.2037
▁possibilities	-10.2038
▁suffered	-10.2083
▁societies	-10.2096
▁Thus	-10.2096
▁completed	-10.2097
▁Without	-10.2098
Christian	-10.211
▁launched	-10.2113
no	-10.2113
▁feed	-10.2113
▁multilateral	-10.2138
▁went	-10.2142
▁sets	-10.2143
▁himself	-10.2149
▁carrying	-10.2162
▁topic	-10.2165
▁species	-10.2166
▁debated	-10.2167
▁afternoon	-10.218
▁affects	-10.2187
▁attempts	-10.2214
▁southern	-10.2228
▁urban	-10.223
▁Having	-10.2238
▁complicated	-10.2239
▁helped	-10.2254
▁Common	-10.2255
▁West	-10.226
▁plant	-10.2262
▁sugar	-10.2272
▁numbers	-10.2283
▁issued	-10.229
▁options	-10.2292
▁Belgian	-10.2295
▁prospects	-10.2298
▁speeches	-10.2299
▁conducted	-10.23
▁schemes	-10.231
▁hearing	-10.2313
▁Representative	-10.2319
▁uniform	-10.2323
▁advertising	-10.2332
▁facilities	-10.2337
▁Secretary	-10.2343
▁surely	-10.2346
▁centres	-10.2346
▁proof	-10.2351
▁school	-10.2364
▁poorest	-10.2367
▁tragedy	-10.2387
▁enforcement	-10.2389
▁guaranteeing	-10.239
▁seeks	-10.2417
▁chosen	-10.2418
▁massive	-10.2426
▁Barcelona	-10.2428
▁extensive	-10.2451
▁competent	-10.2457
▁ratified	-10.2458
H	-10.246
▁Will	-10.2466
▁definitely	-10.2478
▁Belgium	-10.2488
▁openness	-10.2488
▁check	-10.2514
▁whereby	-10.2516
▁heavy	-10.2524
▁P	-10.2531
▁accident	-10.2531
▁spread	-10.2536
▁moral	-10.2538
▁spite	-10.2538
▁exception	-10.2545
▁considerations	-10.2549
▁news	-10.2564
o	-10.2568
▁assist	-10.2571
▁purely	-10.2574
▁constant	-10.2593
▁diplomatic	-10.2594
free	-10.2597
▁Pakistan	-10.26
▁National	-10.2604
▁addressing	-10.2605
scale	-10.2609
▁unanimously	-10.2625
▁Hungary	-10.2631
▁front	-10.2632
▁worst	-10.264
▁successfully	-10.2653
▁governing	-10.2659
▁mistake	-10.2663
▁worldwide	-10.2686
▁gap	-10.2692
▁solely	-10.2702
▁trans	-10.2706
▁eight	-10.2719
▁demanding	-10.272
ES	-10.2727
▁Danish	-10.2728
▁stressed	-10.2733
▁depend	-10.2734
relatively	-10.2751
▁sorry	-10.2754
▁ships	-10.2762
▁Japan	-10.2766
▁pensions	-10.2767
▁producing	-10.2785
▁easily	-10.2785
▁cuts	-10.279
▁extending	-10.2792
▁hundreds	-10.2796
▁determine	-10.2804
▁Socialists	-10.2806
▁rapidly	-10.2807
▁refers	-10.2811
▁foremost	-10.2812
▁Where	-10.2813
▁essentially	-10.2813
▁stake	-10.2831
▁cities	-10.2832
▁acting	-10.2837
▁correctly	-10.2849
▁beef	-10.2849
▁background	-10.2862
▁Home	-10.2869
▁harmful	-10.289
▁van	-10.2891
▁considerably	-10.29
▁granting	-10.2907
▁phenomenon	-10.2911
▁deals	-10.2913
▁adapt	-10.2919
▁core	-10.2924
▁prior	-10.2932
▁Under	-10.2939
tergovernmental	-10.2939
▁players	-10.2946
▁advice	-10.2948
▁remaining	-10.295
▁tools	-10.2951
▁profits	-10.2959
▁Thursday	-10.2963
▁dispute	-10.2968
▁chairman	-10.2969
▁geographical	-10.2974
▁decades	-10.2975
▁bit	-10.2999
▁promised	-10.3007
▁taxpayers	-10.3009
▁Liberal	-10.3012
▁depends	-10.3018
▁Budgetary	-10.3022
▁feeling	-10.3023
▁Bosnia	-10.3032
▁advantages	-10.3039
▁Korea	-10.3043
▁charges	-10.3049
▁extreme	-10.3053
▁heritage	-10.3054
▁Nor	-10.3064
▁oppose	-10.3064
er	-10.3071
▁experienced	-10.3078
▁suitable	-10.3081
▁claims	-10.3084
▁Both	-10.3091
▁achievement	-10.3098
▁reaction	-10.3099
▁enabling	-10.3108
▁spend	-10.3114
▁worrying	-10.3114
▁D	-10.3116
▁quote	-10.3118
▁bureaucracy	-10.3119
▁threats	-10.3134
▁intellectual	-10.3135
▁generation	-10.3138
▁recall	-10.3138
▁opened	-10.3141
▁heading	-10.3143
▁sum	-10.3147
▁supposed	-10.3156
▁d	-10.3169
▁paying	-10.3175
▁environmentally	-10.3175
▁savings	-10.3179
▁speaker	-10.318
economic	-10.3189
▁skills	-10.3191
▁crises	-10.3199
▁strength	-10.3206
▁Minutes	-10.3221
▁increases	-10.3228
▁contributed	-10.3229
▁powerful	-10.3229
▁focused	-10.3231
▁Cuba	-10.3237
▁manufacturers	-10.3242
▁texts	-10.3245
▁clarity	-10.3254
▁willingness	-10.3259
▁legitimacy	-10.326
▁port	-10.327
▁emphasised	-10.3277
▁wealth	-10.328
▁Growth	-10.3282
▁inter	-10.3282
▁historical	-10.3283
▁rich	-10.3287
▁regrettable	-10.3292
▁convention	-10.3293
▁entered	-10.3296
▁article	-10.3299
▁imagine	-10.3308
▁supplementary	-10.3309
▁stock	-10.331
▁arise	-10.3315
▁modified	-10.3316
session	-10.3317
▁ECB	-10.333
▁competences	-10.3332
▁passenger	-10.3332
▁reflected	-10.3333
▁reliable	-10.3336
▁summer	-10.3342
▁dynamic	-10.3344
▁applicable	-10.3359
▁island	-10.336
▁thorough	-10.3363
▁healthy	-10.3364
▁incorporated	-10.3364
▁replace	-10.3364
▁protocol	-10.3365
▁regarded	-10.3369
▁violation	-10.3371
▁enhance	-10.3381
▁encouraged	-10.3382
▁communications	-10.3385
▁favourable	-10.3393
▁performance	-10.3395
▁doubts	-10.3407
▁Partnership	-10.3409
▁proud	-10.3413
▁unnecessary	-10.3414
▁Just	-10.3425
▁whereas	-10.3425
▁respects	-10.3431
▁applicant	-10.3432
▁biggest	-10.3436
▁break	-10.3437
▁size	-10.3445
▁constitutes	-10.3448
▁undertakings	-10.3466
related	-10.3467
▁Denmark	-10.347
▁declared	-10.3476
▁certainty	-10.3486
▁Polish	-10.351
▁smaller	-10.3523
▁hopes	-10.353
▁Parliamentary	-10.3532
▁succeeded	-10.3533
▁courts	-10.3538
▁...	-10.3547
▁negotiated	-10.356
▁removed	-10.3571
▁affecting	-10.3575
▁Authority	-10.3576
▁tests	-10.3591
▁reaching	-10.3597
▁launch	-10.3603
▁Are	-10.3609
▁fairly	-10.3635
▁firms	-10.3646
▁intervene	-10.3657
▁applications	-10.3667
▁religion	-10.3692
▁everybody	-10.3695
▁Tourism	-10.3695
▁intentions	-10.3697
▁schools	-10.3698
▁restore	-10.3708
▁reiterate	-10.3708
▁explanation	-10.3709
and	-10.371
▁Berlin	-10.3721
▁sake	-10.3725
▁Left	-10.3729
▁consequence	-10.3732
▁greenhouse	-10.3735
▁nationals	-10.3743
▁engage	-10.3744
▁excluded	-10.3746
▁obtained	-10.3749
▁afraid	-10.3752
▁Christian	-10.3755
▁reservations	-10.3756
ugoslavia	-10.3774
▁deserve	-10.3789
▁airlines	-10.3793
▁Maastricht	-10.3799
▁citizenship	-10.3804
▁utmost	-10.3809
▁aside	-10.3815
▁deeply	-10.3822
▁leader	-10.3826
▁sought	-10.3833
▁eastern	-10.3839
▁Joint	-10.3839
▁necessarily	-10.3856
▁Industry	-10.3867
▁wording	-10.3875
▁presenting	-10.3875
▁piece	-10.3879
▁Morocco	-10.3887
▁drafting	-10.389
▁south	-10.3893
▁retain	-10.3912
▁targeted	-10.3919
▁save	-10.3923
▁disabled	-10.3932
▁Burma	-10.3933
▁Before	-10.3949
▁weak	-10.3953
▁jointly	-10.3965
▁marketing	-10.3967
▁Citizens	-10.3989
▁prospect	-10.4017
▁eliminate	-10.4019
▁negotiate	-10.4023
▁treaties	-10.4049
▁Follow	-10.4049
EL	-10.4059
▁Slovakia	-10.406
▁mark	-10.4071
▁importantly	-10.4072
▁simplification	-10.4079
▁green	-10.4085
▁Culture	-10.4099
▁e	-10.4104
▁Association	-10.4112
▁raising	-10.4113
▁tonnes	-10.4121
▁eye	-10.4122
▁leaving	-10.4127
▁admit	-10.413
▁electoral	-10.4134
▁meaning	-10.4138
▁E	-10.4139
▁commit	-10.4144
▁surprised	-10.415
▁profit	-10.4159
▁repeatedly	-10.4174
▁examined	-10.4176
▁vast	-10.4185
▁credible	-10.4185
▁terrible	-10.4197
▁armed	-10.4212
▁import	-10.4238
▁eyes	-10.4253
▁outstanding	-10.4254
▁checks	-10.4267
▁justify	-10.427
▁representation	-10.4274
▁bureaucratic	-10.4278
▁suggestions	-10.4278
▁T	-10.4279
▁Albania	-10.4281
▁charge	-10.4282
▁combined	-10.4294
▁Rur	-10.4295
▁expressing	-10.4299
▁employers	-10.431
▁carbon	-10.4317
▁showing	-10.4322
▁creates	-10.4326
▁fleet	-10.4336
▁category	-10.4338
▁buildings	-10.435
▁complaints	-10.4358
▁incentives	-10.4366
▁pleasure	-10.4373
▁ordinary	-10.4374
▁acquis	-10.4413
▁reflects	-10.4414
▁healthcare	-10.4416
▁hit	-10.443
▁shortcomings	-10.4432
▁science	-10.4436
▁hardly	-10.4437
▁shape	-10.444
▁Over	-10.4443
▁subjects	-10.4443
▁candidates	-10.4447
▁exceptional	-10.4448
▁nearly	-10.446
▁revised	-10.4465
▁alcohol	-10.4466
out	-10.4466
▁fewer	-10.4475
▁Plan	-10.4484
▁settlement	-10.4485
▁bank	-10.4488
▁transactions	-10.4496
▁yes	-10.4497
▁prison	-10.4502
▁elderly	-10.4502
▁broader	-10.4503
▁picture	-10.4509
▁Civil	-10.453
▁relate	-10.4533
▁delays	-10.4535
▁deadline	-10.4535
▁expense	-10.454
▁turned	-10.4545
▁patent	-10.4552
wide	-10.4555
▁belief	-10.4565
▁bearing	-10.4571
▁below	-10.4574
lecommunications	-10.4574
▁widespread	-10.4576
▁foundations	-10.4577
▁allocation	-10.4581
▁aircraft	-10.4583
▁none	-10.4588
▁stance	-10.4589
▁underline	-10.459
RO	-10.4594
▁unemployed	-10.462
▁trend	-10.4623
▁ambition	-10.4634
▁Bureau	-10.4634
▁Well	-10.4639
▁drafted	-10.4644
▁kinds	-10.4656
▁larger	-10.4669
▁Macedonia	-10.4671
▁quota	-10.4682
▁bound	-10.4683
▁economically	-10.4687
▁honest	-10.4687
▁preparations	-10.4691
▁Arab	-10.4695
▁warmly	-10.4702
▁periods	-10.4708
▁resulted	-10.4708
▁repeated	-10.4725
▁postal	-10.4728
▁nonetheless	-10.4733
▁falls	-10.4736
▁biodiversity	-10.4746
▁undermine	-10.4747
▁educational	-10.4755
▁preserve	-10.476
▁boost	-10.4765
▁EC	-10.4778
▁welcomes	-10.4778
▁freely	-10.4779
▁liability	-10.4779
▁condemned	-10.478
st	-10.4785
▁reserve	-10.4786
▁penalties	-10.4791
▁transatlantic	-10.4791
▁Budget	-10.4793
▁cancer	-10.4793
▁satisfaction	-10.4812
▁explained	-10.4813
▁expensive	-10.4822
▁army	-10.483
▁digital	-10.4842
▁restricted	-10.4844
▁outset	-10.4855
▁inflation	-10.4859
▁tackling	-10.4861
▁door	-10.4867
▁secret	-10.4869
▁civilian	-10.4869
▁gradually	-10.4874
▁lasting	-10.4885
▁processing	-10.4886
▁invite	-10.489
▁twenty	-10.4893
▁widely	-10.4913
▁unity	-10.4921
▁fruit	-10.4925
▁trial	-10.4937
▁collaboration	-10.4944
▁became	-10.4946
▁abolition	-10.4946
▁unfortunate	-10.495
▁fresh	-10.4951
▁occurred	-10.4957
▁Clearly	-10.4957
▁night	-10.4957
▁multi	-10.496
▁lessons	-10.4971
▁recommend	-10.4972
▁turning	-10.4974
▁coordinate	-10.4985
▁Lithuania	-10.5002
▁covers	-10.5003
▁ethical	-10.5004
▁regulate	-10.5008
▁hence	-10.5009
▁racism	-10.5025
▁te	-10.5034
▁enhanced	-10.5044
▁English	-10.5049
▁stay	-10.5051
▁physical	-10.5055
▁losses	-10.5056
▁airports	-10.5064
▁receiving	-10.5074
▁basically	-10.5075
▁insufficient	-10.5076
▁PSE	-10.5077
▁uncertainty	-10.5081
▁causing	-10.5088
▁chain	-10.509
▁railway	-10.5091
▁amend	-10.5097
▁Palestinians	-10.51
▁city	-10.5105
▁Time	-10.5109
▁ignore	-10.511
▁pact	-10.5117
▁unanimous	-10.512
▁youth	-10.5123
▁indicate	-10.5123
▁students	-10.5125
▁Obviously	-10.5127
▁promises	-10.5128
▁Islamic	-10.513
▁regulated	-10.5166
▁financed	-10.5173
▁indicators	-10.5177
▁raw	-10.518
▁suggestion	-10.5183
▁warning	-10.5184
▁undertaking	-10.5184
▁noise	-10.5192
▁arrest	-10.5203
▁withdraw	-10.5209
▁Geneva	-10.5214
▁congratulations	-10.5214
▁listened	-10.5215
▁offering	-10.5233
▁engaged	-10.5234
▁EMU	-10.5235
▁undertake	-10.5239
▁ecological	-10.5241
▁declarations	-10.5244
▁began	-10.5247
▁red	-10.5254
▁fast	-10.5258
▁author	-10.5264
▁regardless	-10.5267
▁Gaza	-10.5274
▁associations	-10.5277
▁familiar	-10.5289
▁permit	-10.5291
▁forest	-10.5292
▁demonstrates	-10.5294
▁She	-10.5294
▁clean	-10.53
▁weight	-10.5301
▁buy	-10.5304
▁killed	-10.5313
▁minute	-10.5326
▁populations	-10.5328
▁generations	-10.5333
▁terrorists	-10.5333
▁War	-10.5337
▁extraordinary	-10.5341
▁journalists	-10.5342
▁prevented	-10.5343
▁sphere	-10.5345
▁strike	-10.5372
▁qualifications	-10.5375
▁belong	-10.5379
▁procurement	-10.5381
▁IGC	-10.5382
▁deaths	-10.5393
▁finances	-10.5407
▁marine	-10.5421
▁shares	-10.5424
▁section	-10.5428
▁lie	-10.5433
▁supplies	-10.5434
▁territories	-10.5434
▁Free	-10.5445
▁promoted	-10.5445
▁necessity	-10.5448
▁push	-10.5451
▁faith	-10.5469
our	-10.5477
▁presentation	-10.5481
▁count	-10.5484
▁minister	-10.5495
▁compatible	-10.5499
▁Nonetheless	-10.5509
▁arising	-10.551
▁tribute	-10.5521
▁reinforce	-10.5521
▁nobody	-10.553
▁looked	-10.5545
▁couple	-10.5548
▁talked	-10.5552
▁prefer	-10.5564
▁sending	-10.5567
▁struggle	-10.5569
I	-10.5573
▁contacts	-10.5576
▁revenue	-10.5577
▁drivers	-10.5586
▁radical	-10.5589
▁sovereign	-10.5592
▁accompanied	-10.5599
▁collection	-10.5605
▁sincerely	-10.5606
▁Americans	-10.5607
▁afford	-10.5609
▁promise	-10.561
▁Finnish	-10.562
%.	-10.5626
▁frequently	-10.5626
▁suspended	-10.5634
▁viable	-10.5634
▁dumping	-10.5636
▁informal	-10.5649
▁De	-10.5652
▁contract	-10.5653
▁blame	-10.5654
▁team	-10.5667
▁London	-10.5668
▁beneficial	-10.5668
▁Second	-10.5674
▁clarification	-10.5681
C	-10.5687
▁clearer	-10.569
▁pursued	-10.569
▁F	-10.569
▁slow	-10.5693
▁forum	-10.5709
▁northern	-10.571
ear	-10.5716
▁efficiently	-10.5726
▁battle	-10.5729
▁refuse	-10.5729
▁severe	-10.5729
▁moved	-10.5734
imbabwe	-10.5737
▁distinction	-10.5737
▁enlarged	-10.5738
▁grow	-10.575
▁parents	-10.575
▁Also	-10.5751
▁unique	-10.5757
▁congratulating	-10.5758
▁Labour	-10.5759
▁coherence	-10.5759
▁divided	-10.578
▁alongside	-10.5783
▁Centre	-10.5786
EEC	-10.5791
▁organise	-10.5792
▁transit	-10.5796
▁demographic	-10.5801
▁harmonised	-10.5803
▁conventions	-10.5813
▁judgment	-10.5815
▁observed	-10.5815
▁abstained	-10.583
▁torture	-10.5835
▁register	-10.5836
▁division	-10.5836
▁percentage	-10.5843
▁roads	-10.5855
▁rejection	-10.5876
▁Declaration	-10.5878
▁disappointed	-10.5878
▁strictly	-10.5894
▁occur	-10.5899
▁Soviet	-10.5911
▁observation	-10.5914
▁shortly	-10.5919
▁Service	-10.5921
▁exclusively	-10.5922
▁unanimity	-10.5929
▁accessible	-10.5929
▁apparent	-10.5949
▁Otherwise	-10.5949
level	-10.5957
▁approximately	-10.5967
▁Like	-10.5971
▁wage	-10.5993
▁Any	-10.5997
▁Their	-10.6003
▁consulted	-10.6008
▁Every	-10.6008
▁simplify	-10.6015
▁unions	-10.6019
▁choices	-10.6028
▁puts	-10.6041
▁parallel	-10.6043
▁troops	-10.6044
▁emerging	-10.6045
▁fourth	-10.6045
on	-10.6068
▁stations	-10.6072
▁defending	-10.6079
▁items	-10.6081
▁evident	-10.6083
▁alternatives	-10.6084
▁Chechnya	-10.6086
▁ruling	-10.6088
▁begun	-10.6088
▁Most	-10.6093
▁textile	-10.6096
▁forests	-10.6097
▁Rome	-10.6102
▁Canada	-10.6116
▁route	-10.6116
▁Malta	-10.6116
▁Atlantic	-10.6124
▁desirable	-10.613
▁directed	-10.6131
▁mere	-10.6142
Mediterranean	-10.6146
▁crops	-10.6153
▁vehicle	-10.6156
▁respecting	-10.6157
▁threatened	-10.616
▁Great	-10.6177
▁timely	-10.6178
▁surveillance	-10.6182
▁acceptance	-10.6193
▁compete	-10.6196
▁replaced	-10.6196
▁loans	-10.6205
▁Single	-10.6206
▁confusion	-10.6217
▁Moldova	-10.6219
▁tangible	-10.6225
▁campaigns	-10.6253
▁Petitions	-10.6255
▁Statute	-10.6256
EU	-10.6258
▁restrict	-10.627
▁perspectives	-10.6275
▁permitted	-10.6276
▁Defence	-10.6284
▁Egypt	-10.6285
▁connected	-10.6293
▁friend	-10.63
▁friendly	-10.6301
▁yourself	-10.6306
▁image	-10.6309
▁respective	-10.6315
▁reflection	-10.6315
▁chemical	-10.6318
▁defining	-10.6321
▁declare	-10.6322
▁mid	-10.6327
▁experiencing	-10.6328
▁genetically	-10.633
▁Act	-10.634
▁hoped	-10.6342
▁categories	-10.6344
▁Two	-10.6358
▁treat	-10.6365
▁Allow	-10.6366
▁Office	-10.6374
▁conservation	-10.6377
country	-10.6377
▁agrees	-10.638
▁usual	-10.6381
▁tradition	-10.6389
▁standing	-10.6391
outermost	-10.6395
▁Cohesion	-10.6396
▁impetus	-10.6403
▁lacking	-10.6416
▁react	-10.6419
▁threshold	-10.642
▁rising	-10.6426
▁Presidents	-10.6431
▁refused	-10.6433
▁sharing	-10.6451
▁traditions	-10.6461
▁Investment	-10.6465
▁banking	-10.6479
▁logical	-10.648
▁pursuan	-10.6486
▁disagree	-10.6487
▁characteristics	-10.6505
▁showed	-10.6525
▁consequently	-10.6531
▁imposing	-10.6539
▁farms	-10.6549
▁worthy	-10.6551
▁joined	-10.6552
▁procedural	-10.6553
▁Regarding	-10.6553
▁highlights	-10.6559
i	-10.6563
▁authorisation	-10.6565
▁signing	-10.6569
▁raises	-10.6573
▁controversial	-10.6576
▁Palestine	-10.6579
▁spring	-10.6594
▁forgotten	-10.6595
▁slightly	-10.6599
governmental	-10.6602
▁observe	-10.6616
▁mobile	-10.6634
▁contributing	-10.6652
▁housing	-10.6654
▁funded	-10.6654
▁assessments	-10.666
▁intensive	-10.6668
▁approaches	-10.6668
▁residence	-10.6668
▁north	-10.6671
▁victim	-10.6671
▁joining	-10.6683
▁Education	-10.6691
▁observers	-10.6693
▁whatsoever	-10.6699
▁missing	-10.6716
▁banned	-10.6722
▁blood	-10.6723
▁integrity	-10.6729
▁estimated	-10.6738
▁socio	-10.6739
▁dramatic	-10.6746
▁chapter	-10.6749
▁interim	-10.6753
▁subsequently	-10.6753
▁destroyed	-10.6754
▁liberal	-10.6754
▁solid	-10.6756
▁representing	-10.6768
▁freight	-10.6773
▁railways	-10.678
▁ambitions	-10.6782
▁protest	-10.6787
▁OLAF	-10.6788
▁pro	-10.6789
quality	-10.6791
▁reconciliation	-10.6799
▁systematic	-10.68
▁justification	-10.6804
▁organizations	-10.6805
▁accordingly	-10.6811
▁reported	-10.6813
▁migrants	-10.6821
▁preliminary	-10.6823
▁preventive	-10.6823
▁valid	-10.6829
▁controlled	-10.6842
▁harm	-10.685
▁comparison	-10.685
▁equivalent	-10.685
▁integrate	-10.6854
▁underlying	-10.6862
▁Information	-10.6863
▁envisaged	-10.687
▁notably	-10.6874
▁error	-10.6882
▁subsequent	-10.6892
▁helpful	-10.6893
▁net	-10.6897
▁keen	-10.6899
▁managing	-10.6901
▁occupation	-10.6904
▁regularly	-10.691
▁participating	-10.691
▁surrounding	-10.6914
▁plays	-10.6914
▁motions	-10.6926
▁scrutiny	-10.6932
▁Tunisia	-10.6935
▁emission	-10.6949
▁restrictive	-10.695
▁Brazil	-10.6954
▁universities	-10.6956
▁sales	-10.6963
▁achievements	-10.6964
▁fire	-10.6972
▁coastal	-10.6973
▁covering	-10.6982
▁ill	-10.7001
▁appointment	-10.7001
▁Please	-10.7005
▁advocate	-10.7008
▁advanced	-10.7015
▁incorporate	-10.7019
▁resource	-10.7025
▁resistance	-10.7029
▁woman	-10.7029
▁imported	-10.703
▁Sudan	-10.7059
re	-10.7064
▁gained	-10.7078
▁Patten	-10.7083
▁Dublin	-10.7084
▁founded	-10.709
▁Solana	-10.7091
▁inhabitants	-10.7094
▁losing	-10.7107
▁track	-10.7118
▁thousand	-10.7121
▁Monday	-10.7123
▁exceptions	-10.7127
▁failing	-10.7128
▁mandatory	-10.7149
▁sentence	-10.7153
▁conviction	-10.7153
▁eventually	-10.7156
▁disputes	-10.7164
▁chemicals	-10.717
▁Doha	-10.7174
▁judge	-10.7178
▁examination	-10.7185
▁statute	-10.7186
▁Lebanon	-10.7189
▁solved	-10.7189
▁infringement	-10.7202
▁infrastructures	-10.7205
▁fixed	-10.7205
▁notice	-10.721
▁flows	-10.7226
▁win	-10.7239
▁mistakes	-10.7247
▁drive	-10.725
▁convince	-10.7252
▁cultures	-10.7253
▁gross	-10.7254
▁exchanges	-10.7266
▁safeguarding	-10.7283
▁Services	-10.7286
▁liked	-10.7286
▁movements	-10.7286
▁Solidarity	-10.7287
▁Objective	-10.7292
▁Ms	-10.7296
▁ignored	-10.7302
▁ratify	-10.7304
▁providers	-10.7307
▁consent	-10.7309
▁Iraqi	-10.7309
▁precautionary	-10.7311
▁neighbourhood	-10.7325
▁Could	-10.7326
▁suggests	-10.7332
▁Communist	-10.7338
▁inside	-10.7339
▁length	-10.734
▁nine	-10.7347
▁marked	-10.7353
▁dead	-10.736
▁fears	-10.7368
▁monitored	-10.7371
▁jurisdiction	-10.7373
▁stages	-10.7376
▁fires	-10.7378
▁Similarly	-10.7384
▁hundred	-10.7392
▁regimes	-10.7409
▁confident	-10.7421
▁soil	-10.7421
▁fails	-10.7426
▁rely	-10.7431
▁foundation	-10.7433
▁pursuing	-10.7433
reaching	-10.7437
▁consistency	-10.7442
▁accountability	-10.7442
▁withdrawal	-10.745
▁furthermore	-10.7451
▁signs	-10.7454
▁house	-10.7462
▁accepting	-10.7469
▁tolerance	-10.7469
▁abroad	-10.7485
▁experiences	-10.7485
▁acknowledged	-10.7493
▁looks	-10.7506
▁reductions	-10.7507
▁older	-10.751
▁Friday	-10.7516
▁consolidation	-10.7517
▁opt	-10.7521
▁Chairman	-10.7523
▁sympathy	-10.7533
debate	-10.7551
▁president	-10.7552
▁listening	-10.7552
▁resolving	-10.7567
HU	-10.757
▁containing	-10.7571
▁offices	-10.758
▁criterion	-10.7584
▁concentration	-10.7586
▁anniversary	-10.7586
▁Syria	-10.759
▁breach	-10.7593
▁investigations	-10.7601
▁albeit	-10.7602
▁sight	-10.7607
▁Criminal	-10.7608
▁Libya	-10.7611
outh	-10.7611
▁expansion	-10.7617
▁stringent	-10.7625
▁block	-10.7634
▁stakeholders	-10.7646
▁abuses	-10.7651
▁investors	-10.7653
▁refugee	-10.7661
▁visited	-10.7663
▁meantime	-10.767
▁arrive	-10.7674
▁dangers	-10.7675
▁expertise	-10.7677
▁backing	-10.7679
▁wages	-10.7685
▁fuels	-10.7687
):	-10.7711
▁dictatorship	-10.7711
▁pretext	-10.7719
▁assets	-10.7719
▁perfect	-10.7722
▁violent	-10.7723
▁denied	-10.7728
▁released	-10.7737
▁invited	-10.7738
▁functions	-10.7747
▁usually	-10.7754
▁prime	-10.776
▁immunity	-10.7762
▁recognises	-10.7769
▁compromises	-10.7774
▁actors	-10.7779
▁fifteen	-10.7787
▁gradual	-10.7787
▁Ashton	-10.7788
▁organic	-10.7792
▁commend	-10.7806
▁entering	-10.7806
▁learned	-10.7809
▁visible	-10.7814
▁August	-10.7814
▁criminals	-10.7821
▁variety	-10.7822
▁autonomy	-10.7823
▁hour	-10.7825
▁popular	-10.7827
▁executive	-10.7832
▁humanity	-10.7833
▁employed	-10.7834
▁Brok	-10.784
▁modernisation	-10.785
▁decline	-10.7856
▁resumed	-10.7866
▁female	-10.7867
▁contrast	-10.7873
▁Liberals	-10.7874
▁Hence	-10.7891
▁ceiling	-10.7892
▁incentive	-10.7893
▁except	-10.79
▁tonight	-10.7907
▁Slovenia	-10.7908
▁decent	-10.7916
▁Millennium	-10.7918
▁models	-10.7919
▁Democratic	-10.7921
▁warm	-10.7924
▁Reform	-10.7932
▁ideal	-10.7935
▁names	-10.7942
erheugen	-10.7944
▁endeavour	-10.7946
▁badly	-10.7955
▁inquiry	-10.7961
▁delegations	-10.7962
▁virtually	-10.797
▁supervisory	-10.797
▁hopefully	-10.7979
▁Who	-10.798
▁voters	-10.7983
▁Scotland	-10.7987
▁distributed	-10.7997
▁Other	-10.8007
▁visas	-10.8011
▁maintenance	-10.8014
yes	-10.8015
▁falling	-10.8018
▁cutting	-10.802
▁outlined	-10.8023
▁registration	-10.8025
▁ALDE	-10.8033
▁examining	-10.8036
▁scientists	-10.8036
▁Above	-10.804
▁substantially	-10.8043
▁appointed	-10.8054
▁Naturally	-10.8058
▁accounting	-10.8065
▁observations	-10.8066
▁features	-10.8078
▁absurd	-10.8083
▁closure	-10.8086
▁GMOs	-10.8092
discrimination	-10.8092
▁acted	-10.8098
▁sad	-10.811
▁renewed	-10.8112
▁fit	-10.8114
▁pilot	-10.8123
▁motor	-10.8123
▁died	-10.8129
▁black	-10.8143
▁indication	-10.8148
▁proven	-10.8149
▁fate	-10.8151
▁apparently	-10.8156
▁endorsed	-10.8157
▁catch	-10.8158
▁shipping	-10.8164
▁completion	-10.8165
▁programming	-10.8165
▁sincere	-10.8168
▁finish	-10.8174
▁paragraphs	-10.8185
▁avoided	-10.819
▁argue	-10.8192
▁fifth	-10.8197
▁notes	-10.8217
▁dossier	-10.822
))	-10.822
▁coal	-10.8221
▁search	-10.8228
▁consistently	-10.8229
▁adequately	-10.8229
▁sums	-10.8235
▁safeguards	-10.8237
▁detention	-10.8238
▁disastrous	-10.8244
▁flow	-10.8245
▁ageing	-10.8248
▁initially	-10.8256
▁evaluate	-10.827
▁democratically	-10.8273
▁tough	-10.828
▁clauses	-10.8281
▁consultations	-10.8282
▁destroy	-10.8285
▁unilateral	-10.8288
▁essence	-10.829
▁everywhere	-10.829
▁minor	-10.8302
▁Fischler	-10.8308
▁exclusive	-10.8308
▁devoted	-10.8309
▁Decision	-10.831
▁borne	-10.8314
▁excuse	-10.8319
▁die	-10.832
▁productivity	-10.8336
▁Would	-10.8345
▁partnerships	-10.8349
▁OSCE	-10.8357
▁cope	-10.8362
▁focusing	-10.8364
▁imperative	-10.8365
▁explicitly	-10.8372
▁privacy	-10.8381
▁leaves	-10.8381
▁host	-10.8385
▁shift	-10.8386
▁deny	-10.8403
▁arrived	-10.841
▁sites	-10.8415
vote	-10.8418
▁struck	-10.8426
▁fought	-10.8428
▁birth	-10.8438
▁testing	-10.8441
day	-10.8446
▁Bush	-10.8446
▁J	-10.8448
▁game	-10.8449
one	-10.8449
▁inspection	-10.8457
▁attend	-10.8458
▁reserves	-10.846
▁tackled	-10.8465
time	-10.8469
▁sub	-10.8491
▁Helsinki	-10.8491
▁irregularities	-10.85
▁System	-10.8512
▁murder	-10.8513
▁L	-10.8519
▁damaging	-10.8528
▁repression	-10.8537
▁emerged	-10.8538
▁Iranian	-10.856
▁reporting	-10.8566
▁answered	-10.8568
▁volume	-10.8569
▁sit	-10.8579
▁assurance	-10.8589
▁personnel	-10.8589
▁accused	-10.8593
▁desired	-10.8596
▁productive	-10.8598
▁seekers	-10.8608
▁fulfilled	-10.8611
▁card	-10.8621
▁corresponding	-10.8622
D	-10.8628
▁Switzerland	-10.8631
▁recommended	-10.8632
te	-10.8641
▁rigorous	-10.8647
▁autumn	-10.8648
▁enables	-10.8654
▁democratisation	-10.8658
▁Estonia	-10.8676
▁Tibet	-10.8676
▁enshrined	-10.8676
▁Whilst	-10.8676
▁Tampere	-10.8686
▁heads	-10.8686
▁deficits	-10.869
▁soldiers	-10.8691
▁meets	-10.8698
▁consolidate	-10.8698
▁flights	-10.87
▁cheap	-10.8702
▁continuation	-10.8702
▁ship	-10.8706
▁ensured	-10.8713
▁delivered	-10.8717
▁Santer	-10.8724
▁exemption	-10.8728
▁investigate	-10.8736
▁collapse	-10.8736
▁hazardous	-10.8742
▁sections	-10.8746
▁progressive	-10.8751
▁pace	-10.8757
▁straight	-10.8767
▁train	-10.8797
▁story	-10.8799
▁touch	-10.881
▁linguistic	-10.8819
friendly	-10.8825
▁notion	-10.8828
▁fundamentally	-10.883
▁laying	-10.8834
▁sole	-10.8844
▁surprise	-10.8851
▁airport	-10.8852
▁farm	-10.8867
▁storage	-10.8876
▁MEP	-10.8881
▁socially	-10.8881
▁enabled	-10.8889
▁openly	-10.8894
▁producer	-10.8904
▁helps	-10.8904
▁repercussions	-10.8904
▁simplified	-10.8906
▁sold	-10.891
or	-10.8915
▁removal	-10.8928
▁EIB	-10.8931
▁Wednesday	-10.8934
▁initiated	-10.8934
▁wherever	-10.8944
▁inspections	-10.8949
▁Stockholm	-10.8953
▁Everyone	-10.8954
▁attached	-10.8955
▁detriment	-10.8956
▁Special	-10.8962
▁Schulz	-10.8962
▁internationally	-10.8966
▁monopoly	-10.8975
▁ownership	-10.8975
▁inevitably	-10.8981
▁homes	-10.8986
▁component	-10.8997
▁handling	-10.9
▁inequalities	-10.9001
initiative	-10.901
▁Institute	-10.901
▁researchers	-10.9014
▁adapted	-10.9025
▁participants	-10.9025
▁sale	-10.9031
▁accurate	-10.9039
▁twice	-10.904
▁multiannual	-10.9049
▁forestry	-10.905
▁sell	-10.9051
▁lists	-10.9052
▁ended	-10.9054
▁logic	-10.9058
▁transferred	-10.906
▁disadvantaged	-10.906
▁statistical	-10.9069
▁originally	-10.9072
▁title	-10.9085
▁exposed	-10.9089
est	-10.909
▁innocent	-10.9093
▁false	-10.9096
▁Algeria	-10.9097
▁sex	-10.9101
▁feature	-10.9104
▁constituency	-10.9108
▁dependence	-10.911
▁attractive	-10.9118
▁presidential	-10.9118
▁pressing	-10.9133
▁exploit	-10.9136
▁object	-10.9136
▁findings	-10.9138
▁islands	-10.9139
▁donors	-10.9154
▁foodstuffs	-10.9154
▁western	-10.9165
▁football	-10.9167
▁potentially	-10.9173
▁Fourthly	-10.9177
▁middle	-10.9177
▁preparatory	-10.9177
▁practically	-10.9191
▁discipline	-10.9196
ienna	-10.9196
▁constraints	-10.9202
▁Latvia	-10.9206
▁posts	-10.9206
▁recycling	-10.9207
▁errors	-10.9211
▁Liberties	-10.9216
▁stricter	-10.9217
▁travelling	-10.9227
▁obstacle	-10.9233
▁principal	-10.9236
▁systematically	-10.9236
▁automatically	-10.9246
▁irrespective	-10.9256
▁harmonise	-10.9262
▁wished	-10.9267
▁responses	-10.9267
▁characterised	-10.9276
▁fallen	-10.928
▁routes	-10.9285
▁concessions	-10.9288
▁adverse	-10.9296
▁Galileo	-10.9297
▁assured	-10.9299
▁floods	-10.9309
of	-10.9312
▁Federal	-10.9315
▁Globalisation	-10.9316
▁foot	-10.9325
▁Kurdish	-10.9328
▁Timor	-10.9346
▁distance	-10.9354
▁won	-10.9359
▁euros	-10.936
▁planet	-10.9363
▁enterprise	-10.9365
▁horizontal	-10.9367
▁wholeheartedly	-10.9376
▁comparable	-10.9376
▁demanded	-10.9378
▁retirement	-10.9378
▁intelligent	-10.9381
▁serves	-10.939
▁assessing	-10.9393
▁deciding	-10.9406
▁embargo	-10.9412
▁character	-10.9415
▁vocational	-10.9417
▁USD	-10.9417
▁lifelong	-10.942
▁facility	-10.9426
placing	-10.9427
▁stating	-10.9428
▁broadly	-10.944
▁Congo	-10.9447
▁expert	-10.9455
c	-10.9456
▁class	-10.9466
▁adjustment	-10.9466
▁complied	-10.9467
▁guilty	-10.9468
▁disabilities	-10.9477
COD	-10.9477
▁GUE	-10.9481
depth	-10.9482
▁transposition	-10.9489
▁generate	-10.9495
▁silence	-10.9508
▁banana	-10.9508
▁stick	-10.9516
▁saving	-10.9521
▁blind	-10.9531
▁recorded	-10.9532
▁grants	-10.9542
▁civilians	-10.9545
▁worried	-10.9559
▁closing	-10.9559
▁Saddam	-10.957
▁assessed	-10.9584
▁objections	-10.9588
▁Hamas	-10.959
▁wake	-10.959
▁tape	-10.959
▁abandon	-10.9593
▁label	-10.9597
▁unit	-10.9597
▁appalling	-10.9599
▁inappropriate	-10.96
▁criticisms	-10.9603
NGL	-10.961
▁coordinating	-10.961
▁relief	-10.9611
▁telling	-10.9614
CS	-10.9619
▁survival	-10.962
▁stopped	-10.962
▁appreciation	-10.9621
▁reinforced	-10.9622
▁references	-10.9632
▁presents	-10.9633
▁scheduled	-10.9643
▁pillars	-10.9645
▁minds	-10.9652
▁criticised	-10.9653
▁bases	-10.9662
▁Federation	-10.9662
▁indirect	-10.9667
▁interference	-10.9668
▁cent	-10.967
▁decade	-10.9671
▁pharmaceutical	-10.9671
▁camps	-10.9683
▁thoroughly	-10.9684
▁grave	-10.9686
▁refusal	-10.9691
▁comitology	-10.9705
▁channels	-10.9707
▁remained	-10.9708
▁composition	-10.9714
▁Annex	-10.9716
by	-10.9718
employed	-10.9721
▁design	-10.9721
▁onto	-10.9734
▁delicate	-10.9734
▁Mexico	-10.9741
▁articles	-10.9743
▁subjected	-10.9743
▁hunger	-10.9745
▁Third	-10.9746
▁marks	-10.9747
▁incidents	-10.9754
▁formally	-10.9759
▁draftsman	-10.9766
▁arrangement	-10.9776
ALE	-10.9777
▁adaptation	-10.9787
▁protectionism	-10.979
▁punishment	-10.9797
▁lesson	-10.98
▁deadlines	-10.9807
medicinal	-10.9809
▁Romanian	-10.9812
▁transfers	-10.9815
▁zero	-10.9816
▁exclude	-10.9817
▁returned	-10.9817
▁satellite	-10.9818
▁era	-10.9825
▁Day	-10.983
▁missions	-10.9835
▁persecution	-10.9839
▁attach	-10.9842
▁race	-10.9843
▁stimulate	-10.9849
▁conscience	-10.9849
▁pays	-10.9852
▁contradiction	-10.986
▁Should	-10.9861
▁town	-10.9867
▁federal	-10.9868
▁ideological	-10.9871
▁atmosphere	-10.988
▁towns	-10.9888
▁audiovisual	-10.9893
▁victory	-10.9893
▁un	-10.9897
▁seat	-10.9899
SK	-10.9919
▁rating	-10.9919
▁passing	-10.9938
▁withdrawn	-10.9938
▁thirdly	-10.9938
▁authorised	-10.9939
▁topics	-10.9943
▁AIDS	-10.9947
▁Black	-10.9948
▁reminded	-10.9956
▁reviewed	-10.9959
▁biofuels	-10.9963
▁speculation	-10.9966
▁remarkable	-10.9977
▁estimates	-10.9999
▁Baroness	-11.0009
▁realised	-11.0012
▁His	-11.0017
▁persuade	-11.002
▁generous	-11.002
▁smoking	-11.0021
▁clarified	-11.0031
▁differ	-11.0034
▁addresses	-11.0035
▁moratorium	-11.0042
▁tuna	-11.0042
▁empty	-11.0046
▁arises	-11.005
▁remark	-11.0052
▁sports	-11.0052
▁beneficiaries	-11.0052
▁Indonesia	-11.0053
▁quick	-11.0055
▁alarming	-11.0065
▁avoiding	-11.0069
▁uses	-11.0084
▁obtaining	-11.0105
▁mother	-11.0109
▁analyse	-11.0117
▁Congress	-11.0117
▁unprecedented	-11.0118
▁mine	-11.0119
▁divide	-11.012
▁gases	-11.0125
▁differently	-11.0126
▁cease	-11.0139
▁Montenegro	-11.0143
▁Christians	-11.0145
▁fashion	-11.0149
▁Kong	-11.015
erts	-11.0152
▁Kinnock	-11.0161
▁served	-11.0187
▁root	-11.0191
▁incident	-11.0194
▁arrested	-11.0197
▁livestock	-11.0205
▁macro	-11.0207
▁bottom	-11.0208
▁terror	-11.0209
▁contributes	-11.0216
▁genocide	-11.0217
▁corporate	-11.0218
▁cycle	-11.0222
▁born	-11.0231
▁anywhere	-11.0238
▁demonstration	-11.0238
▁topical	-11.0241
▁consists	-11.0247
▁Code	-11.0249
▁translation	-11.025
▁whenever	-11.0271
▁trends	-11.0274
▁Asian	-11.0278
▁lowest	-11.0283
▁instability	-11.0289
▁governed	-11.0295
▁everyday	-11.0296
▁ultimate	-11.0297
▁indicates	-11.0298
▁incomes	-11.0301
▁heavily	-11.0304
▁remit	-11.0309
▁indispensable	-11.0315
▁revolution	-11.0318
▁den	-11.0324
▁micro	-11.0326
▁praise	-11.0327
▁stresses	-11.0332
▁quantity	-11.0337
▁monopolies	-11.0337
▁prerequisite	-11.0338
von	-11.0356
▁registered	-11.0367
▁witnessed	-11.0371
▁enjoyed	-11.0374
▁CFSP	-11.0379
FI	-11.0381
▁reverse	-11.0381
▁emphasises	-11.039
▁integral	-11.0403
▁Democrat	-11.0403
▁investing	-11.0409
▁diverse	-11.0414
▁abolished	-11.0416
▁adding	-11.0422
▁definitive	-11.0426
▁democracies	-11.0426
▁foster	-11.0431
off	-11.0431
▁footing	-11.0432
▁publicly	-11.0436
▁xenophobia	-11.0437
▁pesticides	-11.0437
▁enthusiasm	-11.0438
▁sustained	-11.0438
▁describe	-11.0438
▁solving	-11.0442
▁unlike	-11.0448
▁cells	-11.0454
▁assembly	-11.0459
▁criticise	-11.0461
▁devote	-11.0463
▁Through	-11.047
▁disparities	-11.047
▁facilitating	-11.047
▁removing	-11.047
▁Madrid	-11.0471
▁normally	-11.0473
▁abolish	-11.0476
▁cast	-11.0477
▁stem	-11.0484
▁genetic	-11.0485
▁responding	-11.0491
▁wonderful	-11.0492
▁Hague	-11.0494
▁wise	-11.0497
▁doors	-11.0502
▁recognising	-11.0516
▁patient	-11.0519
▁attempting	-11.0521
▁book	-11.0521
▁inevitable	-11.0527
▁strikes	-11.053
▁pointing	-11.0534
▁expenses	-11.0537
▁offences	-11.0539
▁believed	-11.0549
▁cattle	-11.0549
▁creative	-11.055
▁concepts	-11.0556
▁uphold	-11.0558
▁Resolution	-11.0563
▁steel	-11.0572
▁posed	-11.0574
▁combination	-11.0575
▁satisfy	-11.0577
▁licences	-11.0581
▁interventions	-11.0582
▁remote	-11.0582
CNS	-11.0583
▁earmarked	-11.0584
▁Apart	-11.0592
▁patents	-11.0594
▁irresponsible	-11.0595
▁isolated	-11.0608
▁dual	-11.0608
▁precedent	-11.0609
▁donor	-11.0611
▁strive	-11.0619
▁availability	-11.062
▁Monti	-11.0629
▁orientation	-11.0634
isation	-11.0634
▁Milosevic	-11.0641
▁Blair	-11.0641
▁civilisation	-11.0645
▁illegally	-11.0647
▁profound	-11.0651
▁frankly	-11.0652
▁Democracy	-11.0654
▁poorer	-11.0665
▁map	-11.0668
▁dream	-11.0671
▁modest	-11.0673
▁organization	-11.0683
▁affair	-11.069
▁caught	-11.0698
▁condemnation	-11.0701
▁relative	-11.0717
▁aspirations	-11.0732
▁isolation	-11.0734
▁workforce	-11.0736
▁inequality	-11.0752
▁licence	-11.0759
▁audit	-11.0763
▁philosophy	-11.0767
▁Freedoms	-11.0781
▁advances	-11.08
▁explanations	-11.0807
▁enforce	-11.0815
▁workplace	-11.0817
▁appeared	-11.082
▁rational	-11.082
wing	-11.0827
▁Neighbourhood	-11.0837
▁emerge	-11.0841
▁Caucasus	-11.0848
as	-11.0849
▁claimed	-11.0852
▁warrant	-11.0861
▁relationships	-11.0869
▁mental	-11.0871
▁postponed	-11.0872
disproportionate	-11.0883
▁Until	-11.0895
▁securing	-11.0895
▁gratitude	-11.0895
▁wars	-11.09
misunderstanding	-11.0903
▁vague	-11.0905
▁interpreted	-11.0908
▁manufacturing	-11.0908
▁tariff	-11.0915
▁limiting	-11.0916
▁Conciliation	-11.0918
▁maybe	-11.092
▁disadvantage	-11.0922
▁emphasize	-11.0923
▁tremendous	-11.0929
▁energies	-11.093
▁requiring	-11.093
▁multinational	-11.0936
▁expressly	-11.0938
b	-11.0939
▁radio	-11.0944
▁concluding	-11.0954
▁rare	-11.0964
▁resort	-11.0969
▁Each	-11.0978
▁survive	-11.098
▁indirectly	-11.0981
▁location	-11.0984
ork	-11.0993
▁fault	-11.0996
▁multinationals	-11.0996
▁moves	-11.1004
▁drop	-11.1006
▁messages	-11.1008
▁exert	-11.1009
▁occupied	-11.1017
uite	-11.1022
▁neighbour	-11.104
▁handled	-11.105
▁Neither	-11.1061
▁displaced	-11.1061
▁preference	-11.1065
▁roll	-11.107
▁shame	-11.107
▁Nigeria	-11.1072
▁radioactive	-11.1072
▁weaknesses	-11.1073
ic	-11.1081
▁quantities	-11.1084
▁dedicated	-11.1084
▁pragmatic	-11.1085
▁confirms	-11.1086
▁computer	-11.1089
▁warming	-11.1093
ong	-11.1094
LT	-11.1096
▁encouragement	-11.1096
▁privatisation	-11.1102
▁Prize	-11.1108
▁preferred	-11.1108
▁Taiwan	-11.1109
▁focuses	-11.1112
▁threatening	-11.1122
▁input	-11.1122
▁Olympic	-11.1125
esterday	-11.1132
▁Nordic	-11.1139
▁Guinea	-11.1142
▁fleets	-11.1144
ranging	-11.1149
▁burdens	-11.1151
▁pipeline	-11.1161
▁transnational	-11.1166
▁Bar	-11.117
▁complaint	-11.1174
▁delayed	-11.1175
▁publication	-11.1177
▁Or	-11.1179
▁enforced	-11.1181
▁bananas	-11.1182
▁flight	-11.1191
▁aiming	-11.1191
▁Paris	-11.1194
▁Peace	-11.1195
▁exploited	-11.1198
▁explicit	-11.1203
▁depth	-11.1204
▁broken	-11.1204
▁feasible	-11.1204
▁sectoral	-11.1206
▁generated	-11.1212
▁perform	-11.1214
▁banning	-11.1216
▁Eurostat	-11.1218
▁m	-11.1223
▁roots	-11.123
▁Frontex	-11.1231
▁signals	-11.1234
▁problematic	-11.1236
▁dairy	-11.124
▁Against	-11.1241
▁Paragraph	-11.1242
▁positively	-11.1243
▁combine	-11.1246
▁abandoned	-11.1267
▁initiate	-11.1271
▁remedy	-11.1271
▁secondary	-11.1279
▁Hussein	-11.1289
▁elimination	-11.129
▁drinking	-11.1305
▁player	-11.1311
▁intelligence	-11.1314
▁safer	-11.1315
▁Thanks	-11.1317
▁scandal	-11.132
▁overwhelming	-11.1325
▁pity	-11.1326
▁foods	-11.133
▁pose	-11.1331
▁symbolic	-11.1338
ness	-11.1353
▁recognize	-11.1368
▁recital	-11.1372
▁violated	-11.1375
▁complexity	-11.1388
▁faster	-11.1389
▁wind	-11.1389
▁abortion	-11.1396
▁determining	-11.14
▁promotes	-11.1403
▁doctors	-11.141
▁mines	-11.1414
accession	-11.1415
▁driven	-11.1417
▁merit	-11.1418
▁invested	-11.1429
▁suspension	-11.143
▁feels	-11.1433
▁Rather	-11.1436
▁faces	-11.1437
▁recession	-11.1437
▁Goals	-11.144
▁broadcasting	-11.1452
▁disappointment	-11.1455
▁judiciary	-11.1461
▁Certainly	-11.1474
▁strange	-11.1485
▁conjunction	-11.1486
▁identification	-11.1487
▁IMF	-11.1496
▁specified	-11.1499
▁units	-11.15
▁Ecofin	-11.1501
▁HI	-11.1505
▁Frattini	-11.1511
▁understandable	-11.1512
▁OECD	-11.1518
▁pensioners	-11.1518
▁controlling	-11.1524
▁gets	-11.1528
▁expand	-11.1535
▁agents	-11.1537
▁biological	-11.1539
▁runs	-11.1546
▁hide	-11.155
▁backed	-11.1557
▁adjustments	-11.1563
)).	-11.1571
▁regulating	-11.1571
▁concentrated	-11.1576
▁selection	-11.1579
▁communicate	-11.1579
▁simplifying	-11.1584
▁dioxide	-11.1587
▁announcement	-11.1595
▁telephone	-11.1599
▁sadly	-11.16
▁Chancellor	-11.16
▁await	-11.1602
▁Perspective	-11.1606
▁Law	-11.1607
▁implies	-11.1611
▁tend	-11.1614
▁administrations	-11.1614
▁coast	-11.1617
▁derogation	-11.1619
▁shortage	-11.1619
▁ends	-11.1623
▁pluralism	-11.1624
▁integrating	-11.1625
▁Beijing	-11.1626
▁Barnier	-11.1636
▁Laeken	-11.1637
▁Relations	-11.1662
▁suppliers	-11.1666
▁fragile	-11.1675
▁preservation	-11.1676
▁margin	-11.1681
▁urged	-11.1691
▁flag	-11.1697
▁brutal	-11.1711
▁Colombia	-11.1712
▁Anyone	-11.1713
▁transmission	-11.172
▁convey	-11.1723
▁separation	-11.1725
▁complement	-11.1726
▁eligible	-11.1727
▁organized	-11.1727
▁Balkan	-11.1731
▁surplus	-11.1738
▁harmonization	-11.1739
▁ties	-11.1743
▁establishes	-11.1744
▁postpone	-11.175
▁belonging	-11.1756
▁minors	-11.176
▁rejecting	-11.1764
▁deliberately	-11.1764
▁prevail	-11.1764
▁Darfur	-11.1764
▁acquired	-11.1767
▁renewal	-11.1768
▁imbalances	-11.1771
▁demonstrations	-11.1775
▁zones	-11.1778
▁narrow	-11.1794
▁reproductive	-11.1794
▁lend	-11.1795
▁split	-11.1797
▁College	-11.1802
▁spectrum	-11.1802
▁copyright	-11.1811
▁analyses	-11.1814
▁unified	-11.1815
▁holds	-11.1823
▁invitation	-11.1824
▁professionals	-11.1827
▁deregulation	-11.1828
▁medicine	-11.1837
▁Serbian	-11.1839
▁continuous	-11.1839
▁seats	-11.1841
▁consolidated	-11.1842
▁abstain	-11.1846
▁stabilisation	-11.1855
▁halt	-11.1861
▁match	-11.1873
▁Palacio	-11.1879
▁Among	-11.1879
▁rid	-11.1879
▁university	-11.1881
▁east	-11.1885
▁defended	-11.1886
▁swift	-11.1891
▁intolerable	-11.1893
▁enhancing	-11.1898
▁judges	-11.1909
▁encourages	-11.1915
▁substantive	-11.1917
▁threaten	-11.192
▁components	-11.1923
▁platform	-11.1928
▁quarter	-11.1928
▁Swoboda	-11.1931
▁formulated	-11.1933
▁unsatisfactory	-11.1944
▁traceability	-11.1944
▁sees	-11.1945
▁arisen	-11.1946
▁bill	-11.1949
▁seas	-11.1953
▁Slovak	-11.1954
▁reconcile	-11.1956
▁fulfilling	-11.196
▁Muslim	-11.1965
▁Regions	-11.1974
determination	-11.1979
▁Afghan	-11.1981
▁owners	-11.1982
▁tabling	-11.1987
▁wishing	-11.199
▁grown	-11.1994
▁girls	-11.2005
▁tension	-11.2007
▁teachers	-11.2009
ietnam	-11.2009
▁Adjustment	-11.2009
▁located	-11.2009
▁derogations	-11.2014
▁accepts	-11.2032
▁eliminating	-11.2035
▁packaging	-11.2037
▁ending	-11.2038
▁detrimental	-11.2043
▁famous	-11.205
▁officially	-11.2052
▁entrepreneurs	-11.2054
▁symbol	-11.2058
▁Board	-11.2062
▁prostitution	-11.2062
▁hoping	-11.2062
▁reassure	-11.2074
▁circulation	-11.2075
▁existed	-11.2085
▁Articles	-11.2086
▁definite	-11.2087
▁Haiti	-11.2088
▁cloning	-11.2088
▁Process	-11.2095
▁exemptions	-11.2095
▁trouble	-11.2097
▁demonstrating	-11.2101
▁undermining	-11.2102
▁momentum	-11.2102
▁dates	-11.2102
▁deprived	-11.2102
▁witness	-11.2108
▁explanatory	-11.2118
▁Islands	-11.2118
▁bears	-11.212
▁journey	-11.2125
▁earthquake	-11.2126
▁entails	-11.2127
▁diplomacy	-11.2128
▁salaries	-11.2128
▁Freedom	-11.2128
▁seemed	-11.2136
▁cofinancing	-11.2154
▁macroeconomic	-11.2155
▁escape	-11.2164
▁twelve	-11.2168
▁fishery	-11.2169
▁Arctic	-11.217
▁accountable	-11.217
▁advocates	-11.2173
▁responded	-11.2178
▁electorate	-11.2178
▁revealed	-11.2182
▁execution	-11.2182
▁residents	-11.2183
parliamentarians	-11.2184
▁indications	-11.2191
▁reforming	-11.2194
▁Communities	-11.2194
▁worthwhile	-11.2194
▁swiftly	-11.2195
▁listed	-11.2198
▁customers	-11.2199
▁approving	-11.2207
▁biotechnology	-11.2207
▁refusing	-11.2207
▁sensitivity	-11.2209
▁attended	-11.221
▁ensures	-11.2212
▁Washington	-11.2221
▁inspectors	-11.2224
▁worker	-11.2233
▁pursuit	-11.2234
▁tariffs	-11.2243
▁mobilisation	-11.2248
▁Bolkestein	-11.2251
▁streets	-11.2253
▁subsidy	-11.2255
▁dear	-11.226
▁compensate	-11.2261
known	-11.2261
▁issuing	-11.2262
▁Equality	-11.2263
▁Albanian	-11.2264
▁theory	-11.2269
▁financially	-11.2284
▁distortions	-11.2285
▁tourist	-11.2288
▁guidance	-11.2288
▁knew	-11.2288
▁nationality	-11.2292
▁Poettering	-11.2301
▁preserving	-11.2302
▁disability	-11.2302
▁hypocrisy	-11.2315
▁frontiers	-11.2316
▁Forum	-11.2317
▁formed	-11.2318
▁merits	-11.2321
▁airline	-11.2325
▁identifying	-11.2332
▁surprising	-11.2342
▁ECHO	-11.2344
▁socialist	-11.2345
▁autonomous	-11.2345
▁consult	-11.2345
▁tensions	-11.2346
▁guide	-11.2353
▁misleading	-11.2356
▁ministerial	-11.2358
▁gaps	-11.2359
▁lawyers	-11.2359
▁optimistic	-11.2373
▁exact	-11.2376
▁pan	-11.2376
▁awaiting	-11.2377
▁proves	-11.2397
▁Round	-11.2397
▁classification	-11.2408
▁Christmas	-11.2412
▁REACH	-11.2413
▁weekend	-11.2421
▁courageous	-11.2423
▁tendency	-11.2424
▁mercury	-11.2424
▁carriers	-11.2424
▁Concerning	-11.2424
▁thoughts	-11.2427
▁definitions	-11.2432
▁formula	-11.2434
▁Basque	-11.2436
▁earth	-11.2438
▁noticed	-11.2438
▁online	-11.2443
▁veto	-11.2444
▁selling	-11.2449
▁organising	-11.2452
▁learnt	-11.2454
▁sooner	-11.2456
▁continuity	-11.2465
▁suddenly	-11.2465
▁career	-11.2466
▁laundering	-11.2468
▁redundancies	-11.2478
▁blocked	-11.2481
▁vigilant	-11.2491
▁convincing	-11.2491
▁insecurity	-11.2506
▁Martin	-11.2509
▁mixed	-11.251
▁textiles	-11.2518
▁Directorate	-11.2518
▁Climate	-11.2521
▁toxic	-11.2523
▁opponents	-11.2527
▁coalition	-11.2548
▁depending	-11.2549
▁lengthy	-11.2549
▁arbitrary	-11.2551
▁offence	-11.2555
▁infringements	-11.2565
▁operates	-11.2575
▁disappointing	-11.2575
▁publish	-11.2581
▁wave	-11.2587
▁summary	-11.259
ugoslav	-11.2603
▁software	-11.2603
▁slowly	-11.2604
▁contamination	-11.2605
▁successes	-11.2609
▁newspaper	-11.2616
▁senior	-11.2616
▁Surely	-11.2617
▁Gender	-11.2617
▁transportation	-11.2619
▁constituents	-11.2623
▁delivery	-11.2623
▁Industrial	-11.2623
▁coins	-11.2627
▁scenario	-11.2629
▁officers	-11.2632
▁reformed	-11.2633
ge	-11.2645
▁capacities	-11.2645
▁acquire	-11.2657
▁thinks	-11.2659
▁complementary	-11.2659
▁Much	-11.2659
▁DG	-11.266
▁underlined	-11.266
▁Danube	-11.2675
▁deterioration	-11.2686
▁geared	-11.2687
▁newly	-11.2697
▁jeopardise	-11.27
▁Cotonou	-11.2701
▁expresses	-11.2708
▁mix	-11.271
▁charter	-11.271
▁alleged	-11.2715
▁advocated	-11.2716
▁propaganda	-11.273
▁Area	-11.273
▁contradictory	-11.273
▁automatic	-11.2731
▁Erika	-11.2738
▁hitherto	-11.2743
▁discovered	-11.2744
▁God	-11.2745
▁permits	-11.2748
▁restriction	-11.2758
▁excessively	-11.2774
▁condemning	-11.2776
▁allies	-11.2781
▁tolerate	-11.2784
▁wanting	-11.2801
▁prompt	-11.2805
▁update	-11.2806
▁mobilise	-11.2813
▁centuries	-11.2813
▁meaningful	-11.2814
▁papers	-11.2814
▁write	-11.2815
▁reactions	-11.2827
▁reunification	-11.2828
▁bigger	-11.2828
▁wholly	-11.2828
▁knowing	-11.2834
▁petitions	-11.2838
▁devastating	-11.2842
▁manoeuvre	-11.2842
▁realities	-11.2842
▁Mugabe	-11.2843
▁belongs	-11.2847
▁station	-11.2854
▁smooth	-11.2856
▁MEDA	-11.2872
▁disappear	-11.2877
▁caution	-11.2879
▁fruitful	-11.2884
▁attitudes	-11.2888
▁Working	-11.2892
▁pick	-11.2895
▁user	-11.2895
▁phrase	-11.2898
▁Southern	-11.29
▁reception	-11.2914
▁outline	-11.2919
▁inland	-11.2925
▁redundant	-11.2928
▁supranational	-11.2929
▁undermined	-11.2929
▁privileged	-11.293
▁tested	-11.2941
▁censure	-11.2941
▁Cuban	-11.2944
▁mutually	-11.2947
▁compare	-11.2956
▁Next	-11.2957
▁prejudice	-11.2971
ive	-11.2973
▁structured	-11.2984
▁Organization	-11.2985
▁Moscow	-11.2985
▁voices	-11.2985
▁eurozone	-11.2987
▁theme	-11.2991
▁departments	-11.2995
▁authors	-11.2995
▁frequent	-11.3
being	-11.3002
▁deliberations	-11.3006
▁applaud	-11.3007
▁costly	-11.3009
old	-11.3011
▁prisons	-11.3013
▁mountain	-11.303
▁cod	-11.3031
▁seriousness	-11.3032
incomprehensible	-11.3043
▁Norway	-11.3043
▁engagement	-11.3045
▁memory	-11.3058
▁owe	-11.3058
▁partial	-11.306
▁agreeing	-11.3061
▁capabilities	-11.3072
▁newspapers	-11.3073
▁alliance	-11.3075
▁inclusive	-11.3079
▁entail	-11.308
▁white	-11.3083
▁Fortunately	-11.3087
▁clothing	-11.3087
▁immense	-11.3101
▁recourse	-11.3101
▁indigenous	-11.3104
▁continually	-11.3116
▁conventional	-11.3118
▁sentences	-11.312
▁supporters	-11.3131
▁Conservative	-11.3134
▁killing	-11.3138
▁suspend	-11.3139
▁incompatible	-11.3144
▁interfere	-11.3146
▁cheaper	-11.3146
▁modes	-11.3149
▁ingredients	-11.3153
▁rhetoric	-11.3159
▁ad	-11.316
▁III	-11.3161
▁adapting	-11.3162
▁speaks	-11.3166
U	-11.3167
▁Posselt	-11.3175
▁Chernobyl	-11.3175
▁expecting	-11.3184
▁wall	-11.3185
▁weakness	-11.3189
▁allocate	-11.3189
▁weaken	-11.3199
▁Communication	-11.3206
▁organs	-11.3207
▁Accordingly	-11.3208
▁apologise	-11.3218
▁murdered	-11.3221
▁differing	-11.3227
▁chair	-11.3233
▁founding	-11.3234
▁returning	-11.3237
▁liberty	-11.3249
▁judgments	-11.3249
all	-11.3255
▁mentioning	-11.3255
▁buying	-11.3262
▁Equal	-11.3264
▁maternity	-11.3264
▁plus	-11.3265
▁Iceland	-11.3265
▁competitors	-11.327
▁Mercosur	-11.327
▁Euratom	-11.3272
▁preferences	-11.3272
▁painful	-11.3278
▁profitable	-11.3295
▁purchase	-11.3295
▁feelings	-11.3309
▁excise	-11.3309
▁awarded	-11.331
▁slaughter	-11.3315
▁ex	-11.3322
▁intense	-11.3322
▁translated	-11.3324
▁certification	-11.3326
▁fill	-11.3332
▁proportionality	-11.3338
▁Political	-11.3339
▁argued	-11.3342
▁watch	-11.3346
▁disregard	-11.3347
▁revise	-11.3352
▁sheep	-11.3353
▁charged	-11.3356
for	-11.3363
▁refrain	-11.3368
▁incapable	-11.3369
▁throw	-11.3375
▁Customs	-11.3388
▁additives	-11.339
▁limitations	-11.3396
▁countryside	-11.34
▁unclear	-11.3412
▁proactive	-11.3412
▁Turning	-11.3413
▁severely	-11.3415
▁collected	-11.3415
▁restricting	-11.3425
▁techniques	-11.3426
▁scandalous	-11.3427
▁adhere	-11.343
▁finished	-11.3434
▁bridge	-11.3434
▁cooperating	-11.3443
interoperability	-11.3447
▁pending	-11.3461
▁marking	-11.3464
▁vitally	-11.3467
▁Director	-11.347
▁appropriately	-11.3472
▁assent	-11.3473
▁fairer	-11.3477
▁exceed	-11.3484
▁assumed	-11.3491
▁dare	-11.3491
▁books	-11.3493
▁asks	-11.3493
▁finds	-11.3495
▁poses	-11.3496
▁Sri	-11.3504
▁Together	-11.3505
▁conditional	-11.3506
▁launching	-11.3506
▁objection	-11.3507
▁Personally	-11.3519
▁reputation	-11.3521
▁transform	-11.3527
▁anybody	-11.3535
▁Finance	-11.3536
▁viewed	-11.3549
▁contradict	-11.3563
▁harmonising	-11.3565
▁drastic	-11.3565
▁settled	-11.3566
▁mainstreaming	-11.3569
▁technically	-11.3576
▁mothers	-11.3579
▁retained	-11.3584
▁forecasts	-11.3589
▁tens	-11.3589
▁conferences	-11.3593
▁participated	-11.3598
▁domain	-11.36
▁distortion	-11.36
▁breaking	-11.3608
▁destination	-11.3615
▁recommends	-11.362
▁ridiculous	-11.3626
▁disarmament	-11.3627
▁viability	-11.3627
▁allowances	-11.3627
▁counterfeiting	-11.3633
▁neutral	-11.3641
▁ideology	-11.3642
▁Sakharov	-11.3642
▁Azerbaijan	-11.3642
▁Further	-11.3642
▁promising	-11.3642
▁handed	-11.3647
▁Whether	-11.3657
▁stood	-11.3657
▁recognized	-11.3659
▁mentions	-11.3662
▁instances	-11.3671
▁shoulder	-11.3671
▁guiding	-11.3672
▁admitted	-11.3674
▁site	-11.3674
▁referendums	-11.368
▁pushing	-11.3686
▁diversification	-11.3689
▁cold	-11.369
▁olive	-11.3693
▁exempt	-11.3695
▁artificial	-11.3703
▁boundaries	-11.3703
▁supplied	-11.3705
▁judged	-11.3725
▁worry	-11.3729
▁dimensions	-11.3731
▁intent	-11.3734
▁breaches	-11.3736
▁Three	-11.3736
▁precondition	-11.3739
▁profile	-11.3741
▁suspect	-11.3746
▁destroying	-11.3747
▁Sahara	-11.3749
▁handle	-11.375
▁reinforcing	-11.3751
▁commerce	-11.3762
▁injured	-11.3766
▁film	-11.3768
▁touched	-11.3768
▁petition	-11.3769
▁profession	-11.3769
▁activists	-11.3776
▁entirety	-11.3781
▁receives	-11.3782
▁moderate	-11.3786
▁eco	-11.3788
▁Tuesday	-11.3799
▁highlighting	-11.38
▁measured	-11.3803
▁hearings	-11.3807
▁striking	-11.3813
▁austerity	-11.3814
▁Media	-11.3814
▁billions	-11.3816
lez	-11.3826
▁impunity	-11.3828
▁opposing	-11.3828
▁Seventh	-11.3829
▁excellence	-11.3829
▁dismantling	-11.3829
▁missed	-11.3829
▁liberalization	-11.3844
▁conducting	-11.3844
▁Putin	-11.3845
▁likewise	-11.3845
▁cooperative	-11.3852
▁discriminatory	-11.3852
▁liberties	-11.386
▁deemed	-11.3861
▁welcoming	-11.3861
▁prohibited	-11.3861
▁simpler	-11.3863
▁disagreement	-11.3864
▁CFP	-11.387
▁ILO	-11.3876
▁Indian	-11.3882
▁Confedera	-11.3899
▁recover	-11.3902
▁Herzegovina	-11.3907
▁alter	-11.3908
▁Jean	-11.391
▁letters	-11.3911
▁requesting	-11.3917
▁Has	-11.3922
▁SIS	-11.3925
▁suspicion	-11.3928
▁lifting	-11.3929
▁ruled	-11.3931
▁contents	-11.3935
▁organisms	-11.3936
ndez	-11.3939
▁Gulf	-11.394
▁guided	-11.3941
▁advise	-11.3954
▁protests	-11.3963
▁Meanwhile	-11.3971
▁psychological	-11.3971
▁sends	-11.3975
▁venture	-11.3976
▁chapters	-11.3979
▁supplement	-11.3984
▁Michel	-11.3985
▁fossil	-11.3987
▁silent	-11.3987
▁threatens	-11.3991
▁San	-11.4
▁underlines	-11.4
▁punished	-11.4004
▁Taliban	-11.4005
▁manufacture	-11.4013
▁UEN	-11.4019
▁transposed	-11.4019
▁airspace	-11.4021
▁transformation	-11.4024
▁abide	-11.4035
▁spreading	-11.4039
▁insisted	-11.4041
▁independently	-11.4042
▁prosecution	-11.4057
▁advisory	-11.4059
▁quantitative	-11.4066
▁somewhere	-11.4068
▁settle	-11.4071
▁EP	-11.4074
▁peripheral	-11.4076
▁attempted	-11.4078
▁relevance	-11.4084
▁distinguish	-11.4091
▁chose	-11.4098
▁unrealistic	-11.4099
▁extradition	-11.41
Maritime	-11.4103
▁ineffective	-11.4107
▁Conservatives	-11.4114
▁debts	-11.4116
▁installations	-11.4118
operation	-11.4127
▁altogether	-11.4131
▁replacing	-11.4134
▁departure	-11.4137
▁teaching	-11.4139
▁separately	-11.4151
▁deplore	-11.4153
▁mostly	-11.4162
▁attaches	-11.4165
▁cautious	-11.4166
ery	-11.4167
▁weapon	-11.4171
▁sentenced	-11.4181
▁Small	-11.4183
▁rescue	-11.4183
Europe	-11.4185
▁accusations	-11.4185
▁schedule	-11.4186
▁Le	-11.4187
▁Slovenian	-11.4187
k	-11.4194
▁uncertain	-11.4196
▁informing	-11.4197
▁formulate	-11.4202
▁exposure	-11.4203
▁facto	-11.4203
▁Again	-11.4213
▁confined	-11.4213
▁confronted	-11.4214
▁blocking	-11.4225
▁identical	-11.4229
▁duration	-11.4229
▁pride	-11.4229
▁thrust	-11.4229
▁totalitarian	-11.423
▁Gothenburg	-11.423
▁exercised	-11.4233
▁interpret	-11.4239
▁tone	-11.4242
▁permission	-11.4246
▁dominant	-11.4246
▁Cambodia	-11.4246
▁Eurojust	-11.4247
▁safeguarded	-11.4253
▁attract	-11.426
▁emphasising	-11.4263
▁typical	-11.4264
▁decrease	-11.4267
▁precedence	-11.4278
▁Natura	-11.4278
▁industrialised	-11.428
▁unification	-11.4281
▁echo	-11.4289
productive	-11.4289
uestions	-11.429
▁visits	-11.4302
▁Chair	-11.4305
▁professions	-11.4307
▁inability	-11.4307
▁internally	-11.4315
▁delivering	-11.4315
▁Sport	-11.4318
▁anyway	-11.4319
▁premature	-11.4327
▁veterinary	-11.4328
▁imbalance	-11.4334
▁warn	-11.4339
▁partially	-11.4362
▁absent	-11.4377
▁appreciated	-11.4381
vis	-11.4391
▁robust	-11.4393
able	-11.4394
▁restoring	-11.4395
▁deliberate	-11.4411
▁pornography	-11.4411
▁adjust	-11.4411
▁hatred	-11.4417
▁pressures	-11.4417
▁EDF	-11.4424
▁disappeared	-11.4431
▁equipped	-11.4437
▁survey	-11.4444
▁cultivation	-11.4444
▁preferential	-11.4445
▁Islam	-11.4459
▁coexistence	-11.4461
regulation	-11.4462
▁England	-11.4462
▁stipulates	-11.4464
▁toys	-11.4465
▁exemplary	-11.4477
▁plenty	-11.4477
▁Watson	-11.4478
▁hoc	-11.4481
E	-11.4492
▁opens	-11.4492
DA	-11.4492
▁vis	-11.4501
▁vary	-11.4505
▁wrote	-11.4512
▁deeper	-11.4513
▁outbreak	-11.4519
▁lift	-11.4533
▁disadvantages	-11.4539
▁incidentally	-11.4546
▁calm	-11.4548
▁strongest	-11.4548
▁asset	-11.4551
▁speedy	-11.4551
▁trials	-11.4555
▁harsh	-11.456
▁qualitative	-11.4561
▁paramount	-11.4562
▁anticipated	-11.4565
▁love	-11.4568
▁processed	-11.4574
▁confused	-11.4579
▁aquaculture	-11.4579
▁forcing	-11.4583
▁produces	-11.4583
▁Jarzembowski	-11.4595
▁rigour	-11.4596
▁entity	-11.4596
▁reactors	-11.46
▁lacks	-11.4602
▁unresolved	-11.4612
▁upheld	-11.4614
▁complying	-11.4614
▁redress	-11.4616
▁sporting	-11.4618
▁assumption	-11.4621
▁minimal	-11.4628
▁submitting	-11.463
▁globally	-11.463
▁employ	-11.463
▁teams	-11.4632
▁deepening	-11.4634
▁perpetrators	-11.4636
▁Foundation	-11.4637
▁linking	-11.4644
▁bio	-11.4659
▁resume	-11.4663
▁afterwards	-11.4664
▁optimism	-11.4665
▁signatures	-11.4668
▁capitalist	-11.4671
▁gaining	-11.4672
building	-11.4673
▁ASEAN	-11.4673
▁Corbett	-11.4681
▁Jerusalem	-11.4681
▁decommissioning	-11.4681
▁restored	-11.4682
▁secured	-11.4684
▁vessel	-11.469
▁Bulgarian	-11.4695
▁duly	-11.4698
▁exercising	-11.4698
▁globalised	-11.4699
call	-11.47
▁reciprocity	-11.4701
g	-11.4703
▁judgement	-11.4706
▁reconsider	-11.4707
▁dependency	-11.4717
▁exceeded	-11.4717
▁Caribbean	-11.4719
▁Johannesburg	-11.4733
▁Monitoring	-11.4749
▁standardisation	-11.475
▁repressive	-11.475
▁fairness	-11.4751
▁privilege	-11.4758
▁scourge	-11.4758
▁taxpayer	-11.4759
▁occurs	-11.4767
▁aggressive	-11.4767
▁eat	-11.4768
drew	-11.4768
▁neo	-11.4772
▁dollar	-11.4772
▁plain	-11.4774
▁envisage	-11.4776
▁motivated	-11.479
▁recruitment	-11.4801
▁exceptionally	-11.4804
▁confine	-11.481
▁announce	-11.4818
▁currencies	-11.4818
▁Wallst	-11.4824
u	-11.4829
▁bus	-11.4832
▁insofar	-11.4836
▁salary	-11.4837
▁confront	-11.4837
▁specialist	-11.4847
▁expanding	-11.4848
▁precarious	-11.4854
▁eliminated	-11.4855
▁lived	-11.486
▁evil	-11.4865
▁boats	-11.4867
▁entities	-11.4869
▁migratory	-11.4871
▁wisdom	-11.4871
▁incorporating	-11.4871
▁soft	-11.4871
▁witnessing	-11.4878
▁website	-11.488
▁prohibition	-11.4881
▁assurances	-11.4881
▁mining	-11.4881
Parliament	-11.4885
▁accompanying	-11.4886
▁proliferation	-11.4886
▁endeavours	-11.4886
▁Unless	-11.4888
▁secretariat	-11.4898
▁alive	-11.4901
▁deficiencies	-11.4906
▁affordable	-11.4906
▁benefiting	-11.4911
▁inspired	-11.4915
▁Israelis	-11.4915
▁database	-11.4915
▁thirty	-11.4923
▁chances	-11.4924
▁cards	-11.4933
▁innovations	-11.4938
▁alike	-11.4947
▁relocation	-11.4951
▁Besides	-11.4959
▁cash	-11.4962
▁emphatically	-11.4976
▁houses	-11.4978
▁fell	-11.499
▁promptly	-11.4994
▁unlikely	-11.4995
▁Lom	-11.4996
▁Innovation	-11.5
▁O	-11.5
▁parameters	-11.5
▁impressive	-11.501
▁inherent	-11.5021
▁modernise	-11.5025
▁journalist	-11.5026
▁oppression	-11.5029
▁Armenia	-11.503
▁Reding	-11.5033
▁benefited	-11.5036
▁deployment	-11.5057
▁owing	-11.5064
▁shipbuilding	-11.5064
▁successive	-11.5065
▁pushed	-11.5068
▁gains	-11.5079
▁prosperous	-11.5082
▁simultaneously	-11.5082
▁vigorously	-11.5083
▁navigation	-11.5083
▁art	-11.5085
speed	-11.51
▁bans	-11.5105
▁margins	-11.5107
▁spare	-11.511
▁rehabilitation	-11.5118
▁divisions	-11.5119
▁mistaken	-11.512
▁injustice	-11.512
▁Global	-11.5123
▁Environmental	-11.5125
▁description	-11.5129
▁Canc	-11.513
▁breast	-11.5132
▁Japanese	-11.5137
▁rigid	-11.5137
▁roles	-11.5139
▁conversion	-11.5146
▁circle	-11.5147
▁unite	-11.5148
▁records	-11.5149
use	-11.515
▁frank	-11.5153
▁excess	-11.5153
▁Nobody	-11.5154
▁investigated	-11.5155
▁ease	-11.5155
▁obligatory	-11.516
▁replacement	-11.5165
▁academic	-11.5166
▁communautaire	-11.5172
▁straightforward	-11.5172
▁imprisoned	-11.5172
▁evaluating	-11.5173
▁Change	-11.5173
▁resist	-11.5174
▁assisting	-11.5175
▁radiation	-11.519
▁thrown	-11.5191
▁draws	-11.5197
▁suggesting	-11.5201
▁individually	-11.5205
▁Ukrainian	-11.5206
▁anticipate	-11.5218
▁street	-11.5221
▁restoration	-11.5226
entrepreneurship	-11.5226
▁democrats	-11.5241
▁updated	-11.5245
▁introduces	-11.5251
▁COM	-11.5253
▁protein	-11.5258
▁maintains	-11.5262
▁millennium	-11.5262
▁multiple	-11.5262
▁emergence	-11.5267
▁K	-11.5272
▁Roth	-11.5278
▁reasonably	-11.528
▁selected	-11.5283
▁alert	-11.5291
▁hygiene	-11.5298
▁Games	-11.5299
▁Nuclear	-11.5299
▁incorrect	-11.5305
▁nationalism	-11.5308
▁prevents	-11.5314
▁League	-11.5316
▁PHARE	-11.5317
▁TACIS	-11.5317
▁Pacific	-11.5321
▁damaged	-11.5322
▁occupational	-11.5322
▁managers	-11.5327
▁forth	-11.533
▁prize	-11.5331
▁Oomen	-11.5334
▁utterly	-11.5335
▁virtue	-11.5347
▁protectionist	-11.535
▁bold	-11.5351
▁incredibly	-11.5353
▁dramatically	-11.5353
month	-11.5354
▁acute	-11.5355
▁barrier	-11.5367
namo	-11.537
▁classes	-11.5372
▁permanently	-11.5376
▁applicants	-11.5384
▁overcoming	-11.539
▁Enlargement	-11.5391
▁workable	-11.5401
▁phenomena	-11.5405
▁decides	-11.5406
▁concludes	-11.5407
itorino	-11.5408
▁Guant	-11.5408
▁Scientific	-11.5408
▁weaker	-11.541
▁Socrates	-11.5411
▁catastrophe	-11.5421
▁lobby	-11.5422
▁channel	-11.5423
long	-11.5424
▁flood	-11.5434
▁specify	-11.5439
▁strengthens	-11.544
▁harassment	-11.5446
▁lifted	-11.5447
▁repair	-11.5452
▁earn	-11.5454
▁presidencies	-11.5463
▁stipulated	-11.5464
▁uranium	-11.5464
▁neglected	-11.5465
▁suspected	-11.5467
▁ELDR	-11.5469
▁servants	-11.5473
▁meal	-11.5476
▁Support	-11.5478
▁page	-11.548
▁approaching	-11.548
▁seize	-11.5481
how	-11.5484
▁vaccination	-11.5484
▁scene	-11.5495
▁machinery	-11.55
▁pricing	-11.5523
▁smuggling	-11.5523
▁risen	-11.5527
▁backwards	-11.5543
▁Harbour	-11.5556
▁wasted	-11.5568
▁politician	-11.557
▁Sunday	-11.557
▁lawyer	-11.5571
▁eve	-11.5574
▁Dr	-11.5578
oriented	-11.5579
▁GSP	-11.5586
▁dominated	-11.5586
▁transported	-11.5588
▁Korean	-11.5593
▁gambling	-11.5594
▁ignoring	-11.5594
▁imperialist	-11.5596
▁screening	-11.56
▁evaluated	-11.56
▁checked	-11.5601
▁annex	-11.5609
▁pull	-11.5609
▁nice	-11.5611
▁Crespo	-11.5612
▁Sometimes	-11.5612
▁decentralised	-11.5613
▁disturbing	-11.5615
▁Far	-11.5619
▁cornerstone	-11.5626
Ruijten	-11.5631
▁pure	-11.5631
▁advocating	-11.5632
date	-11.5632
▁fundamentalism	-11.5633
way	-11.5644
▁waiver	-11.5646
▁Liikanen	-11.565
▁govern	-11.565
looking	-11.565
▁Chile	-11.5653
state	-11.5655
▁provisional	-11.5659
▁formation	-11.5669
▁Mann	-11.5671
▁noon	-11.5679
▁sustain	-11.568
▁intensify	-11.5683
▁crop	-11.5686
▁Lehne	-11.5688
▁purchasing	-11.5688
▁weather	-11.5688
▁hidden	-11.569
▁consulting	-11.5696
▁devices	-11.5703
▁observer	-11.5705
▁Sixth	-11.5706
▁gallery	-11.5707
▁groundwater	-11.5707
▁studied	-11.5707
▁summits	-11.571
▁allegations	-11.5714
▁exporting	-11.5716
▁abolishing	-11.5717
▁award	-11.5723
▁shameful	-11.5725
▁completing	-11.5726
▁unjustified	-11.5726
▁forgetting	-11.5728
▁codes	-11.5732
▁kilometres	-11.574
▁celebrate	-11.5744
▁Jos	-11.5747
▁crossing	-11.5753
▁begins	-11.5756
▁cow	-11.5759
▁coverage	-11.5764
▁confirmation	-11.5764
▁Spring	-11.5765
▁urging	-11.5766
▁centralised	-11.5769
▁Cypriot	-11.577
▁ethics	-11.5771
▁switch	-11.5775
▁acknowledges	-11.5777
▁Agreements	-11.5779
▁signature	-11.578
▁contradictions	-11.5784
us	-11.5794
▁corrected	-11.5795
▁hospital	-11.5799
▁forefront	-11.5802
▁replied	-11.5802
▁Lamy	-11.5802
▁replies	-11.5802
▁overview	-11.5802
▁occurring	-11.5803
▁Burmese	-11.5803
▁notification	-11.5806
▁racist	-11.5807
▁correspond	-11.5809
▁stepping	-11.5811
▁gesture	-11.5817
▁liable	-11.5821
▁Progress	-11.5824
▁splendid	-11.584
▁incredible	-11.584
▁validity	-11.584
▁Nothing	-11.5843
▁surface	-11.5854
▁understands	-11.5855
▁dying	-11.586
▁Opportunities	-11.586
▁imprisonment	-11.586
▁weakened	-11.5862
▁saved	-11.5882
▁assuming	-11.5883
▁Have	-11.5896
▁Ferrero	-11.5898
▁Lukashenko	-11.5898
▁competing	-11.5898
▁harder	-11.5902
▁artists	-11.5906
▁mergers	-11.5907
▁Pack	-11.5913
▁Tak	-11.5919
▁pave	-11.5927
▁Section	-11.5927
▁eradicate	-11.5936
▁challenging	-11.5937
▁dubious	-11.5937
▁timing	-11.5937
▁retention	-11.5938
▁reserved	-11.594
▁trained	-11.5942
▁consolidating	-11.5956
▁concerted	-11.5957
▁perceived	-11.5957
▁fortunately	-11.5957
▁preserved	-11.5958
▁Annual	-11.5958
▁blow	-11.5962
▁appoint	-11.5963
▁Non	-11.5965
▁organ	-11.5972
▁scarcely	-11.5976
▁encountered	-11.5977
le	-11.5989
▁anxious	-11.5996
▁Madeira	-11.5996
▁chaos	-11.5996
▁radically	-11.5998
▁vegetable	-11.6011
▁attain	-11.6014
▁striving	-11.6015
▁detained	-11.6015
▁goodwill	-11.6015
▁Regulations	-11.6018
▁quoted	-11.6021
▁flying	-11.6022
Russia	-11.6024
▁legislate	-11.6031
▁treating	-11.6031
▁fees	-11.6037
▁enormously	-11.6041
▁illness	-11.6054
▁Costa	-11.6055
▁deployed	-11.6055
▁discover	-11.6066
▁stressing	-11.607
▁trialogue	-11.6071
▁guardian	-11.6071
▁passport	-11.6072
▁poorly	-11.6082
▁prevailing	-11.6083
Bendit	-11.6093
▁carries	-11.6093
▁Tibetan	-11.6093
▁Scottish	-11.6094
▁expects	-11.6097
▁tight	-11.61
Waldner	-11.6113
▁lorries	-11.6113
▁expanded	-11.6116
▁flags	-11.612
▁Aid	-11.6125
▁retail	-11.6128
▁postponement	-11.6129
▁settlements	-11.6131
▁Professor	-11.6133
▁Cohn	-11.6133
▁unknown	-11.6133
▁barely	-11.6133
▁vice	-11.6134
▁repeating	-11.6138
▁legislators	-11.6146
▁alleviate	-11.6152
▁poultry	-11.6153
▁incorporation	-11.6153
▁luck	-11.6153
▁Thessaloniki	-11.6154
▁shut	-11.6154
▁conscious	-11.6158
▁assistants	-11.6164
▁compliment	-11.6168
▁Lanka	-11.6171
▁eradication	-11.6173
▁adults	-11.6191
▁incurred	-11.6192
▁collect	-11.62
▁undermines	-11.6207
▁rape	-11.621
▁prominent	-11.6211
▁Executive	-11.6212
▁secrecy	-11.6212
▁slavery	-11.6212
▁substitute	-11.6229
▁hypocritical	-11.6231
▁mankind	-11.6232
ers	-11.6233
▁Agricultural	-11.6234
▁humane	-11.6236
▁Consumers	-11.6245
▁communist	-11.6246
▁reiterated	-11.6254
▁serving	-11.6265
▁exported	-11.6265
▁river	-11.6268
▁John	-11.6271
▁evolution	-11.6272
▁Ministry	-11.6272
▁Whatever	-11.6273
▁claiming	-11.6279
▁derived	-11.6281
▁kill	-11.6284
▁Part	-11.6285
▁fathers	-11.6287
▁explaining	-11.6293
▁Which	-11.6293
▁visibility	-11.6294
▁compatibility	-11.6295
▁attacked	-11.6301
▁display	-11.6302
▁accelerate	-11.6308
▁arrival	-11.631
▁unambiguous	-11.6312
▁wild	-11.6313
▁creativity	-11.6313
▁catches	-11.6351
▁stimulating	-11.6353
▁herself	-11.6354
▁analysed	-11.6354
▁accessibility	-11.636
▁Serbs	-11.637
▁modification	-11.6372
▁dictator	-11.6372
▁Chad	-11.6373
▁pointless	-11.6376
▁bid	-11.6376
▁rejects	-11.6388
▁tunnel	-11.6389
▁farmer	-11.6395
▁legality	-11.6398
▁Erasmus	-11.6402
▁Muslims	-11.6404
▁damages	-11.641
▁unilaterally	-11.6415
▁fines	-11.6429
▁pretty	-11.6434
▁Administration	-11.6434
▁blocks	-11.6437
▁proceeding	-11.6441
▁turns	-11.6443
▁contractual	-11.6448
▁frontier	-11.6451
▁unusual	-11.6454
▁Belgrade	-11.6454
▁cotton	-11.6454
▁proving	-11.6454
▁phasing	-11.6458
▁honesty	-11.6459
▁EGF	-11.6461
▁complain	-11.6464
▁transaction	-11.6473
▁counting	-11.6474
▁lobbyists	-11.648
▁grass	-11.649
▁allowance	-11.6494
▁loan	-11.6494
▁illustrates	-11.6495
▁underpin	-11.6495
▁passive	-11.6496
▁calculated	-11.6497
made	-11.6498
▁voiced	-11.6499
▁connections	-11.65
▁distant	-11.6501
▁Accession	-11.6506
▁El	-11.6509
▁translate	-11.6513
ising	-11.6532
▁council	-11.6535
▁Alzheimer	-11.6536
▁taught	-11.6536
▁Angola	-11.6537
▁driver	-11.6537
▁confidentiality	-11.6537
▁executions	-11.6541
▁Everything	-11.6545
▁hinder	-11.6548
▁levy	-11.6557
▁shareholders	-11.657
▁wines	-11.6571
▁male	-11.6577
▁patience	-11.6578
▁virus	-11.6578
▁Australia	-11.6579
▁capita	-11.6579
▁underway	-11.6584
▁convictions	-11.6584
▁clarifying	-11.6587
▁imposition	-11.6598
▁Bangemann	-11.6598
▁proportionate	-11.6599
▁Jacques	-11.6601
▁lastly	-11.6604
▁chocolate	-11.6605
▁tune	-11.6608
▁quo	-11.6613
▁Rehn	-11.6619
▁viewpoint	-11.6622
▁behave	-11.6623
▁admission	-11.6627
▁ecosystems	-11.6631
▁Russians	-11.6634
▁readiness	-11.6641
▁cereals	-11.6643
makers	-11.6649
▁embryos	-11.6659
▁drought	-11.666
▁sceptical	-11.6661
▁Cross	-11.6661
standing	-11.6662
▁shocking	-11.6665
▁coup	-11.6672
▁Work	-11.6674
▁camp	-11.6677
▁counterparts	-11.6679
▁Moroccan	-11.6682
▁Initiative	-11.6682
▁eligibility	-11.6684
▁supportive	-11.669
▁annually	-11.669
▁panel	-11.6702
▁Network	-11.6702
▁beautiful	-11.6702
▁analysing	-11.6703
▁Sadly	-11.6703
▁Ethiopia	-11.6703
▁Water	-11.6704
▁aggression	-11.6705
▁tourists	-11.6706
▁condolences	-11.6707
▁quarters	-11.6708
▁insisting	-11.6711
▁antibiotics	-11.6715
▁violate	-11.6722
▁countless	-11.6724
▁Berlusconi	-11.6724
▁occupying	-11.6728
▁questionable	-11.6732
▁sorts	-11.6733
▁somehow	-11.6734
▁reaffirm	-11.6736
▁growers	-11.6738
▁guard	-11.6739
▁tender	-11.674
intensive	-11.6742
▁ratio	-11.6742
▁Malmst	-11.6744
▁overseas	-11.6745
▁committing	-11.6746
▁SME	-11.6747
▁starts	-11.6754
developed	-11.6759
▁perception	-11.6765
▁Kurds	-11.6767
▁estimate	-11.6767
▁Good	-11.6768
▁appeals	-11.677
class	-11.6779
▁factories	-11.6787
▁pieces	-11.6794
▁watching	-11.6795
▁intolerance	-11.6798
▁havens	-11.6817
party	-11.6825
▁denounce	-11.6828
▁desperate	-11.6828
▁perpetrated	-11.6829
▁persecuted	-11.6829
▁excluding	-11.683
▁nowhere	-11.6831
▁engineering	-11.6832
▁misuse	-11.6832
▁Independent	-11.6832
▁flooding	-11.6836
▁contaminated	-11.6837
▁prohibit	-11.6842
▁tries	-11.685
▁refuses	-11.6853
▁labels	-11.6862
▁mad	-11.6869
▁slight	-11.6871
▁earliest	-11.6872
▁offensive	-11.6874
▁vegetables	-11.6876
▁transferr	-11.6882
▁crew	-11.6891
▁unequivocal	-11.6892
▁readmission	-11.6893
▁denying	-11.6907
▁remembered	-11.6909
▁forming	-11.6911
▁favoured	-11.6914
▁suicide	-11.6914
▁Florence	-11.6914
▁Wogau	-11.6914
▁abused	-11.6918
▁trains	-11.6925
▁undemocratic	-11.6928
trade	-11.6931
▁failures	-11.6934
▁frameworks	-11.6935
▁delete	-11.6935
▁revising	-11.6936
▁persistent	-11.6936
▁indicating	-11.6937
▁shaping	-11.6937
▁reviewing	-11.6938
▁honestly	-11.6938
▁peacekeeping	-11.6939
▁hospitals	-11.6941
▁Somalia	-11.6954
▁geopolitical	-11.6956
▁imminent	-11.6957
▁contempt	-11.6957
▁Nepal	-11.6958
▁extremism	-11.6958
▁neutrality	-11.6958
▁facilitation	-11.6959
▁charging	-11.696
▁alarm	-11.697
▁refunds	-11.6972
▁struggling	-11.6979
▁capability	-11.6979
▁coordinator	-11.6979
▁epidemic	-11.698
▁specialised	-11.6981
▁hamper	-11.6999
▁lagging	-11.7
▁distinguished	-11.7002
▁minimise	-11.7004
ary	-11.7017
▁electrical	-11.7022
▁responsibly	-11.7022
sided	-11.7023
▁donation	-11.7024
▁opted	-11.7026
▁visitors	-11.7027
▁sixth	-11.7031
▁explore	-11.7038
ve	-11.704
▁underestimate	-11.7043
uartet	-11.7043
▁methodology	-11.7043
▁tied	-11.7044
▁Workers	-11.7045
▁reveals	-11.7062
▁concentrating	-11.7065
▁Gonz	-11.7065
▁illustrate	-11.7065
▁preferable	-11.7065
▁breakthrough	-11.7065
▁conform	-11.7066
INI	-11.7067
regional	-11.7074
▁cruel	-11.7086
▁commodity	-11.7087
▁reliability	-11.7087
▁persist	-11.7102
▁accord	-11.7102
▁dreadful	-11.7108
▁designated	-11.711
▁premium	-11.711
▁shocked	-11.711
▁buses	-11.7111
▁Swiss	-11.7112
▁unreasonable	-11.7114
▁Take	-11.7117
▁weakening	-11.7118
▁lesser	-11.7119
▁smart	-11.7119
▁honoured	-11.712
▁Sharon	-11.713
▁Technology	-11.7131
▁attending	-11.7144
▁factory	-11.7144
▁themes	-11.7152
▁adult	-11.7153
▁equitable	-11.7153
▁classified	-11.7153
▁store	-11.7155
▁adds	-11.7156
▁counts	-11.7158
▁tighten	-11.7167
▁overlook	-11.7168
▁Anti	-11.7173
▁deadlock	-11.7173
▁wood	-11.7173
enezuela	-11.7173
▁Azores	-11.7175
▁diagnosis	-11.7176
▁organisational	-11.7178
);	-11.7182
▁yield	-11.7193
▁vigorous	-11.7195
▁eleven	-11.7196
▁Bonino	-11.7196
▁Fontaine	-11.7196
▁worries	-11.7196
▁institute	-11.7197
▁somebody	-11.7198
▁Delors	-11.7199
proliferation	-11.7199
▁vaccines	-11.7199
▁performed	-11.72
▁miss	-11.7206
▁dollars	-11.7207
▁visiting	-11.7209
▁Governments	-11.7213
▁GM	-11.7216
▁sudden	-11.7217
▁devise	-11.7218
▁boosting	-11.7218
▁regrettably	-11.7218
▁biomass	-11.7218
▁indicative	-11.7219
▁upper	-11.7221
▁employee	-11.7224
▁pages	-11.7225
▁warnings	-11.7228
▁reflecting	-11.7235
down	-11.7237
▁Cologne	-11.724
▁investigating	-11.724
▁childcare	-11.7241
▁Delegation	-11.7241
▁hostage	-11.7243
▁supposedly	-11.7244
▁improves	-11.7254
▁extremists	-11.7255
▁Oostlander	-11.7262
▁ozone	-11.7262
▁dissemination	-11.7263
▁pain	-11.7263
▁deleted	-11.7263
▁packages	-11.7275
▁authoritarian	-11.7279
▁Mar	-11.7281
▁approached	-11.7283
▁Evans	-11.7285
▁commendable	-11.7285
▁collectively	-11.7289
▁resident	-11.7293
▁checking	-11.7294
US	-11.7305
▁Byrne	-11.7307
▁architecture	-11.7307
▁defeat	-11.7315
▁grasp	-11.7322
▁embark	-11.7322
▁tragedies	-11.7329
▁feet	-11.733
terrorism	-11.7335
▁onwards	-11.7336
▁influenced	-11.7336
we	-11.7339
▁punish	-11.7343
▁congestion	-11.7352
▁Up	-11.7352
ally	-11.7354
N	-11.7356
▁ceasefire	-11.7374
▁Prosecutor	-11.7374
▁Competition	-11.7375
▁frustration	-11.7376
▁Right	-11.7378
▁Sch	-11.7379
▁adopts	-11.7386
▁consist	-11.7391
▁mediation	-11.7396
▁headings	-11.7397
▁Arafat	-11.7397
▁resolutely	-11.7397
▁weakest	-11.7398
▁predecessor	-11.7398
▁arena	-11.7399
▁displayed	-11.7399
▁discretion	-11.7403
▁catastrophic	-11.7412
SL	-11.7412
▁bombs	-11.7414
▁comparative	-11.7418
▁harmony	-11.7419
▁updating	-11.7419
▁Children	-11.742
sch	-11.742
▁LIFE	-11.7423
▁limitation	-11.7425
▁experiments	-11.7433
DEM	-11.7435
▁legislator	-11.7436
▁Instrument	-11.7443
▁None	-11.7444
ism	-11.745
▁assigned	-11.7452
▁interconnection	-11.7464
aside	-11.7466
commerce	-11.7469
▁commission	-11.7481
▁suit	-11.7481
▁thematic	-11.7486
▁stabilise	-11.7487
COS	-11.749
▁lobbying	-11.7494
▁unequal	-11.7509
▁controversy	-11.7509
▁Cox	-11.7509
▁rarely	-11.7511
▁stepped	-11.7512
▁sacrifice	-11.7515
▁km	-11.7517
▁Cypriots	-11.7518
▁arrests	-11.7519
▁negotiators	-11.7526
▁assert	-11.7527
▁reveal	-11.7527
▁birds	-11.753
▁Robert	-11.7532
▁internet	-11.7532
▁Rothley	-11.7532
▁Annan	-11.7532
▁subscribe	-11.7533
▁reacted	-11.7537
▁realisation	-11.7538
▁villages	-11.7539
▁religions	-11.7543
▁box	-11.7545
▁conceal	-11.755
▁inconsistent	-11.7555
▁documentation	-11.7556
▁personality	-11.7556
▁cure	-11.7557
▁extends	-11.7557
▁convenience	-11.7558
▁Red	-11.7565
▁nets	-11.7569
▁copy	-11.7571
▁preconditions	-11.7572
▁nowadays	-11.7577
▁Galicia	-11.7578
▁engaging	-11.7578
▁tuberculosis	-11.7578
▁councils	-11.7579
▁piracy	-11.7581
▁allocating	-11.7582
▁fly	-11.7585
ity	-11.7585
▁illnesses	-11.7601
▁overlooked	-11.7602
▁fragmentation	-11.7602
▁gather	-11.7603
Ivoire	-11.7604
▁privileges	-11.7611
▁sessions	-11.7614
▁rebuild	-11.7617
▁corrupt	-11.7619
▁nonsense	-11.7623
▁Mulder	-11.7625
▁duplication	-11.7626
▁breeding	-11.7629
right	-11.7635
it	-11.7637
▁holiday	-11.7649
▁protective	-11.7652
▁traditionally	-11.7652
▁suited	-11.7656
▁distort	-11.7665
▁measuring	-11.767
▁entrusted	-11.767
▁seed	-11.7671
▁Algerian	-11.7675
▁intra	-11.7677
East	-11.7677
mouth	-11.7681
▁broadband	-11.7692
▁defines	-11.7693
▁legacy	-11.7693
▁Seville	-11.7693
▁admittedly	-11.7694
▁migrant	-11.7697
▁protects	-11.7699
▁collecting	-11.7701
▁instructions	-11.7706
▁regulators	-11.7711
▁mortality	-11.7716
▁Chirac	-11.7716
▁smoke	-11.7716
▁distinct	-11.7717
▁accede	-11.7718
▁interaction	-11.7719
▁ultra	-11.772
▁selective	-11.772
L	-11.7724
▁lending	-11.7726
▁shop	-11.773
sighted	-11.7735
▁bought	-11.7739
▁Canary	-11.7739
▁foreseen	-11.774
▁congratulated	-11.7753
▁inspiration	-11.7761
▁arguing	-11.7762
▁varied	-11.7762
▁smoothly	-11.7763
▁capitalism	-11.7764
▁labelled	-11.7765
▁province	-11.7766
▁engine	-11.777
▁submission	-11.777
We	-11.7777
▁colonial	-11.7777
▁endanger	-11.7778
▁David	-11.7786
▁Saudi	-11.7786
▁uncontrolled	-11.7786
▁arriving	-11.7787
▁verification	-11.7788
▁incineration	-11.7802
▁verify	-11.7803
▁mouth	-11.7804
▁locally	-11.7804
▁Countries	-11.7809
▁auspices	-11.7809
▁headquarters	-11.7809
▁undesirable	-11.7809
▁Poverty	-11.7811
▁outlook	-11.7812
▁shorter	-11.7815
first	-11.7818
▁engines	-11.7828
▁defenders	-11.7829
▁referenda	-11.7832
▁Kyi	-11.7832
▁readily	-11.7832
▁Sarkozy	-11.7833
▁adhered	-11.7833
▁enemy	-11.7834
▁Management	-11.7835
▁Looking	-11.7835
▁formulation	-11.7836
▁renewables	-11.7836
ry	-11.7839
▁regain	-11.7848
▁alia	-11.7851
▁Dimension	-11.7856
▁Tribunal	-11.7856
▁sick	-11.7856
▁winter	-11.786
▁legislature	-11.786
▁Dell	-11.787
▁credits	-11.7872
▁Sir	-11.7876
▁Mandelson	-11.7879
▁Schreyer	-11.7879
▁choosing	-11.7879
▁dynamism	-11.7879
▁confrontation	-11.7883
▁temptation	-11.7883
▁Prestige	-11.7885
▁reciprocal	-11.7885
▁deeds	-11.7888
▁interpreters	-11.7888
big	-11.7896
▁Air	-11.7896
▁calculation	-11.7907
▁roadmap	-11.7908
▁WHO	-11.7909
Community	-11.7913
en	-11.7915
▁explains	-11.7921
▁Barrot	-11.7926
▁timber	-11.7926
▁statutory	-11.7926
▁accorded	-11.7928
▁weigh	-11.7929
▁contracting	-11.7933
▁premiums	-11.7949
▁sharp	-11.795
▁Cashman	-11.795
▁Society	-11.7951
▁UCLAF	-11.7951
▁N	-11.7952
▁IND	-11.7952
▁executed	-11.7952
▁atrocities	-11.7953
▁cigarettes	-11.7958
▁feasibility	-11.7974
▁Al	-11.7974
▁moments	-11.7975
▁%.	-11.7975
▁Equally	-11.7975
▁disappearance	-11.798
▁Rio	-11.7982
▁fatal	-11.7985
▁PNR	-11.7989
▁exploiting	-11.799
▁courses	-11.7991
▁generating	-11.7992
▁heat	-11.7992
▁Category	-11.7998
▁unconditional	-11.7998
▁discriminated	-11.7998
▁shock	-11.8
▁dark	-11.8
▁realize	-11.8001
▁fostering	-11.8011
▁thresholds	-11.8014
▁aforementioned	-11.8021
▁obsolete	-11.8021
▁misery	-11.8021
▁versions	-11.8024
▁civilised	-11.8024
▁manufactured	-11.8026
▁bomb	-11.803
▁Medina	-11.8045
▁Cardiff	-11.8045
▁conformity	-11.8047
▁blue	-11.8058
compliance	-11.8058
▁urges	-11.8064
▁Bourlanges	-11.8069
▁Suu	-11.8069
▁dropped	-11.8069
▁Mauritania	-11.807
▁fifty	-11.8071
▁landscape	-11.8074
▁doctor	-11.8075
▁manufacturer	-11.8075
▁spheres	-11.8078
▁coin	-11.8093
▁Obama	-11.8093
▁desperately	-11.8094
▁resignation	-11.8098
▁standpoint	-11.8099
▁specifications	-11.8106
five	-11.8107
east	-11.811
▁W	-11.8111
▁loud	-11.8116
▁Bangladesh	-11.8117
▁Merkel	-11.8117
▁stimulus	-11.8117
▁bulk	-11.8119
▁ECR	-11.812
▁warned	-11.8121
▁decisively	-11.8123
▁spot	-11.8123
▁prerogatives	-11.8139
▁injuries	-11.8142
▁Sudanese	-11.8142
▁EPP	-11.8143
minded	-11.8146
▁breakdown	-11.8147
▁expectation	-11.8148
▁elite	-11.8149
▁besides	-11.8152
▁games	-11.8158
▁foreseeable	-11.8166
▁Former	-11.8168
▁condemns	-11.8168
▁fabric	-11.817
▁cite	-11.8171
▁machine	-11.8174
▁younger	-11.8174
▁conflicting	-11.8175
▁reaches	-11.8176
▁deprive	-11.818
▁endorses	-11.8185
▁Fifth	-11.8189
▁keeps	-11.8189
▁unchanged	-11.819
▁Aung	-11.819
▁unequivocally	-11.8191
▁finalised	-11.8192
▁Albanians	-11.8195
▁accommodate	-11.8195
▁invasion	-11.8197
▁reads	-11.8207
igo	-11.821
▁withdrawing	-11.8212
elzen	-11.8214
▁Nobel	-11.8215
▁McCreevy	-11.8215
▁petrol	-11.8215
▁west	-11.822
▁disgraceful	-11.8238
▁Overall	-11.8239
▁Uzbekistan	-11.8241
▁fulfilment	-11.8243
▁evidently	-11.8253
▁Lulling	-11.8263
▁adjourned	-11.8264
▁Fourth	-11.8265
▁certificates	-11.8267
▁inhumane	-11.827
▁dealings	-11.8272
hand	-11.8272
▁holdings	-11.8276
▁List	-11.8283
rate	-11.8286
▁disgrace	-11.8287
▁brave	-11.8288
▁polluting	-11.8303
▁correction	-11.8303
▁imply	-11.8306
▁stone	-11.8307
▁studying	-11.8309
▁amounting	-11.831
▁juncture	-11.8312
▁superfluous	-11.8312
▁slightest	-11.8313
▁fragmented	-11.8313
▁GNP	-11.8314
▁diesel	-11.8317
▁immigrant	-11.8322
–	-11.8328
▁neglect	-11.8335
Behrendt	-11.8337
▁combining	-11.8337
▁temporarily	-11.8337
▁dictatorships	-11.8337
▁Business	-11.8338
▁ICT	-11.8341
▁balances	-11.8342
▁finger	-11.8345
▁Life	-11.8346
▁responds	-11.8355
▁ideals	-11.8359
▁Certain	-11.8362
▁Recently	-11.8362
▁revenues	-11.8367
▁milestone	-11.8369
▁father	-11.8369
▁populated	-11.8379
▁beliefs	-11.8383
▁Garc	-11.8386
Plath	-11.8386
▁backdrop	-11.8386
▁Currently	-11.8387
▁beneficiary	-11.8388
▁delegated	-11.8391
▁neoliberal	-11.8391
▁operator	-11.8394
ant	-11.8397
▁loopholes	-11.8406
▁Randzio	-11.8411
▁Aviation	-11.8411
▁Inquiry	-11.8411
▁Fifteen	-11.8411
▁Athens	-11.8412
▁principally	-11.8413
▁safely	-11.8418
▁modify	-11.843
▁hearts	-11.8431
▁advised	-11.8434
▁music	-11.8434
▁licensing	-11.8437
▁literally	-11.8437
▁worsening	-11.8441
▁Belarusian	-11.8445
▁diet	-11.8448
▁renew	-11.8453
▁Nielson	-11.8461
▁liberalised	-11.8462
▁CIA	-11.8463
▁equity	-11.8463
▁constructively	-11.847
▁circles	-11.8471
▁toll	-11.8478
▁functional	-11.8478
▁Something	-11.8486
▁coincidence	-11.8486
▁Sierra	-11.8486
▁counterfeit	-11.8486
▁reinforcement	-11.8486
▁Bay	-11.8488
▁appearance	-11.8494
▁sulphur	-11.8495
▁reservation	-11.8499
▁murders	-11.8502
liberal	-11.851
▁objectively	-11.8511
▁maize	-11.8511
▁reduces	-11.8512
▁continuously	-11.8513
ROM	-11.8514
▁corresponds	-11.8517
▁student	-11.8519
▁chaired	-11.8519
▁metres	-11.8523
▁odds	-11.8526
▁frame	-11.8532
▁hot	-11.8535
line	-11.8536
▁questioned	-11.8537
▁Measures	-11.8538
▁reasoning	-11.8539
▁leap	-11.8544
▁ballot	-11.8544
▁enjoys	-11.8546
▁cited	-11.8547
▁insistence	-11.8561
▁prudent	-11.8562
▁regrets	-11.8566
▁traffickers	-11.8566
▁Indonesian	-11.8572
▁impacts	-11.8586
▁ceilings	-11.8586
▁extraordinarily	-11.8587
▁intimidation	-11.8587
▁speculative	-11.8587
▁Four	-11.8589
▁accurately	-11.8589
▁grips	-11.859
▁employer	-11.8596
▁relocations	-11.8598
democratic	-11.8605
▁impartial	-11.8612
▁demonstrators	-11.8613
▁Lama	-11.8613
▁director	-11.8618
▁file	-11.8621
▁wrongly	-11.8622
▁pollutants	-11.8623
▁characteristic	-11.8624
▁confuse	-11.8637
▁Tomorrow	-11.8639
▁tolerated	-11.8639
▁Jordan	-11.864
▁respectively	-11.864
▁speeding	-11.8653
▁Langen	-11.8664
▁Titley	-11.8664
▁Castro	-11.8665
▁remuneration	-11.8667
▁wondering	-11.8675
▁inventions	-11.8688
▁afforded	-11.8694
▁construct	-11.8706
financial	-11.8709
▁precious	-11.8714
▁profitability	-11.8715
▁malaria	-11.8715
▁extremist	-11.8724
▁reminding	-11.8725
▁named	-11.8725
▁bombing	-11.873
P	-11.8732
▁relatives	-11.8732
▁Too	-11.8733
▁gathering	-11.8735
▁Ankara	-11.874
▁Florenz	-11.874
▁Sustainable	-11.8742
▁verdict	-11.8748
▁score	-11.8748
M	-11.8755
▁continents	-11.8766
▁modernising	-11.8767
▁quest	-11.8769
▁Basel	-11.8769
▁destructive	-11.8772
▁pledge	-11.8773
▁possession	-11.8775
▁unwilling	-11.879
▁transpose	-11.879
▁gathered	-11.8793
▁department	-11.8799
▁socialists	-11.8799
▁window	-11.8802
▁conservative	-11.8807
▁Incidentally	-11.8817
▁cancelled	-11.8817
▁synergies	-11.8817
▁profoundly	-11.8819
▁emphasized	-11.882
▁beforehand	-11.8822
balanced	-11.8838
▁influx	-11.8842
▁comprehensible	-11.8843
BG	-11.8843
▁penalised	-11.8843
▁insists	-11.8849
▁gold	-11.8851
der	-11.8852
AIDS	-11.8864
▁proportions	-11.8866
▁ancient	-11.8869
▁justifies	-11.8869
▁Kazakhstan	-11.887
▁modifications	-11.8872
▁boat	-11.8876
▁arose	-11.8876
▁heating	-11.8878
▁Tunisian	-11.8881
▁corridors	-11.8891
life	-11.8892
▁accomplished	-11.8896
▁virtual	-11.8898
▁passports	-11.8899
▁accelerated	-11.89
▁norms	-11.8902
▁restraint	-11.8915
▁arm	-11.8919
▁hesitate	-11.892
▁Ultimately	-11.8921
▁exchanging	-11.8921
▁ECOFIN	-11.8921
▁Karas	-11.8922
▁federalist	-11.8923
▁Bear	-11.8924
▁parental	-11.8925
▁Wall	-11.8927
▁overdue	-11.8933
▁satisfactorily	-11.8947
▁clubs	-11.8961
▁Burundi	-11.8973
▁Juncker	-11.8973
▁redistribution	-11.8973
▁conferred	-11.8974
▁Wynn	-11.8974
▁Daphne	-11.8976
▁SWIFT	-11.8977
▁frozen	-11.898
os	-11.8981
▁escalation	-11.8983
▁reminder	-11.8988
▁blackmail	-11.8994
▁ally	-11.8996
▁evasion	-11.9
▁salmon	-11.9
▁liberalising	-11.9
▁equip	-11.9001
▁feedingstuffs	-11.9003
▁peacefully	-11.9006
▁undergoing	-11.901
▁orders	-11.9011
▁Mart	-11.9016
case	-11.9017
▁abandoning	-11.9018
▁describes	-11.9021
▁cohesive	-11.9026
▁yourselves	-11.9026
▁synergy	-11.9026
ation	-11.903
▁prosecutor	-11.9037
O	-11.9041
▁broaden	-11.9048
▁performing	-11.9049
▁Wales	-11.9052
▁Technological	-11.9053
▁Men	-11.9055
▁experiment	-11.9056
▁Combat	-11.9056
▁observance	-11.9056
▁frequency	-11.9059
▁liberalise	-11.9062
▁questioning	-11.9062
▁authorise	-11.9062
▁corporations	-11.907
▁rice	-11.9079
▁churches	-11.9079
▁dividing	-11.9079
▁sanction	-11.9083
▁tsunami	-11.9092
▁storm	-11.9092
▁imposes	-11.9097
▁calculations	-11.9101
▁lowering	-11.9102
▁observing	-11.9106
▁varies	-11.9106
▁ambiguous	-11.9106
▁Unlike	-11.9106
▁troika	-11.9107
▁predict	-11.9108
▁publicity	-11.9113
▁derive	-11.9116
▁favours	-11.9116
▁recipient	-11.9118
▁relaunch	-11.9126
producing	-11.9131
▁Chapter	-11.9132
▁Faced	-11.9132
▁enforcing	-11.9134
▁beg	-11.9134
▁asbestos	-11.9136
▁ECSC	-11.9139
▁refuge	-11.9141
▁cleaner	-11.9143
▁odd	-11.9148
▁ascertain	-11.9154
▁theoretical	-11.9159
▁Bowis	-11.9159
▁Rocard	-11.9159
▁devised	-11.9161
▁supplemented	-11.9162
▁plea	-11.9167
▁notified	-11.9169
▁prioritise	-11.9171
▁St	-11.9183
Applause	-11.9183
▁commodities	-11.9186
▁justifiable	-11.9186
▁discrepancies	-11.9186
law	-11.9186
▁solar	-11.9188
ns	-11.9205
▁Bali	-11.9207
▁Sever	-11.921
thirds	-11.9211
▁Recent	-11.9212
▁Coelho	-11.9213
▁dozens	-11.9214
▁Nabucco	-11.9215
▁shipowners	-11.9216
▁Gross	-11.9221
▁vacuum	-11.9223
▁traders	-11.9224
▁exacerbate	-11.9226
▁films	-11.9233
▁Dalai	-11.924
▁Secretariat	-11.924
▁unstable	-11.924
▁adjusted	-11.9242
▁encounter	-11.9243
▁electric	-11.9247
▁incumbent	-11.925
▁Be	-11.9254
▁upholding	-11.9255
▁tongue	-11.9256
▁relying	-11.9259
▁GMO	-11.926
▁fortunate	-11.9266
erhofstadt	-11.9267
▁acknowledging	-11.9267
▁tendencies	-11.9267
▁stopping	-11.9267
▁Ford	-11.9271
▁addiction	-11.9277
▁friendship	-11.9278
▁assisted	-11.9279
▁rulings	-11.9291
▁reluctant	-11.9293
▁Presidencies	-11.9294
▁harmonious	-11.9294
Herzegovina	-11.9295
▁marriage	-11.9299
▁passage	-11.9306
▁horse	-11.931
▁chief	-11.9312
▁generic	-11.9312
▁Arabia	-11.9315
▁shops	-11.9319
▁Rwanda	-11.932
▁Data	-11.9321
▁memorandum	-11.9322
▁altered	-11.9324
▁Ber	-11.9328
▁tends	-11.9332
▁specialists	-11.9336
▁cell	-11.9339
▁images	-11.9342
h	-11.9342
▁practised	-11.9349
growing	-11.935
minute	-11.935
T	-11.935
▁persuaded	-11.9351
▁deepen	-11.9352
▁quiet	-11.9356
▁varying	-11.9359
▁hesitation	-11.936
▁ecosystem	-11.9361
▁infected	-11.9383
▁possess	-11.9395
tabilisation	-11.9401
▁Amnesty	-11.9403
▁University	-11.9404
▁decoupling	-11.9404
▁exacerbated	-11.9404
▁municipal	-11.9405
▁termed	-11.941
▁Lithuanian	-11.9419
▁Croatian	-11.9423
▁hectares	-11.9429
▁Seattle	-11.9431
▁exciting	-11.9431
▁Lebanese	-11.9434
▁forecast	-11.9438
▁operated	-11.9441
▁fed	-11.9442
▁dilemma	-11.9442
▁U	-11.9448
▁Temporary	-11.9458
▁securities	-11.9458
financing	-11.9459
▁prompted	-11.9461
▁gear	-11.9465
ng	-11.947
▁recipients	-11.9475
▁Admittedly	-11.9486
▁distorted	-11.9489
▁ASEM	-11.949
▁separated	-11.9492
▁drink	-11.9492
▁incomplete	-11.9493
▁calendar	-11.9497
▁Supervisor	-11.9497
▁premises	-11.9502
▁protocols	-11.9506
▁bonds	-11.9509
▁blatant	-11.9512
▁celebrating	-11.9513
▁importing	-11.9515
▁Prevention	-11.9517
▁oblige	-11.9525
▁trap	-11.9528
▁unaware	-11.9528
▁illicit	-11.954
▁outrageous	-11.954
▁intensified	-11.9541
▁unnecessarily	-11.9541
▁Staff	-11.9543
▁Singapore	-11.9543
parliamentary	-11.9545
▁exhaustive	-11.9546
▁approximation	-11.9546
▁realism	-11.9547
▁practise	-11.9553
▁publishing	-11.9555
▁Cup	-11.9556
▁feeding	-11.9562
▁recommending	-11.9566
▁barbaric	-11.9569
▁confusing	-11.9569
▁hierarchy	-11.9569
▁unreservedly	-11.9569
▁Police	-11.9571
political	-11.9572
ised	-11.9575
▁shortages	-11.958
▁mutilation	-11.9582
▁indicator	-11.9582
▁club	-11.9582
▁endeavouring	-11.9588
▁ball	-11.9589
▁advisable	-11.9597
▁complies	-11.9597
▁unavoidable	-11.9598
▁output	-11.9599
▁differentiated	-11.9601
▁closest	-11.9603
▁iron	-11.9607
▁aids	-11.9609
▁emerges	-11.9616
▁undertook	-11.9625
▁plight	-11.9625
▁originating	-11.9626
▁disruption	-11.9638
▁concur	-11.9638
▁Hautala	-11.9653
▁deplorable	-11.9654
▁endless	-11.9655
▁glass	-11.9656
▁changeover	-11.9657
risk	-11.9659
emen	-11.966
▁foreigners	-11.966
▁reimbursement	-11.9666
▁rush	-11.9676
▁tankers	-11.9678
▁expressions	-11.9679
▁targeting	-11.9679
▁interpretations	-11.9681
▁ETA	-11.9681
▁retaining	-11.9682
▁Maybe	-11.9682
▁surpluses	-11.9682
▁reaffirmed	-11.9683
▁Dialogue	-11.9684
▁rebuilding	-11.969
▁Others	-11.9706
▁Blokland	-11.9709
▁pregnant	-11.9709
▁shed	-11.971
▁attendance	-11.9713
needed	-11.9715
▁journeys	-11.9716
▁hunting	-11.972
▁supplying	-11.972
decision	-11.9731
▁qualify	-11.9733
▁Herman	-11.9733
▁convicted	-11.9738
▁illustrated	-11.9739
▁Universal	-11.9739
▁confidential	-11.9739
▁travellers	-11.9746
▁Greenland	-11.9747
▁illusion	-11.9752
▁winners	-11.9757
upreme	-11.9762
▁Lannoye	-11.9766
▁drastically	-11.9766
▁depleted	-11.9767
▁sacrificed	-11.9767
▁turnover	-11.9768
▁freeze	-11.9782
▁directors	-11.9783
▁rests	-11.9784
▁shipyards	-11.9786
▁Germans	-11.9791
▁Argentina	-11.9796
▁usefulness	-11.9797
▁patterns	-11.9797
▁waterways	-11.9798
▁exerted	-11.9798
▁tightening	-11.9806
▁recitals	-11.9808
▁incidence	-11.9809
▁supporter	-11.9809
▁delaying	-11.9822
▁anxiety	-11.9824
▁scientifically	-11.9824
▁detainees	-11.9825
▁exceeding	-11.9834
▁motivation	-11.9838
▁secular	-11.985
▁penal	-11.9852
▁automotive	-11.9852
▁freezing	-11.9852
▁Ortega	-11.9852
▁backs	-11.9852
▁appealing	-11.9855
▁curb	-11.9858
▁rooted	-11.9863
▁optional	-11.9869
▁Baringdorf	-11.9881
▁Likewise	-11.9881
▁outdated	-11.9881
▁underestimated	-11.9881
▁zu	-11.9882
▁balancing	-11.9883
decentralisation	-11.9884
▁Leonardo	-11.9884
▁bloc	-11.9896
▁progressing	-11.9897
▁skilled	-11.9905
▁policing	-11.9912
▁holders	-11.9913
▁chairmen	-11.9915
▁seventh	-11.9916
evident	-11.9917
ana	-11.9917
at	-11.9921
ist	-11.993
▁winner	-11.9935
▁combated	-11.9935
▁resolute	-11.9937
▁destiny	-11.9938
▁resettlement	-11.9938
▁influenza	-11.9939
▁sky	-11.9946
▁degrees	-11.9946
▁designation	-11.9954
▁household	-11.9957
▁differs	-11.9967
▁optimum	-11.9967
led	-11.9967
▁stabilising	-11.9968
▁manipulation	-11.9982
▁expulsion	-11.9984
▁enthusiastic	-11.9992
▁exporters	-11.9993
▁seconds	-11.9993
▁forever	-11.9993
▁Kaliningrad	-11.9996
▁uncertainties	-11.9996
▁Feira	-11.9997
▁occasionally	-11.9997
▁modulation	-11.9998
▁vigilance	-11.9998
▁agri	-11.9998
▁transformed	-11.9999
▁eating	-12.001
▁sittings	-12.001
▁undergo	-12.0023
▁Morillon	-12.0025
▁brain	-12.0025
▁prescribed	-12.0026
▁irreversible	-12.0026
▁bargaining	-12.0028
▁tougher	-12.0029
▁tactics	-12.0043
▁unjust	-12.0054
▁Graefe	-12.0055
▁emotional	-12.0056
▁widening	-12.0064
▁Gibraltar	-12.0084
▁unsustainable	-12.0084
▁unlawful	-12.0084
▁touches	-12.0086
▁al	-12.0087
▁phone	-12.0088
▁hopeful	-12.0088
▁transmitted	-12.009
▁subsidised	-12.0092
▁sounds	-12.0095
▁super	-12.0099
▁repatriation	-12.01
▁dossiers	-12.0107
▁rectify	-12.0108
▁Hopefully	-12.0113
▁criticising	-12.0113
▁suffers	-12.0115
▁habits	-12.0118
▁signatories	-12.0119
▁insult	-12.0122
▁drift	-12.0124
personnel	-12.0124
▁esteem	-12.0125
▁command	-12.0129
▁honey	-12.013
▁Theato	-12.0143
▁imagination	-12.0143
▁edge	-12.0148
▁Institutions	-12.0153
▁Leinen	-12.0153
established	-12.0155
▁similarly	-12.0155
▁offset	-12.0159
▁blockade	-12.016
▁biometric	-12.016
▁Egyptian	-12.0162
▁Sterckx	-12.0173
▁vicious	-12.0173
▁Elles	-12.0173
onourable	-12.0173
▁multilingualism	-12.0173
▁applause	-12.0174
▁disregarded	-12.0176
Nordic	-12.0184
▁skill	-12.0188
▁pandemic	-12.019
▁Catholic	-12.0192
iolence	-12.0202
▁McKenna	-12.0202
▁Sky	-12.0202
▁City	-12.0204
▁embarked	-12.0204
nez	-12.0208
▁continental	-12.0215
▁vain	-12.0215
▁Leone	-12.0217
▁Georgian	-12.0228
efficient	-12.023
▁compensatory	-12.0232
▁endorsement	-12.0232
▁Aznar	-12.0233
▁Oslo	-12.0233
▁Prague	-12.0233
▁Transparency	-12.0234
▁coach	-12.0234
▁ambiguity	-12.0234
▁bloody	-12.0237
▁indifferent	-12.0241
▁render	-12.0242
▁provider	-12.0245
▁constituent	-12.0251
▁square	-12.0254
▁sacrifices	-12.0258
▁resumption	-12.0262
▁bankruptcy	-12.0262
▁steady	-12.0262
▁Things	-12.0263
▁representations	-12.0264
▁historically	-12.0267
increasing	-12.0274
▁penalise	-12.0278
▁pockets	-12.0279
▁shot	-12.0279
▁crucially	-12.0282
▁ratifying	-12.0283
▁teach	-12.0285
▁seeds	-12.0288
▁outcomes	-12.0288
▁stories	-12.0292
▁accommodation	-12.0292
▁multilateralism	-12.0292
▁hostile	-12.0293
▁climatic	-12.0296
ransatlantic	-12.0297
▁useless	-12.0299
▁Post	-12.0303
▁households	-12.0306
▁associate	-12.0309
▁portfolio	-12.0309
annual	-12.0314
everal	-12.0318
▁Ferber	-12.0322
▁pertinent	-12.0322
▁unfounded	-12.0322
▁Assistance	-12.0322
▁mobilised	-12.0323
▁baby	-12.0324
▁forwards	-12.0325
▁wealthy	-12.033
food	-12.0334
▁massacre	-12.0339
▁merger	-12.0339
▁importers	-12.0341
favoured	-12.0343
▁breaks	-12.0343
▁origins	-12.035
▁discourage	-12.0351
▁destined	-12.0352
▁equilibrium	-12.0352
▁Almost	-12.0352
▁format	-12.0353
▁impressed	-12.0354
▁racial	-12.0356
▁evaluations	-12.0363
▁staffing	-12.037
▁qualities	-12.0382
▁Thailand	-12.0382
▁Lamfalussy	-12.0384
▁rivers	-12.0388
▁consisting	-12.039
style	-12.0393
▁headed	-12.0394
▁filled	-12.0395
private	-12.0396
▁cancellation	-12.04
▁capitals	-12.0402
▁rose	-12.0406
▁Church	-12.0412
▁Broek	-12.0412
▁reluctance	-12.0412
▁voluntarily	-12.0412
▁liquidity	-12.0413
▁phased	-12.0417
▁facilitated	-12.0418
▁cosmetics	-12.0419
▁nutrition	-12.0429
▁confirming	-12.0429
▁absorb	-12.0436
▁pretend	-12.0436
▁contributors	-12.0437
de	-12.0437
▁Lampedusa	-12.0443
▁Regrettably	-12.0443
▁preceded	-12.0443
▁Cairo	-12.0444
▁Speaking	-12.0444
▁rigorously	-12.0445
▁intermediate	-12.0446
▁grey	-12.045
▁envisages	-12.0457
discriminatory	-12.0457
▁scandals	-12.0458
▁heed	-12.0458
▁Saturday	-12.0473
▁generosity	-12.0473
▁inviting	-12.0473
▁GATT	-12.0475
▁allegedly	-12.0475
▁universally	-12.0479
▁suppose	-12.0489
▁slogan	-12.0492
▁Canadian	-12.0495
▁Official	-12.0495
▁reap	-12.0502
nationalisation	-12.0503
▁Child	-12.0504
▁Dimas	-12.0504
▁likelihood	-12.0504
▁dedication	-12.0504
▁Due	-12.0504
▁deteriorating	-12.0504
▁Arrest	-12.0505
▁quicker	-12.0505
▁forwarded	-12.0505
track	-12.0509
▁directions	-12.051
▁pupils	-12.0511
▁outright	-12.0518
▁en	-12.052
▁season	-12.0523
▁customer	-12.0526
ial	-12.0532
▁expectancy	-12.0535
▁pledged	-12.0536
▁flu	-12.055
▁drain	-12.0551
▁guideline	-12.0554
▁Chechen	-12.0556
▁occupy	-12.056
▁outlines	-12.0565
▁Haug	-12.0565
▁violating	-12.0565
▁desertification	-12.0565
▁marginalised	-12.0566
arious	-12.0566
▁seized	-12.0566
▁awarding	-12.058
specific	-12.0581
▁Re	-12.0584
▁recalled	-12.0587
▁postponing	-12.0596
▁heartfelt	-12.0596
▁preventative	-12.0597
▁overnight	-12.0597
▁novel	-12.0598
establish	-12.0604
▁intensity	-12.0607
▁web	-12.0608
sharing	-12.0613
▁attacking	-12.0616
point	-12.0618
▁Senate	-12.0627
▁ratings	-12.0628
▁percent	-12.063
▁progressively	-12.063
▁benchmarks	-12.0633
▁corner	-12.064
▁referral	-12.0646
▁Gr	-12.0652
▁rethink	-12.0652
▁ranging	-12.0657
▁curious	-12.0657
▁donations	-12.0658
▁coordinators	-12.0658
▁allotted	-12.0658
▁intervening	-12.0658
▁batteries	-12.0658
▁entrepreneurial	-12.0659
ia	-12.0661
▁challenged	-12.0669
▁par	-12.0673
▁ignores	-12.0674
▁chamber	-12.0682
▁educated	-12.0683
▁unrest	-12.0685
▁arrange	-12.0689
▁inquiries	-12.0689
▁tickets	-12.07
existent	-12.0702
war	-12.0703
▁returns	-12.0709
▁native	-12.071
▁NGO	-12.0711
▁Trans	-12.0718
▁bitter	-12.072
▁cancel	-12.0721
▁unused	-12.0721
▁reintegration	-12.0721
▁Experience	-12.0721
▁church	-12.0722
going	-12.0722
▁clinical	-12.0722
▁wisely	-12.0723
p	-12.0723
▁richer	-12.0724
▁grassroots	-12.0731
keeping	-12.0736
▁makers	-12.0737
▁allocations	-12.0748
▁Kenya	-12.075
▁mitigate	-12.0751
▁ignorance	-12.0752
▁Progressive	-12.0753
▁consumed	-12.0753
▁seafarers	-12.0754
▁Based	-12.0754
▁distances	-12.076
▁Needles	-12.0763
▁landfill	-12.0764
▁broadcast	-12.0766
▁hugely	-12.0767
▁illustration	-12.077
▁Ludford	-12.0783
▁reconciling	-12.0783
▁GBP	-12.0783
▁composed	-12.0783
▁notwithstanding	-12.0784
▁Movement	-12.0784
benefit	-12.079
effective	-12.0799
which	-12.0802
▁fulfils	-12.0811
▁killings	-12.0812
▁fraudulent	-12.0815
▁chiefly	-12.0816
▁inclined	-12.0816
▁chronic	-12.0816
▁accessing	-12.0817
▁coasts	-12.0828
▁King	-12.0829
▁lively	-12.0832
▁denominator	-12.0835
F	-12.0836
▁presently	-12.0837
▁motives	-12.0842
▁Directives	-12.0843
▁staying	-12.0844
▁interfering	-12.0847
▁inadmissible	-12.0847
▁devastated	-12.0847
▁cargo	-12.0847
▁violates	-12.0848
▁communicated	-12.0848
▁mobilising	-12.0849
▁watered	-12.0849
▁prevailed	-12.0851
▁scepticism	-12.0859
▁inefficient	-12.086
▁doubtless	-12.0863
▁embrace	-12.0867
▁overly	-12.0869
▁Co	-12.0871
▁injury	-12.0878
▁jeopardising	-12.0878
▁Salafranca	-12.0879
▁timetables	-12.0879
▁abandonment	-12.0879
▁standardised	-12.0882
▁polluter	-12.0889
▁ticket	-12.0895
▁develops	-12.0897
▁doctrine	-12.0899
▁Patent	-12.0899
▁insight	-12.0899
▁plane	-12.0901
▁Rompuy	-12.091
▁tantamount	-12.091
▁undeniable	-12.091
▁Daul	-12.091
▁predictable	-12.091
▁Asylum	-12.091
▁conduc	-12.091
▁authorising	-12.0911
f	-12.0911
▁annum	-12.0912
hour	-12.0913
▁UNHCR	-12.0914
▁Jewish	-12.0915
▁fluctuations	-12.0917
national	-12.0919
▁ordered	-12.0922
▁Her	-12.0929
▁summarise	-12.0931
▁dictate	-12.0931
▁supplier	-12.0932
▁forgive	-12.0932
▁despair	-12.0936
▁forty	-12.0937
▁Guatemala	-12.0942
▁Jackson	-12.0942
▁tiny	-12.0942
▁headway	-12.0943
▁differentiation	-12.0943
▁richest	-12.0943
▁appearing	-12.0944
▁letting	-12.0944
▁forums	-12.0947
▁meaningless	-12.0948
▁Poles	-12.095
▁marginal	-12.0956
▁token	-12.0958
elected	-12.0959
▁impasse	-12.0962
▁distribute	-12.0963
▁doping	-12.0964
▁grand	-12.0964
▁upset	-12.0965
▁denial	-12.0966
▁cynical	-12.0973
▁comprising	-12.0974
▁steadily	-12.0974
▁synthetic	-12.0974
▁Fifthly	-12.0975
▁nationalist	-12.0976
general	-12.0987
▁trees	-12.1002
▁stuck	-12.1006
▁unhappy	-12.1006
▁detected	-12.1008
▁tortured	-12.1009
▁dwell	-12.1023
▁cigarette	-12.1029
▁Armenian	-12.1032
▁accompany	-12.1033
▁noble	-12.1038
▁Duisenberg	-12.1039
▁Mitchell	-12.1039
▁ashamed	-12.1039
▁indignation	-12.1039
▁remedies	-12.1039
▁acknowledgement	-12.1039
▁Did	-12.1041
▁burning	-12.1045
▁Eurodac	-12.1045
▁symbols	-12.1047
▁derivatives	-12.1048
▁computers	-12.1057
dumping	-12.106
▁premise	-12.1061
▁dioxin	-12.1061
▁acquisition	-12.1062
▁midst	-12.1065
▁magnificent	-12.107
▁emergencies	-12.1071
▁laudable	-12.1071
▁Parties	-12.1071
▁attributed	-12.1072
▁misgivings	-12.1072
▁Ministerial	-12.1073
▁sexes	-12.1073
market	-12.1094
▁village	-12.1094
▁corrections	-12.1095
▁qualification	-12.1097
▁Guarantee	-12.11
▁surrender	-12.1102
pidla	-12.1103
▁Fischer	-12.1103
▁Gebhardt	-12.1103
▁mature	-12.1104
▁forcefully	-12.1104
▁acceding	-12.1105
▁channelled	-12.1105
▁busy	-12.1106
▁Bonn	-12.1108
▁shopping	-12.111
▁Cold	-12.1111
▁stamp	-12.1127
▁fantastic	-12.1136
▁passes	-12.1142
▁pig	-12.1143
▁spiral	-12.1155
▁avail	-12.1156
▁Alexander	-12.1169
▁erosion	-12.1169
▁unlimited	-12.1169
▁Wallis	-12.1169
▁Philippines	-12.1173
▁logistics	-12.1174
▁la	-12.1178
▁pigs	-12.1179
social	-12.1183
▁disciplinary	-12.1185
▁cleared	-12.1185
South	-12.1194
▁constitutions	-12.1199
▁proximity	-12.1201
▁arranged	-12.1206
▁doubtful	-12.1208
ka	-12.1222
▁Warrant	-12.1223
▁explosion	-12.1224
▁Recommendation	-12.1225
▁occurrence	-12.1226
▁distress	-12.1228
▁bridges	-12.1229
▁successor	-12.1229
nen	-12.1233
▁Abkhazia	-12.1233
▁moderation	-12.1234
▁Ossetia	-12.1235
▁Nassauer	-12.1235
▁cleansing	-12.1237
▁intensively	-12.1238
▁pertain	-12.1238
▁conditionality	-12.1242
▁absorption	-12.1242
▁enjoying	-12.1244
▁prevails	-12.1246
ar	-12.1252
▁surveys	-12.1253
▁catalogue	-12.1256
▁Region	-12.1257
▁horror	-12.1258
▁homeland	-12.1258
speaking	-12.126
▁inhuman	-12.1264
▁doubled	-12.1266
▁Pirker	-12.1267
▁contemporary	-12.1267
▁junta	-12.1267
▁lorry	-12.1267
▁Specifically	-12.1267
▁pleasant	-12.1267
▁Throughout	-12.1268
▁triggered	-12.127
▁soya	-12.1271
board	-12.128
▁master	-12.1284
▁volumes	-12.1287
▁catalyst	-12.129
▁mode	-12.1294
▁Almunia	-12.13
▁identifies	-12.13
▁mismanagement	-12.13
▁hiding	-12.1301
▁artistic	-12.1304
ion	-12.1304
▁transparently	-12.1312
▁Refugees	-12.1327
▁elect	-12.133
▁paradox	-12.1333
introductory	-12.1334
▁aftermath	-12.1334
▁degradation	-12.1334
▁predicted	-12.1336
▁stupid	-12.1338
▁dictators	-12.134
▁CE	-12.1346
▁massacres	-12.1348
▁fits	-12.1353
▁infection	-12.1359
▁polls	-12.1359
▁dignified	-12.1367
▁horrific	-12.1367
▁Kashmir	-12.1368
▁scenarios	-12.1369
▁IT	-12.1388
▁Radical	-12.1391
▁detect	-12.1393
▁classic	-12.1398
▁flagrant	-12.14
▁Functioning	-12.14
▁customary	-12.1401
▁Title	-12.1401
▁upcoming	-12.1403
▁Experts	-12.1404
▁humans	-12.1411
▁champion	-12.1418
▁feared	-12.1423
fire	-12.1425
▁nomination	-12.1426
▁volatility	-12.1434
▁declining	-12.1434
▁complementarity	-12.1435
▁plainly	-12.1436
▁answering	-12.1436
▁militarisation	-12.1437
oung	-12.1441
roots	-12.145
ful	-12.145
over	-12.145
▁Kof	-12.1459
▁exit	-12.1467
▁Reconstruction	-12.1468
▁detection	-12.1468
▁unexpected	-12.1468
▁tempted	-12.1468
▁upgrading	-12.1468
▁categorically	-12.1468
▁endangered	-12.147
▁fusion	-12.1479
▁o	-12.148
▁branch	-12.1484
▁backward	-12.1493
▁envoy	-12.1493
▁lawmaking	-12.15
▁Howitt	-12.1502
▁Collins	-12.1502
▁norm	-12.1513
▁databases	-12.1517
▁enlarge	-12.1525
▁college	-12.1527
▁suspects	-12.1527
▁timeframe	-12.1529
designate	-12.1529
▁walls	-12.1532
▁identities	-12.1535
▁suppression	-12.1535
▁Napolitano	-12.1536
▁Izquierdo	-12.1536
▁deforestation	-12.1536
▁tenth	-12.1538
▁indifference	-12.1539
▁generates	-12.1542
▁administered	-12.1543
▁breathe	-12.156
▁machines	-12.1561
▁sheet	-12.1561
▁reopen	-12.1562
▁select	-12.1563
▁aged	-12.1567
▁achievable	-12.1569
▁Whitehead	-12.157
▁stored	-12.157
▁extraction	-12.157
▁globalization	-12.1571
▁Gradin	-12.1571
▁Communism	-12.1571
▁Institutional	-12.1573
▁generalised	-12.1574
▁fronts	-12.1581
▁eminent	-12.1587
▁clients	-12.1588
▁reward	-12.159
▁rises	-12.1595
▁concession	-12.1597
▁Force	-12.1602
▁factual	-12.1603
▁Syrian	-12.1603
▁believing	-12.1604
▁describing	-12.1604
▁preferably	-12.1604
▁Particularly	-12.1604
▁favourably	-12.1604
▁unsafe	-12.1605
▁reinforces	-12.1612
▁anger	-12.1613
▁miles	-12.1618
▁proceeds	-12.1621
▁repetition	-12.1628
▁craft	-12.163
▁Lord	-12.1631
ner	-12.1632
▁fundamentalist	-12.1636
▁preamble	-12.1638
▁Twenty	-12.1638
▁enemies	-12.1638
▁advantageous	-12.1659
▁supplements	-12.1661
▁explosive	-12.1664
▁bordering	-12.1666
▁Recital	-12.1667
▁Lange	-12.1671
▁irrelevant	-12.1672
▁consultative	-12.1672
▁abundantly	-12.1672
▁Clinton	-12.1673
▁advancing	-12.1673
handed	-12.1673
▁Between	-12.1673
▁compensated	-12.1674
▁therapeutic	-12.1677
▁objects	-12.1684
▁dialogues	-12.1691
ne	-12.1691
▁reactor	-12.1699
▁landing	-12.1701
▁dismantle	-12.1706
▁pregnancy	-12.1707
▁travelled	-12.1707
▁flawed	-12.1708
▁grain	-12.1708
▁SOL	-12.1708
▁Competitiveness	-12.1712
▁legitimately	-12.1715
▁couples	-12.1715
▁gladly	-12.1715
▁Hungarians	-12.1722
ring	-12.1725
▁shores	-12.1727
▁parliamentarian	-12.1731
▁coincide	-12.1733
▁deterrent	-12.1733
▁Access	-12.1735
▁comprises	-12.1735
ethnic	-12.1737
ce	-12.174
▁Helms	-12.1741
▁Savary	-12.1741
▁globe	-12.1741
▁subsidiary	-12.1741
▁Either	-12.1742
▁commissioned	-12.1744
▁coupled	-12.1749
▁wellbeing	-12.1759
▁defects	-12.1761
▁institutes	-12.1774
▁Buitenweg	-12.1776
▁hardest	-12.178
▁extensively	-12.1782
▁clearing	-12.1789
▁files	-12.18
▁Un	-12.1804
Saharan	-12.1807
▁scoreboard	-12.1809
▁broke	-12.1809
▁unduly	-12.1811
▁Farmers	-12.1811
▁livelihoods	-12.1818
▁rationale	-12.1819
▁awful	-12.1823
▁pledges	-12.1834
▁oversight	-12.1836
▁inspire	-12.1837
▁investor	-12.1839
▁holidays	-12.1841
man	-12.1841
▁temperature	-12.1843
▁overriding	-12.1846
▁starch	-12.1847
▁situated	-12.1847
▁registers	-12.1848
▁bathing	-12.1848
▁platforms	-12.1856
▁traps	-12.1867
▁shelter	-12.1867
▁routine	-12.1872
▁catching	-12.1875
▁deaf	-12.1881
▁Lamassoure	-12.1881
▁Monnet	-12.1883
▁panic	-12.1883
▁adherence	-12.1884
▁Paul	-12.1888
▁heated	-12.1888
▁deploy	-12.1902
▁affirm	-12.1904
▁La	-12.1905
▁consume	-12.1907
▁eventual	-12.1915
▁Frassoni	-12.1916
▁vulnerability	-12.1916
▁backbone	-12.1917
▁Country	-12.192
▁utilisation	-12.1929
▁incorporates	-12.193
▁ranks	-12.1937
▁Gil	-12.194
▁automobile	-12.1943
▁trigger	-12.1944
▁establishments	-12.1945
▁cosmetic	-12.1945
▁Gas	-12.1946
▁deem	-12.1951
▁Martens	-12.1951
▁Basically	-12.1951
▁speedily	-12.1952
▁Turkmenistan	-12.1952
▁Draft	-12.1953
▁hydrogen	-12.1954
▁convert	-12.1972
▁discriminate	-12.1979
▁tribunal	-12.1979
▁exceeds	-12.198
▁purchases	-12.1982
▁fitting	-12.199
▁concentrations	-12.199
▁Training	-12.199
▁Road	-12.1991
▁benchmarking	-12.1995
▁cows	-12.1996
▁butter	-12.1998
▁proclaimed	-12.2001
▁drinks	-12.2006
▁precautions	-12.2007
▁earned	-12.2008
▁locations	-12.2009
▁shifting	-12.201
▁Better	-12.2012
▁stipulate	-12.2015
▁taste	-12.2016
▁installation	-12.2017
owned	-12.2019
▁Conduct	-12.2022
▁expiry	-12.2022
▁domination	-12.2023
▁Mozambique	-12.2024
▁motorways	-12.2024
▁Technical	-12.2024
▁constructed	-12.2029
GA	-12.2029
▁winning	-12.2032
▁risky	-12.2045
▁aspire	-12.205
▁Along	-12.2051
▁rolling	-12.2051
▁proportional	-12.2053
▁patenting	-12.2056
▁Tajani	-12.2058
▁rapprochement	-12.2058
▁vested	-12.2058
▁tables	-12.2059
▁levelled	-12.2065
▁EPAs	-12.2067
▁diplomats	-12.2067
▁appointments	-12.2072
▁mini	-12.2076
is	-12.2078
▁benchmark	-12.208
mail	-12.2082
▁livelihood	-12.2087
▁fix	-12.209
▁Malaysia	-12.2093
eterinary	-12.2094
▁Doyle	-12.2094
▁gravity	-12.2094
▁civic	-12.2097
▁fleeing	-12.2099
▁mail	-12.2106
▁employing	-12.2106
▁homework	-12.2112
▁auditing	-12.2112
▁resign	-12.2122
▁omission	-12.2123
▁clash	-12.2126
▁Pen	-12.2127
▁tighter	-12.2131
▁tripartite	-12.2131
▁maximise	-12.2132
▁Hatzidakis	-12.2133
▁waves	-12.2133
▁Maghreb	-12.2134
▁don	-12.2137
▁trip	-12.2141
▁habitats	-12.2149
▁spell	-12.2152
▁gulf	-12.2159
▁lifestyle	-12.2162
▁Ten	-12.2162
▁Crowley	-12.2166
▁arrogance	-12.2166
▁gratifying	-12.2166
▁negligence	-12.2166
▁mentality	-12.2166
▁decreased	-12.2167
▁indefinitely	-12.2168
▁crews	-12.2168
▁Jews	-12.217
▁whoever	-12.2171
▁Drugs	-12.2171
▁landmines	-12.2172
▁Revolution	-12.2177
▁sand	-12.2183
▁joy	-12.2185
▁boycott	-12.2189
▁trace	-12.2195
▁paradoxical	-12.2201
▁obscure	-12.2202
▁crude	-12.2202
▁genital	-12.2202
▁expelled	-12.2202
▁compelled	-12.2202
▁Trakatellis	-12.2202
▁prolong	-12.2203
▁Contrary	-12.2203
▁Colleagues	-12.2203
▁exaggerated	-12.2203
▁contentious	-12.2205
▁ring	-12.2215
ized	-12.2228
v	-12.2231
▁Berg	-12.2237
hrkop	-12.2239
▁Haarder	-12.2239
▁distributing	-12.2239
▁declaring	-12.2239
▁branches	-12.2239
▁adversely	-12.2242
▁ages	-12.2242
▁George	-12.2242
▁supreme	-12.2243
omic	-12.2245
▁ESDP	-12.225
▁spouses	-12.2253
No	-12.2256
▁strain	-12.2258
▁Level	-12.2258
▁budgeting	-12.2259
▁basin	-12.2263
▁sentiments	-12.227
▁elaborate	-12.2277
▁seal	-12.2278
▁critics	-12.2281
new	-12.2285
▁Terrorism	-12.2294
▁twin	-12.2296
vez	-12.2305
▁pictures	-12.2309
raising	-12.2309
nchez	-12.2312
▁Minsk	-12.2312
▁embryonic	-12.2312
▁motto	-12.2312
▁undergone	-12.2312
▁luxury	-12.2312
▁roughly	-12.2313
▁intercultural	-12.2313
▁Fatuzzo	-12.2315
▁characterise	-12.2316
▁dreams	-12.2339
▁Schr	-12.2339
▁cereal	-12.2343
Burton	-12.2349
▁cocoa	-12.2349
▁libraries	-12.2349
▁unregulated	-12.2349
▁prohibiting	-12.2359
▁tonne	-12.2364
do	-12.2367
▁obliges	-12.2369
▁notable	-12.2372
▁famine	-12.2379
▁worded	-12.2383
▁defensive	-12.2385
▁homosexuals	-12.2385
▁insignificant	-12.2385
▁scrapping	-12.2385
▁leverage	-12.2387
▁exhausted	-12.2387
▁witnesses	-12.2387
▁initiating	-12.2387
▁forge	-12.2388
▁coffee	-12.2388
▁Cultural	-12.239
▁realising	-12.239
▁smallest	-12.2396
▁volunteers	-12.2402
▁steer	-12.2408
▁dry	-12.2413
▁mistrust	-12.2422
▁Lancker	-12.2423
▁intrinsic	-12.2423
▁unthinkable	-12.2423
▁liaison	-12.2423
▁Dayton	-12.2424
fledged	-12.2428
▁valued	-12.2449
▁walk	-12.245
▁stems	-12.2452
▁seminar	-12.2453
▁suffice	-12.2453
▁habit	-12.2454
▁assassination	-12.2454
▁certificate	-12.2457
▁assertion	-12.2458
▁Schroedter	-12.246
▁Trichet	-12.246
▁Airbus	-12.246
▁Tony	-12.246
▁fat	-12.2462
▁soul	-12.2464
▁decreasing	-12.2465
▁comprehensively	-12.2473
▁interview	-12.2482
▁Mission	-12.2491
▁fee	-12.2494
▁Kallas	-12.2497
▁Strip	-12.2497
▁denounced	-12.2498
▁formulating	-12.2499
▁Future	-12.25
▁Alpine	-12.25
▁losers	-12.2509
▁lasted	-12.2514
▁favouring	-12.2521
▁giant	-12.2529
▁unpleasant	-12.2534
▁cumbersome	-12.2534
▁meanwhile	-12.2535
▁Racism	-12.2536
▁alcoholic	-12.2537
Africa	-12.2539
▁CITES	-12.2546
▁prerequisites	-12.2567
▁gene	-12.257
▁owner	-12.2571
▁Deputy	-12.2572
▁cabotage	-12.2572
▁discrepancy	-12.2572
▁maturity	-12.2572
▁Hughes	-12.2575
▁exercises	-12.2602
▁overhaul	-12.2603
▁vaccine	-12.2605
stedt	-12.261
▁Breyer	-12.261
▁Maltese	-12.261
▁Sj	-12.261
▁restructure	-12.261
▁Company	-12.261
▁leisure	-12.261
▁Peru	-12.261
▁History	-12.2611
▁hedge	-12.2611
▁takeover	-12.2616
▁style	-12.2619
▁Stream	-12.2621
▁exerting	-12.2629
▁commented	-12.2637
▁encompass	-12.2641
▁miracle	-12.2644
ET	-12.2645
▁waterway	-12.2645
▁bankrupt	-12.2646
▁dictated	-12.2649
▁celebrated	-12.2649
▁reversed	-12.265
▁tightened	-12.265
active	-12.2651
▁attracted	-12.2651
less	-12.2653
▁rough	-12.2654
▁Hans	-12.2655
▁disposed	-12.2662
▁censorship	-12.2664
▁grip	-12.2669
▁knock	-12.2673
▁ESF	-12.2677
▁capture	-12.2679
▁Six	-12.2685
▁admiration	-12.2686
▁magnitude	-12.2686
▁monies	-12.2686
▁specifies	-12.2686
▁sophisticated	-12.2686
▁predominantly	-12.2686
▁Edinburgh	-12.2686
▁conception	-12.2687
▁Front	-12.2687
▁dismissed	-12.2687
▁Klaus	-12.2688
▁Five	-12.2692
▁Laos	-12.2692
▁conceived	-12.2702
▁sticking	-12.2708
▁fixing	-12.2709
▁compromised	-12.271
▁sorted	-12.2715
▁IMO	-12.2715
▁geographic	-12.2723
Weggen	-12.2724
▁Position	-12.2724
▁dissatisfaction	-12.2724
▁undeclared	-12.2724
▁treatments	-12.2725
▁anticipation	-12.2725
▁mountains	-12.2725
▁Kyrgyzstan	-12.2726
▁throwing	-12.2742
aire	-12.2743
▁commissioners	-12.2744
▁Jan	-12.2751
▁listing	-12.2752
▁revive	-12.2755
▁Ambassador	-12.2757
▁Dupuis	-12.2762
▁permissible	-12.2762
▁cleaning	-12.2763
▁officer	-12.2765
▁Being	-12.2765
▁veal	-12.2767
founded	-12.277
▁critically	-12.2779
▁websites	-12.278
▁crystal	-12.2791
▁diversify	-12.2795
▁wheel	-12.2798
▁instrumental	-12.28
▁Cunha	-12.2801
▁Recovery	-12.2801
▁hormones	-12.2801
▁indiscriminate	-12.2801
▁strategically	-12.2804
▁annexed	-12.2804
▁recovered	-12.2805
▁thirds	-12.2806
▁careers	-12.2807
▁interpreting	-12.2815
▁ENP	-12.2817
products	-12.2827
▁marketed	-12.2829
G	-12.283
▁isolate	-12.2839
▁Habsburg	-12.2839
▁carcinogenic	-12.2839
▁beer	-12.284
▁Eritrea	-12.2841
▁nominal	-12.2841
▁tailored	-12.2842
▁revolutionary	-12.2844
▁Operation	-12.2845
▁waged	-12.2846
carbon	-12.2848
China	-12.2848
▁Tobin	-12.285
▁presupposes	-12.285
round	-12.2855
▁approves	-12.2865
▁audits	-12.2866
▁thereof	-12.2869
▁deletion	-12.2873
▁Inter	-12.2874
▁stretch	-12.2877
▁transposing	-12.2878
▁formalities	-12.2878
▁prohibits	-12.2879
▁wife	-12.288
▁Maij	-12.2881
▁incoming	-12.2884
▁appointing	-12.289
▁Leon	-12.2899
▁finishing	-12.2904
▁civilisations	-12.2907
▁rebate	-12.2913
▁presumably	-12.2917
▁unfavourable	-12.2917
▁substitution	-12.2917
▁clashes	-12.2917
▁reproduction	-12.2918
▁converted	-12.2919
▁settling	-12.2919
▁Govern	-12.2919
▁bills	-12.2928
▁failings	-12.293
▁eggs	-12.2948
▁shocks	-12.2948
▁mainstream	-12.2951
▁perceive	-12.2951
▁subordinate	-12.2952
▁pattern	-12.2952
▁hake	-12.2956
▁laboratories	-12.2956
▁mercy	-12.2956
▁Review	-12.2956
▁Sepp	-12.2956
▁populist	-12.2956
▁happily	-12.2957
▁definitively	-12.2959
▁slaughtered	-12.2961
military	-12.2971
▁freed	-12.299
▁provocation	-12.2992
▁Journal	-12.2995
▁monthly	-12.2996
▁Alps	-12.2996
▁corrective	-12.2997
▁artificially	-12.2997
▁Tax	-12.2999
▁da	-12.3008
▁TEN	-12.3013
▁lying	-12.3015
▁foresee	-12.3023
▁closures	-12.3028
▁angle	-12.303
▁transporting	-12.3032
▁astonishing	-12.3034
▁divergent	-12.3035
▁mood	-12.3035
▁standstill	-12.3035
▁powerless	-12.3036
▁Weber	-12.3039
▁fingerprints	-12.3041
▁abilities	-12.3041
▁Nazi	-12.3041
▁wipe	-12.3041
▁tropical	-12.3041
▁dealers	-12.3047
▁dissidents	-12.3049
▁colour	-12.3056
▁fruits	-12.306
▁accusation	-12.3072
▁continual	-12.3074
▁Liese	-12.3074
▁Libyan	-12.3075
▁Animal	-12.3075
▁sharply	-12.3075
▁matches	-12.3076
ld	-12.3087
▁pool	-12.3108
▁passion	-12.3111
▁Uganda	-12.3113
▁ceremony	-12.3114
▁invaluable	-12.3114
▁infectious	-12.3114
▁Duff	-12.3114
▁comfort	-12.3114
▁disrupt	-12.3124
▁stops	-12.3141
▁scarce	-12.3152
▁calculating	-12.3154
▁inalienable	-12.3154
▁municipalities	-12.3154
▁Implementation	-12.3154
▁Baghdad	-12.3154
▁misused	-12.3155
▁infringed	-12.3155
▁Munich	-12.3156
▁WEU	-12.3158
▁Colombian	-12.3158
▁connect	-12.3162
▁clearance	-12.3166
▁abstaining	-12.3172
▁sun	-12.3172
▁economics	-12.3173
tat	-12.3176
▁paths	-12.3183
▁counteract	-12.3186
▁Ocean	-12.3187
▁emotion	-12.319
▁cluster	-12.3191
▁phases	-12.3191
▁Pakistani	-12.3192
▁appropriation	-12.3192
sessions	-12.3193
▁unrestricted	-12.3194
▁Maaten	-12.3194
dvisory	-12.3194
▁evolving	-12.3194
▁pronounced	-12.3194
▁expired	-12.3194
▁apologies	-12.3196
▁communism	-12.3197
polluter	-12.3206
▁assumes	-12.3209
▁suspending	-12.321
▁ears	-12.3214
▁opting	-12.3229
▁evolve	-12.323
▁Simpson	-12.3234
▁eradicating	-12.3234
▁abstract	-12.3235
▁exempted	-12.3238
▁Franco	-12.3238
▁constructing	-12.3243
▁offenders	-12.3248
▁row	-12.3249
▁tanks	-12.325
▁authorisations	-12.3259
▁groupings	-12.326
▁delegates	-12.3268
▁improper	-12.3273
▁Goebbels	-12.3274
▁Drug	-12.3275
▁totalitarianism	-12.3275
▁forceful	-12.3276
▁reside	-12.3283
▁signatory	-12.3284
generation	-12.3285
type	-12.3288
▁wasting	-12.3293
▁auditors	-12.3302
▁consequent	-12.3309
cost	-12.3312
▁spectacular	-12.3314
▁stagnation	-12.3315
▁sterling	-12.3315
▁progressed	-12.332
▁rumours	-12.3326
▁inflicted	-12.3329
▁waited	-12.3329
▁illusions	-12.3335
▁formerly	-12.3336
ated	-12.3345
isa	-12.3351
▁tie	-12.3352
▁custody	-12.3355
▁surrounded	-12.3356
▁umbrella	-12.3359
▁fats	-12.3361
▁nutritional	-12.3378
▁ERDF	-12.3383
▁correlation	-12.3393
▁hostages	-12.3393
▁confess	-12.3394
▁astonished	-12.3396
▁codification	-12.3396
▁Staes	-12.3396
▁Platform	-12.3397
▁Arms	-12.3398
▁turnout	-12.34
▁Statement	-12.34
▁irregular	-12.3401
taking	-12.3406
▁handing	-12.341
▁relieve	-12.3423
▁campaigning	-12.3433
▁Flynn	-12.3437
▁Mechanism	-12.3437
▁Nicholson	-12.3437
▁Sellafield	-12.3437
▁varieties	-12.3437
▁Unemployment	-12.3437
▁provoked	-12.3438
▁prestige	-12.3438
▁xenophobic	-12.3438
▁flat	-12.3438
▁Wise	-12.3438
▁criminality	-12.3439
▁Negotiations	-12.3441
▁ecologically	-12.3442
▁Turks	-12.3442
▁polluted	-12.3447
▁minimis	-12.3468
alencia	-12.3476
▁reassuring	-12.3478
▁Buzek	-12.3478
▁Giscard	-12.3478
▁disparity	-12.3478
▁Belder	-12.3478
▁Fraga	-12.3478
▁ferry	-12.3478
▁Eurocontrol	-12.3478
▁distributors	-12.3484
▁earthquakes	-12.3488
▁gangs	-12.3493
back	-12.3499
▁contend	-12.3502
▁remembering	-12.3509
▁repeal	-12.351
▁dominate	-12.3517
▁Capital	-12.3519
▁Tomlinson	-12.3519
▁Peijs	-12.3519
▁Wurtz	-12.3519
▁bluefin	-12.352
▁deteriorated	-12.352
▁tired	-12.3521
▁annexes	-12.3522
▁facilitates	-12.3523
▁Guidelines	-12.3526
▁Di	-12.3527
▁counted	-12.3529
age	-12.3531
▁cornerstones	-12.3531
▁mandates	-12.3534
ization	-12.3535
▁FAO	-12.3535
▁recording	-12.3537
▁documented	-12.3541
▁outbreaks	-12.3542
▁owned	-12.3554
▁strengths	-12.3556
▁accuracy	-12.3561
▁relies	-12.3561
▁disclosure	-12.3562
▁reactionary	-12.3563
▁reassured	-12.3563
▁excludes	-12.3564
▁carrier	-12.3564
sector	-12.3569
▁Whereas	-12.357
▁governmental	-12.3574
▁commonly	-12.3587
▁metals	-12.3587
▁brilliant	-12.3602
▁Department	-12.3602
▁apparatus	-12.3603
▁influential	-12.3603
▁Eurobarometer	-12.3603
▁seasonal	-12.3604
uaestors	-12.3607
▁layer	-12.3608
▁constituted	-12.3608
▁Making	-12.361
▁dismiss	-12.3612
▁discharges	-12.3614
▁specifying	-12.3616
▁chains	-12.3625
▁Marco	-12.3626
▁accounted	-12.3629
development	-12.3635
▁nationally	-12.3637
▁notify	-12.3639
▁circumvent	-12.3643
▁Solbes	-12.3644
▁Jensen	-12.3645
▁Fava	-12.3645
▁prosecuted	-12.3645
▁lobbies	-12.3646
▁underground	-12.3647
▁rendered	-12.3647
▁logically	-12.3649
▁ample	-12.3651
▁ice	-12.3658
▁commissioner	-12.3666
▁Times	-12.3676
▁rebels	-12.3681
▁supervise	-12.3685
▁ruin	-12.3686
▁Tannock	-12.3687
▁haulage	-12.3687
▁interrupted	-12.3688
▁residing	-12.369
▁liberation	-12.369
▁hauliers	-12.369
ller	-12.3691
▁diplomas	-12.3695
Alba	-12.3704
▁t	-12.3707
▁systemic	-12.3707
▁argues	-12.372
▁agendas	-12.3721
▁logistical	-12.3728
▁slave	-12.3728
▁hormone	-12.3728
▁devising	-12.3729
▁reorganisation	-12.3729
▁permitting	-12.3729
▁Istanbul	-12.3729
▁Genoa	-12.3731
▁forbidden	-12.3731
▁roaming	-12.3733
go	-12.3733
▁MEDIA	-12.3733
▁semi	-12.3733
▁mess	-12.3734
▁broadcasters	-12.3736
▁Generally	-12.3739
saving	-12.3758
▁EEAS	-12.376
chi	-12.3762
▁flourish	-12.3763
▁reacting	-12.3765
▁commence	-12.377
longside	-12.377
▁Alavanos	-12.3771
▁doubling	-12.3771
▁inconsistencies	-12.3771
▁rectified	-12.3771
▁unwanted	-12.3772
▁abstention	-12.3772
arela	-12.3773
▁announcing	-12.3773
▁transplantation	-12.3773
▁dozen	-12.3774
▁acquiring	-12.3775
▁offshore	-12.3777
▁endeavoured	-12.3779
ki	-12.378
▁residues	-12.3797
IS	-12.3805
▁Nord	-12.3809
▁collaborate	-12.3811
▁endorsing	-12.3814
▁Scandinavian	-12.3814
▁invoked	-12.3815
▁mafia	-12.3815
▁collapsed	-12.3816
▁Markov	-12.3817
▁avian	-12.3818
▁enrichment	-12.3819
▁bind	-12.3821
▁golden	-12.3825
ies	-12.3826
aladministration	-12.3828
▁discards	-12.383
si	-12.3838
▁enlargements	-12.3843
▁flee	-12.385
▁oceans	-12.385
▁recast	-12.3852
▁expose	-12.3856
▁Busquin	-12.3856
▁Galeote	-12.3856
▁embassies	-12.3856
▁henceforth	-12.3856
▁amazed	-12.3856
▁comfortable	-12.3856
▁flagship	-12.3857
▁reconciled	-12.3859
▁biogas	-12.3861
▁Tibetans	-12.3864
▁matched	-12.3864
▁complaining	-12.3869
▁hate	-12.3869
▁MPs	-12.3871
nsch	-12.3896
▁Brittan	-12.3898
▁horrendous	-12.3898
▁Thyssen	-12.3899
▁Holland	-12.3899
▁commensurate	-12.3899
▁inconceivable	-12.3899
▁teeth	-12.3899
▁Uruguay	-12.39
▁lodged	-12.39
nterim	-12.3902
▁oldest	-12.3904
▁cutbacks	-12.3904
▁Lucas	-12.3905
▁sat	-12.3909
▁flexicurity	-12.392
Rapporteur	-12.3921
▁inflexible	-12.3925
▁Pope	-12.3928
▁scrap	-12.3933
▁exhaust	-12.3933
▁cry	-12.3938
▁contest	-12.3941
▁sympathetic	-12.3942
▁vigour	-12.3942
▁verified	-12.3942
▁compel	-12.3943
▁underpinning	-12.3943
▁Pensioners	-12.3944
▁enacted	-12.3944
▁cinema	-12.3944
▁subsidise	-12.3944
▁Gaddafi	-12.3945
▁geographically	-12.3949
▁exchanged	-12.3956
▁Ho	-12.396
▁advisers	-12.3964
▁actor	-12.3965
▁tolls	-12.3974
▁diminish	-12.3978
▁harbour	-12.3984
▁Piebalgs	-12.3986
▁Madagascar	-12.3987
▁bar	-12.3988
▁mediator	-12.3989
▁broadest	-12.3989
▁Had	-12.399
be	-12.399
▁dirty	-12.3992
▁intending	-12.3993
▁exile	-12.3993
election	-12.4003
▁superstate	-12.4006
▁caring	-12.4008
like	-12.4015
▁headlines	-12.402
▁accomplish	-12.4022
▁attentive	-12.4028
▁video	-12.4029
▁Diamantopoulou	-12.4029
▁quoting	-12.4029
▁persistence	-12.4029
▁unbalanced	-12.4029
▁nominated	-12.403
▁compiled	-12.403
▁Chichester	-12.403
▁falsified	-12.403
▁superpower	-12.4031
▁jeopardised	-12.4031
▁Administrative	-12.4032
▁homosexual	-12.4033
umanitarian	-12.4033
▁clarifications	-12.4036
▁cooperated	-12.4036
II	-12.4037
▁TENs	-12.4038
▁Africans	-12.4048
▁bone	-12.405
▁Schmidt	-12.405
ill	-12.4054
▁accuse	-12.407
▁Peter	-12.4073
▁Morgan	-12.4073
▁constituencies	-12.4073
▁laboratory	-12.4073
▁aspiration	-12.4073
▁Katiforis	-12.4073
▁oppressed	-12.4074
▁rounds	-12.4079
▁utilised	-12.4089
commercial	-12.4097
▁Representatives	-12.4099
▁decree	-12.4111
▁requisite	-12.4113
if	-12.4114
▁Gollnisch	-12.4117
▁Renault	-12.4117
▁misguided	-12.4117
▁interdependence	-12.4117
▁Maes	-12.4117
▁Warsaw	-12.4117
▁horizon	-12.4118
▁unpaid	-12.4119
▁invention	-12.412
▁Nigerian	-12.4121
▁physically	-12.4122
In	-12.4127
▁cadmium	-12.413
▁insecure	-12.4131
▁adjusting	-12.4132
▁flesh	-12.4136
III	-12.4143
tech	-12.4153
▁McCarthy	-12.4161
▁conceivable	-12.4161
▁vertical	-12.4162
▁dire	-12.4162
▁Brenner	-12.4162
▁excesses	-12.4162
▁Independence	-12.4162
▁finalise	-12.4163
▁Works	-12.4163
▁ceased	-12.4163
sufficiency	-12.4164
▁differentiate	-12.4164
▁printed	-12.4165
▁employability	-12.4166
▁Channel	-12.4166
▁haste	-12.4171
funded	-12.418
▁timescale	-12.418
binding	-12.4186
technological	-12.4188
▁b	-12.419
▁protesting	-12.4194
rez	-12.4195
▁predecessors	-12.4201
▁prejudices	-12.4204
▁salute	-12.4204
▁divorce	-12.4205
▁Earth	-12.4205
▁Guantanamo	-12.4205
▁levies	-12.4205
▁sensibly	-12.4205
▁utilise	-12.4205
▁Latvian	-12.421
▁EBRD	-12.4211
▁morally	-12.4212
▁evade	-12.4212
sufficient	-12.4215
▁magic	-12.4216
▁alliances	-12.4247
w	-12.4248
▁naive	-12.4249
▁revival	-12.4249
▁unquestionably	-12.4249
▁underpinned	-12.4249
▁biased	-12.425
▁teacher	-12.4252
▁variable	-12.4258
▁Was	-12.4263
▁confronting	-12.4265
defined	-12.4275
?'	-12.4278
▁rightful	-12.4283
▁bounds	-12.4285
▁rain	-12.4287
avier	-12.4289
▁manifest	-12.4293
▁aegis	-12.4294
▁intermediaries	-12.4294
▁clarifies	-12.4294
▁administer	-12.4294
▁Lambert	-12.4295
▁undue	-12.4296
▁dictatorial	-12.4296
▁raft	-12.4296
▁handful	-12.4297
▁widest	-12.4298
▁gift	-12.4298
▁conveyed	-12.43
▁alas	-12.4313
▁posted	-12.4314
interest	-12.4321
▁harvest	-12.4333
▁entrust	-12.4337
▁solemn	-12.4338
▁simultaneous	-12.4338
▁embarrassing	-12.4339
▁Linkohr	-12.4339
▁justifiably	-12.4339
▁Perry	-12.4339
▁majorities	-12.434
▁experimental	-12.4341
▁taboo	-12.4341
▁mineral	-12.4341
▁pesticide	-12.4341
▁celebration	-12.4341
▁Out	-12.4343
▁Interior	-12.4343
▁intervened	-12.4344
▁nurses	-12.4345
▁depriv	-12.4354
▁filling	-12.436
ural	-12.4361
Estaing	-12.4362
▁presidents	-12.4363
▁Stand	-12.4364
▁warrants	-12.4369
▁Gallagher	-12.4384
▁unforeseen	-12.4384
▁efficacy	-12.4384
▁enlarging	-12.4385
▁speculators	-12.4385
▁rewarded	-12.4386
▁slip	-12.4389
▁widen	-12.4389
▁Look	-12.4391
enthusiastically	-12.4398
▁son	-12.4405
▁pipelines	-12.4409
tariff	-12.4412
▁restricts	-12.442
▁detract	-12.4423
▁spiritual	-12.4428
▁UNESCO	-12.4429
▁courtesy	-12.4429
▁intact	-12.4429
▁practicable	-12.4429
▁outlining	-12.443
▁rotation	-12.4431
▁nationalities	-12.4432
▁brand	-12.4432
▁Thors	-12.4433
▁Ottawa	-12.4433
stop	-12.4433
▁applauded	-12.4434
▁disputed	-12.4437
▁proceeded	-12.4447
win	-12.4448
▁disagreements	-12.4462
▁Abu	-12.4474
oluntary	-12.4475
▁Already	-12.4475
▁spokesman	-12.4475
▁observatory	-12.4475
▁INTERREG	-12.4475
▁Eurogroup	-12.4476
▁defeated	-12.4479
▁appraisal	-12.448
▁ICAO	-12.448
▁retailers	-12.4482
▁wearing	-12.4482
▁hectare	-12.4483
▁Anna	-12.4487
▁mindful	-12.4487
▁infringe	-12.4493
▁tyres	-12.4502
Atlantic	-12.4504
ten	-12.4504
▁perverse	-12.4519
▁Caudron	-12.452
▁unpunished	-12.452
▁Brazilian	-12.4521
▁Abbas	-12.4521
▁unbundling	-12.4522
▁lax	-12.4522
▁Tajikistan	-12.4523
▁downturn	-12.4524
▁sweeping	-12.4524
▁stereotypes	-12.4525
▁alignment	-12.4528
ling	-12.4529
▁revealing	-12.4533
▁stream	-12.4541
▁trample	-12.4544
seekers	-12.4552
ging	-12.456
▁liberalism	-12.4561
▁notorious	-12.4565
▁Precisely	-12.4566
ealand	-12.4566
▁properties	-12.4566
▁Sacconi	-12.4568
▁accumulated	-12.4568
▁Strategic	-12.457
▁measurement	-12.457
▁vein	-12.457
▁Romano	-12.4579
cut	-12.4585
▁disappearing	-12.4585
ssel	-12.4588
▁boys	-12.4589
ultiannual	-12.4598
SMEs	-12.46
▁kindly	-12.4606
▁loyal	-12.4608
▁admire	-12.4611
▁Ribeiro	-12.4612
▁opium	-12.4612
▁Essen	-12.4612
▁degrading	-12.4612
▁stolen	-12.4612
▁Schuman	-12.4613
▁enhancement	-12.4613
▁drama	-12.4615
▁childhood	-12.4615
▁beet	-12.4615
▁mortgage	-12.4616
▁hampered	-12.4616
▁dogma	-12.4616
▁weighting	-12.4616
▁blank	-12.4617
▁arable	-12.462
▁pressed	-12.4627
west	-12.4627
▁breath	-12.4631
▁Rapporteur	-12.4638
dragging	-12.4641
EGF	-12.4644
driven	-12.4644
▁Borders	-12.4644
third	-12.4648
Mr	-12.4648
▁FP	-12.465
tic	-12.4658
▁Cappato	-12.4659
▁enquiry	-12.4659
▁Especially	-12.4659
▁custom	-12.4662
▁motorway	-12.4663
▁catering	-12.4663
▁prisoner	-12.4665
▁prescription	-12.4667
▁breached	-12.4667
▁hanging	-12.4667
▁peer	-12.4669
ending	-12.467
▁designations	-12.4681
▁earnings	-12.4686
government	-12.469
▁expires	-12.4695
rapporteur	-12.4695
ists	-12.4695
▁translations	-12.47
▁potato	-12.4705
▁Kabul	-12.4705
▁Lagendijk	-12.4705
▁vicinity	-12.4705
▁Flanders	-12.4705
▁correspondence	-12.4705
▁marketplace	-12.4707
▁Senegal	-12.4707
▁importation	-12.4707
▁endure	-12.4708
▁Budapest	-12.4709
▁Fair	-12.471
▁convenient	-12.4711
▁compliments	-12.4712
▁lawful	-12.4713
▁unfairly	-12.4714
▁hole	-12.4722
American	-12.474
terrorist	-12.4741
▁unscrupulous	-12.4751
Proliferation	-12.4752
▁Andersson	-12.4752
▁Coordination	-12.4752
▁attributable	-12.4752
▁prolonged	-12.4754
▁utter	-12.4754
▁provoke	-12.4755
▁pioneering	-12.4755
▁attained	-12.4756
▁Eurobonds	-12.4756
▁bottlenecks	-12.4762
▁clock	-12.4774
▁costing	-12.4774
▁Groups	-12.4781
sea	-12.4786
▁Us	-12.479
▁manages	-12.4793
▁calculate	-12.4798
▁harmonize	-12.4798
▁scrutinise	-12.4798
▁Bertens	-12.4799
▁meagre	-12.4799
▁suffrage	-12.4799
▁veritable	-12.4799
▁Ramos	-12.4799
▁marginalisation	-12.4799
▁sufferers	-12.4802
▁remainder	-12.4802
▁portion	-12.4803
▁ambassador	-12.4805
▁Schmid	-12.4812
▁comparisons	-12.4821
▁marriages	-12.4826
green	-12.4826
ez	-12.4829
▁Mov	-12.4831
▁provinces	-12.4838
▁Respect	-12.4842
▁accords	-12.4844
▁persists	-12.4844
▁prosecute	-12.4845
▁LEADER	-12.4846
▁streamlining	-12.4848
▁outrage	-12.4849
▁dating	-12.4851
run	-12.4858
rm	-12.4858
)(	-12.4866
▁embryo	-12.4879
▁compounds	-12.4883
▁opportune	-12.4892
▁Kauppi	-12.4893
▁Nowadays	-12.4893
▁Reference	-12.4893
▁deputy	-12.4893
▁severity	-12.4893
▁Orden	-12.4893
▁admissible	-12.4893
▁parity	-12.4893
▁communicating	-12.4894
▁Rossa	-12.4894
▁complicity	-12.4894
▁encompasses	-12.4894
ups	-12.4895
▁Transnistria	-12.4896
▁accumulation	-12.4897
▁praised	-12.4898
▁simplistic	-12.4898
▁Situation	-12.4901
▁wear	-12.4902
▁atypical	-12.491
▁attracting	-12.491
▁holder	-12.4919
▁maps	-12.4928
▁Italians	-12.493
▁guilt	-12.494
▁random	-12.494
▁passionate	-12.494
▁rejoice	-12.494
▁relocate	-12.494
▁faithful	-12.494
▁opposes	-12.4941
▁fierce	-12.4941
▁Turmes	-12.4941
▁consular	-12.4941
▁preceding	-12.4941
▁uniformity	-12.4942
▁realistically	-12.4942
▁halfway	-12.4943
▁Catalan	-12.4945
ous	-12.4945
▁centred	-12.4946
▁technique	-12.4946
▁entitlement	-12.4948
▁boxes	-12.495
▁fled	-12.4961
▁bizarre	-12.4988
▁Figueiredo	-12.4989
▁enforceable	-12.4989
▁Pinochet	-12.499
▁Opel	-12.4991
▁percentages	-12.4991
▁educate	-12.4992
▁inconsistency	-12.4992
▁blamed	-12.4993
▁overlap	-12.4994
▁twofold	-12.4994
nd	-12.5014
examine	-12.5024
▁organize	-12.5036
▁advent	-12.5037
▁accelerating	-12.5037
▁crux	-12.5037
▁cruelty	-12.5037
▁Lynne	-12.5037
▁spared	-12.5039
▁recalling	-12.5041
▁superior	-12.5042
▁fourthly	-12.5042
▁ITER	-12.5042
▁downward	-12.5043
▁fur	-12.5044
▁federalism	-12.5044
▁cheque	-12.5044
▁EIT	-12.505
▁extract	-12.5051
▁speeded	-12.5058
▁resorting	-12.5061
▁boards	-12.5065
▁drag	-12.5066
▁corps	-12.5084
▁Ahern	-12.5085
▁Miert	-12.5085
▁Montreal	-12.5085
▁brink	-12.5085
▁Frankly	-12.5085
▁recreational	-12.5085
▁inherited	-12.5086
▁beaten	-12.5087
▁tenders	-12.5087
▁Hitler	-12.509
▁TRIPS	-12.509
▁na	-12.5105
▁skin	-12.5105
▁agent	-12.5105
▁monitors	-12.5114
▁sleep	-12.5122
business	-12.5123
▁appreciates	-12.5124
▁atomic	-12.5124
service	-12.5129
▁ambassadors	-12.5129
▁kick	-12.5131
▁revisit	-12.5132
▁unsuccessful	-12.5133
▁contemplate	-12.5133
▁fourteen	-12.5133
▁Facility	-12.5134
▁babies	-12.5134
▁Honduras	-12.5134
▁combustion	-12.5135
▁jungle	-12.5135
▁measurable	-12.5135
▁adequacy	-12.5136
▁wholehearted	-12.5136
▁colours	-12.5138
▁EAGGF	-12.5138
▁MAI	-12.5139
▁rebel	-12.514
▁lip	-12.514
▁chicken	-12.5143
▁toward	-12.5144
▁tanker	-12.5144
▁Lakes	-12.5146
▁shipments	-12.5157
▁ACTA	-12.5157
▁liberals	-12.5168
▁distorting	-12.5175
▁defends	-12.518
▁undeniably	-12.5183
▁untenable	-12.5183
▁Colom	-12.5183
▁Congratulations	-12.5183
▁Christianity	-12.5183
▁Manuel	-12.5183
▁Thomas	-12.5183
▁dismantled	-12.5183
▁Often	-12.5184
▁Hezbollah	-12.5184
▁unambiguously	-12.5184
▁URBAN	-12.5185
▁tolerant	-12.5187
▁bread	-12.5188
▁district	-12.5189
▁prerogative	-12.5189
▁symptoms	-12.5199
▁Echelon	-12.5199
land	-12.5205
▁satisfying	-12.5208
▁externally	-12.5212
▁treats	-12.5219
▁distrust	-12.523
▁streamline	-12.5231
▁precision	-12.5232
▁terminology	-12.5232
▁denies	-12.5232
▁unitary	-12.5232
▁Particular	-12.5232
▁primacy	-12.5233
▁retraining	-12.5233
▁motivate	-12.5233
▁additionality	-12.5234
▁homophobia	-12.5234
▁discovery	-12.5235
▁invoke	-12.5237
▁appliances	-12.5238
▁SA	-12.524
▁federation	-12.5241
▁insufficiently	-12.5242
▁embarking	-12.5245
▁shaped	-12.5245
pez	-12.5249
▁align	-12.526
▁culturally	-12.5264
employment	-12.5266
mentioned	-12.527
▁Adam	-12.5278
▁glaring	-12.5281
▁Garriga	-12.5281
▁footwear	-12.5281
▁omitted	-12.5281
▁prudence	-12.5281
▁deferred	-12.5281
▁triangle	-12.5282
▁homeless	-12.5282
az	-12.5284
▁succession	-12.5284
▁imagined	-12.5286
▁reversal	-12.5287
▁daughter	-12.529
▁broadening	-12.5292
▁loses	-12.5298
▁regulates	-12.531
▁Heading	-12.5312
▁lapses	-12.5318
▁del	-12.5321
▁march	-12.5324
▁multifunctional	-12.5325
▁dust	-12.5329
▁Wijsenbeek	-12.533
▁Casaca	-12.533
▁frustrated	-12.5331
▁Watts	-12.5332
▁Waste	-12.5332
▁calmly	-12.5333
▁residential	-12.5333
▁bury	-12.5333
▁wholesale	-12.5333
▁brutally	-12.5333
▁emotions	-12.5334
▁empire	-12.5337
▁vodka	-12.5338
▁ride	-12.5339
▁desires	-12.5342
▁recovering	-12.5349
▁sentiment	-12.5349
water	-12.5353
▁phones	-12.5353
▁ran	-12.5366
▁bail	-12.5376
▁Rhine	-12.5378
▁concise	-12.5379
▁Campania	-12.538
▁tandem	-12.538
▁wheat	-12.538
▁objectivity	-12.538
▁Army	-12.538
▁eighteen	-12.538
▁impartiality	-12.538
▁doomed	-12.5381
▁Fukushima	-12.5384
▁respectful	-12.5386
▁delegate	-12.5387
▁armaments	-12.5391
▁tree	-12.5391
▁Point	-12.5392
▁tendering	-12.5394
▁counterpart	-12.5394
▁ocean	-12.5397
▁transcend	-12.54
▁weekly	-12.5417
▁smokers	-12.5422
▁suits	-12.5425
▁c	-12.5425
▁holistic	-12.543
▁Spencer	-12.543
▁geography	-12.543
▁influencing	-12.543
▁unanswered	-12.543
▁Karl	-12.543
▁gentleman	-12.5434
▁Immigration	-12.5434
▁Roman	-12.5436
▁axis	-12.5437
▁corridor	-12.5437
▁shoulders	-12.5437
▁determines	-12.544
rs	-12.544
▁scenes	-12.545
▁mainland	-12.5455
▁handicaps	-12.5464
▁parent	-12.5464
▁qua	-12.5465
▁inefficiency	-12.5468
▁conversations	-12.5468
distance	-12.5474
eastern	-12.5474
▁eager	-12.5479
▁EFD	-12.548
▁Kohl	-12.548
Semitism	-12.548
▁Observatory	-12.548
▁Papayannakis	-12.548
▁Purvis	-12.548
▁admirable	-12.548
▁reiterating	-12.548
▁feedback	-12.5481
▁intensification	-12.5481
▁Bonde	-12.5483
▁troubled	-12.5483
▁declined	-12.5484
▁complained	-12.5484
el	-12.5484
▁watched	-12.5486
▁cyanide	-12.5487
▁stoning	-12.5487
▁yardstick	-12.5488
▁hardship	-12.5488
▁motive	-12.5488
▁abduction	-12.5489
▁steering	-12.549
mongst	-12.5491
▁lifetime	-12.5502
▁foc	-12.5509
▁COP	-12.5511
▁storms	-12.5511
▁lots	-12.5514
▁hazards	-12.5519
public	-12.5522
profit	-12.5525
▁curtail	-12.5529
▁renounce	-12.553
▁intermodal	-12.5531
▁MacCormick	-12.5531
▁equation	-12.5531
▁Grosch	-12.5531
▁swept	-12.5531
▁invented	-12.5532
▁fauna	-12.5532
▁resigned	-12.5533
▁healthier	-12.5534
▁density	-12.5535
▁Undertaking	-12.5538
▁amounted	-12.5538
▁bovine	-12.5539
▁behaving	-12.5539
▁punishing	-12.5544
▁exporter	-12.5544
▁variations	-12.5553
▁shoes	-12.5555
ri	-12.5555
▁Iron	-12.5555
▁outgoing	-12.5556
▁Conventions	-12.5557
▁employs	-12.5557
▁aeroplanes	-12.5563
▁shorten	-12.5564
▁suspicions	-12.5566
▁interrupt	-12.5574
▁hesitant	-12.5581
▁Davies	-12.5582
▁Pursu	-12.5582
▁pessimistic	-12.5582
▁harmonized	-12.5582
▁buried	-12.5582
▁terribly	-12.5582
▁paternity	-12.5584
▁democratization	-12.5584
▁contravention	-12.5589
▁Eurovignette	-12.559
▁shifted	-12.559
▁deportation	-12.5591
▁bird	-12.5593
▁exacerbat	-12.5604
R	-12.5605
▁deter	-12.5611
▁enrich	-12.5625
catch	-12.5625
▁index	-12.5628
▁populism	-12.5633
▁Duma	-12.5633
▁pivotal	-12.5633
▁pause	-12.5633
▁Large	-12.5633
▁Steel	-12.5633
▁phthalates	-12.5634
▁diminished	-12.5634
▁convened	-12.5635
▁Togo	-12.5635
▁bond	-12.5635
▁democrat	-12.5637
▁originate	-12.5641
▁Bos	-12.5656
▁recognizes	-12.5658
▁realm	-12.5678
▁summ	-12.5681
▁ironic	-12.5683
▁thirteen	-12.5683
▁Gargani	-12.5684
▁casualties	-12.5684
▁literature	-12.5684
▁reprehensible	-12.5684
▁UKIP	-12.5684
▁elapsed	-12.5684
▁Naples	-12.5686
▁abducted	-12.5687
▁Macao	-12.5688
▁prescribe	-12.5692
▁diminishing	-12.5692
▁divergence	-12.5692
▁slots	-12.5706
▁supermarkets	-12.5717
▁disorders	-12.5719
me	-12.5722
▁scratch	-12.5728
stay	-12.5729
competitive	-12.5731
▁yields	-12.5733
institutional	-12.5734
▁Blak	-12.5735
▁jeopardy	-12.5735
▁paralysis	-12.5735
▁emigration	-12.5735
▁Roure	-12.5735
▁Still	-12.5735
▁Biarritz	-12.5736
▁Coal	-12.5737
▁fastest	-12.5737
▁philosophical	-12.5737
▁elementary	-12.5737
▁inserted	-12.5737
▁Tindemans	-12.5738
▁concentrates	-12.5741
▁assault	-12.5743
▁comprise	-12.5744
▁bureaucrats	-12.5746
▁defender	-12.5753
▁chairing	-12.5759
um	-12.576
▁wing	-12.576
erification	-12.5765
▁posting	-12.5769
▁dynamics	-12.5775
izing	-12.578
▁Ban	-12.5785
▁withstand	-12.5786
▁dispel	-12.5787
▁James	-12.5787
▁devastation	-12.5787
▁judging	-12.5787
▁illiteracy	-12.5787
▁prevalent	-12.5787
▁punishable	-12.5787
▁avoidance	-12.5788
▁obstruct	-12.5788
▁businessmen	-12.5789
▁anticipating	-12.5789
▁bogg	-12.579
▁resisted	-12.5792
Article	-12.5793
▁joke	-12.5793
J	-12.5795
▁recipe	-12.5796
▁Space	-12.5796
▁Mexican	-12.5797
▁factions	-12.5801
▁hasty	-12.582
▁cr	-12.5822
▁Read	-12.5825
▁entitlements	-12.5834
existence	-12.5836
▁Deprez	-12.5839
▁Karamanou	-12.5839
▁outweigh	-12.5839
▁Discussion	-12.5839
ietnamese	-12.5839
▁Schmitt	-12.584
▁Sarajevo	-12.584
▁regretted	-12.584
▁spatial	-12.584
▁remedied	-12.584
▁professionalism	-12.5841
▁Monterrey	-12.5841
▁Stalin	-12.5845
▁tunnels	-12.5845
▁selecting	-12.5848
▁defer	-12.5849
▁distressing	-12.5849
▁rooms	-12.5852
▁discusses	-12.5857
▁flaws	-12.5861
▁shake	-12.5883
▁bolster	-12.5884
▁tense	-12.5884
▁planes	-12.5889
un	-12.589
▁scant	-12.589
▁amazing	-12.5891
▁compromising	-12.5892
▁Confederation	-12.5892
▁inventory	-12.5892
▁underlining	-12.5892
▁madness	-12.5892
▁cultivated	-12.5892
▁circulating	-12.5892
▁recycled	-12.5893
▁escaped	-12.5894
▁hindered	-12.5896
▁deadly	-12.5897
▁accustomed	-12.59
▁complications	-12.59
▁nightmare	-12.5901
▁coastline	-12.5902
▁intensifying	-12.5908
▁ante	-12.5913
▁unites	-12.5915
▁sympathise	-12.5917
▁networking	-12.5918
▁appealed	-12.5921
▁commenting	-12.5927
▁oversee	-12.5938
▁Current	-12.5943
▁provocative	-12.5943
▁Increasing	-12.5944
versus	-12.5944
▁Cresson	-12.5944
▁Instance	-12.5944
▁sensitivities	-12.5944
▁Weiler	-12.5944
▁crossed	-12.5945
▁Kroes	-12.5946
▁ECJ	-12.5949
▁impede	-12.5953
▁tractors	-12.5953
▁guise	-12.5954
▁IAEA	-12.5955
▁Iraqis	-12.5956
▁upgrade	-12.5956
▁deserved	-12.5966
▁arts	-12.5971
▁combines	-12.5972
▁excuses	-12.5983
informed	-12.5996
▁dissent	-12.5997
▁Morgantini	-12.5997
▁Paasilinna	-12.5997
▁lucrative	-12.5997
▁shield	-12.5999
▁legislating	-12.6002
▁loved	-12.6009
▁regulator	-12.6012
▁catastrophes	-12.6014
▁fortress	-12.6019
▁nitrates	-12.602
▁assumptions	-12.6025
▁yours	-12.6033
egislative	-12.6034
▁Decisions	-12.6036
▁rotat	-12.6047
▁cement	-12.6049
nuclear	-12.6049
▁clever	-12.6049
▁timid	-12.6049
▁pluralist	-12.605
▁peculiar	-12.605
▁Immunities	-12.605
▁Troika	-12.605
▁inadequacy	-12.605
▁leeway	-12.605
▁midnight	-12.605
that	-12.6051
nder	-12.6051
▁Subcommittee	-12.6051
▁suspicious	-12.6052
▁jail	-12.6053
▁Beyond	-12.6055
▁ideally	-12.6056
▁carers	-12.6056
derman	-12.6058
▁optimal	-12.6059
▁Disease	-12.6061
▁ICC	-12.6065
▁picked	-12.6065
▁Languages	-12.6068
▁insert	-12.6075
▁void	-12.6094
▁reviews	-12.6096
step	-12.6097
uality	-12.6098
▁irrational	-12.6103
legislative	-12.6103
Robles	-12.6103
attached	-12.6104
Aubrespy	-12.6104
▁Fabre	-12.6104
▁Muscardini	-12.6104
▁cessation	-12.6104
▁ministries	-12.6104
▁probability	-12.6104
▁extinction	-12.6104
▁DNA	-12.6104
▁lady	-12.6104
▁unwillingness	-12.6104
▁Andean	-12.6106
▁grows	-12.611
▁GNI	-12.6114
▁enriched	-12.6115
▁underdeveloped	-12.6118
▁dictates	-12.6122
▁consign	-12.6126
▁contributor	-12.6131
▁fortune	-12.6139
j	-12.6141
▁Smet	-12.6145
▁authoritative	-12.6146
▁revert	-12.6153
▁Liechtenstein	-12.6158
▁Pronk	-12.6158
▁destabilising	-12.6158
▁unhealthy	-12.6158
▁Naval	-12.6158
▁ombudsman	-12.6158
▁Euromed	-12.6158
▁reimbursed	-12.6158
▁explored	-12.6159
▁Developing	-12.616
▁hell	-12.616
▁sinking	-12.6162
▁avert	-12.6167
▁renovation	-12.6168
▁Norwegian	-12.6168
▁hotel	-12.6169
▁Refugee	-12.6169
▁versa	-12.6171
▁needing	-12.6176
▁restate	-12.618
▁egg	-12.6181
▁bees	-12.6185
▁tissues	-12.6189
▁taxed	-12.6195
▁tailor	-12.621
▁Curtain	-12.6212
▁hostilities	-12.6212
▁sanitation	-12.6212
▁unbridled	-12.6212
▁convene	-12.6213
▁purchased	-12.6214
▁sine	-12.6215
▁NUTS	-12.6215
▁Plus	-12.6218
▁Cameroon	-12.6218
▁triumph	-12.622
▁presume	-12.6221
▁reopening	-12.6221
▁omissions	-12.6222
▁preparedness	-12.6223
▁carpet	-12.6223
▁grid	-12.6225
▁endangering	-12.6226
with	-12.6254
▁equals	-12.6259
▁weakens	-12.6261
▁cycles	-12.6261
▁economical	-12.6261
▁spends	-12.6264
▁workings	-12.6264
▁Fiji	-12.6266
▁depressing	-12.6266
▁disseminate	-12.6266
▁Lalumi	-12.6266
▁Banotti	-12.6266
▁Companies	-12.6266
▁Diamandouros	-12.6266
▁Equator	-12.6266
▁crazy	-12.6266
▁loyalty	-12.6266
▁unqualified	-12.6266
▁Burg	-12.6266
fraud	-12.6267
▁analytical	-12.6267
compulsory	-12.6268
▁subsidising	-12.6269
▁prioritising	-12.6269
▁borrowing	-12.627
▁Frankfurt	-12.6271
▁Congolese	-12.6273
▁missile	-12.6275
▁talent	-12.6276
▁commended	-12.6276
▁dementia	-12.6277
▁Meeting	-12.6278
▁Serb	-12.628
▁load	-12.6283
▁traded	-12.6286
ov	-12.6302
▁multicultural	-12.6306
more	-12.6315
▁Cabrol	-12.6321
▁Migu	-12.6321
▁Tehran	-12.6321
▁ferries	-12.6321
▁credentials	-12.6321
▁unjustifiable	-12.6322
▁justifying	-12.6322
▁beauty	-12.6322
▁indisputable	-12.6328
▁genes	-12.6328
▁NAFO	-12.6331
▁compound	-12.6331
▁expire	-12.6332
▁device	-12.6333
▁enact	-12.6334
▁respectable	-12.6335
▁fundamentalists	-12.6338
▁Bill	-12.6338
▁Estonian	-12.634
▁complements	-12.6341
▁headline	-12.6341
▁tide	-12.6345
ver	-12.6345
not	-12.6346
▁wip	-12.6374
▁epidemics	-12.6375
▁redouble	-12.6375
ojvodina	-12.6376
▁Ferreira	-12.6376
▁Schnellhardt	-12.6376
▁Taoiseach	-12.6376
▁Thousands	-12.6376
▁frequencies	-12.6376
▁pragmatism	-12.6376
▁sparsely	-12.6376
▁potatoes	-12.6376
▁nitrogen	-12.6376
▁rationalisation	-12.6376
▁transmit	-12.6377
▁liquid	-12.6377
Palestinian	-12.6378
▁EPLP	-12.6381
citizens	-12.6384
▁obey	-12.6385
▁eastward	-12.6388
▁shortfall	-12.6388
▁guarantor	-12.6388
▁loophole	-12.6388
▁hazard	-12.6389
▁distinguishing	-12.6396
▁lag	-12.6399
▁contexts	-12.6403
Member	-12.6408
▁trivial	-12.6412
▁republics	-12.6415
▁relax	-12.6423
▁superficial	-12.6428
▁minerals	-12.6429
▁arrogant	-12.643
▁resounding	-12.6431
▁arbitration	-12.6431
▁misunderstood	-12.6431
▁probable	-12.6431
▁quorum	-12.6431
▁Saint	-12.6431
▁crossroads	-12.6431
▁interconnected	-12.6431
▁Miranda	-12.6432
▁Stevenson	-12.6432
▁Catalonia	-12.6432
▁patentability	-12.6433
▁sacred	-12.6434
side	-12.6437
▁Campos	-12.6438
▁IRA	-12.6438
▁feeds	-12.6475
▁starvation	-12.6486
▁testimony	-12.6486
▁segregation	-12.6487
▁abstentions	-12.6487
▁distinctive	-12.6487
▁Local	-12.6487
Bissau	-12.6487
handling	-12.649
▁overwhelmingly	-12.649
▁atmospheric	-12.6491
African	-12.6492
▁indebted	-12.6492
▁modernised	-12.6492
▁addicts	-12.6493
▁periodic	-12.6496
▁cyber	-12.6496
▁hindering	-12.6502
eld	-12.6505
▁containers	-12.6516
▁telecoms	-12.652
▁myth	-12.652
▁Go	-12.6525
▁testify	-12.6536
▁overturn	-12.6539
▁tour	-12.654
▁Schwaiger	-12.6542
▁satisfies	-12.6542
▁petty	-12.6542
▁despicable	-12.6542
▁Order	-12.6543
▁noticeable	-12.6543
▁attentively	-12.6543
▁volatile	-12.6544
▁cheaply	-12.6547
▁Emissions	-12.6552
▁lever	-12.6553
▁conversation	-12.6556
▁lucky	-12.6556
▁avenues	-12.6563
▁envelope	-12.6569
▁cartels	-12.6572
▁lightly	-12.6576
▁destroys	-12.6584
▁lunch	-12.6598
▁Bjerregaard	-12.6598
▁humiliating	-12.6598
▁memories	-12.6598
▁Legislation	-12.6598
▁remarkably	-12.6599
▁insolvency	-12.6599
▁manipulated	-12.6599
▁interregional	-12.6599
▁sadness	-12.6599
▁Tobacco	-12.6601
▁twentieth	-12.6601
▁correctness	-12.6602
German	-12.6602
▁oils	-12.6603
▁Directorates	-12.6605
▁plastic	-12.6614
▁rock	-12.6615
▁therapy	-12.6626
▁upwards	-12.6632
▁dated	-12.6637
▁sizes	-12.6638
SEC	-12.664
▁bi	-12.6644
▁retreat	-12.6653
▁Marques	-12.6655
▁Richard	-12.6655
▁fodder	-12.6655
▁Borrell	-12.6655
▁Ceders	-12.6655
▁spotlight	-12.6655
▁criticized	-12.6655
▁eagerly	-12.6656
▁fitted	-12.6658
▁volunteering	-12.6658
▁viewpoints	-12.666
It	-12.666
▁delight	-12.666
red	-12.6661
▁cogeneration	-12.6662
▁Maria	-12.6663
▁obsession	-12.6667
▁g	-12.6668
▁Railway	-12.6669
▁brother	-12.667
▁screen	-12.6672
▁statutes	-12.6672
member	-12.6674
▁economists	-12.6677
▁announcements	-12.6678
▁succeeding	-12.668
▁cap	-12.668
▁inconvenience	-12.6681
▁reasoned	-12.6687
▁eighth	-12.6691
▁bombings	-12.6693
▁harness	-12.671
▁comparing	-12.6712
▁diabetes	-12.6712
▁fever	-12.6712
▁implied	-12.6712
▁panacea	-12.6712
▁Earlier	-12.6712
▁Moura	-12.6712
▁tyranny	-12.6712
▁predictability	-12.6712
▁Essentially	-12.6712
▁Polo	-12.6712
▁perseverance	-12.6712
▁possesses	-12.6713
▁thin	-12.6713
▁blatantly	-12.6713
▁Migration	-12.6715
▁flora	-12.6715
▁consciences	-12.6715
▁Rapid	-12.6715
▁charity	-12.6716
ncreased	-12.6716
▁Panel	-12.6717
▁recruit	-12.6718
▁locked	-12.6718
▁concealed	-12.672
▁uniformly	-12.6721
▁hungry	-12.6722
▁River	-12.6723
▁pharmaceuticals	-12.6723
▁Product	-12.6727
▁Proposal	-12.6728
▁pulling	-12.673
▁EEA	-12.6734
▁disregarding	-12.6734
▁EPA	-12.6744
▁Camp	-12.6747
▁dogs	-12.6754
▁dragg	-12.6755
enterprises	-12.6764
▁divides	-12.6766
▁dishonest	-12.6767
▁Michael	-12.6768
▁Souchet	-12.6769
▁Studies	-12.6769
▁easing	-12.6769
▁supervising	-12.6769
▁punitive	-12.6769
egardless	-12.677
▁munitions	-12.6771
▁mountainous	-12.6773
▁alarmed	-12.6773
▁installed	-12.6775
▁Greeks	-12.6777
▁lapse	-12.6783
ise	-12.6811
half	-12.6814
CAP	-12.6814
▁districts	-12.6819
▁Nicaragua	-12.6823
▁reproach	-12.6824
▁Specific	-12.6826
▁Oreja	-12.6826
▁Tillich	-12.6826
▁arbitrarily	-12.6826
▁flexibly	-12.6826
▁Silva	-12.6826
▁angry	-12.6826
▁separating	-12.6826
▁advancement	-12.6827
▁wounded	-12.6827
▁frightening	-12.6828
▁Torres	-12.683
▁battles	-12.6834
▁immune	-12.6834
▁Jim	-12.6835
▁forged	-12.6836
▁Near	-12.6838
▁centralisation	-12.6839
▁destabilise	-12.684
▁champions	-12.6842
▁authorization	-12.6843
▁brake	-12.6843
▁advertisements	-12.6845
industrial	-12.6845
eye	-12.6849
▁Reduc	-12.6862
▁specially	-12.6872
▁immoral	-12.6884
▁colonies	-12.6884
▁dissatisfied	-12.6884
▁synonymous	-12.6884
▁hostility	-12.6884
▁penalising	-12.6884
▁aroused	-12.6885
▁endocrine	-12.6885
▁Rack	-12.6885
▁slowdown	-12.6885
▁waive	-12.6886
▁optimise	-12.6886
▁Rothe	-12.6889
▁practitioners	-12.689
▁Militar	-12.6902
▁visions	-12.6903
▁portfolios	-12.6909
▁sustaining	-12.6916
▁resistant	-12.6928
▁greet	-12.6936
▁Moscovici	-12.6942
▁prominence	-12.6942
▁bloodshed	-12.6942
▁cynicism	-12.6942
▁mitigation	-12.6942
▁quantified	-12.6942
▁paramilitary	-12.6942
▁Chilean	-12.6944
▁imperialism	-12.6945
▁paved	-12.6946
▁immensely	-12.6946
▁sailing	-12.6947
▁morality	-12.6947
▁unionists	-12.6953
▁prudential	-12.6954
▁deteriorate	-12.6956
▁concede	-12.6956
▁contravene	-12.6957
▁dog	-12.6965
▁Olympics	-12.6976
euro	-12.6981
ory	-12.6984
▁Products	-12.6986
fold	-12.6995
▁Improvement	-12.7001
▁frustrating	-12.7001
▁multitude	-12.7001
aeda	-12.7001
▁Horn	-12.7001
▁recurring	-12.7002
▁pleasing	-12.7003
▁Coming	-12.7003
▁Back	-12.7004
▁Long	-12.7006
▁Brown	-12.7008
▁beverages	-12.7009
▁Ch	-12.7009
management	-12.7011
▁harmless	-12.7013
▁negotiator	-12.7017
▁uprising	-12.7017
▁Moldovan	-12.7023
▁usage	-12.7024
inci	-12.7025
non	-12.7035
▁reiterates	-12.7035
▁stemming	-12.706
▁tenacity	-12.706
▁Everybody	-12.706
▁stalemate	-12.706
▁eroded	-12.706
▁overarching	-12.7062
house	-12.7062
▁ambiguities	-12.7064
▁absorbed	-12.7066
open	-12.707
functioning	-12.7071
ACP	-12.7072
▁verge	-12.7075
▁humiliation	-12.7075
▁engineers	-12.7076
▁Never	-12.7077
▁gay	-12.7079
▁virtues	-12.708
▁murderers	-12.708
men	-12.7083
▁loading	-12.7085
▁Learning	-12.7092
▁uniting	-12.7097
care	-12.7103
you	-12.7105
▁loose	-12.7106
▁Forest	-12.7113
void	-12.7115
▁devot	-12.7118
▁Polledo	-12.7119
▁PKK	-12.7119
▁skies	-12.7119
▁verbal	-12.712
▁Anything	-12.712
▁relaxed	-12.7122
▁SLIM	-12.7122
▁Seychelles	-12.7122
▁equivalence	-12.7124
▁safest	-12.7125
▁Improving	-12.7125
▁EMAS	-12.7125
▁Medicines	-12.7126
▁Spinelli	-12.7126
▁kills	-12.7127
▁pollute	-12.7134
▁exhibition	-12.7136
▁withholding	-12.7139
▁LDCs	-12.7148
▁suppress	-12.7156
▁spirits	-12.7157
▁cooperatives	-12.7162
▁distorts	-12.717
▁deposit	-12.717
▁avoids	-12.7171
▁McNally	-12.7178
▁Plooij	-12.7178
▁disseminating	-12.7178
▁manpower	-12.7179
▁brutality	-12.7179
▁breadth	-12.7179
▁streamlined	-12.7179
▁evolved	-12.7179
▁disturbed	-12.718
▁Major	-12.718
▁summarised	-12.718
▁incitement	-12.7181
▁Considering	-12.7181
▁supervised	-12.7182
▁pseudo	-12.7183
▁entailed	-12.7185
▁married	-12.7185
▁farce	-12.7186
▁remarked	-12.7187
used	-12.719
ment	-12.7194
▁interception	-12.7194
▁renewing	-12.7195
▁cabinet	-12.7195
▁receipt	-12.7196
▁horrors	-12.7196
▁parcel	-12.7198
▁proteins	-12.72
▁rearing	-12.7202
▁planting	-12.721
▁prosecutors	-12.7215
▁FTA	-12.722
▁fighters	-12.7226
▁Liberia	-12.7234
▁crown	-12.7235
oggenhuber	-12.7238
▁Effort	-12.7238
▁Sturdy	-12.7238
▁appalled	-12.7238
▁nickel	-12.7238
▁unbelievable	-12.7238
▁Phare	-12.7238
▁rally	-12.7238
▁depopulation	-12.7238
▁acid	-12.7238
▁chairmanship	-12.7238
▁fruition	-12.7239
▁cheapest	-12.7239
▁ruined	-12.724
▁Illegal	-12.7241
▁collateral	-12.7241
▁satellites	-12.7243
▁beat	-12.7244
▁cooling	-12.7246
▁Turin	-12.725
▁neglecting	-12.7253
▁infections	-12.7255
▁Cambodian	-12.7258
▁tar	-12.7263
ight	-12.7275
));	-12.7277
▁Ben	-12.7277
▁accus	-12.729
▁discredit	-12.7291
cultural	-12.7293
lvarez	-12.7295
▁searching	-12.7297
▁stark	-12.7297
▁Goldstone	-12.7298
▁Lahti	-12.7298
▁Rojo	-12.7298
▁fascinating	-12.7298
▁innocence	-12.7298
▁practising	-12.7298
▁multilingual	-12.7298
▁electors	-12.7298
▁Parish	-12.7299
▁shaken	-12.73
▁regeneration	-12.73
▁suppressed	-12.73
▁dedicate	-12.73
▁Fishing	-12.7301
▁Securities	-12.7301
▁abusive	-12.7302
▁acceleration	-12.7302
▁GPS	-12.7304
▁adaptability	-12.7304
▁flourishing	-12.7307
▁Pan	-12.7309
▁protagonists	-12.731
health	-12.7312
▁theft	-12.7314
▁questionnaire	-12.7316
▁theatre	-12.7317
▁till	-12.7319
▁defenceless	-12.7321
▁injustices	-12.7323
▁Ali	-12.7328
▁needless	-12.7329
▁operative	-12.7335
working	-12.7338
▁reign	-12.734
▁republic	-12.7356
▁unwise	-12.7358
▁Coast	-12.7359
▁Miguel	-12.7359
▁KLA	-12.7359
▁kidnapped	-12.7359
▁starving	-12.7359
▁handicapped	-12.7359
▁unsuitable	-12.7359
▁Peres	-12.7359
▁fanaticism	-12.736
▁durable	-12.7361
▁battery	-12.7361
▁loudly	-12.7361
▁seminars	-12.7368
▁protested	-12.7372
▁tip	-12.7376
▁audience	-12.7377
▁desert	-12.7379
▁EURES	-12.7387
▁Ma	-12.7387
Lisbon	-12.7391
▁emphasizes	-12.7398
fits	-12.7402
▁deriv	-12.7403
ries	-12.741
▁Additional	-12.7419
Ancona	-12.742
▁hurry	-12.742
▁intermediary	-12.742
▁Holocaust	-12.742
▁retired	-12.7421
▁mockery	-12.7421
▁shy	-12.7421
▁rubbish	-12.7422
▁redefine	-12.7424
▁Someone	-12.7425
nik	-12.7429
▁insulting	-12.7435
continuation	-12.7435
finding	-12.7435
▁regionalisation	-12.7436
▁Tamil	-12.7438
▁proposition	-12.7438
▁mixture	-12.7438
▁biofuel	-12.7439
▁Chief	-12.7439
▁persuasion	-12.744
▁dioxins	-12.744
▁affirmation	-12.744
ese	-12.7441
▁differential	-12.7446
▁destinations	-12.7468
▁Herzog	-12.7469
financed	-12.747
good	-12.747
▁Papua	-12.7475
▁phrases	-12.7481
▁McCartin	-12.7481
Margallo	-12.7481
▁adhering	-12.7481
▁exploring	-12.7481
▁reminiscent	-12.7481
▁denouncing	-12.7481
irresponsibility	-12.7481
▁admitting	-12.7482
▁Gomes	-12.7482
▁Sharia	-12.7482
▁relaxation	-12.7483
▁diversified	-12.7483
▁Wolf	-12.7484
▁instituted	-12.7485
▁bridging	-12.7486
▁halted	-12.7489
▁certified	-12.7489
▁repealing	-12.749
▁default	-12.7491
hearted	-12.7492
hull	-12.7495
▁glance	-12.7499
ek	-12.7499
▁girl	-12.75
▁presumption	-12.7501
▁pedestrians	-12.7502
▁invitations	-12.7502
▁disciplines	-12.7502
▁creditors	-12.7504
outs	-12.7506
▁Border	-12.7511
▁auditor	-12.7514
▁infring	-12.7519
▁incur	-12.752
talling	-12.7524
▁lump	-12.7524
▁enhances	-12.7527
▁profiles	-12.7528
▁chickens	-12.7536
allelersundi	-12.7543
▁Catania	-12.7543
▁Neves	-12.7543
▁Oettinger	-12.7543
▁Responsibility	-12.7543
▁apology	-12.7543
▁levied	-12.7543
▁obesity	-12.7543
▁destabilisation	-12.7543
▁recalls	-12.7543
▁vehemently	-12.7543
▁Leyla	-12.7544
▁circulated	-12.7544
▁regularity	-12.7544
▁tragically	-12.7544
▁guards	-12.7545
▁unconditionally	-12.7545
▁Integrated	-12.7545
▁behaved	-12.7546
▁asserted	-12.7547
▁reaffirms	-12.7548
▁delivers	-12.7548
▁der	-12.7548
▁fascism	-12.755
rling	-12.7558
much	-12.756
▁Pre	-12.7561
ermanent	-12.7562
▁Galician	-12.7564
▁correcting	-12.757
▁chooses	-12.7571
▁Macedonian	-12.7581
▁Mayor	-12.7591
▁additions	-12.7601
▁Bavaria	-12.7603
▁Jeggle	-12.7605
▁Radwan	-12.7605
▁ideologies	-12.7605
▁exodus	-12.7605
▁releasing	-12.7605
▁technocratic	-12.7605
▁cloned	-12.7605
▁instructed	-12.7606
▁manifestly	-12.7606
▁reinstate	-12.7608
▁sacrificing	-12.7608
▁complemented	-12.7613
▁prefers	-12.762
▁rewards	-12.7621
trafficking	-12.7623
▁shipyard	-12.7625
▁shortcoming	-12.7625
▁peak	-12.7627
▁contacted	-12.763
▁succeeds	-12.7632
▁blacklist	-12.7633
▁longest	-12.7634
▁contravenes	-12.7652
▁screens	-12.7652
▁pilots	-12.7657
reading	-12.7657
▁indulge	-12.7667
ef	-12.7667
▁inferior	-12.7668
▁Aarhus	-12.7668
▁Eurlings	-12.7668
▁Keyser	-12.7668
▁Torture	-12.7668
▁disintegration	-12.7668
▁Menrad	-12.7668
▁enquiries	-12.7668
▁salmonella	-12.7668
▁scrapped	-12.7668
▁warfare	-12.7668
▁resale	-12.7668
▁Porto	-12.7668
▁anchored	-12.7669
▁universality	-12.7669
▁Grand	-12.7669
enice	-12.7669
▁flax	-12.7669
▁combatting	-12.767
start	-12.7673
▁designs	-12.7675
▁converting	-12.7678
▁withdrew	-12.768
end	-12.7684
grass	-12.7686
What	-12.7686
▁disorder	-12.7688
▁halting	-12.7696
▁wounds	-12.7698
▁underlie	-12.7717
▁Important	-12.773
▁conserve	-12.773
▁commemorate	-12.773
apatero	-12.7731
irrankoski	-12.7731
▁Conditions	-12.7731
▁Kremlin	-12.7731
▁comparability	-12.7731
▁persuading	-12.7731
▁susceptible	-12.7731
▁deserving	-12.7731
▁consensual	-12.7731
▁tricky	-12.7732
▁dumped	-12.7732
▁cake	-12.7732
▁contention	-12.7734
▁vitality	-12.7734
▁oneself	-12.7736
▁apartheid	-12.774
co	-12.7741
▁refund	-12.7742
il	-12.7745
tre	-12.7751
▁dismissal	-12.7752
▁broadcasts	-12.7754
▁Est	-12.7776
▁missiles	-12.7781
▁pains	-12.779
▁uneven	-12.7793
▁reintroduce	-12.7793
▁unpopular	-12.7794
▁Addiction	-12.7794
▁Angelilli	-12.7794
▁copies	-12.7794
▁sacrosanct	-12.7794
▁Arias	-12.7794
▁misled	-12.7794
▁armies	-12.7794
▁overlapping	-12.7794
▁inaccurate	-12.7795
▁prospective	-12.7795
▁Kla	-12.7796
▁cat	-12.7798
▁asymmetric	-12.78
▁firmer	-12.78
▁onerous	-12.78
▁thereafter	-12.7804
▁torn	-12.7805
▁pretending	-12.7806
▁patented	-12.781
▁EFSA	-12.7813
▁corporation	-12.7815
▁husband	-12.782
▁guests	-12.7829
▁landed	-12.783
▁awaited	-12.7838
▁spaces	-12.7842
▁Sa	-12.7853
represented	-12.7853
rrez	-12.7854
▁owes	-12.7854
labelling	-12.7857
▁dogmatic	-12.7858
▁Salvador	-12.7858
▁futile	-12.7858
▁junior	-12.7858
▁stumbling	-12.7858
▁unpredictable	-12.7858
▁fatalities	-12.7858
▁Farage	-12.7858
▁Durban	-12.7858
▁mildly	-12.7858
▁materialise	-12.7858
▁understandably	-12.7859
▁Timorese	-12.7859
▁worsened	-12.7859
▁awkward	-12.786
▁bare	-12.7861
▁survived	-12.7861
▁allergies	-12.7862
▁focussed	-12.7862
▁cater	-12.7863
▁naming	-12.7864
▁disappoint	-12.787
▁plead	-12.7872
cutting	-12.7873
▁stayed	-12.7873
ta	-12.7875
▁tread	-12.7876
▁inspect	-12.7877
▁purse	-12.7878
▁workload	-12.7878
including	-12.7878
▁handicap	-12.7879
▁complicate	-12.788
▁Science	-12.7885
▁inaction	-12.7886
▁crash	-12.7914
▁Heritage	-12.7922
▁Integration	-12.7922
▁complacency	-12.7922
▁unacceptably	-12.7922
▁Renewable	-12.7922
▁Bowe	-12.7922
▁cowardly	-12.7922
▁protracted	-12.7922
▁Appendix	-12.7922
▁Guti	-12.7922
▁enduring	-12.7923
▁empowered	-12.7923
▁firmness	-12.7924
▁Anglo	-12.7926
▁overfishing	-12.7926
▁mayor	-12.7927
▁hammer	-12.793
▁bypass	-12.7932
▁cloud	-12.794
Euro	-12.7943
▁reassurance	-12.7943
▁gauge	-12.7947
art	-12.7951
▁designate	-12.7952
ll	-12.7953
▁goodness	-12.7954
State	-12.7964
legislator	-12.7965
▁achieves	-12.7974
▁mislead	-12.798
▁savage	-12.7985
▁marvellous	-12.7985
▁illogical	-12.7986
▁sorrow	-12.7986
▁Stubb	-12.7986
▁Assurance	-12.7986
▁aerospace	-12.7986
▁endemic	-12.7986
▁fortnight	-12.7986
▁impending	-12.7986
▁Paulsen	-12.7986
▁spade	-12.7986
▁fait	-12.7987
▁Additionally	-12.7987
▁Interreg	-12.7987
▁oppressive	-12.7987
▁sizeable	-12.7987
▁dinner	-12.7988
▁geostrategic	-12.7989
▁enlightened	-12.799
▁communicable	-12.7991
▁Money	-12.7992
▁orderly	-12.7997
▁interactive	-12.7998
▁crack	-12.8002
▁hurt	-12.8002
▁fullest	-12.8002
consuming	-12.8008
▁paint	-12.8009
▁lowered	-12.8019
▁carte	-12.8023
▁derives	-12.8026
▁pet	-12.8032
▁environments	-12.8035
▁Andalusia	-12.8051
▁Gill	-12.8051
eviating	-12.8051
▁energetic	-12.8051
rfler	-12.8051
▁Ortuondo	-12.8051
▁Watch	-12.8051
▁library	-12.8051
▁indivisible	-12.8051
▁Kreissl	-12.8051
▁Poos	-12.8051
▁compensating	-12.8052
▁Whenever	-12.8052
▁dispose	-12.8054
▁Charles	-12.8054
idal	-12.8055
▁depart	-12.8055
human	-12.8056
▁allay	-12.806
▁accidental	-12.8061
▁modifying	-12.8067
▁displaying	-12.807
▁outlets	-12.807
▁doorstep	-12.8072
▁episode	-12.8073
▁height	-12.8077
▁confines	-12.8082
▁judgements	-12.8084
▁Ever	-12.8085
▁thanked	-12.8094
▁tackles	-12.8094
▁fascist	-12.8114
▁Bahrain	-12.8115
▁revitalise	-12.8116
▁Ahtisaari	-12.8117
▁Brinkhorst	-12.8117
▁Orthodox	-12.8117
▁Weapons	-12.8117
▁revenge	-12.8117
▁investigative	-12.8117
▁Actually	-12.8117
▁Fernandes	-12.8117
▁paralysed	-12.8117
▁sidelined	-12.8117
▁Rapkay	-12.8117
▁deported	-12.8117
▁Package	-12.8117
▁anonymous	-12.8117
▁chaotic	-12.8118
▁Clear	-12.8118
▁diverted	-12.8118
▁eradicated	-12.8119
▁conclusive	-12.8119
▁dominance	-12.8119
▁reuse	-12.8119
▁dared	-12.8119
Matthews	-12.8119
▁sights	-12.8122
▁finalising	-12.8122
▁Strengthening	-12.8124
▁Trafficking	-12.8128
▁consultants	-12.8131
▁proclaim	-12.8131
▁gestures	-12.8132
▁examinations	-12.8136
▁heaven	-12.8139
▁wordings	-12.8142
▁usefully	-12.8143
ski	-12.8152
ian	-12.8155
▁bee	-12.816
▁f	-12.816
▁partisan	-12.816
▁sham	-12.8174
▁coexist	-12.8176
▁compile	-12.8182
▁perpetuate	-12.8182
▁Credentials	-12.8182
▁competencies	-12.8182
▁culmination	-12.8182
▁plurality	-12.8182
▁Issues	-12.8184
▁unrelated	-12.8184
▁incorrectly	-12.8185
▁Mundus	-12.8186
▁diligence	-12.8186
▁markedly	-12.8189
▁Boel	-12.819
▁Tsatsos	-12.8191
▁provisionally	-12.8191
▁prosper	-12.8196
▁struggles	-12.8197
aw	-12.8201
▁cabin	-12.8203
▁fraction	-12.8204
▁Unit	-12.8207
▁prey	-12.8211
▁promotional	-12.8211
▁synthesis	-12.8215
▁kilometre	-12.8218
▁designing	-12.822
▁lacked	-12.8221
▁Pr	-12.8228
▁oriented	-12.8233
▁replaces	-12.8233
▁reflections	-12.8234
▁directing	-12.8234
utonomous	-12.8235
▁Programmes	-12.8235
▁federations	-12.824
▁Gra	-12.8242
hle	-12.8244
▁rein	-12.8246
▁stir	-12.8248
▁Aelvoet	-12.8249
▁Trading	-12.8249
▁discouraging	-12.8249
▁simplicity	-12.8249
▁lamentable	-12.8249
▁subsistence	-12.8249
▁discretionary	-12.8249
▁impoverished	-12.8249
▁aggravated	-12.8249
▁overshadowed	-12.8249
▁admissibility	-12.825
▁modalities	-12.825
▁Remember	-12.825
▁recruited	-12.8251
▁tactical	-12.8252
▁weighed	-12.8253
▁implants	-12.8257
▁bankers	-12.8257
ting	-12.826
▁trips	-12.8261
▁riots	-12.8262
basing	-12.8265
▁governs	-12.8267
▁electromagneti	-12.8268
▁disturbances	-12.8271
▁negatively	-12.8272
▁supermarket	-12.8272
▁activist	-12.8273
▁Ethiopian	-12.8274
▁wondered	-12.8275
income	-12.8275
▁altering	-12.8277
cs	-12.828
▁militias	-12.8285
▁publications	-12.8288
▁criticises	-12.8303
▁Though	-12.8314
▁emphatic	-12.8315
rgensen	-12.8315
▁Imbeni	-12.8315
▁Kirkhope	-12.8315
▁sincerity	-12.8315
▁turmoil	-12.8315
▁grew	-12.8315
▁confiscation	-12.8315
▁compelling	-12.8315
▁BBC	-12.8315
▁informative	-12.8315
▁thorny	-12.8316
▁Srebrenica	-12.8316
▁defective	-12.8316
▁slaves	-12.8316
▁organizing	-12.8317
▁Milan	-12.8317
▁originated	-12.8317
▁periphery	-12.8318
▁rushed	-12.8319
▁broadened	-12.8319
▁consciousness	-12.832
▁pulled	-12.8321
▁occasional	-12.8329
▁authorized	-12.8329
▁willingly	-12.8329
▁Oil	-12.833
▁tracks	-12.8331
▁Myanmar	-12.8334
▁petitioners	-12.8334
▁occurrences	-12.8335
▁strand	-12.8338
▁flame	-12.8339
▁commonplace	-12.834
▁belts	-12.8345
▁alien	-12.8346
▁abortions	-12.8347
▁Andr	-12.835
▁deposits	-12.8363
paragraph	-12.8366
▁pav	-12.8372
▁ruthless	-12.8382
ritten	-12.8382
▁Consensus	-12.8382
▁Giansily	-12.8382
▁Gorsel	-12.8382
▁Piecyk	-12.8382
▁Wiersma	-12.8382
▁flouted	-12.8383
▁coping	-12.8384
▁Smith	-12.8384
▁deficient	-12.8384
▁escalating	-12.8385
▁Mafia	-12.8388
▁intervals	-12.8391
liba	-12.8392
▁Carlos	-12.8398
post	-12.8402
fly	-12.8406
▁centrally	-12.841
peripheral	-12.841
▁importer	-12.8411
▁TACs	-12.8416
▁worsen	-12.8416
▁Port	-12.8418
▁influences	-12.8418
▁hunt	-12.8425
▁Aids	-12.8431
▁orientations	-12.8433
▁ensu	-12.8446
▁Bolivia	-12.8447
▁Effective	-12.8449
▁erroneous	-12.8449
▁FIFA	-12.845
▁Schwab	-12.845
▁Kiev	-12.845
▁editorial	-12.845
▁Canaries	-12.845
▁umpteenth	-12.845
▁inseparable	-12.845
▁deprivation	-12.845
▁redundancy	-12.845
▁waging	-12.8451
▁educating	-12.8452
▁generously	-12.8455
▁Land	-12.8457
two	-12.8459
▁pooling	-12.846
▁incompetence	-12.846
▁deception	-12.8461
▁backgrounds	-12.8461
▁Standards	-12.8461
▁creators	-12.8463
▁coincides	-12.8466
▁Objectives	-12.8466
▁switching	-12.8471
▁metal	-12.8473
▁exaggeration	-12.8475
▁supplementing	-12.8475
▁manifestation	-12.8475
▁implication	-12.8475
people	-12.8476
he	-12.8479
imbabwean	-12.8479
▁surprises	-12.8483
disciplinary	-12.8488
▁brakes	-12.85
▁stipulat	-12.8515
▁heroin	-12.8517
▁Insurance	-12.8518
▁Kratsa	-12.8518
▁Redondo	-12.8518
▁residual	-12.8518
▁plutonium	-12.8518
▁UNICEF	-12.8518
▁multimedia	-12.8518
▁seemingly	-12.8518
▁paedophilia	-12.8518
▁grubbing	-12.8518
▁sorely	-12.8518
▁overtaken	-12.8518
▁sixty	-12.8519
abiding	-12.8519
▁modernization	-12.8519
▁confiscated	-12.8519
▁Petersberg	-12.8521
▁acquainted	-12.8522
▁acceded	-12.8523
▁chairs	-12.8525
▁bids	-12.8526
▁brush	-12.8526
▁patently	-12.8527
▁Radio	-12.8529
▁trapped	-12.8529
▁invisible	-12.8534
▁ear	-12.8534
▁freeing	-12.8536
▁aeroplane	-12.8543
▁Governor	-12.8544
▁awaits	-12.8546
▁telephones	-12.8546
awaited	-12.8547
▁Marie	-12.8549
▁transplant	-12.8554
▁placement	-12.8554
▁notions	-12.8571
ability	-12.8574
▁afflict	-12.8585
▁emit	-12.8586
▁Ghilardotti	-12.8586
▁Niebler	-12.8586
▁coffers	-12.8586
▁reversing	-12.8586
▁unwarranted	-12.8586
▁Donnelly	-12.8586
▁Tunnel	-12.8586
▁bode	-12.8586
▁cancelling	-12.8587
▁interdependent	-12.8587
▁relocating	-12.8587
▁Payment	-12.8587
▁burnt	-12.8587
▁reprocessing	-12.8587
▁Hoppenstedt	-12.8588
▁Memorandum	-12.8588
▁wary	-12.8594
▁rewarding	-12.8598
▁Discrimination	-12.8603
▁defendants	-12.861
origin	-12.8616
For	-12.8618
▁nail	-12.862
▁blocs	-12.862
▁therein	-12.8628
▁spur	-12.8636
▁Television	-12.8639
▁Islamist	-12.8639
▁celebrations	-12.8652
▁boom	-12.8653
▁implicit	-12.8655
▁Apparently	-12.8655
▁Failure	-12.8655
▁calves	-12.8655
▁epidemiological	-12.8655
▁candidacy	-12.8656
▁ammunition	-12.8656
▁birthday	-12.8657
▁Imagine	-12.8657
▁Private	-12.8659
▁typically	-12.8659
▁Establish	-12.8659
▁litigation	-12.866
▁yielded	-12.866
neath	-12.8661
▁mg	-12.8662
▁Romanians	-12.8663
▁builds	-12.8665
▁hydrocarbons	-12.8668
van	-12.867
▁sexually	-12.867
▁circulate	-12.868
▁Louis	-12.868
▁roof	-12.8681
only	-12.8688
▁auction	-12.8688
▁horses	-12.8695
▁print	-12.8696
▁nationalistic	-12.8699
▁consuming	-12.8701
▁ash	-12.8709
▁ripe	-12.8714
▁deceive	-12.8724
▁rationalise	-12.8725
▁proverb	-12.8725
▁Sakellariou	-12.8725
▁Silguy	-12.8725
▁Simply	-12.8725
▁comprehend	-12.8725
▁pigmeat	-12.8725
▁unworthy	-12.8725
teborg	-12.8725
▁prosecuting	-12.8725
▁forcibly	-12.8725
▁Poto	-12.8726
▁prioritised	-12.8726
▁unusually	-12.8728
▁Boeing	-12.8728
▁adolescents	-12.8729
▁contested	-12.8729
▁Caspian	-12.8734
▁aligned	-12.8736
▁admits	-12.8738
▁geo	-12.8743
▁Markets	-12.8743
▁Dam	-12.8745
▁Close	-12.8749
▁band	-12.8751
▁proclamation	-12.8752
▁Election	-12.8752
▁Kosovar	-12.8752
▁blanket	-12.8752
▁mixing	-12.8754
environmental	-12.8756
▁terminals	-12.8766
▁fares	-12.8773
▁yearly	-12.8776
sex	-12.8782
emptive	-12.8782
▁slowing	-12.8784
▁reconstruct	-12.8786
▁disarm	-12.8787
▁shirk	-12.8793
▁imaginative	-12.8794
▁bones	-12.8794
Neyra	-12.8795
▁Buttiglione	-12.8795
▁Hizbollah	-12.8795
▁unease	-12.8795
▁verifiable	-12.8795
▁Hulten	-12.8795
▁Miller	-12.8795
▁murderous	-12.8795
▁About	-12.8795
▁inspected	-12.8797
union	-12.8798
▁quasi	-12.8798
▁Comoros	-12.8799
▁intelligently	-12.88
W	-12.8806
▁pessimism	-12.8807
▁Mario	-12.8809
▁disguised	-12.8811
▁stateless	-12.8818
▁upheaval	-12.8822
▁attachment	-12.8822
▁constraint	-12.8823
▁residue	-12.8823
Israel	-12.8828
▁portal	-12.8832
▁Pi	-12.8837
such	-12.8838
▁grouping	-12.884
▁registering	-12.8854
▁Old	-12.8856
▁assign	-12.8863
▁Ghent	-12.8865
▁Google	-12.8865
▁Macartney	-12.8865
▁verbatim	-12.8865
▁Focus	-12.8865
▁decentralized	-12.8865
▁Mandela	-12.8865
▁pious	-12.8865
▁Rotterdam	-12.8866
▁swine	-12.8866
ans	-12.8867
▁scanners	-12.8868
▁cautiously	-12.8869
▁inward	-12.8871
▁activated	-12.8872
▁Kok	-12.8872
▁abus	-12.8873
▁graduates	-12.8877
▁rulers	-12.8879
▁Motors	-12.8883
ch	-12.8887
▁resisting	-12.8888
ier	-12.8893
▁tyre	-12.8893
▁Lankan	-12.8895
generational	-12.8899
Latin	-12.89
▁decidedly	-12.8908
▁ventures	-12.8914
size	-12.8915
▁Czechs	-12.8917
▁pursues	-12.8917
▁bother	-12.8926
▁surround	-12.8929
▁inextricabl	-12.8935
▁bars	-12.8935
uadras	-12.8936
▁coercion	-12.8936
▁retrograde	-12.8936
▁Nistic	-12.8936
▁Theorin	-12.8936
▁lion	-12.8936
▁bacteria	-12.8936
▁foolish	-12.8936
▁Hundreds	-12.8937
▁implicitly	-12.8937
▁receptive	-12.8937
▁filed	-12.8938
▁vanguard	-12.8938
▁stimulated	-12.894
▁Flemish	-12.8941
▁radicalisation	-12.8942
▁releases	-12.8942
▁vocation	-12.8943
▁Less	-12.8943
▁earmarking	-12.8943
▁schooling	-12.8949
▁honouring	-12.8954
fi	-12.8954
▁joins	-12.8954
▁predictions	-12.8955
fighting	-12.8961
▁termination	-12.8963
▁cheese	-12.8963
▁thrive	-12.8964
▁Sahrawi	-12.8965
▁interruption	-12.8966
▁inject	-12.8967
▁telecom	-12.8968
energy	-12.8971
but	-12.8977
ad	-12.8978
▁se	-12.8986
▁fished	-12.8986
▁boarding	-12.8999
▁preach	-12.8999
▁pot	-12.9003
▁affront	-12.9006
▁conscientious	-12.9007
▁Maat	-12.9008
▁Berisha	-12.9008
▁Netanyahu	-12.9008
▁participatory	-12.9008
▁Gazprom	-12.9009
▁restructured	-12.9009
▁endured	-12.9009
▁guess	-12.901
▁inertia	-12.9011
▁formality	-12.9011
▁grasped	-12.9013
▁Promot	-12.9015
▁mounting	-12.9015
▁confer	-12.9017
connecting	-12.9025
▁kg	-12.9028
▁modu	-12.903
▁hurdles	-12.9033
▁attribute	-12.9036
▁repayment	-12.9037
▁examines	-12.9048
▁clearest	-12.9053
▁Commons	-12.9056
▁shifts	-12.9058
▁precedents	-12.9062
▁realises	-12.9067
▁Sub	-12.9069
ttering	-12.9074
▁greed	-12.9078
▁volcan	-12.9079
▁nervous	-12.9079
▁Pristina	-12.9079
▁compassion	-12.9079
▁ninth	-12.9079
▁turbulence	-12.9079
▁invoking	-12.9079
▁True	-12.908
▁draftsmen	-12.908
▁densely	-12.908
▁disclose	-12.9081
▁McGuinness	-12.9081
▁negligible	-12.9082
▁societal	-12.9082
▁Myller	-12.9082
▁tremendously	-12.9085
▁consisted	-12.9085
▁Conclusions	-12.9088
▁poll	-12.909
ro	-12.9099
▁jump	-12.91
▁wreck	-12.9101
▁sink	-12.9105
▁disguise	-12.9107
▁alibi	-12.9108
lasting	-12.9114
violent	-12.9117
▁readings	-12.912
z	-12.9127
▁speeds	-12.9129
guin	-12.9134
▁implements	-12.9134
▁originates	-12.914
MT	-12.9141
▁bias	-12.9151
▁ludicrous	-12.9151
▁deviate	-12.9151
▁persevere	-12.9151
▁Peninsula	-12.9151
▁wretched	-12.9152
▁Gauz	-12.9152
▁Helmut	-12.9152
▁Lewandowski	-12.9152
▁Rugova	-12.9152
▁Svensson	-12.9152
▁Wijkman	-12.9152
▁barbarity	-12.9152
▁maternal	-12.9152
▁accommodating	-12.9153
▁Open	-12.9153
▁seamen	-12.9153
▁discriminating	-12.9153
▁Exchange	-12.9154
▁Aceh	-12.9154
▁unquestionable	-12.9154
▁panels	-12.9155
▁surprisingly	-12.9156
▁homosexuality	-12.9156
▁adaptations	-12.9158
▁repairs	-12.9175
▁tactic	-12.9181
▁undertakes	-12.9184
que	-12.9188
crisis	-12.9191
▁workplaces	-12.9202
▁drafts	-12.9203
▁earning	-12.9211
▁Amend	-12.9214
na	-12.9216
▁downwards	-12.9217
▁measurements	-12.922
▁sciences	-12.9223
indiscriminately	-12.9223
▁MED	-12.9224
▁recess	-12.9225
enophobia	-12.9225
▁Examples	-12.9225
▁Langenhagen	-12.9225
▁Napoletano	-12.9225
▁Pillar	-12.9225
▁leghold	-12.9225
▁unreported	-12.9225
▁beekeeping	-12.9225
bner	-12.9225
▁pluralistic	-12.9225
▁plunged	-12.9225
▁incalculable	-12.9226
▁Mutual	-12.9226
▁clothes	-12.9227
▁widened	-12.9228
▁abundance	-12.9228
▁grandchildren	-12.9228
▁Ensur	-12.9229
▁competitions	-12.923
▁formulae	-12.9231
▁keenly	-12.9233
▁affirmed	-12.9233
▁assertions	-12.9236
▁relaunching	-12.9241
▁supervisors	-12.9246
paid	-12.9252
▁hindrance	-12.9255
▁arsenal	-12.9255
▁Assessment	-12.9255
▁antibiotic	-12.9256
▁terminal	-12.9256
▁instruction	-12.9256
▁upward	-12.9259
▁shooting	-12.9259
▁legitimise	-12.9259
▁whichever	-12.9261
Turkey	-12.9265
▁rockets	-12.9266
▁gun	-12.9267
▁beating	-12.9294
ended	-12.9294
▁McMillan	-12.9298
▁Covenant	-12.9298
▁Gucht	-12.9298
▁Hieronymi	-12.9298
▁Nagorno	-12.9298
▁Provan	-12.9298
▁disapproval	-12.9298
▁discontent	-12.9298
▁fragility	-12.9298
▁liabilities	-12.9298
▁obliging	-12.9298
▁discoveries	-12.9299
▁alluded	-12.9299
▁Setting	-12.9299
▁powder	-12.9299
▁Pasty	-12.9299
▁Bucharest	-12.9299
▁reinstated	-12.93
▁Dimitrakopoulos	-12.93
▁Kindermann	-12.93
▁Urban	-12.9301
▁acutely	-12.9302
▁irony	-12.9302
oting	-12.9306
▁crying	-12.9309
▁Chemicals	-12.9311
▁stakes	-12.9313
▁vitamins	-12.9317
▁poet	-12.9317
▁ESA	-12.9318
turn	-12.9326
▁broker	-12.9326
▁preclude	-12.9329
▁separatist	-12.9329
▁assistant	-12.9331
▁controllers	-12.9332
rich	-12.9333
▁projected	-12.9333
▁setback	-12.9337
▁rank	-12.9337
▁Building	-12.9343
▁setbacks	-12.9343
▁TB	-12.9353
treatment	-12.9354
▁wonders	-12.9355
▁declares	-12.9356
▁empower	-12.9365
▁spin	-12.9368
▁decrees	-12.9371
▁laborious	-12.9372
▁retire	-12.9372
▁stifle	-12.9372
▁Haider	-12.9373
▁Irrespective	-12.9373
▁Santini	-12.9373
▁motherhood	-12.9373
▁piecemeal	-12.9373
▁formidable	-12.9373
▁suitably	-12.9373
▁sponsorship	-12.9373
▁Subsequently	-12.9373
calan	-12.9373
▁dispense	-12.9373
▁noteworthy	-12.9373
▁Buen	-12.9373
▁Royal	-12.9373
▁Eurozone	-12.9375
▁Nazism	-12.9378
▁banknotes	-12.9379
▁lethal	-12.9379
▁impaired	-12.9386
▁infamous	-12.9387
▁classical	-12.9389
▁Te	-12.9392
pe	-12.9401
▁trapping	-12.9403
▁precaution	-12.9404
▁tissue	-12.9404
▁pensioner	-12.9411
▁Br	-12.9412
Scott	-12.9413
▁medication	-12.9414
Everything	-12.9414
approval	-12.9415
▁Bosnian	-12.942
▁brothers	-12.9429
ol	-12.9433
▁borrow	-12.9439
▁Deva	-12.9442
[...]
