<unk>	0
<s>	0
</s>	0
,	-2.77297
.	-3.32152
▁die	-3.41717
▁der	-3.50083
▁und	-3.72257
▁	-3.94839
▁in	-4.31004
▁zu	-4.45446
▁den	-4.54975
▁für	-4.76154
▁von	-4.77741
▁ist	-4.79282
▁das	-4.96893
▁dass	-4.97223
▁wir	-5.00454
▁nicht	-5.00803
▁des	-5.01561
▁auf	-5.05645
▁eine	-5.10617
▁werden	-5.15957
0	-5.24554
▁es	-5.25781
▁mit	-5.27549
▁im	-5.2825
-	-5.30511
▁ich	-5.30525
▁auch	-5.36097
▁dem	-5.43239
▁ein	-5.51772
▁sich	-5.54156
▁wird	-5.55482
▁Ich	-5.56646
en	-5.58863
▁haben	-5.62246
▁sind	-5.64038
▁Die	-5.67199
n	-5.69421
▁hat	-5.74167
▁Kommission	-5.76264
▁um	-5.77452
2	-5.79872
▁über	-5.83116
▁-	-5.84867
▁wie	-5.86053
▁an	-5.86443
1	-5.86688
▁sie	-5.87972
▁als	-5.88089
▁daß	-5.8881
▁zur	-5.91233
▁Herr	-5.93858
s	-5.97298
▁Wir	-6.006
▁einer	-6.02056
▁diese	-6.0583
▁Sie	-6.08554
▁Union	-6.0877
▁uns	-6.11287
▁bei	-6.1195
▁müssen	-6.15338
▁einen	-6.17318
▁dieser	-6.19413
▁möchte	-6.21558
Europäischen	-6.23984
▁Bericht	-6.29422
▁Es	-6.32198
▁noch	-6.32718
▁können	-6.33877
9	-6.34697
▁vor	-6.3483
▁Präsident	-6.35185
▁diesem	-6.36324
▁Das	-6.37357
▁nur	-6.38755
▁kann	-6.38825
▁nach	-6.40942
▁aus	-6.41345
▁Parlament	-6.41425
▁so	-6.41954
▁aber	-6.42223
▁wenn	-6.43578
▁zum	-6.44083
▁oder	-6.46084
▁sein	-6.46151
▁EU	-6.46952
▁sehr	-6.4704
:	-6.48
▁durch	-6.48818
▁Mitgliedstaaten	-6.50189
▁Europäische	-6.52694
!	-6.55522
▁(	-6.60294
▁einem	-6.63765
)	-6.64221
5	-6.6706
▁muss	-6.6709
▁dieses	-6.68351
▁Der	-6.69523
▁Frau	-6.69674
▁was	-6.70056
▁Europa	-6.70725
▁wurde	-6.72495
e	-6.76282
▁Rat	-6.7913
▁mehr	-6.82042
?	-6.82449
▁alle	-6.82657
▁In	-6.84053
3	-6.84696
▁ihre	-6.85071
▁Entwicklung	-6.87895
▁hier	-6.89642
▁zwischen	-6.92675
▁habe	-6.93797
▁man	-6.93814
▁diesen	-6.94068
▁europäischen	-6.94765
▁eines	-6.94863
▁er	-6.98658
4	-6.99559
▁gibt	-6.99912
▁dies	-7.0042
▁unsere	-7.01225
▁keine	-7.01421
▁damit	-7.01507
▁mich	-7.02575
▁Frage	-7.03355
▁gegen	-7.04092
er	-7.06861
▁jedoch	-7.07409
▁sondern	-7.07788
▁war	-7.10004
▁Herrn	-7.11273
▁am	-7.12106
▁"	-7.12222
▁anderen	-7.12364
▁Menschen	-7.12479
▁Maßnahmen	-7.12734
▁unter	-7.13131
7	-7.13398
▁heute	-7.13969
▁sollte	-7.14056
▁sollten	-7.14778
6	-7.1637
▁dann	-7.16964
8	-7.1701
▁sowie	-7.18235
▁bereits	-7.20637
▁Recht	-7.20673
▁da	-7.21415
▁Parlaments	-7.23943
▁immer	-7.24458
▁weil	-7.25987
▁bin	-7.2916
▁Bürger	-7.29417
▁wurden	-7.29529
▁Arbeit	-7.30105
▁darauf	-7.30799
▁Vorschlag	-7.30866
▁denn	-7.31229
▁meine	-7.31301
▁unserer	-7.3153
vom	-7.31712
▁ganz	-7.33379
/	-7.33675
▁–	-7.33699
▁dafür	-7.34056
▁sagen	-7.34575
▁geht	-7.35164
▁denen	-7.36661
▁jetzt	-7.36856
r	-7.38437
▁Wenn	-7.38809
▁Sicherheit	-7.39037
▁dazu	-7.39113
▁ihrer	-7.40861
▁Kollegen	-7.41769
▁mir	-7.42411
;	-7.43221
▁Gemeinschaft	-7.44591
▁neuen	-7.45104
▁insbesondere	-7.45815
▁würde	-7.47024
▁selbst	-7.48888
▁Kommissar	-7.50326
▁Länder	-7.50386
▁Zusammenarbeit	-7.50464
▁doch	-7.50831
▁Diese	-7.51097
▁Zeit	-7.5111
▁Ihnen	-7.51964
▁wichtig	-7.5223
▁allem	-7.5247
▁muß	-7.526
▁Bereich	-7.52862
▁wollen	-7.53265
▁Unterstützung	-7.53668
▁Rahmen	-7.54171
▁Jahr	-7.54834
▁machen	-7.55353
▁einige	-7.56146
▁Richtlinie	-7.56152
▁bis	-7.56742
▁ohne	-7.5726
▁ob	-7.57576
▁neue	-7.57721
▁Regierung	-7.57778
▁allen	-7.57793
▁seine	-7.58632
▁andere	-7.58863
▁Jahren	-7.61576
▁Land	-7.62329
▁wissen	-7.62851
▁wäre	-7.63135
"	-7.64832
▁Dies	-7.65094
▁Problem	-7.66175
▁tun	-7.666
▁Unternehmen	-7.66888
▁meiner	-7.67077
▁Im	-7.67275
▁schon	-7.67922
▁Ländern	-7.69187
▁Wie	-7.69532
▁zwei	-7.70242
▁einmal	-7.70363
▁Namen	-7.70571
▁Meinung	-7.71145
▁Fall	-7.71297
▁soll	-7.72276
▁Thema	-7.72408
▁europäische	-7.73219
▁also	-7.74065
▁Ziel	-7.74384
▁darüber	-7.74679
▁Bedeutung	-7.74766
▁politischen	-7.74823
▁viele	-7.74861
▁Präsidentin	-7.75414
▁Mittel	-7.75452
▁etwas	-7.75491
▁Fragen	-7.75903
▁worden	-7.76334
es	-7.76597
▁Lage	-7.76913
▁Fraktion	-7.76962
▁nun	-7.77733
▁Politik	-7.77974
▁Rates	-7.77997
▁besteht	-7.78302
▁Wirtschaft	-7.78337
▁geben	-7.78465
▁viel	-7.78634
▁wieder	-7.78797
▁ihren	-7.78803
▁unterstützen	-7.78817
▁Zukunft	-7.79179
▁Entschließung	-7.80011
▁Frauen	-7.80167
m	-7.80224
▁Probleme	-7.81023
▁Staaten	-7.81118
▁Was	-7.81375
▁daher	-7.81705
▁wirklich	-7.82979
▁Welt	-7.83344
▁Situation	-7.83458
▁natürlich	-7.83834
▁Zusammenhang	-7.85651
▁Rolle	-7.86695
▁gesagt	-7.87037
▁zwar	-7.87666
▁möglich	-7.88016
▁Deshalb	-7.88548
▁nämlich	-7.89376
▁glaube	-7.89508
Änderungsanträge	-7.90717
▁letzten	-7.91634
▁seiner	-7.94013
▁unseren	-7.94551
▁Euro	-7.94661
▁große	-7.94707
▁Verbraucher	-7.96123
▁Schutz	-7.96381
▁davon	-7.97114
▁betrifft	-7.97527
▁Wettbewerb	-7.97575
▁ihr	-7.98572
▁könnte	-7.98925
▁Weise	-7.98961
spolitik	-7.99153
▁Teil	-7.99502
▁Menschenrechte	-8.00406
▁daran	-8.00559
▁gegenüber	-8.00605
Berichterstatter	-8.00781
▁Europas	-8.01539
▁Aber	-8.02234
▁hoffe	-8.02596
▁Punkt	-8.03093
▁ja	-8.0392
▁stellen	-8.04048
▁drei	-8.04691
▁darf	-8.04866
▁während	-8.04923
▁Weg	-8.05053
▁Grund	-8.05453
▁Und	-8.05837
▁Jahre	-8.05921
▁weiter	-8.05959
▁Ein	-8.06002
▁kein	-8.06005
▁dabei	-8.06056
▁Vorschläge	-8.06612
▁nationalen	-8.06744
▁politische	-8.07364
ung	-8.07674
▁Ansicht	-8.07751
▁Lösung	-8.07884
▁waren	-8.08128
▁Entscheidung	-8.08247
▁stehen	-8.08277
▁Änderungsantrag	-8.08593
▁gut	-8.08759
▁Rechte	-8.09101
▁sowohl	-8.09311
▁Möglichkeit	-8.09312
▁Umsetzung	-8.09782
▁lassen	-8.09932
▁darin	-8.09933
▁Debatte	-8.10114
▁Artikel	-8.10174
▁Abstimmung	-8.10299
▁Art	-8.1068
▁kommen	-8.10682
▁wo	-8.10803
▁führen	-8.10813
▁Ebene	-8.11017
▁seit	-8.11066
▁Herren	-8.11186
▁Beschäftigung	-8.11466
▁besonders	-8.11484
▁bringen	-8.11704
▁brauchen	-8.12088
▁ihnen	-8.12417
▁Beispiel	-8.12807
▁Bezug	-8.1289
▁Demokratie	-8.129
▁internationalen	-8.13062
▁Umwelt	-8.13297
▁steht	-8.1339
▁Abgeordneten	-8.13617
▁Kolleginnen	-8.13721
▁Damen	-8.14211
▁Haushalt	-8.14595
▁gemeinsamen	-8.14917
▁klar	-8.15025
▁Auch	-8.15078
▁dürfen	-8.15516
▁liegt	-8.15764
▁Aussprache	-8.16129
▁Verantwortung	-8.16339
▁großen	-8.16756
▁erhalten	-8.174
▁danken	-8.17449
▁Eine	-8.1833
▁sozialen	-8.18772
▁Aus	-8.18839
▁Hinblick	-8.18875
▁aller	-8.19462
▁Millionen	-8.19472
▁weiterhin	-8.19801
▁Verordnung	-8.20766
▁welche	-8.20781
▁deshalb	-8.20981
▁innerhalb	-8.21634
▁Ausschuss	-8.21694
▁Verfahren	-8.21937
▁Hilfe	-8.22303
▁Ausschusses	-8.22555
▁denke	-8.22563
▁Verhandlungen	-8.23008
▁Ziele	-8.23179
▁ab	-8.23236
▁Gesundheit	-8.23403
▁Daher	-8.23827
▁erreichen	-8.24488
▁einigen	-8.24543
▁ersten	-8.24617
▁sollen	-8.24624
▁gerade	-8.2464
▁handelt	-8.25126
▁Mit	-8.2521
▁Vertrag	-8.25353
▁deutlich	-8.25382
▁Forschung	-8.25395
▁Grundlage	-8.25493
▁wichtige	-8.25615
▁Ihre	-8.25741
▁Ende	-8.26215
▁Abkommen	-8.26363
▁alles	-8.27463
▁Er	-8.27503
▁finden	-8.27675
▁gemeinsame	-8.28033
▁gestimmt	-8.28123
▁solche	-8.28382
▁Erweiterung	-8.28608
▁notwendig	-8.28665
▁schaffen	-8.28853
▁werde	-8.28995
▁Regionen	-8.29144
▁Institutionen	-8.29317
▁Vereinigte	-8.29456
▁weitere	-8.30044
▁sprechen	-8.30073
▁beiden	-8.30477
▁Tatsache	-8.30486
▁beim	-8.30819
▁gemacht	-8.31211
▁will	-8.31269
▁gilt	-8.31305
▁Strategie	-8.31378
▁Auf	-8.31454
▁Auswirkungen	-8.31636
▁würden	-8.32504
▁Bevölkerung	-8.32701
▁Nach	-8.3291
▁Ausdruck	-8.33347
▁indem	-8.33809
wirtschaftlichen	-8.34644
▁stellt	-8.34828
▁kommt	-8.35047
▁unterstützt	-8.35123
▁Anwendung	-8.359
▁unser	-8.3624
▁ebenfalls	-8.36279
▁Informationen	-8.36282
▁Lissabon	-8.36368
▁darum	-8.36504
▁weniger	-8.37434
▁beispielsweise	-8.37696
▁Förderung	-8.3774
▁Energie	-8.37783
▁Interesse	-8.38055
▁Türkei	-8.38385
▁keinen	-8.3858
▁hinaus	-8.3892
▁eigenen	-8.39003
▁vielen	-8.39042
▁dessen	-8.39249
▁Da	-8.39856
▁verschiedenen	-8.39925
▁hatte	-8.39968
▁sehen	-8.40316
▁Behörden	-8.4044
▁Beziehungen	-8.405
▁vielleicht	-8.4053
▁bedeutet	-8.41285
▁Meine	-8.4149
▁genau	-8.41581
▁nichts	-8.4162
▁Erachtens	-8.42117
▁besser	-8.42278
▁Gebiet	-8.42775
▁Als	-8.42904
▁seinen	-8.42957
▁Schaffung	-8.42967
▁nehmen	-8.43394
▁Antwort	-8.43558
▁erforderlich	-8.43648
▁Region	-8.43785
▁Zugang	-8.43877
▁Bei	-8.4475
▁einfach	-8.4479
▁öffentlichen	-8.45222
▁sei	-8.45251
▁Kosten	-8.45589
▁sogar	-8.45767
▁hätte	-8.45939
▁wirtschaftliche	-8.46075
▁Kommissarin	-8.4611
▁aufgrund	-8.46581
▁Notwendigkeit	-8.46857
▁dort	-8.46999
▁Markt	-8.47551
▁Interessen	-8.47844
▁Bedingungen	-8.47945
Fraktion	-8.48399
▁Bekämpfung	-8.48677
▁deren	-8.49442
▁Schritt	-8.49473
▁könnten	-8.49723
▁sicher	-8.49782
▁angenommen	-8.49992
▁nächsten	-8.50088
▁Aufgabe	-8.5018
▁Verbesserung	-8.50259
▁System	-8.50412
▁So	-8.50708
▁Beitrag	-8.50876
▁Dieser	-8.50906
▁meinen	-8.51247
▁all	-8.51416
▁Landwirtschaft	-8.51831
▁Leben	-8.52371
▁weiß	-8.52461
▁gehen	-8.52611
▁hinsichtlich	-8.52747
▁B	-8.5288
▁soziale	-8.53138
▁Reihe	-8.53269
▁Programm	-8.53394
▁ihrem	-8.5353
▁erreicht	-8.53709
▁heißt	-8.53808
▁meines	-8.53874
▁Fortschritte	-8.53931
t	-8.53946
den	-8.53952
▁gute	-8.54069
▁Fischerei	-8.543
▁Gesellschaft	-8.54623
▁Mehrheit	-8.54683
▁Finanzierung	-8.55044
▁Standpunkt	-8.55374
▁Verfassung	-8.55662
▁Haus	-8.55671
▁Krise	-8.55712
▁allerdings	-8.55823
▁wichtigen	-8.56294
▁Präsidentschaft	-8.57402
▁USA	-8.57551
▁ihm	-8.57784
svorschriften	-8.57798
▁Kontrolle	-8.58428
▁schriftlich	-8.5863
▁gehört	-8.58653
▁Herausforderung	-8.5866
▁begrüße	-8.58702
▁halte	-8.58927
▁Form	-8.59108
▁Für	-8.59183
▁Richtung	-8.59311
▁Dank	-8.59845
▁Änderung	-8.60262
▁Kinder	-8.60314
▁Gelegenheit	-8.60372
▁ihn	-8.60392
▁Ergebnis	-8.60399
▁Handel	-8.60492
▁halten	-8.60696
▁Bereichen	-8.60974
▁fördern	-8.61339
▁Auffassung	-8.61393
▁Arbeitnehmer	-8.61442
▁Berichts	-8.61503
▁äußerst	-8.61809
▁erste	-8.62136
▁dar	-8.62468
▁gemeinsam	-8.62529
▁Tagesordnung	-8.62796
▁jeder	-8.62886
▁einzelnen	-8.63229
▁Initiative	-8.63432
▁gegeben	-8.63678
▁meinem	-8.63814
▁Jahres	-8.64028
▁Industrie	-8.64039
▁Diskussion	-8.64367
▁völlig	-8.64375
▁erst	-8.64758
▁europäischer	-8.65246
▁Mitglieder	-8.65259
▁Wort	-8.65528
▁Bürgerinnen	-8.66258
▁Transparenz	-8.66282
▁Vor	-8.66393
▁gestellt	-8.66478
▁bleiben	-8.66513
▁richtig	-8.6669
▁Erklärung	-8.67238
▁Regierungen	-8.67322
▁Dialog	-8.67323
erstatterin	-8.6733
▁tatsächlich	-8.67453
▁gesamten	-8.67611
▁Solidarität	-8.67723
▁weit	-8.67758
▁bereit	-8.67856
▁Einführung	-8.67965
▁ebenso	-8.68189
▁gewährleisten	-8.6821
▁Reform	-8.68666
▁Beitritt	-8.6952
▁Verfügung	-8.69535
▁Verwaltung	-8.69836
▁derzeit	-8.70186
▁Möglichkeiten	-8.70347
▁Vorschriften	-8.70437
sfähigkeit	-8.71315
▁Integration	-8.7144
▁Folgen	-8.71901
▁Seite	-8.71957
▁Bürgern	-8.72191
▁gebracht	-8.72672
▁gleichzeitig	-8.72757
▁Binnenmarkt	-8.73026
▁Entscheidungen	-8.73403
▁verbessern	-8.73477
▁Geld	-8.73634
▁geführt	-8.74257
▁Text	-8.74262
▁Gewalt	-8.74318
▁bestehen	-8.74372
▁zunächst	-8.74815
▁wenig	-8.74935
▁Kampf	-8.74969
▁Erfolg	-8.75109
▁angesichts	-8.75156
▁nutzen	-8.75305
▁unserem	-8.75734
▁hatten	-8.76156
verständlich	-8.76492
▁Hinsicht	-8.7652
▁setzen	-8.76566
▁Bildung	-8.76635
▁Zweitens	-8.7686
▁Außerdem	-8.76982
▁jeden	-8.77385
▁Angelegenheit	-8.77443
▁wohl	-8.77654
▁fordern	-8.7822
▁stimmen	-8.78386
bzw	-8.78561
▁Ergebnisse	-8.78961
▁Personen	-8.78974
▁wobei	-8.7898
▁etwa	-8.79083
▁macht	-8.7962
▁Gefahr	-8.799
▁seinem	-8.799
▁Nationen	-8.80004
▁Punkte	-8.80406
▁beitragen	-8.80418
▁Information	-8.80465
▁Themen	-8.80548
▁Hier	-8.8055
▁Terrorismus	-8.80614
▁Bestimmungen	-8.80626
▁Bemühungen	-8.80696
sverfahren	-8.80824
▁Lebensmittel	-8.80872
▁sagte	-8.81315
▁Ausschuß	-8.81591
▁Zeitpunkt	-8.82014
▁Freiheit	-8.82211
▁Man	-8.82267
▁getan	-8.82376
▁arbeiten	-8.82536
▁Angelegenheiten	-8.82657
▁Russland	-8.82666
▁großer	-8.82819
▁Dinge	-8.82827
▁leisten	-8.83409
▁Frieden	-8.83492
▁Um	-8.83546
ualität	-8.83562
▁solchen	-8.83605
▁vorgeschlagen	-8.83909
▁Zu	-8.84075
▁bisher	-8.8415
▁lediglich	-8.84315
▁bitte	-8.8479
▁ermöglichen	-8.84803
▁internationale	-8.8495
▁Doch	-8.85003
▁unseres	-8.85029
▁vergangenen	-8.85163
▁obwohl	-8.85337
▁Aufmerksamkeit	-8.85532
▁leider	-8.8559
▁berücksichtigt	-8.85629
▁vorgelegt	-8.85693
▁C	-8.85832
▁Dieses	-8.86001
▁sorgen	-8.8642
▁eigentlich	-8.87051
▁Daten	-8.87351
▁bleibt	-8.87514
▁Erstens	-8.87584
▁meisten	-8.87612
▁Ansatz	-8.87723
▁Gründen	-8.87869
▁zusammen	-8.87885
▁Tat	-8.87924
▁d	-8.87956
▁erster	-8.88117
▁hin	-8.88205
▁oft	-8.89007
▁Arbeitsplätze	-8.89163
▁bezüglich	-8.89289
▁Sache	-8.89799
▁Aspekte	-8.8981
▁Investitionen	-8.89831
▁lange	-8.8989
▁wichtiger	-8.89908
▁hinweisen	-8.90013
▁begrüßen	-8.90052
▁Wachstum	-8.90143
▁bestimmte	-8.90332
▁Annahme	-8.90738
▁helfen	-8.90904
▁zweite	-8.9093
▁China	-8.90991
▁voll	-8.91056
▁Anstrengungen	-8.91084
▁genommen	-8.91132
▁zeigt	-8.91648
▁Zahl	-8.91887
▁tragen	-8.9196
▁hätten	-8.91979
▁Präsidenten	-8.92047
▁weiteren	-8.92093
▁fest	-8.92261
▁Landes	-8.92438
ffentlichkeit	-8.92619
▁Verpflichtungen	-8.93
▁Damit	-8.93466
▁Grenzen	-8.93924
▁danke	-8.94012
▁Mal	-8.94147
▁unterschiedlich	-8.94198
▁schnell	-8.94357
▁führt	-8.94682
▁enthalten	-8.94823
sicherheit	-8.94913
▁Darüber	-8.94965
▁Mitteilung	-8.94978
de	-8.94985
▁Abschließend	-8.95049
▁Staat	-8.95072
▁Schwierigkeiten	-8.95565
▁eindeutig	-8.95566
▁Zum	-8.95596
▁erinnern	-8.95773
A	-8.95795
▁Nr	-8.9588
▁Änderungen	-8.96208
▁Regeln	-8.96237
▁darstellt	-8.96474
▁Woche	-8.96509
▁wegen	-8.96592
▁Armut	-8.96602
▁berücksichtigen	-8.96709
▁morgen	-8.96937
▁ergreifen	-8.96973
▁Durchführung	-8.97192
▁demokratischen	-8.97355
▁Opfer	-8.97363
▁versuchen	-8.97593
▁dringend	-8.9775
▁schließlich	-8.97751
▁Wirtschafts	-8.98549
▁Lassen	-8.98573
▁Mitgliedstaat	-8.98599
▁Prozess	-8.98759
▁stimme	-8.98801
▁Abgeordnete	-8.9883
▁behandelt	-8.99398
▁zeigen	-8.99596
▁bekannt	-8.99615
▁Vertrauen	-8.99899
▁mein	-9.00069
▁verhindern	-9.00104
▁Anerkennung	-9.00137
▁Tag	-9.00157
▁Kompromiss	-9.00336
▁erneut	-9.00641
▁vier	-9.00649
▁Kultur	-9.00712
▁Sinne	-9.00804
▁möchten	-9.00858
▁Instrument	-9.00982
▁kurz	-9.01112
▁Minister	-9.01283
▁vertreten	-9.01761
▁aufgenommen	-9.01843
▁Kriterien	-9.02024
▁scheint	-9.022
▁gar	-9.02291
▁Zunächst	-9.02304
▁Position	-9.02382
▁betonen	-9.02405
▁Sicht	-9.02498
▁geschaffen	-9.02555
▁Mitglied	-9.02732
▁Stellungnahme	-9.02871
▁vergessen	-9.02898
▁kleinen	-9.0311
▁endlich	-9.03114
▁öffentliche	-9.03142
▁Vertrags	-9.03216
▁gesamte	-9.03327
▁Stabilität	-9.03499
▁Haltung	-9.03567
▁diejenigen	-9.0373
Dienstleistungen	-9.03796
▁spielen	-9.03813
▁gleichen	-9.03842
▁fünf	-9.03856
▁liegen	-9.03903
▁Vertreter	-9.03923
▁gab	-9.04261
▁Parteien	-9.04364
▁Monaten	-9.04414
▁zumindest	-9.04431
▁weder	-9.04508
▁bessere	-9.04602
▁Lesung	-9.04676
▁Druck	-9.04723
▁leben	-9.04803
▁Kraft	-9.04921
▁dadurch	-9.0511
▁Wahlen	-9.0511
▁Unsere	-9.05122
▁Forderung	-9.05279
▁wichtigsten	-9.05444
▁Einigung	-9.05851
▁Gesetzgebung	-9.06021
▁gemäß	-9.06055
▁allein	-9.06111
▁Produktion	-9.06197
▁gefordert	-9.06334
▁Konferenz	-9.06438
▁Gemeinsamen	-9.06484
▁überhaupt	-9.06547
▁ziehen	-9.06728
▁Vereinbarung	-9.06785
▁Regelung	-9.06813
▁freue	-9.07052
EN	-9.07132
▁anderer	-9.0716
▁bekommen	-9.07239
▁Republik	-9.07333
▁Sektor	-9.07373
▁Dezember	-9.07566
▁recht	-9.07634
▁Stelle	-9.07769
▁einschließlich	-9.07788
▁guten	-9.07891
(	-9.07907
▁gesprochen	-9.08173
▁Programme	-9.0831
▁erzielt	-9.08651
▁bestimmten	-9.08986
▁finanziellen	-9.09038
santrag	-9.09056
▁umgesetzt	-9.09057
▁sicherzustellen	-9.09292
▁erwähnt	-9.09542
▁entwickeln	-9.09596
▁eben	-9.09913
▁festgelegt	-9.09975
▁enthält	-9.09998
▁Prioritäten	-9.10006
▁Anfrage	-9.10229
▁konkrete	-9.10303
▁akzeptieren	-9.10375
▁Reformen	-9.10489
▁Vereinte	-9.10613
▁Nicht	-9.10718
▁Währung	-9.10905
▁einzige	-9.10911
▁gewesen	-9.11036
Geschäftsordnung	-9.11299
▁unterstütze	-9.11319
▁Sitzung	-9.11407
▁außerdem	-9.11461
▁Zustimmung	-9.11592
▁Verteidigung	-9.11602
▁Natürlich	-9.11611
▁ermöglicht	-9.11619
▁Verwendung	-9.11644
▁treffen	-9.11772
▁schützen	-9.11814
▁Ressourcen	-9.11843
▁Ihrer	-9.11864
▁fast	-9.11895
▁überzeugt	-9.11904
▁Initiativen	-9.12171
▁folgt	-9.12242
▁bitten	-9.12381
▁konnte	-9.12558
▁Seiten	-9.12653
▁Meiner	-9.12786
▁erwarten	-9.13006
lichen	-9.1305
▁Diskriminierung	-9.13107
▁versucht	-9.13384
▁eingehen	-9.13396
▁größere	-9.13399
▁statt	-9.13413
▁Frankreich	-9.1357
▁Finanz	-9.13591
▁Fällen	-9.13756
▁zweiten	-9.13865
▁beschlossen	-9.13987
▁Werte	-9.1409
▁getroffen	-9.14097
▁angesprochen	-9.14138
▁Verkehr	-9.14143
▁geleistet	-9.14204
▁genannten	-9.14425
▁jedem	-9.14656
▁Antrag	-9.14664
▁Überwachung	-9.14686
▁Koordinierung	-9.14751
▁prüfen	-9.14806
▁stärker	-9.14894
▁bewusst	-9.1508
▁vorgesehen	-9.15326
▁unbedingt	-9.15454
▁Achtung	-9.15461
▁Dabei	-9.15843
▁sieht	-9.16146
▁Grundsatz	-9.16265
▁Schließlich	-9.16683
▁insgesamt	-9.16826
▁neuer	-9.17372
▁hingewiesen	-9.1741
▁Allerdings	-9.17427
▁hoffen	-9.17482
▁verstehen	-9.17529
▁Nutzung	-9.18101
▁richtige	-9.18112
▁Berichte	-9.18131
▁gelten	-9.18153
▁warum	-9.18212
▁WTO	-9.18266
▁Beihilfen	-9.18353
▁diskutieren	-9.18386
▁Stärkung	-9.18397
▁bestehenden	-9.18402
▁Rede	-9.18412
▁Bereiche	-9.18458
▁stark	-9.18498
▁Kenntnis	-9.18609
▁heutigen	-9.1878
▁sicherlich	-9.1882
▁erfüllen	-9.19288
▁jedes	-9.19332
▁Liberalisierung	-9.19462
▁nationale	-9.19471
▁geworden	-9.19571
▁durchgeführt	-9.19677
▁Linie	-9.19858
▁Instrumente	-9.19924
▁z	-9.20184
▁klare	-9.20581
▁somit	-9.20671
▁allgemeinen	-9.20704
▁Einsatz	-9.20754
▁Selbst	-9.2083
gesellschaft	-9.20992
▁Verpflichtung	-9.21046
▁Behandlung	-9.21231
▁Kosovo	-9.21239
▁Partei	-9.21517
▁Partnerschaft	-9.2164
▁Sorge	-9.21774
▁Organisationen	-9.21945
a	-9.21998
▁Macht	-9.22104
▁feststellen	-9.22568
▁konnten	-9.22766
▁Brüssel	-9.22983
▁Lösungen	-9.23036
▁Ratspräsident	-9.23059
▁Anfang	-9.23201
▁Praxis	-9.23336
▁entscheiden	-9.23376
▁besondere	-9.23527
▁Fortschritt	-9.23627
▁trotz	-9.23745
▁findet	-9.23974
▁gegenwärtig	-9.24005
▁Fraktionen	-9.24238
▁lösen	-9.24239
▁Aspekt	-9.24253
▁erzielen	-9.24257
▁vorliegenden	-9.24263
▁Gipfel	-9.24276
▁Geschichte	-9.24288
▁Zweifel	-9.24382
▁Juni	-9.24459
▁Vergangenheit	-9.24553
▁ändern	-9.24628
▁Ausgaben	-9.24732
▁jede	-9.24766
▁entsprechenden	-9.2486
▁finanzielle	-9.25343
▁erklärt	-9.25399
▁verpflichtet	-9.25456
▁gehören	-9.255
▁Aufgaben	-9.25681
▁Grundrechte	-9.25729
▁ganze	-9.25837
▁stärken	-9.25849
▁gezeigt	-9.25984
▁bietet	-9.26095
▁notwendigen	-9.26107
▁Durch	-9.26587
▁befinden	-9.26651
▁vorgeschlagenen	-9.26712
▁Produkte	-9.26903
▁handeln	-9.27085
▁eher	-9.27631
▁positive	-9.27992
▁Priorität	-9.28075
▁Hand	-9.28093
▁A	-9.28094
▁Einhaltung	-9.28342
▁Projekt	-9.28533
▁Volk	-9.28538
▁wesentlich	-9.28578
▁Heute	-9.28665
▁Fonds	-9.28776
▁zehn	-9.2881
Arbeitslosigkeit	-9.28881
▁darstellen	-9.28886
▁eingesetzt	-9.2898
▁Denn	-9.29028
▁Beginn	-9.29096
▁Einwanderung	-9.29173
sten	-9.29232
schutz	-9.29343
▁Deutschland	-9.29405
▁ihres	-9.29445
▁Bewertung	-9.29518
▁übernehmen	-9.29527
▁offensichtlich	-9.29555
▁Absatz	-9.29983
▁gesehen	-9.30036
▁Beteiligung	-9.3011
▁Abschluss	-9.30163
▁kommenden	-9.30171
▁h	-9.30348
▁Gebieten	-9.30356
in	-9.30637
l	-9.30658
▁Projekte	-9.30698
▁ins	-9.30743
▁Strukturfonds	-9.3075
▁Aktivitäten	-9.30767
▁durchaus	-9.30818
▁Wochen	-9.30832
▁Entwurf	-9.30838
▁verfügen	-9.31011
▁Folge	-9.31137
▁stets	-9.31424
▁geschehen	-9.31435
▁Nun	-9.31438
▁Regelungen	-9.31439
▁Tätigkeit	-9.31524
▁bieten	-9.31542
▁Aufnahme	-9.31546
▁entschieden	-9.31634
▁Schritte	-9.31853
▁liebe	-9.31866
▁schwer	-9.31875
▁Irland	-9.32014
▁Einrichtung	-9.32016
▁letzte	-9.32054
▁Stimme	-9.32272
▁Rechts	-9.32313
▁positiv	-9.32338
▁aufmerksam	-9.32387
▁dagegen	-9.32513
▁Minderheiten	-9.32631
▁Milliarden	-9.32955
▁gerne	-9.3302
▁Januar	-9.33035
▁Kollege	-9.33044
▁Ausbildung	-9.33243
▁Dennoch	-9.33463
▁konzentrieren	-9.33466
▁Von	-9.33544
▁Chance	-9.33678
▁Worte	-9.33711
▁genug	-9.34035
▁besten	-9.34108
▁fragen	-9.34163
▁Angesicht	-9.34314
▁Familien	-9.34509
▁glauben	-9.34567
▁Engagement	-9.34737
▁grenzüberschrei	-9.34771
▁Falle	-9.34797
em	-9.3481
▁sechs	-9.34873
▁gegenwärtigen	-9.34972
▁Dazu	-9.3515
▁gleich	-9.3539
▁Forderungen	-9.35464
▁Globalisierung	-9.35579
▁Verbindung	-9.35609
▁unternehmen	-9.35709
smaßnahmen	-9.35792
▁Ort	-9.35804
▁bringt	-9.36298
▁wären	-9.36347
▁entsprechend	-9.36472
▁verbessert	-9.36503
▁gekommen	-9.36682
▁Maße	-9.36683
▁Medien	-9.36749
▁Mai	-9.3679
▁Haushalts	-9.36971
▁erfüllt	-9.37085
▁außerhalb	-9.3718
▁offen	-9.3725
▁Irak	-9.37253
▁gleiche	-9.37375
▁verantwortlich	-9.37395
skonferenz	-9.37631
▁gesetzt	-9.37681
politik	-9.37691
▁Augen	-9.37788
▁zustimmen	-9.38131
▁verfolgen	-9.38142
▁Innovation	-9.38256
▁Wahl	-9.38625
▁hinter	-9.3884
▁gefunden	-9.38873
▁nie	-9.38938
▁Europäer	-9.38975
▁Leitlinien	-9.39105
liche	-9.39148
▁März	-9.39217
▁bevor	-9.39297
▁gewisse	-9.39393
▁verfolgt	-9.39523
▁Ver	-9.39554
▁häufig	-9.39648
▁Leider	-9.39666
▁Raum	-9.39739
▁übrigen	-9.3981
▁beginnen	-9.39997
▁Empfehlungen	-9.40096
▁lässt	-9.40265
▁Gleichzeitig	-9.40297
▁vermeiden	-9.40515
▁Völker	-9.40615
▁ganzen	-9.4066
▁gerecht	-9.40707
▁zahlreiche	-9.40769
▁Grunde	-9.40841
▁ergriffen	-9.41024
▁verschiedene	-9.41091
▁Agenda	-9.41137
▁Agrarpolitik	-9.4116
▁gern	-9.41257
▁festgestellt	-9.41332
▁freien	-9.41338
▁Harmonisierung	-9.4139
▁betroffenen	-9.41426
▁gewährleistet	-9.41549
d	-9.41596
▁anderem	-9.41627
▁Landwirte	-9.41634
▁direkt	-9.41657
▁hohen	-9.41833
▁Richtlinien	-9.41862
▁Sprache	-9.4201
▁befassen	-9.42063
▁entsprechende	-9.42114
▁Überprüfung	-9.42384
▁schwierig	-9.42469
▁demokratische	-9.4253
▁weltweit	-9.42563
▁möglicherweise	-9.42696
▁sage	-9.42703
▁Ratsvorsitz	-9.42726
▁erforderlichen	-9.43043
▁Worten	-9.43096
industrie	-9.43235
▁Grundsätze	-9.43401
▁einsetzen	-9.43411
▁Mitteln	-9.43582
▁politischer	-9.43661
▁wesentlichen	-9.43667
▁Internet	-9.43871
▁Ihr	-9.43965
▁Zeitraum	-9.4398
▁unternommen	-9.44024
B	-9.44063
▁betont	-9.44072
▁entspricht	-9.44101
▁angeht	-9.44139
▁nationaler	-9.44147
▁September	-9.44419
▁Königreich	-9.44603
▁derzeitigen	-9.44641
▁eigene	-9.44645
▁Uhr	-9.44659
▁Israel	-9.44787
▁Handels	-9.44861
Schlussfolgerung	-9.44888
▁An	-9.4505
▁einiger	-9.45149
▁diskutiert	-9.45177
▁Untersuchung	-9.45236
▁Griechenland	-9.45323
▁jene	-9.4546
▁betroffen	-9.45589
▁ausdrücklich	-9.45648
▁bald	-9.45678
▁Unter	-9.45689
▁größten	-9.45719
▁entwickelt	-9.459
sabkommen	-9.45996
▁Willen	-9.46059
▁UN	-9.46286
▁wünschen	-9.46434
▁absolut	-9.46607
▁Bedenken	-9.46609
▁Erfahrungen	-9.46661
▁ländlichen	-9.46761
▁beglückwünschen	-9.46903
spräsidentschaft	-9.46968
▁Krieg	-9.47007
▁fordere	-9.47047
▁Charta	-9.47162
▁nochmals	-9.47297
▁Menschenrecht	-9.47331
▁möglichst	-9.47478
▁Sanktionen	-9.47522
▁Drittländern	-9.47625
▁verbunden	-9.47648
▁Nur	-9.47752
FR	-9.47764
▁sicherstellen	-9.47778
▁regionalen	-9.47827
▁Prinzip	-9.47838
▁kleine	-9.47839
erweise	-9.47957
▁Organisation	-9.47957
▁Maßnahme	-9.4797
▁mehrere	-9.47988
▁Empfehlung	-9.48
▁Osten	-9.48087
▁Dokument	-9.48138
▁pro	-9.48262
▁gratulieren	-9.48373
▁Vielfalt	-9.4853
▁nachhaltige	-9.48567
▁zurück	-9.48577
▁Rechnung	-9.48625
▁Fehler	-9.48742
▁dienen	-9.48787
▁erhöhen	-9.48838
▁wollte	-9.48884
▁finde	-9.48981
▁Gegenteil	-9.49053
▁Botschaft	-9.49066
▁Partner	-9.49217
▁Hauses	-9.49294
▁Kooperation	-9.49357
▁Flexibilität	-9.49378
▁Italien	-9.49473
▁Sozial	-9.49566
▁Wert	-9.49567
▁betrachtet	-9.49642
▁Anpassung	-9.49684
▁Gebiete	-9.49764
▁gestern	-9.49818
▁erklären	-9.4994
▁hoch	-9.49952
▁braucht	-9.50078
organisationen	-9.50123
▁Problemen	-9.50172
▁Dimension	-9.50313
▁beteiligt	-9.50316
▁Gründe	-9.50406
▁außer	-9.5041
▁konkreten	-9.50478
▁Justiz	-9.50505
▁beide	-9.50593
▁November	-9.50596
▁neu	-9.50638
▁jüngsten	-9.50829
▁nennen	-9.50836
▁außerordentlich	-9.50878
▁künftig	-9.50932
▁fordert	-9.51096
▁Agentur	-9.51097
▁hervorheben	-9.51163
▁Höhe	-9.5122
▁verwendet	-9.51288
▁Aktionen	-9.51362
▁größte	-9.51448
▁Veränderungen	-9.51486
▁Plenum	-9.51659
▁Absicht	-9.51753
▁andererseits	-9.51833
▁eingeführt	-9.51833
▁Verbrechen	-9.51893
▁Delegation	-9.51965
▁Wunsch	-9.52188
▁Liste	-9.52468
▁Idee	-9.52543
▁Rechtsgrundlage	-9.52593
▁einverstanden	-9.52668
▁Überzeugung	-9.52691
▁Wege	-9.52705
▁Preis	-9.52728
▁Festlegung	-9.52766
institutionellen	-9.52789
▁erkennen	-9.5302
▁gemeinschaft	-9.53069
▁Hoffnung	-9.53089
▁Zuständigkeit	-9.53102
▁Pflicht	-9.53168
▁britischen	-9.53305
▁später	-9.53378
▁Gesetze	-9.53454
▁Erhöhung	-9.53491
▁G	-9.53661
▁geändert	-9.53806
▁zusätzliche	-9.53822
▁Unabhängigkeit	-9.53836
▁Am	-9.53851
der	-9.53873
▁stattfinden	-9.53913
▁Protokoll	-9.53917
▁Informations	-9.53942
▁nimmt	-9.5395
▁Vorschlägen	-9.54075
▁Übereinkommen	-9.54091
▁sagt	-9.54101
▁Wasser	-9.54353
▁positiven	-9.54476
▁betreffen	-9.54499
▁Entlastung	-9.54588
▁erfolgreich	-9.5462
▁Oktober	-9.54693
▁zudem	-9.54697
▁de	-9.54953
▁Vorbereitung	-9.55033
▁persönlich	-9.55112
▁Ist	-9.5517
▁globalen	-9.55224
▁Basis	-9.55272
▁Inhalt	-9.55428
▁Realität	-9.55457
▁Erklärungen	-9.55459
▁Jetzt	-9.55513
▁Spanien	-9.55522
h	-9.55564
▁Natur	-9.55741
▁Nutzen	-9.55773
▁geschieht	-9.55881
▁KMU	-9.56222
▁Einige	-9.56264
▁Subsidiarität	-9.56325
▁Anforderungen	-9.56392
▁Ukraine	-9.56397
▁Drittens	-9.56428
▁verehrte	-9.56456
▁Ferner	-9.56513
▁Anliegen	-9.56573
▁technischen	-9.56607
▁abgelehnt	-9.56637
▁seitens	-9.5671
▁je	-9.56751
▁ausreichend	-9.56898
▁Verträge	-9.57045
▁Klimawandel	-9.57113
▁kaum	-9.57139
▁Konzept	-9.57146
▁Eindruck	-9.57201
▁erfolgen	-9.57326
▁Anzahl	-9.57412
▁Arbeitsmarkt	-9.57441
▁künftigen	-9.57474
▁Tagung	-9.57568
▁vollständig	-9.57629
Berücksichtigung	-9.57823
▁Vorteile	-9.57838
▁Prüfung	-9.57984
▁zweifellos	-9.58074
▁Ja	-9.58205
▁Seit	-9.58228
▁hohe	-9.58293
▁Steuer	-9.58308
▁Diskussionen	-9.5832
▁Vorschlags	-9.5838
▁Anspruch	-9.58467
unternehmen	-9.58657
sausschusses	-9.58744
sländern	-9.58756
▁Iran	-9.59276
▁bezug	-9.59324
▁Verhandlung	-9.59355
▁Hause	-9.59362
▁benötigen	-9.59365
▁allgemeine	-9.59436
▁Einklang	-9.59625
▁S	-9.59671
▁Verbot	-9.59714
▁genutzt	-9.59732
▁Gleichstellung	-9.59799
▁verabschiedet	-9.59799
▁Afrika	-9.59912
▁anderes	-9.60043
▁besseren	-9.60059
▁Alle	-9.60065
▁wahrscheinlich	-9.60215
▁wichtiges	-9.60319
▁ernst	-9.6037
▁Hintergrund	-9.60396
▁Mio	-9.60449
▁Entwicklungen	-9.60512
▁Fälle	-9.60577
▁dennoch	-9.60677
▁Tagen	-9.60812
▁Gruppe	-9.60874
▁folgen	-9.60942
▁sehe	-9.60942
▁vorlegen	-9.61014
sbereich	-9.61152
▁Ausführungen	-9.6117
▁weshalb	-9.61253
▁solcher	-9.61272
▁Gruppen	-9.61323
▁schwierigen	-9.61385
▁Einbeziehung	-9.61415
▁Sinn	-9.61634
▁vielmehr	-9.61741
▁bekämpfen	-9.61874
▁Politiken	-9.61881
▁Arbeitsplätzen	-9.61946
▁weiterer	-9.61969
▁Programms	-9.62035
▁Bemerkungen	-9.62036
▁Voraussetzungen	-9.62134
▁denken	-9.62175
▁EUR	-9.62293
▁Kindern	-9.62364
▁Monate	-9.62484
▁Kritik	-9.62528
▁Dann	-9.62531
▁gelungen	-9.62586
▁aktiv	-9.62863
▁Obwohl	-9.62882
▁Reaktion	-9.6292
▁Freiheiten	-9.63196
▁aufgefordert	-9.63623
▁betrachten	-9.63647
▁Kommunikation	-9.63674
▁umfassende	-9.63751
▁Umfang	-9.63759
▁zufrieden	-9.63772
▁aussprechen	-9.63861
▁behandeln	-9.63872
▁Risiko	-9.63882
sländer	-9.63964
▁trägt	-9.64036
▁Vermittlung	-9.64148
▁anerkannt	-9.64172
▁reagieren	-9.64177
▁vollkommen	-9.64401
▁Zweck	-9.64549
▁hören	-9.64615
gunsten	-9.64618
▁gefördert	-9.64786
▁Standards	-9.64892
▁Juli	-9.65247
▁reden	-9.6528
▁anders	-9.65306
▁ausschließlich	-9.65319
▁politisch	-9.65423
▁Beschluss	-9.65441
▁Ihren	-9.65538
▁Zudem	-9.65545
▁bestätigt	-9.65609
▁Welche	-9.66017
▁besonderen	-9.66028
▁Schluss	-9.66186
▁keinerlei	-9.66193
▁umzusetzen	-9.66203
▁Konflikt	-9.6628
▁legen	-9.66387
▁usw	-9.66419
▁Ereignisse	-9.66455
▁internationaler	-9.66481
▁Gerichtshof	-9.66508
▁Zivil	-9.66567
▁Stellung	-9.66645
▁Unterschiede	-9.66767
▁Den	-9.66776
▁Besorgnis	-9.66853
sprozess	-9.66854
sbedingungen	-9.66981
▁bilden	-9.67196
▁grundlegenden	-9.6748
▁un	-9.67485
▁Bemerkung	-9.6756
▁Effizienz	-9.67581
politischen	-9.67694
▁miteinander	-9.67725
▁Während	-9.67738
▁Kollegin	-9.67759
▁sämtliche	-9.67882
▁wesentliche	-9.68079
▁diesbezüglich	-9.68117
▁Hohen	-9.68185
▁Viele	-9.68439
▁Abkommens	-9.68449
▁erfordert	-9.68471
▁nächste	-9.68558
▁Konsens	-9.68566
▁stimmt	-9.68604
o	-9.68679
▁Vielen	-9.68721
▁annehmen	-9.68847
Strategie	-9.68923
▁akzeptiert	-9.68926
▁verstärkt	-9.69015
▁zahlreichen	-9.69096
▁daraus	-9.69154
▁Verständnis	-9.69207
▁abgeschlossen	-9.69232
▁AKP	-9.69289
▁äußern	-9.69294
▁Rumänien	-9.69349
▁Einfluss	-9.69374
▁Ziffer	-9.69519
▁zuständigen	-9.69563
▁echte	-9.69649
▁Nahrungsmittel	-9.69758
▁Blick	-9.69788
▁Polen	-9.69855
▁Dienste	-9.69861
▁Märkte	-9.70098
▁Warum	-9.70178
▁größeren	-9.70459
▁Verringerung	-9.70476
▁Treffen	-9.70628
▁wer	-9.70681
▁einerseits	-9.70717
▁Voraussetzung	-9.70747
▁jeweiligen	-9.70749
▁gelangen	-9.70773
▁Vorgehen	-9.70899
▁anbelangt	-9.7109
▁Mitgliedern	-9.71165
▁bedarf	-9.71194
▁Übereinstimmung	-9.71269
▁Mein	-9.71342
▁gelöst	-9.71379
▁unabhängig	-9.71768
▁Erfahrung	-9.71769
▁Struktur	-9.71778
▁Mobilität	-9.72119
▁Deswegen	-9.72135
▁Waffen	-9.72221
▁technische	-9.72231
▁Technologien	-9.72233
▁zuletzt	-9.72316
▁französischen	-9.72422
▁bezieht	-9.72496
▁Phase	-9.72542
▁einig	-9.72574
▁Beschlüsse	-9.72628
sausschuss	-9.72645
▁angemessen	-9.72663
▁nachhaltigen	-9.72795
▁Infrastruktur	-9.72836
▁Definition	-9.72837
▁Anteil	-9.73063
▁Systems	-9.73066
▁ständig	-9.73095
▁bedeuten	-9.73334
▁frei	-9.73386
▁betreffenden	-9.73526
▁begrüßt	-9.73545
▁einheitlichen	-9.7374
▁Portugal	-9.73742
▁Vorsitz	-9.73777
▁Volksgesundheit	-9.738
▁Vergleich	-9.73928
▁entscheidend	-9.73962
▁ferner	-9.74054
▁Regulierung	-9.7426
▁Moment	-9.74288
▁Über	-9.74292
▁Normen	-9.74447
▁Vorausschau	-9.74473
▁aktuellen	-9.74526
▁regionale	-9.74616
▁nachdem	-9.74642
▁Zahlen	-9.74749
▁sinnvoll	-9.74885
▁aufzunehmen	-9.7501
▁Haushaltsplan	-9.75017
PL	-9.7504
▁Kontrollen	-9.75106
▁ausgesprochen	-9.75363
▁Analyse	-9.75403
te	-9.75689
▁vorzulegen	-9.75778
▁Außenpolitik	-9.75816
▁Signal	-9.75897
▁Gleichgewicht	-9.75923
▁Freizügigkeit	-9.75937
▁kulturellen	-9.7605
▁herzlich	-9.76237
▁darunter	-9.76248
▁Internationalen	-9.76409
▁tätig	-9.76486
▁zufolge	-9.76496
▁neben	-9.76527
▁eingereicht	-9.76578
organisation	-9.76604
▁teile	-9.76635
▁April	-9.76719
▁angemessene	-9.76802
▁Gesundheits	-9.76814
▁grundlegende	-9.76929
▁Punkten	-9.76936
▁erfahren	-9.76968
▁Vereinbarungen	-9.76995
▁treten	-9.77075
▁gestalten	-9.77152
▁nunmehr	-9.7728
▁hält	-9.77293
▁Gesetz	-9.77311
▁Problems	-9.7754
▁rasch	-9.77613
▁länger	-9.77675
▁betreffend	-9.77693
▁Versuch	-9.77749
▁genannt	-9.77772
▁lautet	-9.7787
▁Beweis	-9.77873
▁starke	-9.77929
▁alten	-9.77947
▁kürzlich	-9.77964
▁verurteilt	-9.77966
▁erhebliche	-9.77983
▁Roma	-9.77994
▁Elemente	-9.7803
▁vorgeschlagene	-9.78048
▁Schweden	-9.78076
▁möglichen	-9.78092
▁setzt	-9.78169
▁spielt	-9.78211
▁Gedanken	-9.78247
▁Risiken	-9.78396
▁nachdrücklich	-9.7853
ssystem	-9.78625
▁fallen	-9.78662
▁wiederholen	-9.78898
▁übrigens	-9.78955
▁Aufbau	-9.79043
▁Amsterdam	-9.79053
▁Vielleicht	-9.79064
▁Unser	-9.79103
▁lang	-9.79108
▁NATO	-9.79197
▁Ebenso	-9.79354
▁niemand	-9.7936
▁keiner	-9.79512
▁Zur	-9.79555
▁Institution	-9.79584
▁Politiker	-9.7961
▁komme	-9.79681
ste	-9.79719
▁notwendige	-9.79793
▁tut	-9.79893
▁abstimmen	-9.79938
▁Binnenmarktes	-9.79994
▁Strategien	-9.80002
▁Staats	-9.8002
▁funktioniert	-9.80034
▁entsprechen	-9.80238
▁beziehen	-9.80381
▁Glaubwürdigkeit	-9.80391
▁Zentralbank	-9.8041
▁Ordnung	-9.80547
zusammenarbeiten	-9.80584
▁leiden	-9.80605
▁Status	-9.80641
lich	-9.80701
▁freie	-9.80754
▁wichtigste	-9.80777
▁bemüht	-9.80926
▁Sektoren	-9.81036
▁Umständen	-9.81067
▁eingehalten	-9.81094
▁unterstreichen	-9.81099
▁achten	-9.81131
▁Familie	-9.81663
▁anwesend	-9.81729
▁fällt	-9.81768
▁Bestandteil	-9.81813
▁lokalen	-9.81817
▁Gemeinsame	-9.82005
▁teilweise	-9.82044
▁Befugnisse	-9.82097
Mitgliedstaaten	-9.82129
▁Stellen	-9.82264
▁näher	-9.82264
▁Überlegungen	-9.82286
▁warten	-9.82334
▁Zeichen	-9.82406
▁Wirklichkeit	-9.82433
▁richtigen	-9.82459
▁Kriminalität	-9.82526
▁UNO	-9.82703
▁Außen	-9.82716
▁ergeben	-9.8274
▁richten	-9.82761
▁neues	-9.82897
▁geehrte	-9.82931
▁Mut	-9.82973
▁Tiere	-9.82975
▁Angriff	-9.83102
▁verlieren	-9.83304
▁geschlossen	-9.83416
▁hervorgehoben	-9.8347
▁geltenden	-9.83506
▁mindestens	-9.83526
▁Abschaffung	-9.83537
▁beste	-9.83589
▁Wer	-9.83596
▁erfolgt	-9.83611
▁Aktionsplan	-9.83702
▁verloren	-9.83724
▁ausgezeichneten	-9.83802
▁mehreren	-9.83882
▁Sorgen	-9.83972
▁verstärken	-9.84111
▁Verbesserungen	-9.84142
▁verlangen	-9.84161
▁kennen	-9.84407
▁Ratifizierung	-9.84419
▁geprüft	-9.84483
▁einbezogen	-9.84544
▁suchen	-9.84582
unterschiedliche	-9.84605
▁Gericht	-9.84635
▁bedauerlich	-9.84782
▁Barroso	-9.8481
▁Prinzipien	-9.84879
▁Kopenhagen	-9.84994
▁verfügt	-9.85021
▁Erzeugnisse	-9.8505
svorschlag	-9.85131
▁allgemein	-9.85142
▁spricht	-9.85149
▁verdient	-9.85255
▁Formen	-9.85289
▁Übergang	-9.85306
▁informiert	-9.85571
▁Antworten	-9.85851
▁Vorhaben	-9.85854
▁entstehen	-9.85937
schaftlichen	-9.85943
▁entscheidender	-9.85947
▁Großbritannien	-9.86121
▁seines	-9.86125
▁erscheint	-9.86127
▁bemühen	-9.86237
lichkeit	-9.8632
▁ausgesetzt	-9.86346
H	-9.86425
wettbewerbsfähig	-9.86425
▁vorliegende	-9.86622
▁illegalen	-9.86644
▁umfassenden	-9.86761
▁großes	-9.86801
▁Dienst	-9.86836
▁Verhältnis	-9.86872
▁ging	-9.8695
▁versichern	-9.86994
▁derartige	-9.871
▁künftige	-9.87132
▁Todesstrafe	-9.87203
▁Waren	-9.87226
▁Finanzielle	-9.87309
▁anstatt	-9.87355
▁amtierende	-9.87392
▁Vereinfachung	-9.87441
▁E	-9.87541
▁Krankheiten	-9.8755
▁Ausnahme	-9.87564
▁durchzuführen	-9.87643
▁US	-9.87644
▁einzigen	-9.87651
▁schließen	-9.87766
▁befindet	-9.8801
▁anschließen	-9.88131
▁letztendlich	-9.88144
▁Handeln	-9.88207
▁bestimmt	-9.88436
shilfe	-9.88454
▁Ablehnung	-9.88468
▁Abend	-9.88502
▁Männern	-9.88515
▁Zielen	-9.88609
▁geäußert	-9.88629
▁Begriff	-9.88645
PT	-9.88663
▁Regierungschefs	-9.88733
▁Erwartungen	-9.88857
▁weiteres	-9.88867
▁seien	-9.88931
▁entscheidende	-9.88961
▁dritten	-9.89087
▁Gespräche	-9.89103
▁jetzigen	-9.89122
▁Umweltfragen	-9.89186
▁gezogen	-9.89199
▁PPE	-9.89318
▁bestimmter	-9.89344
beauftragten	-9.89345
▁verleihen	-9.89429
▁humanitäre	-9.89454
▁Afghanistan	-9.89496
▁profitieren	-9.89569
sfreiheit	-9.89588
▁beteiligen	-9.8968
▁Sport	-9.89711
▁leicht	-9.89727
▁rechtlichen	-9.8982
▁Klima	-9.89948
▁heutige	-9.8995
▁Katastrophe	-9.90084
▁Straßburg	-9.90181
▁Nizza	-9.90249
▁Männer	-9.90319
▁überein	-9.90362
▁wirksam	-9.90597
▁abgestimmt	-9.90626
▁Einrichtungen	-9.90678
▁bereitgestellt	-9.90742
▁falsch	-9.9075
▁Mitentscheidung	-9.90796
▁praktisch	-9.90864
▁Dem	-9.90934
▁Flüchtlinge	-9.90939
▁CO	-9.90964
▁Verkehrs	-9.91148
▁Technologie	-9.9117
▁hoffentlich	-9.91299
▁Regime	-9.9137
▁dankbar	-9.91412
▁Parlamente	-9.91426
▁übernommen	-9.91439
▁Polizei	-9.91518
k	-9.91572
▁festzulegen	-9.91628
▁Modell	-9.91663
▁verlangt	-9.91688
▁Gefahren	-9.91743
Kohäsionspolitik	-9.91779
▁wenigen	-9.91829
▁Praktiken	-9.91835
Staaten	-9.9184
▁sichern	-9.91855
▁Umweltschutz	-9.91874
▁Widerspruch	-9.91956
▁mündliche	-9.91965
▁a	-9.9201
▁spanischen	-9.92246
▁auffordern	-9.923
▁kam	-9.92303
▁vorgesehenen	-9.92342
▁Konsequenzen	-9.92508
▁informieren	-9.92545
▁Korruption	-9.92575
▁welcher	-9.92618
EG	-9.92626
▁mag	-9.92699
▁speziell	-9.927
▁Platz	-9.92851
▁Opposition	-9.92951
▁Mittelpunkt	-9.93176
▁jegliche	-9.9322
▁Organe	-9.93292
▁vorgenommen	-9.93332
▁verantwortungs	-9.93524
▁wodurch	-9.93547
▁verteidigen	-9.93626
▁bewegen	-9.93627
▁Belarus	-9.93734
re	-9.9379
▁hauptsächlich	-9.93856
▁Wohlstand	-9.93898
▁verstanden	-9.9392
▁sozialer	-9.93921
▁Ihrem	-9.93925
▁Reduzierung	-9.9398
▁kämpfen	-9.94
▁Katastrophen	-9.94032
▁Leute	-9.94077
richtlinie	-9.94147
▁Be	-9.94263
▁beschäftigen	-9.94482
▁letztlich	-9.94514
▁Zeiten	-9.94585
▁Des	-9.94672
▁Marktes	-9.94714
▁schlägt	-9.94716
sstrategie	-9.9476
maßnahmen	-9.94801
▁garantieren	-9.94856
▁Gewährleistung	-9.94894
▁frage	-9.95005
▁überall	-9.95152
▁Februar	-9.95154
▁Konvent	-9.95157
▁wünsche	-9.95184
▁Drogen	-9.95217
▁spreche	-9.95227
▁erhöht	-9.95246
▁Wiederaufbau	-9.95295
▁niemals	-9.95305
▁Systeme	-9.95393
▁Zusammenhalt	-9.95508
▁klaren	-9.95583
▁Trotz	-9.95646
▁Herzen	-9.95652
▁zweitens	-9.95726
▁ernsthaft	-9.95904
▁Stand	-9.96005
▁gutes	-9.96089
▁genauso	-9.96144
▁Niveau	-9.96241
▁welchen	-9.96266
▁erheblich	-9.96332
sterreich	-9.96393
▁Spiel	-9.96401
▁gezwungen	-9.96413
▁zugleich	-9.96542
▁Gesamt	-9.96585
ge	-9.96622
▁wenige	-9.967
▁einheitliche	-9.96771
wirtschaftlicher	-9.96787
▁ver	-9.96812
▁gewährt	-9.96966
▁Schwerpunkt	-9.97111
▁beschäftigt	-9.9713
▁Prodi	-9.9714
▁Plan	-9.97207
▁beigetragen	-9.97222
▁Währungsunion	-9.9737
▁konkret	-9.97377
spräsident	-9.97404
▁Dialogs	-9.97406
▁besorgt	-9.97409
▁Schengen	-9.97425
▁Wirkung	-9.97436
sstaatlichkeit	-9.97485
▁parlamentarisch	-9.97534
▁einzuführen	-9.9767
▁ländliche	-9.97744
erstatters	-9.97797
▁begonnen	-9.97815
▁gelegt	-9.97924
▁uneingeschränkt	-9.97997
▁stehenden	-9.98153
▁britische	-9.98292
▁erwartet	-9.98309
▁entschlossen	-9.9838
▁mögliche	-9.98389
▁folgende	-9.98415
▁damals	-9.98461
▁solches	-9.98535
▁Grünen	-9.98561
▁erleichtern	-9.98575
▁Fischer	-9.98577
▁Angaben	-9.98631
▁geschützt	-9.9867
▁jungen	-9.98839
▁bestehende	-9.98843
▁Ohne	-9.98888
▁Mir	-9.9894
▁wirksame	-9.9895
▁amerikanischen	-9.98969
▁Element	-9.98977
▁Führung	-9.9899
▁Gegensatz	-9.99007
▁öffentlich	-9.99036
▁zunehmend	-9.99043
▁verringern	-9.99084
▁Maß	-9.99169
▁erwähnen	-9.99178
▁Jugend	-9.99238
▁finanziert	-9.99269
▁vorschlagen	-9.9928
▁jenen	-9.99288
▁Schaden	-9.99389
▁All	-9.994
▁Zypern	-9.99483
▁Charakter	-9.99627
▁ursprünglichen	-9.99637
▁GAP	-9.99647
▁unmittelbar	-9.99675
▁gewählt	-9.99755
▁sofort	-9.99756
▁Strukturen	-9.99783
▁ECU	-9.99834
IT	-9.99847
▁übertragen	-9.99856
▁Patienten	-9.99864
▁Arbeiten	-9.99943
▁teilnehmen	-9.99957
▁Bulgarien	-9.99996
▁gestärkt	-10.0007
▁Mandat	-10.0027
▁Volkspartei	-10.0027
abkommen	-10.0041
▁wollten	-10.0044
▁schafft	-10.0058
▁echten	-10.0066
▁Arbeitsplatz	-10.0067
▁Darum	-10.0068
▁einzusetzen	-10.0073
▁Wissen	-10.0078
▁verhindert	-10.0083
▁Bereitschaft	-10.0096
▁Wahrheit	-10.0101
srecht	-10.0103
▁Debatten	-10.0105
▁dank	-10.0113
▁Teilen	-10.0115
▁vorgelegten	-10.0117
Energieeffizienz	-10.0117
▁Banken	-10.0126
▁volle	-10.0127
Bericht	-10.0145
▁Beispiele	-10.0148
▁paar	-10.0167
▁unterzeichnet	-10.017
▁derzeitige	-10.0177
▁allzu	-10.0181
▁dritte	-10.019
smöglichkeiten	-10.0205
▁eingegangen	-10.0219
▁folgenden	-10.0223
▁Freude	-10.0224
▁Preise	-10.0226
▁Versammlung	-10.0228
▁Bedarf	-10.023
▁globale	-10.0237
▁ziemlich	-10.024
▁mittleren	-10.0241
▁bestätigen	-10.0242
▁Beteiligten	-10.025
▁Paket	-10.0259
▁froh	-10.026
▁zuvor	-10.0262
▁Austausch	-10.0264
▁soeben	-10.0285
▁guter	-10.0286
▁trifft	-10.0293
▁gerichtet	-10.0304
▁danach	-10.0318
▁nötig	-10.0324
▁wiederholt	-10.035
▁solange	-10.0351
▁wiederum	-10.0352
▁F	-10.0356
▁staatlichen	-10.0357
▁überprüfen	-10.0359
▁Produkt	-10.0394
▁abhängig	-10.0402
▁Fremdenverkehr	-10.0406
▁Bedürfnisse	-10.0412
▁Übrigen	-10.0421
▁erleben	-10.0422
▁humanitären	-10.0427
▁Stoffe	-10.043
▁fehlt	-10.0434
▁relativ	-10.0435
▁Vorteil	-10.0438
▁T	-10.0445
▁Würde	-10.045
▁Arten	-10.0459
▁kurzem	-10.0463
▁spezifischen	-10.0465
▁Gegenstand	-10.0466
▁Tage	-10.0468
▁gehalten	-10.0476
▁stärkere	-10.0479
▁menschlichen	-10.0481
▁junge	-10.0483
▁Ansichten	-10.0496
▁sonst	-10.0499
▁teilen	-10.0501
▁eng	-10.0504
▁Einstellung	-10.0505
▁konfrontiert	-10.052
▁starken	-10.052
▁beinhaltet	-10.0529
▁privaten	-10.0529
▁Gerechtigkeit	-10.0533
▁manchmal	-10.0537
▁Arbeitnehmern	-10.054
ffnung	-10.0541
▁Lebens	-10.0545
▁wirtschaftlich	-10.0546
▁erinnert	-10.0553
▁herrscht	-10.0553
▁Gelder	-10.0567
▁umsetzen	-10.0579
▁erfreut	-10.0579
▁Verhalten	-10.0586
▁Indien	-10.0588
▁bedanken	-10.0589
▁illegale	-10.0594
▁be	-10.0598
▁beruht	-10.0598
▁Einkommen	-10.0601
▁bislang	-10.0609
▁früher	-10.0612
▁durchführen	-10.0614
▁Studie	-10.0615
▁Wettbewerbs	-10.0621
▁vorhanden	-10.0625
▁verlassen	-10.0643
▁zusätzlichen	-10.065
▁Bereitstellung	-10.0651
▁BSE	-10.0654
▁Verwirklichung	-10.0667
▁zuständig	-10.0674
▁Andererseits	-10.0676
▁Person	-10.0681
▁verwenden	-10.0686
▁italienischen	-10.0691
▁gebeten	-10.0693
▁deutschen	-10.0707
▁irischen	-10.0712
▁unmöglich	-10.0716
tenden	-10.0719
▁Redner	-10.0722
▁einzelstaatlich	-10.0726
▁Methode	-10.0739
▁ansprechen	-10.0746
▁Insbesondere	-10.0748
▁europäisches	-10.0751
▁Personal	-10.0766
▁Kräfte	-10.0768
▁Untersuchungen	-10.0771
▁zulassen	-10.0772
▁Teilnahme	-10.0787
▁Aktion	-10.0788
▁Straßen	-10.0793
▁Ausarbeitung	-10.0796
▁Energien	-10.0804
▁wonach	-10.0809
▁Hälfte	-10.0813
▁effektiv	-10.0818
▁festgelegten	-10.0838
▁Chancen	-10.0856
▁groß	-10.0858
▁verurteilen	-10.0865
▁Haupt	-10.0867
▁unverzüglich	-10.0888
▁her	-10.089
▁Steuern	-10.0895
▁beschränken	-10.0896
▁deswegen	-10.0901
▁Konsultation	-10.0903
▁verstehe	-10.0904
▁dürfte	-10.0909
▁Beseitigung	-10.0918
▁eingebracht	-10.0918
▁Religion	-10.0935
▁Methoden	-10.0942
▁Kontroll	-10.0947
▁mitteilen	-10.0955
▁Sprachen	-10.096
▁Anfragen	-10.0968
▁Unterschied	-10.0983
▁Monat	-10.1001
▁u	-10.1002
▁verursacht	-10.102
▁Berichten	-10.1022
▁Transport	-10.1027
▁geregelt	-10.1034
▁höhere	-10.1035
▁hinzufügen	-10.1039
▁veröffentlicht	-10.104
▁Bedrohung	-10.1043
▁jährlich	-10.1054
ten	-10.1064
▁Fähigkeit	-10.1065
▁Erhaltung	-10.1069
▁sieben	-10.107
▁stelle	-10.1071
DE	-10.1074
▁überzeugen	-10.1082
▁gewissen	-10.109
▁Staates	-10.109
▁acht	-10.1092
▁Ausgrenzung	-10.1105
▁Dienstleistungs	-10.1105
▁Anbetracht	-10.111
▁Volkes	-10.1115
sfonds	-10.1121
▁palästinensisch	-10.1126
▁Faktoren	-10.1127
▁Erzeuger	-10.1128
entwicklung	-10.1128
▁befürworten	-10.1131
▁ausgezeichnete	-10.1132
▁inzwischen	-10.1144
▁Hindernisse	-10.1147
▁erhält	-10.1147
▁Schiffe	-10.1152
▁einstimmig	-10.1153
▁Nein	-10.1154
Wirtschaftskrise	-10.1156
▁Prozeß	-10.1157
▁II	-10.1158
▁Rechnungshof	-10.1167
▁Versorgung	-10.1179
erstattern	-10.1179
▁Dringlichkeit	-10.1193
▁Mechanismen	-10.1195
▁dient	-10.1201
▁sichergestellt	-10.1217
▁entweder	-10.1222
sektor	-10.1224
▁Senkung	-10.1227
▁früheren	-10.1235
▁anzunehmen	-10.1235
st	-10.1237
▁gewinnen	-10.1237
▁weitgehend	-10.1238
▁entfernt	-10.1253
Die	-10.1253
▁Durchsetzung	-10.1263
▁erstens	-10.1274
▁gegenwärtige	-10.1277
▁welches	-10.1281
hancengleichheit	-10.1286
▁Kennzeichnung	-10.1291
Entschlossenheit	-10.1293
▁Mangel	-10.1295
▁sodass	-10.1299
▁strategischen	-10.1305
▁Laufe	-10.1305
▁Investition	-10.1331
▁speziellen	-10.1343
▁inter	-10.1346
▁Betrifft	-10.1347
▁türkischen	-10.135
▁Mrd	-10.1352
▁Beiträge	-10.1352
▁Friedens	-10.1358
▁Demokraten	-10.1363
▁Verletzung	-10.1375
▁investieren	-10.1388
▁Menge	-10.1391
▁Weiteren	-10.1393
▁Liberalen	-10.1393
tschaftswachstum	-10.1401
▁gewähren	-10.1406
▁institutionelle	-10.1412
▁offenen	-10.1426
▁Revision	-10.1428
▁Dienstleistung	-10.1429
▁festzustellen	-10.1429
sausschuß	-10.1438
▁gefährdet	-10.1442
▁beschränkt	-10.1445
▁Geist	-10.1459
▁denjenigen	-10.1461
▁Tisch	-10.1469
▁Gerade	-10.1471
▁Grenze	-10.1473
NL	-10.1477
▁Hinweis	-10.1489
▁eingeleitet	-10.1491
▁grundsätzlich	-10.1495
▁erlebt	-10.15
▁reicht	-10.1506
▁Ideen	-10.151
▁angebracht	-10.1513
▁Vorrang	-10.1516
▁wirkliche	-10.1519
▁Kontinent	-10.1523
▁aufnehmen	-10.1525
▁Allgemeinen	-10.1528
▁Sollte	-10.1529
▁Nachdruck	-10.1531
▁Ursachen	-10.1539
▁Anlass	-10.154
▁bezeichnet	-10.1551
▁verweisen	-10.1554
▁land	-10.1556
▁ehemaligen	-10.1556
▁Sektors	-10.1562
▁Betracht	-10.1571
▁Kapital	-10.1584
▁Premierminister	-10.1595
be	-10.1604
▁NRO	-10.1605
▁überwinden	-10.1605
▁Bitte	-10.1606
▁schwierige	-10.1607
▁I	-10.1608
sverletzungen	-10.1608
▁Bild	-10.1616
▁mangelnde	-10.1623
▁zurückzuführen	-10.1633
▁genügend	-10.1637
▁Herstellung	-10.1639
▁rechtliche	-10.164
▁bewältigen	-10.1642
▁antworten	-10.1649
▁läßt	-10.165
▁benötigt	-10.1659
KOM	-10.1661
▁Souveränität	-10.1661
▁Kyoto	-10.1669
▁funktionieren	-10.1681
▁Kontext	-10.1685
▁Serbien	-10.1694
▁politisches	-10.1696
Umstrukturierung	-10.1698
▁schlecht	-10.1699
▁Vertretern	-10.1703
▁gesellschaft	-10.1706
▁Nachbarschaft	-10.1709
▁Teile	-10.1714
▁Mann	-10.1731
▁Kroatien	-10.1736
▁Gefühl	-10.174
▁Konflikte	-10.1745
schaftliche	-10.1752
▁Funktion	-10.1761
▁Erfüllung	-10.1764
▁Respekt	-10.1773
▁kulturelle	-10.1781
▁Drittstaaten	-10.1782
▁garantiert	-10.1792
▁Wesentlichen	-10.1802
▁Schlüssel	-10.1805
▁bewußt	-10.1817
▁umfassend	-10.1819
▁heraus	-10.1821
▁Kern	-10.1825
▁interessiert	-10.1827
▁Perspektive	-10.1844
▁befürwortet	-10.1848
politische	-10.1855
▁zentrale	-10.1861
▁Dingen	-10.1886
▁Verbrauchern	-10.1888
▁behaupten	-10.1895
▁Beschluß	-10.19
▁gestatten	-10.1904
▁passiert	-10.1906
▁angewandt	-10.1908
▁jemand	-10.1912
▁rein	-10.1925
▁Errichtung	-10.1927
Fischereipolitik	-10.1929
S	-10.193
▁verabschieden	-10.1931
▁weltweiten	-10.1935
▁zahlen	-10.1935
▁van	-10.1936
▁Hohe	-10.1936
▁Sicherheits	-10.1938
▁Zielsetzungen	-10.1944
▁Prozesses	-10.1945
▁angenommenen	-10.1947
▁Nachbarn	-10.1952
▁Stadt	-10.1966
▁Nachhaltigkeit	-10.1966
▁Bürokratie	-10.1971
▁legt	-10.1974
▁befasst	-10.1975
▁Leistungen	-10.1977
▁hervor	-10.1983
▁gearbeitet	-10.1983
Programm	-10.1985
▁militärischen	-10.1986
▁geraten	-10.1986
▁zählen	-10.1993
▁vorsieht	-10.1995
▁vorbereitet	-10.2005
▁vorliegen	-10.2013
▁Ausmaß	-10.2016
▁zukünftigen	-10.2022
▁spezifische	-10.2022
▁langfristig	-10.2027
▁Abgeordneter	-10.2032
▁Ausweitung	-10.2033
▁vieler	-10.2035
▁Modernisierung	-10.204
▁jedenfalls	-10.2048
▁überaus	-10.2048
▁M	-10.2049
▁sofern	-10.2053
▁negativen	-10.2064
▁Erreichung	-10.2067
▁auswärtige	-10.2067
▁Studien	-10.207
▁Tätigkeiten	-10.2094
▁Balkan	-10.2095
▁besonderer	-10.2098
▁spezielle	-10.2111
▁Aufhebung	-10.2116
▁müsste	-10.2132
▁Allianz	-10.2135
▁genannte	-10.2142
▁Ungarn	-10.2142
▁wesentlicher	-10.2156
▁Rechten	-10.2159
▁höchste	-10.2162
▁Wahrung	-10.217
▁Mechanismus	-10.2172
▁Positionen	-10.2174
▁Pläne	-10.2174
▁freuen	-10.2177
▁Sicherung	-10.2179
▁Verabschiedung	-10.218
▁Gas	-10.2182
▁EZB	-10.2191
▁französische	-10.2192
▁Angst	-10.2195
▁Grünbuch	-10.2204
▁einzelne	-10.2205
▁beabsichtigt	-10.2211
▁vorstellen	-10.2218
▁falls	-10.2226
▁Regionalpolitik	-10.2227
▁Minuten	-10.2229
▁Vorsitzenden	-10.2229
▁zugrunde	-10.2235
▁Garantien	-10.2241
▁Geschlechter	-10.2242
▁Verbreitung	-10.2244
▁finanzieren	-10.2244
grund	-10.2248
▁Zeitplan	-10.2257
▁Situationen	-10.2258
▁verbundenen	-10.2263
▁ausgerichtet	-10.2267
▁Mitgliedschaft	-10.227
▁vollständige	-10.2276
an	-10.2277
▁ausüben	-10.2284
▁Beachtung	-10.2289
▁trotzdem	-10.2304
▁ausgeschlossen	-10.231
▁Leistung	-10.2314
▁breite	-10.2315
▁Konvergenz	-10.2317
▁Klarheit	-10.2329
▁beantworten	-10.2335
▁lernen	-10.2338
▁Urteil	-10.2341
▁bedeutende	-10.2342
▁erlaubt	-10.2356
▁Besteuerung	-10.2359
▁Barcelona	-10.2366
▁wann	-10.2369
sprozesses	-10.2371
▁Identität	-10.2378
▁Umgang	-10.2378
▁Auge	-10.2383
▁V	-10.2384
▁Programmen	-10.239
▁keineswegs	-10.2394
▁Erarbeitung	-10.2394
▁getragen	-10.2396
▁Jeder	-10.2397
▁militärische	-10.24
▁Prävention	-10.2408
▁letzter	-10.2415
▁Gang	-10.2416
▁entstanden	-10.2417
▁angesehen	-10.2418
▁Krisen	-10.2419
▁Europol	-10.2432
▁geboten	-10.245
▁Wo	-10.245
▁Nachfrage	-10.2452
▁Stunden	-10.2454
▁aktive	-10.2456
▁sorgfältig	-10.2464
▁gelingt	-10.247
▁Vorstellung	-10.2474
▁Asyl	-10.2482
▁entscheidenden	-10.2485
▁bedauere	-10.249
▁Anhörung	-10.2495
▁angemessenen	-10.2501
▁fassen	-10.2501
▁H	-10.2503
▁Problematik	-10.2505
▁müssten	-10.2506
▁Emissionen	-10.2507
▁kontrollieren	-10.2511
▁dargelegt	-10.2513
▁langfristige	-10.2517
▁hierbei	-10.2543
▁Migration	-10.2553
▁Mitarbeiter	-10.2556
▁Dokumente	-10.2557
sverhandlungen	-10.2561
▁Anmerkungen	-10.2571
▁Finnland	-10.2574
▁verletzt	-10.2586
▁auswirken	-10.2592
▁menschliche	-10.2599
▁Presse	-10.2599
▁stattfindet	-10.2603
▁Stimmen	-10.261
▁Vertrages	-10.2612
▁zugestimmt	-10.2613
▁Noch	-10.2613
▁Betrieb	-10.2623
▁überlassen	-10.2624
▁Gesellschaften	-10.2624
▁Abhängigkeit	-10.2627
▁Dadurch	-10.2629
▁entwickelten	-10.2631
▁Behörde	-10.2631
▁Mehrwertsteuer	-10.2639
▁Amt	-10.2639
innen	-10.2645
▁Einheit	-10.2647
▁Verteilung	-10.2649
▁anerkennen	-10.2653
▁lenken	-10.2656
▁betreiben	-10.2665
▁Regel	-10.2666
▁langen	-10.2671
▁schwedischen	-10.2676
▁Luxemburg	-10.2677
▁vertritt	-10.268
▁Eisenbahn	-10.2695
▁sozial	-10.2696
▁gegenseitige	-10.2697
▁bildet	-10.2704
▁gemeinsames	-10.2705
▁Vorlage	-10.2706
▁erteilen	-10.2709
▁Akteure	-10.2713
▁hängt	-10.2716
▁Genehmigung	-10.2717
▁Bau	-10.272
u	-10.2722
system	-10.2724
sprinzip	-10.2727
▁Schäden	-10.2727
▁Betriebe	-10.273
▁besitzt	-10.2732
▁Arzneimittel	-10.2737
▁Zahlungen	-10.2745
▁Formulierung	-10.2747
▁staatliche	-10.2757
▁infolge	-10.2759
▁Dafür	-10.2796
b	-10.2804
▁Wähler	-10.2808
▁reduzieren	-10.2811
▁gerechtfertigt	-10.2816
▁Argumente	-10.2819
▁Kapitel	-10.2822
dienstleistungen	-10.2823
▁angewendet	-10.2824
▁umfasst	-10.2827
▁Partnern	-10.2836
▁Wissenschaft	-10.2837
▁offenbar	-10.284
▁Funktionieren	-10.2844
▁zuerst	-10.2855
▁Minderheit	-10.2856
▁Trotzdem	-10.2869
▁Inkrafttreten	-10.287
▁sobald	-10.2885
▁Faktor	-10.2888
▁BIP	-10.2891
▁Augenblick	-10.2894
ungen	-10.2895
▁jener	-10.2907
▁Mindest	-10.2908
▁Verordnungen	-10.2911
▁Ausbeutung	-10.2911
▁anzuwenden	-10.2917
▁rechtzeitig	-10.2926
▁D	-10.2929
▁untersuchen	-10.293
▁beraten	-10.2933
▁Weiter	-10.2934
▁Verfahrens	-10.2938
▁entgegen	-10.2938
▁Kann	-10.2944
▁Garantie	-10.2947
▁reichen	-10.295
▁Ab	-10.2951
▁Erwägung	-10.2953
▁vorhin	-10.2954
▁Gemeinschaften	-10.296
▁Frist	-10.2968
▁Mittelmeer	-10.2971
y	-10.2983
▁eindeutige	-10.2984
▁Wichtigkeit	-10.2991
▁Beratungen	-10.2997
▁Agenturen	-10.2997
sverfahrens	-10.2997
hilfe	-10.2998
▁respektieren	-10.3001
▁Menschenrechten	-10.3004
▁De	-10.3004
▁mehrfach	-10.3008
▁inakzeptabel	-10.3015
▁strategische	-10.3026
▁beseitigen	-10.3029
▁mittlere	-10.3029
▁Boden	-10.3032
▁verändert	-10.3039
▁verboten	-10.3043
▁Donnerstag	-10.3045
▁Ausführung	-10.3053
▁eingeräumt	-10.3055
▁stolz	-10.306
▁hervorragende	-10.3068
▁Anstieg	-10.307
▁Belgien	-10.307
▁Zuständigkeiten	-10.3072
▁Aspekten	-10.3074
▁Krankheit	-10.3076
sbehörden	-10.3082
ssysteme	-10.3088
▁Petition	-10.31
▁westlichen	-10.3107
▁Ergebnissen	-10.3112
▁erörtert	-10.3139
▁gemeinsamer	-10.3139
▁unterbreitet	-10.3151
▁Schutzes	-10.3152
i	-10.3162
▁Referendum	-10.3162
▁Betrug	-10.3165
▁Japan	-10.3172
▁unabhängigen	-10.3174
und	-10.3176
▁Assoziierung	-10.3177
▁Häfen	-10.3184
▁verdienen	-10.3186
▁Wird	-10.3186
▁stattgefunden	-10.3186
▁Offenheit	-10.3196
zu	-10.32
▁Gestatte	-10.3207
▁verstärkte	-10.3212
▁schlagen	-10.323
svorschläge	-10.3239
▁wenden	-10.3242
▁Uns	-10.3243
▁anwenden	-10.3246
▁Randlage	-10.3246
):	-10.3246
▁Netze	-10.3248
uoten	-10.3249
▁beschließen	-10.3255
▁Aussage	-10.3256
▁vorzunehmen	-10.3257
▁welchem	-10.3258
▁internen	-10.3262
▁festlegen	-10.3262
▁Jahrhundert	-10.3263
▁Abbau	-10.3264
▁höchst	-10.3271
▁Verfasser	-10.3273
▁ablehnen	-10.3274
▁aktuelle	-10.3277
▁Anträge	-10.3278
▁Dauer	-10.3279
▁endgültige	-10.3279
▁gegenseitigen	-10.3286
▁EG	-10.3295
▁erlauben	-10.3295
▁schneller	-10.3298
▁beibehalten	-10.3301
ver	-10.3302
▁Rußland	-10.3305
▁Beamten	-10.3307
▁Niederlanden	-10.331
demokratischen	-10.3315
▁Ministerrat	-10.3316
▁Energiequellen	-10.3317
▁Georgien	-10.3318
RO	-10.3318
▁Intervention	-10.3323
▁K	-10.3326
▁effektive	-10.3326
verfahren	-10.3331
▁praktische	-10.3333
▁wahren	-10.3336
szusammenarbeit	-10.3336
▁geeignete	-10.3338
▁überwachen	-10.3339
▁fortsetzen	-10.3339
▁Bosnien	-10.3342
▁Jugendlichen	-10.3351
▁Finanzkrise	-10.3356
▁erörtern	-10.3356
▁enorme	-10.336
▁Wirksamkeit	-10.3367
Ebene	-10.3374
▁bewerten	-10.3379
▁Gewicht	-10.3384
tende	-10.3384
▁vorgehen	-10.3389
▁konzentriert	-10.3389
▁Luft	-10.3394
sch	-10.3394
▁Zustand	-10.3395
▁ratifiziert	-10.3397
▁weist	-10.3399
▁erlassen	-10.34
▁reagiert	-10.34
▁russischen	-10.3407
▁erwiesen	-10.3408
C	-10.3408
versorgung	-10.3414
▁historischen	-10.3421
▁abschließend	-10.3423
▁Energiepolitik	-10.3429
▁läuft	-10.3429
▁Begründung	-10.3436
▁Vielzahl	-10.344
▁generell	-10.3444
▁Existenz	-10.3445
▁vereinbart	-10.3448
▁enthaltenen	-10.3453
▁griechischen	-10.3456
▁Steuerzahler	-10.3456
▁formuliert	-10.3468
ES	-10.3471
▁Tourismus	-10.3483
▁wirklichen	-10.3498
▁Morgen	-10.3501
programm	-10.3506
▁durchzusetzen	-10.3508
▁Nahe	-10.3513
▁direkte	-10.3518
▁Fassung	-10.352
▁Bank	-10.3523
▁zukünftige	-10.3525
▁Gestaltung	-10.3527
▁definiert	-10.3533
▁Un	-10.354
▁Hersteller	-10.3549
▁ergibt	-10.3553
▁mussten	-10.3559
▁bedroht	-10.3578
SV	-10.3581
▁Journalisten	-10.3582
▁erarbeitet	-10.3595
▁höheren	-10.3601
▁größer	-10.3603
▁Beziehung	-10.3603
▁Mängel	-10.3609
▁besitzen	-10.3616
▁erneuerbaren	-10.362
▁regelmäßig	-10.3625
▁Grundsätzen	-10.3632
▁Rassismus	-10.3634
▁bekräftigt	-10.3636
▁Bestimmung	-10.3638
▁schließe	-10.3638
▁Taten	-10.3642
▁jüngste	-10.3651
▁PSE	-10.3652
▁laufenden	-10.3653
▁gelingen	-10.3672
▁Netz	-10.3674
▁äußerster	-10.3687
▁Welthandels	-10.3693
▁Einwanderer	-10.3695
▁Vorgehensweise	-10.3695
▁Raums	-10.3698
EL	-10.3699
▁Außenminister	-10.3699
vorschriften	-10.3716
▁laufen	-10.3716
▁Kandidaten	-10.3717
▁basiert	-10.3721
▁vorrangig	-10.3727
▁konstruktive	-10.3728
▁eingerichtet	-10.3729
▁spät	-10.3729
▁zusätzlich	-10.3742
▁Alternative	-10.3756
▁Abschluß	-10.3757
▁ersetzen	-10.376
▁rund	-10.3761
▁Ratsvorsitzes	-10.377
transatlantische	-10.377
▁Konvention	-10.3772
▁Gerichtshofs	-10.3775
▁bereitet	-10.3775
▁Maastricht	-10.3775
▁Rückkehr	-10.3775
▁keinem	-10.3787
▁negative	-10.3789
▁vorhandenen	-10.3791
▁fördert	-10.3791
▁Feststellung	-10.3808
▁Auftrag	-10.3815
▁landwirtschaft	-10.3817
▁effizient	-10.3817
▁schweren	-10.382
▁Volkswirtschaft	-10.3822
▁Gipfeltreffen	-10.3823
▁ausgehen	-10.3836
▁Produkten	-10.384
▁Betrag	-10.3845
sbeziehungen	-10.3854
▁sagten	-10.386
▁laut	-10.3869
▁Zahlung	-10.3878
▁Mittelmeerraum	-10.3896
▁Kontakt	-10.39
▁unterbreiten	-10.3916
▁einführen	-10.3918
▁untersucht	-10.3922
▁endgültigen	-10.3927
▁nehme	-10.3927
▁zweiter	-10.3933
▁Pakistan	-10.3933
▁Stabilitäts	-10.3934
▁respektiert	-10.3939
Richtlinie	-10.3947
▁vornehmen	-10.3953
▁Experten	-10.3957
▁persönlichen	-10.3967
▁Kohärenz	-10.3969
▁nächster	-10.3975
▁vorliegt	-10.3975
▁Gründung	-10.3975
▁erfordern	-10.398
▁Neben	-10.3983
▁erwähnten	-10.3984
▁regionaler	-10.3988
▁See	-10.3994
sprogramme	-10.3997
▁auftreten	-10.4006
▁...	-10.4008
▁lieber	-10.401
▁Haushaltsplans	-10.4015
▁Kuba	-10.4019
▁Bewegung	-10.4024
▁Schlußfolgerung	-10.4033
▁vernünftig	-10.4035
▁Tod	-10.4047
▁Klimawandels	-10.4049
Gleichbehandlung	-10.4057
▁bilateralen	-10.4064
▁Potenzial	-10.4064
▁demokratischer	-10.4065
▁Tieren	-10.4072
▁erteilt	-10.4076
▁Besuch	-10.408
gleich	-10.4084
))	-10.4098
▁ökologischen	-10.4099
▁Kompetenzen	-10.4104
▁offene	-10.4108
▁Planung	-10.4125
▁befürworte	-10.4138
▁Amerika	-10.4141
▁bisherigen	-10.4148
▁verwiesen	-10.4152
▁soweit	-10.4159
▁Generation	-10.4166
▁Nah	-10.4171
präsident	-10.4172
▁Äußerungen	-10.4177
▁erscheinen	-10.418
▁erarbeiten	-10.4185
▁Umfeld	-10.4188
▁Ganz	-10.4191
▁Mehr	-10.42
▁senken	-10.42
sentwurf	-10.42
▁Slowakei	-10.4202
▁Weißbuch	-10.4207
▁beobachten	-10.4208
▁Argument	-10.4213
▁nachdenken	-10.4215
▁hingegen	-10.4216
▁Bis	-10.4217
▁erheblichen	-10.4221
▁erinnere	-10.4225
▁sogenannten	-10.4235
▁Ausschüsse	-10.4243
▁Mazedonien	-10.4258
▁insofern	-10.4261
parlamentarische	-10.4267
▁Wissenschaftler	-10.4275
▁hergestellt	-10.4282
▁Also	-10.429
▁Fleisch	-10.4296
▁manche	-10.4302
▁überprüft	-10.4304
▁Ausnahmen	-10.4308
▁erwähnte	-10.4308
▁Sonder	-10.431
▁Verlust	-10.4317
▁Kompromiß	-10.4318
▁Marokko	-10.4319
▁irische	-10.4325
▁Zwar	-10.4347
▁vernünftige	-10.4354
▁Ausgleich	-10.437
▁beizutragen	-10.4372
▁zustande	-10.4379
▁Terroristen	-10.438
▁zugute	-10.4383
▁Renten	-10.4384
▁Titel	-10.4397
▁ehrlich	-10.4398
▁Ehre	-10.4407
▁Mehrwert	-10.4408
▁Dänemark	-10.4417
Christdemokraten	-10.4418
▁Ausbau	-10.4422
▁konsequent	-10.4427
▁Dokumenten	-10.4436
▁Ausland	-10.4452
▁bestand	-10.4457
▁Sehr	-10.4458
▁verehrten	-10.4458
▁demokratisch	-10.4461
▁grundlegender	-10.4463
Demokratisierung	-10.4464
▁extrem	-10.4466
▁Verlauf	-10.4471
▁bestimmen	-10.4477
▁Überarbeitung	-10.4489
Vertrag	-10.4489
die	-10.449
▁Tonnen	-10.449
▁dieselben	-10.4491
▁Vorredner	-10.4491
▁Auseinandersetz	-10.4495
▁werte	-10.4501
▁verzeichnen	-10.4507
▁Verlängerung	-10.4514
▁deutliche	-10.4526
Sozialdemokraten	-10.4528
▁kleiner	-10.454
▁General	-10.4541
▁oftmals	-10.4545
▁Ebenen	-10.4546
▁Schuld	-10.4546
▁Finanzmittel	-10.455
▁Unterzeichnung	-10.4551
santräge	-10.4552
▁Werbung	-10.4559
▁oben	-10.457
▁abgeben	-10.4571
▁ärmsten	-10.4582
▁Grundfreiheiten	-10.4583
▁begrenzt	-10.4584
▁Gebrauch	-10.4589
▁unzureichend	-10.4593
▁Export	-10.4601
▁zunehmende	-10.4605
▁Kommissare	-10.461
▁unabhängige	-10.4611
▁Datenschutz	-10.4616
▁direkten	-10.4618
▁Projekten	-10.4624
▁stärksten	-10.4634
produktion	-10.4636
▁Rindfleisch	-10.4641
▁Verfolgung	-10.4646
▁praktischen	-10.4647
▁hervorragenden	-10.4651
▁musste	-10.4656
▁Zunahme	-10.4671
▁Erst	-10.4678
▁ähnliche	-10.4681
▁eintreten	-10.4681
▁ernsthafte	-10.4688
▁Veränderung	-10.4691
▁erforderliche	-10.4696
▁Einschätzung	-10.4703
▁einzubeziehen	-10.4721
▁gegebenenfalls	-10.4721
▁vermitteln	-10.474
▁Generationen	-10.4741
▁existiert	-10.4742
▁Besonders	-10.4753
▁beantwortet	-10.4754
▁voller	-10.4759
▁Bewältigung	-10.4759
▁gleichermaßen	-10.4759
▁Wandel	-10.476
▁abgegeben	-10.4762
▁solch	-10.477
▁Prozent	-10.477
et	-10.4771
▁umgehen	-10.4774
▁Kompetenz	-10.4774
▁Binnenmarkts	-10.4775
ern	-10.4776
▁schwere	-10.478
▁bedauern	-10.4781
▁Heimatland	-10.4787
▁schrittweise	-10.479
▁Menschenhandel	-10.4791
▁Drittel	-10.4792
▁kontrolliert	-10.4794
▁tatsächlichen	-10.4796
▁schlage	-10.4806
▁gefragt	-10.4811
▁Kohäsion	-10.4817
▁erläutern	-10.4823
gemeinschaft	-10.4828
▁übermitteln	-10.4828
▁Tausende	-10.483
▁entsteht	-10.4836
▁einhalten	-10.4837
▁ausreichende	-10.4841
▁Grundlagen	-10.4845
▁vorher	-10.4855
▁persönliche	-10.4858
▁unerlässlich	-10.4863
▁EVP	-10.4868
▁ständigen	-10.4874
▁Märkten	-10.4889
▁Beschäftigten	-10.489
▁natürlichen	-10.4903
▁Inneres	-10.4909
▁leistet	-10.4916
▁Fortsetzung	-10.4923
▁außen	-10.4927
bereich	-10.4927
▁Beurteilung	-10.4928
▁Präsidium	-10.4932
▁Papier	-10.4936
▁Haushaltsjahr	-10.4939
▁Kulturen	-10.4941
▁Ratspräsidenten	-10.4943
▁Schattenbericht	-10.495
▁bezahlen	-10.4953
▁bedeutenden	-10.4954
▁Rahmenprogramm	-10.4956
▁derjenigen	-10.4966
▁öffentlicher	-10.497
EWG	-10.4979
▁Geschäft	-10.4981
▁Vertretung	-10.4985
".	-10.499
▁fand	-10.5
▁Vision	-10.5003
srechts	-10.5005
weitaus	-10.5006
▁Genau	-10.5006
Abkommen	-10.501
▁Arbeitsgruppe	-10.5014
▁Licht	-10.5032
▁Militär	-10.5036
▁Zwecke	-10.5055
▁gefährden	-10.5056
▁wirtschafts	-10.5058
▁regeln	-10.5063
▁enttäuscht	-10.5064
▁scheinen	-10.5064
▁Ausrichtung	-10.5078
▁alte	-10.5082
▁bevorstehenden	-10.5084
▁Anreize	-10.5096
▁Aufsicht	-10.5108
ä	-10.5108
▁abgesehen	-10.5111
▁arbeitet	-10.5114
▁voraus	-10.5114
▁Erzeugung	-10.5116
▁beweisen	-10.5123
▁beiträgt	-10.5125
▁Suche	-10.5126
▁ersetzt	-10.5126
▁Herkunft	-10.5129
▁ordnungsgemäß	-10.513
rechte	-10.5136
z	-10.5137
▁langfristigen	-10.5138
▁tritt	-10.514
▁Schulen	-10.5143
▁Übereinkommens	-10.5154
▁beteiligten	-10.5155
▁Beschränkungen	-10.5156
▁ursprünglich	-10.5156
▁Zwei	-10.5157
▁einfache	-10.5159
▁Stabilitätspakt	-10.516
▁Zuge	-10.5169
▁sprach	-10.517
▁Schluß	-10.5177
▁unterliegen	-10.5183
▁Verträgen	-10.5202
▁fortgesetzt	-10.5205
▁ausgegeben	-10.5207
▁müßte	-10.521
▁gebilligt	-10.5212
▁Werten	-10.5214
▁Luftfahrt	-10.5216
▁elektronischen	-10.5218
▁vermieden	-10.523
▁zugänglich	-10.523
▁behauptet	-10.5231
▁behalten	-10.5231
▁nahe	-10.5234
▁leiten	-10.5236
▁erweisen	-10.5239
▁stand	-10.5242
▁folglich	-10.5243
▁willkommen	-10.5258
▁effiziente	-10.526
▁bewiesen	-10.5261
▁nützlich	-10.5262
▁Jahresbericht	-10.5262
▁freut	-10.5263
▁ernste	-10.5263
▁wählen	-10.5268
▁umso	-10.5272
sebene	-10.5277
▁Legislativ	-10.5277
▁Entschließungen	-10.528
sprogramm	-10.5286
▁Erinnerung	-10.5287
▁eingereichten	-10.5289
▁verändern	-10.5289
▁gewisser	-10.5289
▁Statistiken	-10.5291
▁Wille	-10.5293
▁Kürze	-10.5297
▁Flughäfen	-10.5304
▁deutsche	-10.5306
▁aufbauen	-10.5309
▁kurze	-10.5319
▁Inseln	-10.5325
g	-10.5325
▁Albanien	-10.5326
▁Tragödie	-10.5327
▁hart	-10.533
▁öffnen	-10.5331
Länder	-10.5334
sfragen	-10.5337
▁Kernenergie	-10.5338
▁fairen	-10.5338
▁erneuerbare	-10.5341
▁akzeptabel	-10.5341
▁innere	-10.5342
▁genauer	-10.5342
▁Dafürhalten	-10.5344
▁hinweg	-10.535
▁widmen	-10.5365
▁Entschädigung	-10.5377
▁unterscheiden	-10.5379
▁konstruktiven	-10.5393
▁Finanzen	-10.5395
▁ausgewogenen	-10.5399
▁Schulden	-10.5403
▁beträchtliche	-10.5405
▁abzielen	-10.5405
▁Zulassung	-10.5412
ing	-10.5413
▁Mensch	-10.5416
▁erzielten	-10.5417
▁gefährlich	-10.5429
▁Widerstand	-10.5431
▁vorschlägt	-10.5434
▁Redezeit	-10.5443
▁Schreiben	-10.5452
▁externen	-10.5459
▁Standpunkte	-10.5464
▁zentralen	-10.5469
▁Abstimmungen	-10.5471
▁gekennzeichnet	-10.5472
▁Vorwand	-10.5474
▁gestaltet	-10.5477
▁Handlung	-10.5477
▁gewählten	-10.5478
▁Rechtsetzung	-10.5479
gesellschaften	-10.5482
▁Rechenschaft	-10.5487
▁Visa	-10.5499
Ländern	-10.55
▁hoher	-10.5504
Rechtsvorschrift	-10.5507
▁beschleunigen	-10.5508
▁P	-10.5508
▁Armee	-10.551
▁organisierten	-10.5517
▁angekündigt	-10.5518
▁rechtfertigen	-10.5524
▁gegangen	-10.5532
▁langem	-10.5538
▁angehen	-10.5543
▁mittels	-10.5545
▁kritisiert	-10.5551
▁gestattet	-10.5556
▁ermutigen	-10.5565
▁Nichtregierungs	-10.557
▁beenden	-10.5572
▁Kräften	-10.5583
▁verschiedener	-10.5585
▁mögen	-10.5586
▁hierfür	-10.5588
▁falsche	-10.5601
▁Arbeitgeber	-10.5604
▁Unterdrückung	-10.5605
▁GVO	-10.5612
▁zurzeit	-10.5619
▁ausgeführt	-10.5621
▁Abfall	-10.5622
▁Alternativen	-10.5625
▁Jugoslawien	-10.5626
▁Aussagen	-10.5627
f	-10.5628
▁Eltern	-10.563
▁Versprechen	-10.564
▁Anwesenheit	-10.5647
▁organisierte	-10.5648
▁verringert	-10.5651
▁Schicksal	-10.5653
▁Darin	-10.5654
▁Großteil	-10.5656
▁historische	-10.5658
▁beglückwünsche	-10.5676
▁erheben	-10.5684
▁einzugehen	-10.5686
ausschusses	-10.5696
▁breiten	-10.5697
▁erfolgreichen	-10.5699
▁portugiesischen	-10.5703
▁effizienter	-10.5704
▁Organen	-10.5706
▁gehe	-10.571
▁Fähigkeiten	-10.5713
▁ausführlich	-10.5714
▁Opfern	-10.5714
▁spanische	-10.5718
▁enger	-10.572
▁bekräftigen	-10.5727
▁Angebot	-10.573
▁klären	-10.5731
▁Ausübung	-10.5731
ierung	-10.5733
▁Präsenz	-10.5733
▁Gebäude	-10.5739
▁Betroffenen	-10.5742
▁Eurozone	-10.5747
▁Subventionen	-10.5749
▁einzuhalten	-10.5756
▁hohem	-10.5763
▁Straße	-10.5764
▁Inter	-10.5772
▁aufzubauen	-10.5774
▁Güter	-10.5785
▁verhandeln	-10.5787
▁erfolgreiche	-10.579
▁Übertragung	-10.579
▁fühlen	-10.579
▁rufen	-10.5791
▁Marktwirtschaft	-10.5792
▁interessant	-10.5796
▁davor	-10.5797
▁Lateinamerika	-10.5801
▁gewonnen	-10.5803
▁langsam	-10.5808
▁Fakten	-10.5814
▁bewirken	-10.5815
skontrolle	-10.5816
▁liefern	-10.5823
▁bezeichnen	-10.5823
▁verfügbaren	-10.5823
▁gebe	-10.5824
▁Konvents	-10.5827
saustausch	-10.5832
▁Mitwirkung	-10.5837
▁zukommen	-10.5853
▁zielt	-10.5855
▁hierzu	-10.5857
▁Pflichten	-10.5858
▁nahezu	-10.5858
▁enormen	-10.5859
▁Zugangs	-10.5861
▁fehlende	-10.587
▁Tschetschenien	-10.5872
▁wiederhole	-10.5881
▁ge	-10.5885
ner	-10.5899
▁zählt	-10.59
▁eigentliche	-10.59
▁Jedoch	-10.5901
▁Wichtig	-10.5918
skosten	-10.5921
▁dasselbe	-10.5937
▁Sozialpolitik	-10.5938
▁beruhen	-10.5943
▁eventuell	-10.5947
▁beitreten	-10.5949
▁geeignet	-10.5955
▁eröffnet	-10.5956
▁bedenken	-10.5962
▁Statut	-10.5964
▁Wachstums	-10.5974
▁einzig	-10.5981
sammenzuarbeiten	-10.5984
▁wirksamen	-10.5986
▁Agrar	-10.5987
▁strenge	-10.5988
▁lokale	-10.5994
▁mal	-10.5996
▁leichter	-10.5997
▁Vizepräsident	-10.6014
▁Resolution	-10.6021
▁Glück	-10.6023
▁Umstände	-10.6026
▁stützen	-10.6027
▁Erfolge	-10.6028
▁hohes	-10.6035
▁erklärte	-10.6041
▁Beschwerden	-10.6042
keit	-10.6049
▁wünschenswert	-10.6055
▁Asien	-10.606
smitglied	-10.607
▁Verstärkung	-10.6074
▁Somit	-10.6075
▁Palästinenser	-10.6077
▁Unsicherheit	-10.6082
▁gelassen	-10.6085
▁Beratung	-10.6086
▁teilt	-10.6095
▁Städte	-10.6102
▁Bauern	-10.6102
▁bewahren	-10.6104
▁eigenes	-10.6112
▁traditionellen	-10.6117
▁modernen	-10.6121
▁geplant	-10.6125
▁Studenten	-10.6135
▁gehandelt	-10.6135
▁ergänzen	-10.6137
▁Van	-10.6141
▁Außengrenzen	-10.6142
▁ehemalige	-10.6156
▁erweitert	-10.6159
spolitiken	-10.616
▁Steigerung	-10.6166
▁Vorbehalte	-10.6169
▁Unternehmens	-10.6174
▁verwirklichen	-10.6177
▁intensiv	-10.6178
▁lesen	-10.6186
▁Litauen	-10.6188
▁Automobil	-10.6191
▁Lasten	-10.6194
▁Bilanz	-10.6194
Gipfel	-10.6195
▁Verletzungen	-10.62
▁private	-10.6203
▁beginnt	-10.6206
▁Glauben	-10.6212
▁heißen	-10.6217
▁Sommer	-10.6218
▁Ostsee	-10.6225
▁begangen	-10.6226
▁Folglich	-10.6236
▁Acht	-10.6238
▁gehabt	-10.6238
Rechtssicherheit	-10.6241
▁Absichten	-10.6244
▁enge	-10.6247
sgruppen	-10.6248
▁schnelle	-10.6249
▁angeblich	-10.6253
▁hinzuweisen	-10.6258
▁Süden	-10.626
▁reduziert	-10.6262
▁festen	-10.6265
▁afrikanischen	-10.6271
▁Gesprächen	-10.6276
▁Unserer	-10.6278
▁zutiefst	-10.628
▁genießen	-10.628
ieren	-10.6282
▁Klein	-10.6283
▁Vorstellungen	-10.6297
▁Sind	-10.6302
▁Freunde	-10.6311
▁höher	-10.6321
▁Anlagen	-10.6324
▁Immunität	-10.6325
▁Kategorie	-10.634
▁Kanada	-10.6343
▁zerstört	-10.6343
▁armen	-10.6347
▁Kontakte	-10.6348
▁Arbeitszeit	-10.635
▁Meinungen	-10.6351
▁Fragestunde	-10.6354
▁kümmern	-10.6362
▁Patten	-10.6362
▁Wein	-10.6364
▁geklärt	-10.637
▁begegnen	-10.6378
▁wahr	-10.6384
▁Fehlen	-10.6392
▁hilfreich	-10.6396
▁Nachdem	-10.64
▁integrierten	-10.6402
▁Jahrhunderts	-10.6404
▁erleichtert	-10.6407
▁Meer	-10.6414
▁Haushaltsmittel	-10.6419
▁ersuchen	-10.6419
▁Belastung	-10.642
▁Simbabwe	-10.642
Verantwortlichen	-10.6421
aufrechterhalten	-10.643
▁korrekt	-10.6431
▁einfacher	-10.6438
▁L	-10.6438
▁lokaler	-10.6445
▁derart	-10.6446
▁Sitz	-10.6451
Politik	-10.6452
▁israelischen	-10.6454
▁Wiederherstell	-10.6458
▁italienische	-10.6475
▁kritisch	-10.6485
▁zumal	-10.6487
▁transeuropäisch	-10.6487
▁Dienststellen	-10.6488
▁auszuüben	-10.649
▁Tabak	-10.6492
▁Einnahmen	-10.6495
▁verankert	-10.6496
▁Reise	-10.6496
▁keinesfalls	-10.6498
▁erstellt	-10.6503
sbericht	-10.6513
▁mittel	-10.6513
▁einnehmen	-10.6515
▁international	-10.6515
▁zugelassen	-10.6517
▁chinesischen	-10.6522
▁Arbeitsweise	-10.6532
▁abzielt	-10.6533
▁amtierenden	-10.6533
▁Stück	-10.6533
▁Aufforderung	-10.6537
▁schwieriger	-10.6538
▁Fahrzeuge	-10.6544
▁Ernennung	-10.6545
▁Gewerkschaften	-10.6545
▁Insel	-10.6547
▁Re	-10.655
▁Anhang	-10.6553
▁ansehen	-10.6554
▁vorzuschlagen	-10.6559
▁gratuliere	-10.6564
▁Verantwort	-10.6565
▁Freihandel	-10.6566
▁ethnischen	-10.6572
markt	-10.6573
▁Sozialpartner	-10.6579
▁gering	-10.658
▁führte	-10.6588
▁Nachmittag	-10.6597
▁benutzt	-10.6598
▁Phänomen	-10.6603
▁Übernahme	-10.6607
▁ohnehin	-10.6607
ssystems	-10.662
▁beurteilen	-10.6621
▁vereinfachen	-10.6636
▁gefährliche	-10.6648
▁Tages	-10.665
▁verstoßen	-10.6652
▁Tschechische	-10.6671
▁Abfälle	-10.6679
▁gefasst	-10.6679
Bürger	-10.6681
▁erhoben	-10.6682
▁schenken	-10.6683
▁Stellungnahmen	-10.6685
▁Palästina	-10.6692
smitglieder	-10.6694
▁gefährlichen	-10.6696
▁Steuerung	-10.6698
▁Gipfels	-10.67
▁angehören	-10.6703
▁Vordergrund	-10.6705
▁beeinflussen	-10.6713
▁dieselbe	-10.6715
▁technologische	-10.6718
▁Konzentration	-10.6718
▁bereiten	-10.6719
▁Verzögerungen	-10.6724
▁durchgesetzt	-10.6731
▁vorgebracht	-10.6736
▁Friedensprozess	-10.674
▁Bedürfnissen	-10.6745
▁Handlungen	-10.6763
▁definieren	-10.6767
▁stärkeren	-10.6768
▁klarstellen	-10.6769
▁gewünscht	-10.6771
▁einzurichten	-10.6791
▁wozu	-10.6795
wirtschaft	-10.6803
▁transparent	-10.6812
▁Beim	-10.6822
▁Tatsächlich	-10.6822
▁Evaluierung	-10.6824
▁eingeschränkt	-10.6829
▁wofür	-10.6831
▁Landwirten	-10.6835
▁Auslegung	-10.6835
▁könne	-10.6844
▁verschaffen	-10.6846
▁Aktionsprogramm	-10.6852
▁Tradition	-10.6854
▁Bewirtschaftung	-10.6862
▁beinhalten	-10.6862
▁drängen	-10.6871
▁verteilt	-10.6871
▁klarer	-10.6875
▁dahingehend	-10.6878
▁Doha	-10.688
▁Rechtsrahmen	-10.6883
Industriepolitik	-10.6884
▁anstreben	-10.6889
▁Rahmens	-10.6908
▁jeweils	-10.6917
▁OLAF	-10.6917
▁beendet	-10.6917
▁Eines	-10.6921
▁Luftverkehr	-10.6921
Meinungsäußerung	-10.6925
▁angeboten	-10.6928
▁Alles	-10.6932
▁organisieren	-10.6941
▁verursachen	-10.6941
▁Stunde	-10.6947
▁geringe	-10.6948
▁negativ	-10.695
▁begründet	-10.6965
▁verpflichten	-10.6966
▁ungeachtet	-10.6971
▁sichere	-10.6983
▁durchsetzen	-10.6984
▁Lebensmitteln	-10.6985
▁Bürgerrechte	-10.6987
▁empfehlen	-10.699
größter	-10.6992
▁Ost	-10.6996
▁ausgearbeitet	-10.6999
▁Beobachter	-10.7004
▁ignoriert	-10.7004
▁Gleichwohl	-10.7004
▁Einschränkung	-10.7007
▁momentan	-10.701
▁Vorfeld	-10.7013
▁Abänderung	-10.7015
▁Zuwanderung	-10.7018
▁geprägt	-10.7023
▁verstärkten	-10.7028
vollem	-10.7031
▁Einstimmigkeit	-10.7036
land	-10.7041
▁Alter	-10.7043
wieweit	-10.7046
▁Missbrauch	-10.7056
▁Folgendes	-10.7056
▁höchsten	-10.7064
▁friedliche	-10.7065
▁gelangt	-10.7073
▁Dort	-10.7077
Fluggesellschaft	-10.7078
▁einfachen	-10.7082
Veröffentlichung	-10.7085
▁Dollar	-10.7086
M	-10.7088
▁Behinderungen	-10.7091
▁Einfuhr	-10.7092
▁Beihilfe	-10.7093
▁südlichen	-10.7097
▁Malta	-10.71
▁verbieten	-10.7101
▁Flug	-10.7102
▁umfassen	-10.7103
▁reisen	-10.7107
▁Tatsachen	-10.711
▁schwedische	-10.7111
▁berichten	-10.7115
▁Versicherungs	-10.7116
sstandards	-10.7117
▁bewertet	-10.7125
▁Gewährung	-10.7126
▁Infrastrukturen	-10.7127
▁Zielsetzung	-10.7129
▁Birma	-10.7137
Emissionen	-10.7138
▁rechnen	-10.7141
▁überrascht	-10.7141
▁Ursache	-10.7142
sprozeß	-10.7143
▁Hilfen	-10.7145
▁anzupassen	-10.7149
▁Vorsitzende	-10.715
▁Ägypten	-10.7151
▁Spannungen	-10.7152
▁sozusagen	-10.716
▁Dublin	-10.7169
▁Können	-10.7175
▁unterstrichen	-10.7177
▁Auswahl	-10.718
▁Mitte	-10.719
▁Annäherung	-10.719
▁dahin	-10.7194
▁manchen	-10.7196
▁gäbe	-10.7198
▁Fristen	-10.7198
▁Rest	-10.7203
▁erstellen	-10.7205
▁bedaure	-10.7206
▁einzuleiten	-10.7216
▁Saal	-10.7217
▁zieht	-10.7219
sabkommens	-10.7221
▁Einzelheiten	-10.7223
Strafgerichtshof	-10.723
▁ausgewogene	-10.7243
▁Leid	-10.7247
▁rasche	-10.7248
▁Zwischen	-10.7249
verkehr	-10.7255
Kandidatenländer	-10.7257
▁drittens	-10.7264
▁GUE	-10.7277
▁Logik	-10.7288
▁Derzeit	-10.7291
▁Einzelnen	-10.7293
▁Sitzungen	-10.7295
w	-10.7295
▁auseinander	-10.7295
▁gespielt	-10.73
▁London	-10.7304
▁dänischen	-10.7304
▁Organ	-10.7306
▁Folter	-10.7308
▁Unternehmer	-10.7309
▁abend	-10.7309
▁geringer	-10.7311
▁erweitern	-10.7313
▁bekanntlich	-10.7316
▁effektiver	-10.7324
▁Innovationen	-10.7324
▁stellte	-10.7336
▁Gleichheit	-10.7337
▁weisen	-10.7339
▁Luftverkehrs	-10.7346
▁Verbindungen	-10.7353
bekämpfung	-10.7354
um	-10.7357
▁Sozialisten	-10.7357
▁Zerstörung	-10.7358
▁Tunesien	-10.7358
▁herzustellen	-10.7362
▁Beruf	-10.7364
▁Demokratische	-10.7364
▁eigentlichen	-10.7376
▁erweiterten	-10.7379
▁fünfzehn	-10.7379
▁Kohäsionsfonds	-10.7379
▁Tür	-10.7383
▁Bewusstsein	-10.7383
▁neun	-10.7384
programme	-10.7385
▁Insofern	-10.7387
▁Rahmenbedingung	-10.7389
▁Brasilien	-10.7395
▁Appell	-10.7395
srichtlinie	-10.7399
▁gesichert	-10.74
▁Kluft	-10.7412
▁Einfluß	-10.7412
▁Dass	-10.742
▁appelliere	-10.7428
▁Dynamik	-10.7429
ein	-10.7432
▁realistisch	-10.7434
▁müsse	-10.7437
svertrag	-10.7439
▁Wissens	-10.7439
▁Konflikts	-10.7449
▁friedlichen	-10.7453
▁bekämpft	-10.7454
▁ökologische	-10.7454
▁weltweite	-10.7455
▁Textes	-10.7458
Unregelmäßigkeit	-10.7462
▁Terror	-10.7464
▁Fisch	-10.7471
▁Management	-10.7478
▁eröffnen	-10.7479
▁Kampagne	-10.7484
▁organisiert	-10.7485
▁Gemäß	-10.7487
▁erwarte	-10.7489
▁Ganzes	-10.7491
▁Zusammenhalts	-10.7493
▁vernünftigen	-10.7494
▁verständlich	-10.7494
spflicht	-10.7499
▁Ausschüssen	-10.75
▁besagt	-10.7504
▁zwingen	-10.7508
▁Verzögerung	-10.7511
▁Libanon	-10.7515
▁amerikanische	-10.752
▁Aufstockung	-10.7521
▁August	-10.7521
▁abzulehnen	-10.7521
▁sitzen	-10.7525
▁Montag	-10.7528
▁Scheitern	-10.7529
▁Säule	-10.7529
▁Gebühren	-10.7532
▁anbieten	-10.7532
▁geblieben	-10.7533
▁Verhaltenskodex	-10.7533
▁voran	-10.7545
NGL	-10.7555
▁Effektivität	-10.7555
▁Parlamenten	-10.7561
▁Ergänzung	-10.7562
▁Niemand	-10.7565
▁Norden	-10.7569
▁Mitgliedsländer	-10.7572
▁anzugehen	-10.7575
▁offiziellen	-10.7577
▁Branche	-10.7578
▁abgeschafft	-10.758
▁bereitzustellen	-10.758
▁gewiss	-10.7581
Aussprache	-10.7582
▁Lehren	-10.7583
▁betrieben	-10.7584
▁Rückgang	-10.7589
▁Strom	-10.7591
▁festhalten	-10.7597
▁überwacht	-10.7598
▁Verheugen	-10.7605
▁Mitbürger	-10.7606
▁Arbeitsprogramm	-10.7622
▁ergänzt	-10.7631
▁belgischen	-10.7634
▁Völkern	-10.7634
▁Zentrum	-10.7639
▁gedenkt	-10.7639
▁womit	-10.7641
▁Erstellung	-10.7641
▁Brok	-10.7648
ALE	-10.7648
▁Minute	-10.7648
▁Mission	-10.765
▁Aufrechterhalt	-10.7656
▁überlegen	-10.7656
▁Lebensqualität	-10.7657
▁streng	-10.7659
▁Regional	-10.7659
▁tief	-10.7662
▁wenigsten	-10.7664
▁finanzieller	-10.7667
▁Ungleichheiten	-10.7669
▁geplanten	-10.7677
▁Werden	-10.7678
▁fortzusetzen	-10.7682
▁zurückkommen	-10.7683
▁Parlamentarier	-10.769
▁Satz	-10.769
▁Weiterbildung	-10.7691
▁Budget	-10.7696
▁koordinieren	-10.7701
▁beantragt	-10.7702
▁Aufklärung	-10.7708
▁sterben	-10.7711
K	-10.7714
▁Solana	-10.7716
▁Instrumenten	-10.7717
▁Rück	-10.7719
▁diesbezügliche	-10.7721
stätigkeit	-10.7721
▁Nord	-10.773
▁untergraben	-10.7734
▁durchgeführten	-10.7736
▁Stärke	-10.7737
▁Protokolls	-10.7738
▁kamen	-10.7741
▁Nähe	-10.7746
▁Ausgangspunkt	-10.7751
▁investiert	-10.7751
▁Menschheit	-10.7751
▁Städten	-10.7751
gleichberechtigt	-10.7756
▁interne	-10.7759
▁Koordination	-10.7761
▁Kapazitäten	-10.7763
▁zwölf	-10.7764
▁Arbeits	-10.7764
▁Bevor	-10.7777
▁deutlicher	-10.7784
▁beunruhigt	-10.7785
▁Königreichs	-10.7786
▁Gefangenen	-10.7787
▁Privatisierung	-10.7805
▁Pfeiler	-10.7807
▁Arbeitskräfte	-10.7815
▁hilft	-10.782
▁Anti	-10.782
▁Flüchtlingen	-10.7823
▁verzichten	-10.783
▁Leitung	-10.7831
▁Grad	-10.7831
▁Berlin	-10.7834
▁ALDE	-10.7837
▁Sachen	-10.785
▁wenngleich	-10.7852
▁finanziell	-10.7853
▁beeinträchtigt	-10.7856
ische	-10.7866
▁Weil	-10.7869
▁genaue	-10.7872
▁nachzudenken	-10.7872
▁Freitag	-10.7876
▁qualitativ	-10.7877
▁interessante	-10.7877
▁Ko	-10.7879
▁genetisch	-10.7882
▁wenigstens	-10.7889
▁Gefängnis	-10.7891
▁wirksamer	-10.7897
▁ca	-10.7904
▁Vorbereitungen	-10.7904
▁täglich	-10.7905
▁Post	-10.7912
▁Internationale	-10.7913
▁Kompromisse	-10.7916
▁kaufen	-10.7916
▁größerer	-10.7917
▁Aussicht	-10.7923
▁vollständigen	-10.7925
▁begreifen	-10.7927
▁langer	-10.7928
Mittelmeer	-10.793
▁Fischler	-10.7933
▁Liebe	-10.7934
▁Kommissars	-10.7938
▁Vorsitzender	-10.794
HU	-10.7943
▁führende	-10.795
▁Osteuropa	-10.7952
ü	-10.7961
▁Bananen	-10.7964
▁sexuellen	-10.7964
se	-10.7969
▁existieren	-10.7969
▁Geltungsbereich	-10.7971
▁wider	-10.7973
▁automatisch	-10.7975
Generaldirektion	-10.7977
▁multilateralen	-10.7979
▁verhandelt	-10.798
▁türkische	-10.7981
▁Moldau	-10.7988
▁Zusammensetzung	-10.7995
▁National	-10.7997
igen	-10.7999
System	-10.7999
▁Alkohol	-10.8008
▁derartigen	-10.8011
▁ungefähr	-10.8016
▁Kopf	-10.8019
▁wachsenden	-10.802
▁geeinigt	-10.8021
▁Schweiz	-10.8021
▁Viertens	-10.8026
▁lehnen	-10.8026
▁wachsende	-10.8029
zeit	-10.8029
schutzes	-10.8029
▁anmerken	-10.803
Abstimmung	-10.8032
▁Führer	-10.8035
▁beruflichen	-10.8036
▁legislativen	-10.8038
▁Rubrik	-10.8038
▁Versuche	-10.804
▁Spielraum	-10.804
▁Jugendliche	-10.8045
▁jährlichen	-10.8048
verschmutzung	-10.8055
▁klares	-10.8056
D	-10.8059
▁schlechte	-10.8063
▁versteht	-10.8066
▁globaler	-10.8066
▁vorzugehen	-10.8068
▁Größe	-10.8073
▁Ashton	-10.8074
▁beachten	-10.8076
smechanismus	-10.808
▁Bedauern	-10.8083
▁Option	-10.8087
▁getreten	-10.8092
▁Amerikaner	-10.8092
▁Inanspruchnahme	-10.8092
▁geachtet	-10.8092
▁wahrnehmen	-10.8093
▁Nordirland	-10.8094
▁Forum	-10.8096
katastrophen	-10.8099
▁sämtlichen	-10.81
bedingungen	-10.8104
▁Niederlande	-10.8106
▁Verkauf	-10.8107
sbestimmungen	-10.8108
▁Jahrzehnten	-10.8108
▁verwirklicht	-10.811
▁Inflation	-10.8111
ischen	-10.8112
▁Reden	-10.8113
▁solide	-10.8117
▁gedacht	-10.8119
▁Truppen	-10.8119
▁Flüchtlings	-10.8125
▁Konflikten	-10.8126
▁Legitimität	-10.8128
▁vereinbar	-10.8145
▁richtet	-10.8169
▁derselben	-10.8177
▁rechtlich	-10.8181
▁sicheren	-10.8181
▁Indikatoren	-10.8182
▁aktiven	-10.8183
▁OSZE	-10.8196
▁bilaterale	-10.8196
▁schlimmer	-10.8202
▁Syrien	-10.8204
▁dauerhafte	-10.8205
▁Kurs	-10.8205
▁Beitrittsländer	-10.8209
▁Eigentum	-10.821
▁erkannt	-10.8212
▁umfangreiche	-10.8218
▁anschließend	-10.8226
▁Libyen	-10.8229
▁Einer	-10.823
▁teilgenommen	-10.8236
▁Verts	-10.8236
▁gewahrt	-10.8245
▁Defizit	-10.8245
▁ungarischen	-10.8249
vorschlag	-10.825
rum	-10.8255
▁Straßenverkehr	-10.8256
▁Klaren	-10.8258
▁zunehmenden	-10.8263
▁geehrter	-10.8263
EU	-10.827
isch	-10.8278
▁unterbrochen	-10.8281
ab	-10.8284
sbürgerschaft	-10.8286
▁Erdöl	-10.8292
anhand	-10.8293
▁übermittelt	-10.8294
▁beseitigt	-10.8299
sinstrument	-10.8304
▁Not	-10.831
▁eingestellt	-10.8316
▁denselben	-10.8317
▁fürchte	-10.8318
▁behindert	-10.8318
▁Drittländer	-10.8322
▁Traditionen	-10.8324
▁gestrichen	-10.8327
▁religiösen	-10.8333
al	-10.8335
▁Beibehaltung	-10.8336
▁einbringen	-10.8337
▁aufgegriffen	-10.8349
▁Schließung	-10.8353
▁berechtigt	-10.8355
▁of	-10.8361
institutionelle	-10.8367
iert	-10.8371
▁zwangsläufig	-10.8372
▁Helsinki	-10.8373
▁Zoll	-10.8377
▁technischer	-10.8377
▁Solche	-10.8383
▁aussehen	-10.8386
▁gefallen	-10.8386
▁verhalten	-10.8388
▁normalen	-10.8388
▁Summe	-10.8393
▁starkes	-10.8394
▁vorgesehene	-10.84
▁kritischen	-10.8403
▁Fernsehen	-10.8409
▁unterstreicht	-10.8409
▁Stellenwert	-10.8409
▁geistigen	-10.8415
▁Hinweise	-10.8417
▁ignorieren	-10.8418
▁selber	-10.8418
▁Linken	-10.8424
)).	-10.8426
▁Mitgliedstaates	-10.8426
▁Konsolidierung	-10.8427
▁droht	-10.8429
▁Weiterhin	-10.8437
▁kompliziert	-10.8452
▁Lernen	-10.8452
▁Tendenz	-10.8455
▁Bush	-10.8456
ko	-10.8462
▁Anreiz	-10.8465
▁Menschenrechts	-10.8474
▁ausgewogen	-10.8474
▁angewiesen	-10.8475
▁Ziels	-10.8477
spräsidenten	-10.8485
▁Auto	-10.8485
▁einiges	-10.8488
▁Einschränkungen	-10.8489
▁territorialen	-10.8491
▁Angriffe	-10.8499
▁Texte	-10.8502
▁Million	-10.8511
▁Ernährungs	-10.8511
▁Herbst	-10.852
▁voranzubringen	-10.8529
▁aufgebaut	-10.8531
▁Gewinne	-10.8532
▁Südafrika	-10.8544
▁ausgeübt	-10.8548
▁sogenannte	-10.8553
▁kritisieren	-10.856
▁Gaza	-10.8566
▁Einwände	-10.8567
▁Auswärtige	-10.8573
▁vorn	-10.8578
▁irgendeine	-10.8588
▁immerhin	-10.8589
▁Aufenthalt	-10.8593
▁Fischereisektor	-10.8593
▁Tampere	-10.8595
▁Kind	-10.8595
▁geringen	-10.8595
▁effektiven	-10.8601
▁dargestellt	-10.8604
▁Amtszeit	-10.8604
▁Rom	-10.8621
▁fehlen	-10.8626
preise	-10.8627
▁mitgeteilt	-10.8627
▁Defizite	-10.863
▁gewidmet	-10.8632
▁schließt	-10.8632
▁beträgt	-10.8632
▁stammen	-10.8633
▁Haftung	-10.8644
▁präzise	-10.8646
▁Verhinderung	-10.8652
▁Politikbereiche	-10.8653
▁Projekts	-10.8663
▁getroffenen	-10.8664
frage	-10.8669
▁Schengener	-10.8672
▁Haushalte	-10.868
▁dauerhaften	-10.8681
▁gebraucht	-10.8685
▁absolute	-10.8688
▁Rechtsprechung	-10.8689
▁illegal	-10.869
▁Ausgewogenheit	-10.8698
▁kurzen	-10.87
▁ausgestattet	-10.8709
▁endgültig	-10.871
▁zitiere	-10.871
▁Gegenwärtig	-10.8717
▁ständige	-10.8719
▁Migranten	-10.8726
▁beeinträchtigen	-10.8727
▁ehrgeizige	-10.8731
▁einbeziehen	-10.8736
▁Beweise	-10.8736
▁Freilassung	-10.8746
▁Zugleich	-10.8748
▁ähnlich	-10.875
▁einräumen	-10.875
▁Zucker	-10.8752
▁gründlich	-10.8754
▁voranzutreiben	-10.8755
▁gestiegen	-10.8757
▁Vermeidung	-10.8757
▁fertig	-10.8762
▁einziges	-10.8765
▁Überwindung	-10.8774
▁geeigneten	-10.8776
▁erläutert	-10.8777
▁Schulz	-10.8777
▁Konkurrenz	-10.8784
▁Vermarktung	-10.8793
diskriminierung	-10.8795
▁aufgehoben	-10.8795
▁beziehe	-10.8796
▁umgehend	-10.88
▁Soldaten	-10.8804
▁einsetzt	-10.8807
▁anzuerkennen	-10.8812
▁Gesamtheit	-10.8813
▁bewegt	-10.8817
▁Stabilisierung	-10.8818
▁Kürzungen	-10.882
▁systematisch	-10.882
▁Hafen	-10.8827
▁bürgerliche	-10.8828
▁teilzunehmen	-10.8832
▁Konjunktur	-10.8833
▁jeglicher	-10.8838
▁Gremien	-10.8838
▁Straftaten	-10.8838
▁Anschluss	-10.8841
▁eingebunden	-10.8842
amerikanischen	-10.8847
▁konkreter	-10.8852
▁Firmen	-10.8854
▁Wortlaut	-10.8854
▁festgehalten	-10.8861
▁abzuschließen	-10.8861
▁verschärft	-10.887
▁fahren	-10.8874
▁Tempo	-10.888
▁stattdessen	-10.888
aus	-10.8882
▁bestraft	-10.8889
▁Treibhausgase	-10.889
▁problematisch	-10.8893
▁gegenseitig	-10.8895
wissenschaftlich	-10.8897
▁Hoffnungen	-10.8899
▁Zusagen	-10.89
▁Bedingung	-10.89
▁außergewöhnlich	-10.89
▁Termin	-10.8905
▁Verurteilung	-10.891
▁WWU	-10.8913
▁niederländische	-10.8915
▁EIB	-10.892
▁Mengen	-10.8921
Prozess	-10.8924
▁Kongo	-10.8938
▁falschen	-10.8939
▁vertrete	-10.8941
▁Bisher	-10.8947
▁Nation	-10.895
▁abzustimmen	-10.8957
ig	-10.896
▁hinnehmbar	-10.8962
▁Darlehen	-10.8963
▁Könnte	-10.8967
▁Vormittag	-10.8967
▁Nachteil	-10.8968
▁Kunden	-10.8968
▁Richter	-10.897
▁schätzen	-10.8973
▁Gelegenheiten	-10.8975
▁Erwägungen	-10.8976
▁passieren	-10.8976
▁Ablauf	-10.8977
▁New	-10.8977
▁müßten	-10.8977
▁Stockholm	-10.8978
▁Le	-10.8978
▁errichten	-10.8986
▁beweist	-10.8986
▁benutzen	-10.8988
▁steigen	-10.8993
▁angemessener	-10.8995
▁ändert	-10.8996
präsidenten	-10.8998
▁Privatsphäre	-10.9006
▁geschafft	-10.9006
▁Stehende	-10.9006
▁Slowenien	-10.901
▁angesprochenen	-10.9011
▁Diktatur	-10.9011
▁ehrgeizigen	-10.9014
▁Privat	-10.9014
▁Produktivität	-10.9015
▁Umstellung	-10.9018
▁Detail	-10.9023
▁versprochen	-10.9023
▁Ereignissen	-10.9024
▁wirken	-10.9024
▁ursprüngliche	-10.9026
▁befaßt	-10.9036
▁Umweltpolitik	-10.9036
▁basieren	-10.9038
▁appellieren	-10.9045
▁Europäisches	-10.9048
▁knapp	-10.9052
▁wertvolle	-10.9057
▁lag	-10.9061
▁Westen	-10.9062
▁Anmerkung	-10.9067
▁Bemühen	-10.9074
▁Schon	-10.9074
smittel	-10.9076
▁liegenden	-10.9079
▁gelesen	-10.9079
▁verbindliche	-10.908
▁Schiffen	-10.9083
▁Kriterium	-10.9085
▁Kürzung	-10.9088
▁Verstöße	-10.909
▁beschrieben	-10.9091
▁Sowohl	-10.9094
▁Optionen	-10.9096
▁berufliche	-10.91
▁Integrität	-10.9104
▁vieles	-10.9104
schnellstmöglich	-10.9104
▁gleicher	-10.9105
sarbeit	-10.9105
Ausnahmeregelung	-10.9109
▁besonderes	-10.911
▁seinerzeit	-10.9111
▁offiziell	-10.9113
▁Gesichtspunkt	-10.912
▁aufgestellt	-10.9122
▁sorgt	-10.9123
▁korrigieren	-10.9124
▁zuständige	-10.9124
Krise	-10.9128
▁Heimat	-10.9129
▁Regimes	-10.9135
uelle	-10.9142
▁verliehen	-10.9145
shaushalt	-10.9147
▁offenkundig	-10.9154
▁bezahlt	-10.9158
▁Erbe	-10.9162
▁kritische	-10.9162
▁mittlerweile	-10.9163
▁per	-10.9168
Investitionsbank	-10.9175
▁billigen	-10.9175
▁Partnerschaften	-10.9179
▁Ratspräsidentin	-10.9179
▁Futtermittel	-10.9182
▁früh	-10.9189
▁Massen	-10.9191
F	-10.9196
▁zukünftig	-10.9197
▁lebenden	-10.9198
▁abschließen	-10.9202
▁verbinden	-10.9204
▁Mittwoch	-10.9205
▁Reaktionen	-10.9209
▁Santer	-10.9213
▁abzugeben	-10.9213
▁hinnehmen	-10.9213
▁fort	-10.9214
▁Darauf	-10.9217
▁Generalsekretär	-10.922
▁zurückkehren	-10.9223
▁Solange	-10.9223
▁bereitstellen	-10.9224
▁Übersetzung	-10.9226
▁weg	-10.9228
Vertrags	-10.9231
▁vereinbarten	-10.9231
▁externe	-10.9231
▁tatsächliche	-10.9232
▁Autonomie	-10.9233
▁älteren	-10.9243
mittel	-10.9247
▁ausgelöst	-10.926
▁Betreuung	-10.9262
▁Chemikalien	-10.9265
▁Kofinanzierung	-10.9267
▁gezahlt	-10.9276
▁osteuropäischen	-10.9277
▁Vertreterin	-10.9279
▁überdenken	-10.928
▁fair	-10.9284
▁Kohle	-10.9285
▁Christen	-10.9286
▁erstmals	-10.9293
▁verteidigt	-10.9295
▁angepasst	-10.9296
▁Verschmutzung	-10.9297
▁Sicherstellung	-10.9303
▁strengen	-10.9303
▁Konservativen	-10.9307
▁Produzenten	-10.9316
▁Milch	-10.9317
▁Orientierung	-10.9318
ige	-10.9319
▁Beträge	-10.932
CS	-10.9322
▁biologischen	-10.9325
▁Komitologie	-10.9325
▁strengere	-10.9327
▁vorgetragen	-10.9333
▁Tibet	-10.9339
▁beantragen	-10.9342
▁Ursprung	-10.9343
▁faire	-10.9348
▁Toleranz	-10.9348
▁Kurz	-10.9352
▁Erreichen	-10.9355
▁Perspektiven	-10.9355
niederländischen	-10.9367
▁stehende	-10.937
▁Einwohner	-10.937
▁Eingliederung	-10.9374
▁Denken	-10.9377
▁gesetzlichen	-10.9381
▁Hamas	-10.9384
▁Rechnungshofs	-10.9385
sregeln	-10.9391
▁Delegationen	-10.9395
COD	-10.9396
ssektor	-10.9396
▁Küsten	-10.9397
▁Substanzen	-10.9401
▁bezogen	-10.9402
▁behindern	-10.9404
▁Etikettierung	-10.9404
▁Einmischung	-10.9404
▁Beide	-10.9406
▁integrieren	-10.9414
▁Nachrichten	-10.942
▁Erhalt	-10.9421
▁steigern	-10.9422
▁Meeres	-10.943
▁Finanzrahmen	-10.943
▁Gesetzgeber	-10.943
▁Krieges	-10.9435
uellen	-10.9436
▁Tierschutz	-10.9438
▁Wünsche	-10.9442
▁Saddam	-10.9445
▁gewählte	-10.9453
▁Gemeinschafts	-10.9464
▁abhängen	-10.9465
▁engagiert	-10.9466
Gesundheitswesen	-10.9466
▁griechische	-10.947
▁Russlands	-10.947
▁geholfen	-10.9479
▁Wälder	-10.9483
▁Wahlkreis	-10.9487
▁Algerien	-10.9491
▁kurzfristig	-10.9493
▁Erkenntnisse	-10.9493
▁N	-10.9503
▁Klärung	-10.9506
▁Übereinkunft	-10.951
▁Erzeugnissen	-10.9511
▁Beförderung	-10.9513
Das	-10.9513
ch	-10.9515
▁Augenmerk	-10.9516
sermächtigungen	-10.9516
E	-10.9521
▁hinzu	-10.9522
▁möge	-10.9524
▁Vizepräsidentin	-10.953
▁Beitritts	-10.9532
▁medizinische	-10.9532
des	-10.9543
▁Vorsicht	-10.9544
▁Pakt	-10.9545
▁ausreichen	-10.9546
▁unabdingbar	-10.9551
▁Aussprachen	-10.9552
▁indirekt	-10.9556
▁Israels	-10.9558
▁genehmigt	-10.9559
▁Freund	-10.9561
▁ansonsten	-10.9568
▁schön	-10.9575
▁anführen	-10.9575
▁Ihres	-10.9579
▁Haushaltslinie	-10.9584
▁Weltbank	-10.959
▁polnischen	-10.959
▁Ob	-10.9597
▁Sozialfonds	-10.9599
▁positives	-10.9601
▁namentlich	-10.9609
▁Hauptziel	-10.9611
auf	-10.9613
▁vorsehen	-10.9614
▁nachhaltig	-10.962
sniveau	-10.9623
elekommunikation	-10.9623
▁Mexiko	-10.9627
▁Bestände	-10.9628
▁Finanzmärkte	-10.9628
▁Vorgaben	-10.9628
▁österreichische	-10.9629
▁Konsultationen	-10.9646
▁benachteiligten	-10.9649
▁grundlegend	-10.965
▁veranlassen	-10.9651
▁Textil	-10.9652
▁Seine	-10.9654
▁Blut	-10.9654
▁schlechten	-10.9658
▁Händen	-10.9661
▁produzieren	-10.9662
▁allmählich	-10.9663
▁Reserve	-10.9665
▁technologischen	-10.9669
SK	-10.9672
▁Zweiten	-10.9673
▁schuldig	-10.9681
▁Technik	-10.9683
▁schlechter	-10.9683
▁Inhalte	-10.9684
▁Unfall	-10.9685
Initiativbericht	-10.9685
▁inneren	-10.969
▁Wieder	-10.9695
▁Stufe	-10.9695
▁gesorgt	-10.9703
▁Anlaß	-10.9703
bgesehen	-10.9704
ressourcen	-10.9707
▁selten	-10.9714
licher	-10.9717
▁weise	-10.9719
▁vorgestellt	-10.9719
▁Andere	-10.972
▁Gedanke	-10.9722
Rahmenrichtlinie	-10.9722
▁Teilnehmer	-10.9724
▁aufrichtig	-10.9725
▁geleistete	-10.9727
▁ausmachen	-10.9729
▁Einleitung	-10.9729
▁Vertrauens	-10.9731
▁retten	-10.9734
▁voneinander	-10.9737
▁schrecklichen	-10.9742
▁Überleben	-10.9746
smechanismen	-10.9753
▁worauf	-10.9758
▁getötet	-10.976
▁beider	-10.9762
▁führenden	-10.9764
▁innovative	-10.9765
▁ersucht	-10.9773
▁vorangegangenen	-10.9775
▁geschrieben	-10.9776
▁Insgesamt	-10.9776
▁angenommene	-10.978
▁Befürchtungen	-10.9782
▁zuzustimmen	-10.9782
▁Unfälle	-10.9785
systems	-10.9785
▁Besonderheiten	-10.9789
Programms	-10.9796
▁Funktionsweise	-10.9798
▁nachkommen	-10.9798
konstitutionelle	-10.9801
▁Endes	-10.9807
▁Bedauerlich	-10.9808
▁obliegt	-10.9809
▁Hindernis	-10.981
▁Tier	-10.981
▁Begrenzung	-10.9813
▁moderne	-10.9814
▁ernsten	-10.9818
▁diplomatischen	-10.9826
recht	-10.9826
▁Seeverkehr	-10.9833
▁gesunden	-10.9839
▁ähnlichen	-10.9844
▁verkauft	-10.9845
ausschuss	-10.985
▁Einigkeit	-10.9853
▁Sudan	-10.9853
Verordnung	-10.9855
serklärung	-10.9859
schaft	-10.9866
▁oberste	-10.9866
▁Protektionismus	-10.9872
▁gerechte	-10.9872
▁vermittelt	-10.9882
▁Mädchen	-10.9885
▁Preisen	-10.9886
lässlich	-10.9887
c	-10.9888
▁Dritten	-10.9888
▁schwerer	-10.9891
▁begleitet	-10.9893
▁unternimmt	-10.9895
▁vorsichtig	-10.9896
▁vorrangige	-10.9899
▁Handelspolitik	-10.9901
▁vorgelegte	-10.9904
▁Trennung	-10.9904
T	-10.9914
Verschlechterung	-10.9914
▁Enttäuschung	-10.992
▁Großen	-10.9923
▁Material	-10.9924
▁stützt	-10.9924
▁geschenkt	-10.9925
▁hervorzuheben	-10.9925
▁ausgehend	-10.9933
▁transparenter	-10.9938
▁angehört	-10.9942
▁Erneuerung	-10.9947
▁moralische	-10.9948
▁formulieren	-10.9958
▁auszuarbeiten	-10.9958
▁arabischen	-10.997
▁multinationalen	-10.9971
▁Kontinents	-10.9973
▁GASP	-10.9973
▁verbreitet	-10.9975
▁würdigen	-10.9985
▁Revolution	-10.9987
systeme	-10.9991
rechtlichen	-10.9999
▁Streichung	-11.0001
▁Bestrebungen	-11.0001
▁ausgedrückt	-11.0002
▁Erde	-11.0002
▁Investoren	-11.0005
▁übernimmt	-11.0006
▁erneuerbarer	-11.0021
▁Kinnock	-11.0033
▁gebunden	-11.0033
▁zwanzig	-11.004
santrags	-11.0048
▁sensiblen	-11.0063
▁Zusage	-11.0064
▁widerspiegeln	-11.0065
▁Gesetzes	-11.0066
▁gefährlicher	-11.0067
▁Gemeinden	-11.0068
▁Grundsatzes	-11.0071
▁Einsparungen	-11.0074
▁aufhören	-11.0077
▁Chinas	-11.008
▁nahm	-11.0083
lichkeiten	-11.0085
▁alternative	-11.0086
▁R	-11.0087
▁vertraut	-11.0093
Rat	-11.0097
versammlung	-11.0106
▁allgemeinem	-11.0107
p	-11.0115
▁O	-11.0121
▁Monti	-11.0124
▁positiver	-11.0128
▁integriert	-11.0129
▁vorankommen	-11.0131
▁berichtet	-11.0131
▁weitergehen	-11.0135
▁Je	-11.0136
▁Unionsbürger	-11.0141
▁aufgerufen	-11.0144
▁Gewässern	-11.0147
▁Bezeichnung	-11.0148
▁qualifizierte	-11.015
▁Vergabe	-11.0152
▁Z	-11.0158
Meinungsfreiheit	-11.0163
▁blockiert	-11.0163
▁Schule	-11.0164
▁gelernt	-11.017
▁gutem	-11.0174
rechtzuerhalten	-11.0185
▁vorzubereiten	-11.0185
▁streichen	-11.0185
gruppen	-11.0187
▁herum	-11.0187
▁verfahren	-11.0196
▁Universitäten	-11.0196
▁Beendigung	-11.0196
▁Wäre	-11.0197
▁einander	-11.02
▁Forschungs	-11.0202
▁debattieren	-11.0207
▁Einerseits	-11.0207
▁ordnungsgemäße	-11.0212
▁befürchten	-11.0215
▁Auflagen	-11.0215
▁Grenz	-11.0218
▁Verhütung	-11.0218
▁Emission	-11.0219
▁Danke	-11.022
▁Hunger	-11.0226
▁Sieg	-11.0226
▁aufgreifen	-11.023
▁beschäftigungs	-11.023
▁Oder	-11.023
möglichkeiten	-11.0238
le	-11.0238
▁verkaufen	-11.0241
▁Aufteilung	-11.0241
▁Zusatz	-11.0244
▁gewaltige	-11.0248
P	-11.0251
▁kennt	-11.0251
▁engagieren	-11.0253
to	-11.0256
▁Amsterdamer	-11.027
▁schauen	-11.0274
ork	-11.0275
▁vorbereiten	-11.028
▁flexibel	-11.0285
österreichischen	-11.0285
▁empfohlen	-11.0286
Überschwemmungen	-11.0287
▁angeführt	-11.0295
▁zivilen	-11.0302
▁Rahmenbeschluss	-11.0303
▁Dienstes	-11.0305
▁Governance	-11.0317
▁vollen	-11.0322
▁Gewinn	-11.0323
ter	-11.0326
▁russische	-11.0326
▁Büro	-11.0327
▁technisch	-11.0329
▁absurd	-11.0332
▁aufgezeigt	-11.0336
▁gestellten	-11.0339
▁Bezüglich	-11.034
▁festgeschrieben	-11.0341
beauftragte	-11.0344
▁sexuelle	-11.0346
▁informellen	-11.0348
▁längst	-11.0348
▁Schottland	-11.0349
▁verfügbar	-11.035
▁Auffassungen	-11.0357
▁Lohn	-11.036
▁koordiniert	-11.036
▁einschlägigen	-11.0362
▁irgendeiner	-11.0363
▁Estland	-11.0371
▁beachtet	-11.0374
bar	-11.0376
▁Registrierung	-11.0377
▁Bar	-11.0381
▁konstruktiv	-11.0381
▁einzuräumen	-11.0385
▁bekommt	-11.0391
▁besseres	-11.0393
▁entziehen	-11.0397
▁unannehmbar	-11.0398
▁Hände	-11.0408
▁Mitgliedstaats	-11.0424
▁Territorium	-11.0424
Regierung	-11.0425
seinrichtungen	-11.0427
▁EP	-11.0427
▁heutzutage	-11.043
▁Impulse	-11.0432
▁erkennt	-11.0436
▁bisweilen	-11.0442
▁spüren	-11.0443
▁Hoheitsgebiet	-11.0454
▁Gehör	-11.0464
▁Pressefreiheit	-11.0464
▁komplizierten	-11.0465
▁Rückführung	-11.0472
erstattung	-11.0472
▁Grenzwerte	-11.0473
▁wahre	-11.0473
▁Akteuren	-11.0474
smethode	-11.0475
▁Ge	-11.0483
▁illegaler	-11.0489
▁funktionierende	-11.0493
▁tätigen	-11.0494
sfindung	-11.0495
▁Strafen	-11.0499
▁Galileo	-11.05
▁verweigert	-11.0503
▁hinein	-11.0507
Nein	-11.0509
▁Rats	-11.0511
▁verknüpft	-11.0517
abschätzung	-11.0517
▁irgendwelche	-11.0521
▁Fischbestände	-11.0521
▁Schiff	-11.0522
▁Erleichterung	-11.0523
▁Schwerpunkte	-11.0528
▁eingebrachten	-11.0534
erzeugnissen	-11.0538
▁Nutzer	-11.0538
▁Kindes	-11.0538
▁Mitarbeitern	-11.0538
▁Vertiefung	-11.0543
▁Gleiche	-11.0543
▁Arzneimitteln	-11.0548
▁J	-11.0552
▁Ereignis	-11.0554
▁zukommt	-11.0557
▁Föderation	-11.0558
▁effizienten	-11.0559
▁Lettland	-11.0563
uneingeschränkte	-11.0564
Haushalt	-11.0564
▁Erziehung	-11.0566
▁gemein	-11.0566
▁Daß	-11.0567
▁bedürfen	-11.0568
▁Hat	-11.0568
LT	-11.0568
▁Energieversorg	-11.0571
▁Obergrenze	-11.0573
G	-11.0576
▁beizubehalten	-11.0577
▁verschärfen	-11.0577
CNS	-11.0577
▁vorausgesetzt	-11.0577
▁Ganzen	-11.0583
▁gefällt	-11.0589
▁Bestreben	-11.0589
▁Unrecht	-11.0592
▁Aktionsplans	-11.0596
▁vermutlich	-11.06
▁schweigen	-11.06
▁Vorbild	-11.0602
sinstrumente	-11.061
ausstattung	-11.0612
▁demnächst	-11.0612
▁widerspiegelt	-11.0612
▁Blair	-11.0612
▁bauen	-11.0613
▁messen	-11.0615
▁Jahrestag	-11.0616
▁territoriale	-11.0618
▁bemerken	-11.0624
▁natürliche	-11.0625
FI	-11.0634
▁Fremdenfeind	-11.0635
▁erreichten	-11.0636
ismus	-11.0639
▁Labour	-11.0646
▁jemals	-11.0646
▁hinausgehen	-11.0651
▁reale	-11.0653
▁integrierte	-11.0654
▁einleiten	-11.066
▁Verluste	-11.0666
▁kleineren	-11.0672
▁erzeugt	-11.0676
▁Gleichberechtig	-11.0677
Außenbeziehungen	-11.0678
▁Betreiber	-11.0685
▁sichtbar	-11.0686
▁Finanzminister	-11.069
▁portugiesische	-11.0691
▁Kauf	-11.0693
missionen	-11.0702
▁unterzeichnen	-11.0704
▁Freiwilligen	-11.0709
▁Themas	-11.0711
angehörigen	-11.0715
▁Arbeitslosen	-11.0717
▁vielfach	-11.0726
▁Geschwindigkeit	-11.0727
▁Angehörigen	-11.0732
▁Ernährung	-11.0738
▁Wohlergehen	-11.0738
▁ratifizieren	-11.0739
sorganisation	-11.074
▁Ent	-11.0749
▁Ruf	-11.0754
▁geteilt	-11.0756
▁Glückwunsch	-11.0762
▁Spitze	-11.077
▁Handelsabkommen	-11.0771
▁Plenarsaal	-11.0771
▁Genugtuung	-11.0773
▁zügig	-11.0775
▁letztes	-11.078
▁versetzt	-11.0786
▁Akzeptanz	-11.0808
▁Beobachtung	-11.0812
▁Autos	-11.0813
▁Wachstumspakt	-11.0815
▁seiten	-11.0817
chen	-11.0818
▁übrig	-11.0825
▁glücklich	-11.0829
▁Nachricht	-11.083
▁Gegebenheiten	-11.0833
sdienste	-11.0835
▁Streit	-11.0836
▁abgehalten	-11.0842
▁ältere	-11.0844
sammengearbeitet	-11.0845
▁Weltwirtschaft	-11.0846
palästinensische	-11.0846
▁vertrauen	-11.0847
▁plötzlich	-11.085
▁greifen	-11.085
▁engen	-11.085
▁elektronische	-11.0853
▁geltende	-11.086
▁Standard	-11.086
▁Beschlusses	-11.0861
▁Europäern	-11.0862
▁vorlegt	-11.0863
▁offizielle	-11.0864
▁harte	-11.0867
▁stärkt	-11.0867
▁wirft	-11.087
▁dringende	-11.0871
▁Getreide	-11.0875
▁Flughafen	-11.0876
R	-11.0879
▁versetzen	-11.0879
▁Außenhandel	-11.0879
▁junger	-11.0886
▁Haben	-11.089
▁erlangen	-11.0892
▁gemeint	-11.0898
▁Zivilisation	-11.0901
▁Fundament	-11.0901
▁ermutigt	-11.0902
▁realen	-11.0905
▁auferlegt	-11.091
▁aufgeworfen	-11.0911
▁freiwillige	-11.0912
▁üblich	-11.0913
▁Gestern	-11.0914
▁begrenzen	-11.0914
▁transparente	-11.0917
fragen	-11.0922
▁tragischen	-11.0924
▁Florenz	-11.0926
▁Vollendung	-11.0926
▁empfehle	-11.0927
ar	-11.0927
▁Falls	-11.093
▁zerstören	-11.0932
▁strukturellen	-11.0934
▁verschieben	-11.0938
▁niedrigen	-11.0939
▁schlimmsten	-11.0949
▁Vielmehr	-11.095
▁Mühe	-11.0952
gesetzgebung	-11.0952
▁Nachteile	-11.0954
▁beurteilt	-11.0962
▁eingetreten	-11.0964
▁Neu	-11.0965
▁aufgeführt	-11.0965
▁wirkt	-11.0968
▁Datum	-11.0969
▁facto	-11.0971
▁zuversichtlich	-11.0973
▁Europarat	-11.0974
▁Bestätigung	-11.0985
▁eingehend	-11.0986
▁Runde	-11.1
▁verbindlich	-11.1007
▁analysieren	-11.101
▁Arbeiter	-11.1016
▁Rednern	-11.102
▁Anzeichen	-11.1021
stellen	-11.1022
▁parallel	-11.1023
ö	-11.1023
▁Aufstellung	-11.1023
▁enorm	-11.1025
sprobleme	-11.1029
▁betrachte	-11.103
▁Artikels	-11.1037
▁Frühjahr	-11.1038
▁teuer	-11.1044
▁Völkerrecht	-11.1045
▁allgemeiner	-11.1059
▁festlegt	-11.106
▁lebt	-11.1068
▁Dossier	-11.1076
▁OECD	-11.1078
N	-11.108
▁Beantwortung	-11.1081
▁Geldwäsche	-11.1081
▁Brief	-11.1084
▁Bord	-11.1092
im	-11.1093
▁geltend	-11.1099
▁entschuldigen	-11.11
▁Genfer	-11.11
▁Mutter	-11.1114
▁verabschiedeten	-11.1116
▁Eröffnung	-11.1117
▁Einbindung	-11.1118
▁brachte	-11.1118
▁Reisen	-11.1121
ur	-11.1121
▁zahlreicher	-11.1125
▁werfen	-11.1126
▁sicherer	-11.1128
▁weitem	-11.1128
▁Gespräch	-11.1131
▁üblichen	-11.1131
▁betone	-11.1144
▁folgendes	-11.1148
▁Verbrauch	-11.1149
▁unterhalten	-11.1157
▁Sch	-11.1162
friedenstellend	-11.1163
▁kenne	-11.1168
▁übereinstimmen	-11.1171
▁Verstoß	-11.1171
▁ermitteln	-11.1172
▁dürften	-11.1175
▁Martin	-11.1176
▁Eigenmittel	-11.1177
▁Laut	-11.1178
▁Gerichte	-11.1178
▁vorbei	-11.1183
▁Schatten	-11.1186
▁unterscheidet	-11.119
▁verdanken	-11.119
▁grundsätzliche	-11.1191
▁Indonesien	-11.1191
▁riesige	-11.1195
▁beträchtlichen	-11.1196
▁zulässig	-11.1201
▁Krebs	-11.1202
▁Biotechnologie	-11.1203
▁Madrid	-11.1208
▁herrschen	-11.1208
▁Demokratien	-11.1214
smodell	-11.1214
▁Soweit	-11.1216
▁Konsequenz	-11.1226
el	-11.1226
Beschlussfassung	-11.1229
▁gekürzt	-11.123
▁wächst	-11.123
▁wert	-11.123
▁gesunde	-11.1236
▁Davon	-11.1239
▁Allein	-11.1239
erzeugnisse	-11.1248
▁intensive	-11.1249
▁Beschlüssen	-11.1252
▁egal	-11.1263
regelung	-11.1263
kontrolle	-11.1266
▁Vorsitzes	-11.1268
▁veränderten	-11.1268
▁Diensten	-11.1273
▁gesundheits	-11.1275
▁Anlage	-11.1277
▁Bolkestein	-11.1278
▁Wien	-11.1279
▁engere	-11.1281
▁stoppen	-11.1287
bestimmungen	-11.1292
▁Weltmarkt	-11.1299
▁Strafverfolgung	-11.13
▁Wiederaufnahme	-11.13
▁verbesserte	-11.13
▁eigener	-11.13
▁getrennt	-11.1301
▁Diesen	-11.1302
▁umgekehrt	-11.1302
▁Erfordernisse	-11.1303
O	-11.1303
▁Beispielsweise	-11.1312
▁Ansätze	-11.1316
arbeit	-11.1325
▁Hoch	-11.133
▁bewirkt	-11.1334
▁legislative	-11.1334
▁Gut	-11.1337
▁mangelt	-11.1339
▁genügt	-11.1349
▁Nacht	-11.1351
▁ihrerseits	-11.1353
▁qualifizierter	-11.1357
sausgaben	-11.1357
▁finnischen	-11.136
▁Gegner	-11.1361
ere	-11.1372
▁schwerwiegende	-11.1374
▁Menschenleben	-11.1383
▁interessieren	-11.1388
tätigkeit	-11.1389
▁Griechenlands	-11.1398
▁verschlechtert	-11.1398
▁Diejenigen	-11.1398
▁Wesen	-11.1406
ne	-11.1407
▁örtlichen	-11.1409
Zivilbevölkerung	-11.1409
▁Ad	-11.141
▁Angleichung	-11.1411
▁konsultiert	-11.1411
▁überwunden	-11.1413
▁verschwinden	-11.1416
▁einzustellen	-11.142
▁ausländische	-11.1422
▁Erhebung	-11.1423
▁kommerziellen	-11.1424
▁vereinfacht	-11.143
▁HIV	-11.1436
▁Prozesse	-11.1436
▁grenz	-11.1438
▁ungarische	-11.1441
▁dauern	-11.1447
▁Einreise	-11.1447
▁Laeken	-11.1448
▁Zuverlässigkeit	-11.145
▁Ausgang	-11.1453
▁erschwert	-11.146
▁unmittelbaren	-11.1462
▁Barnier	-11.1473
▁herbeizuführen	-11.1473
▁aufhalten	-11.1475
▁Signale	-11.1477
▁Mandats	-11.1478
▁unmittelbare	-11.148
▁Schande	-11.1485
▁abzuschaffen	-11.1486
▁eingegangenen	-11.1493
▁standen	-11.1493
▁Tests	-11.1495
▁vereinbaren	-11.1495
▁Frattini	-11.1498
▁bemerkt	-11.1499
▁faktisch	-11.15
staatlichen	-11.1504
▁gestrigen	-11.1507
▁Peking	-11.1513
▁freiwilligen	-11.1514
▁begrenzten	-11.1516
it	-11.1518
▁geleitet	-11.1521
▁Hongkong	-11.1524
▁ausgenommen	-11.1526
Entwicklungsziel	-11.1526
▁Türen	-11.1529
▁Wann	-11.1536
▁Auswirkung	-11.1537
▁Verfasserin	-11.1538
Haushaltsbehörde	-11.1543
▁anderswo	-11.1545
▁Schätzungen	-11.1547
▁imstande	-11.1548
▁entscheidet	-11.1548
▁leidet	-11.1548
konferenz	-11.1549
▁erstes	-11.1553
▁Diesbezüglich	-11.1561
▁zugeben	-11.1561
missverständlich	-11.1562
▁wünscht	-11.1573
▁Stattdessen	-11.1573
▁anerkennt	-11.1586
▁abhängt	-11.1586
▁ehe	-11.1589
▁Obst	-11.1591
▁Daraus	-11.1599
▁berührt	-11.1599
▁glaubwürdig	-11.1599
▁agieren	-11.1601
▁kostet	-11.1605
▁häufiger	-11.161
▁Palacio	-11.1611
▁demzufolge	-11.1611
▁verhängt	-11.1611
▁Beschränkung	-11.1612
▁anstelle	-11.1616
▁biologische	-11.1618
▁Montenegro	-11.1618
▁liefert	-11.1619
Haushaltsordnung	-11.1619
▁schaden	-11.162
▁erfolgte	-11.1625
▁befürchte	-11.1625
▁Instabilität	-11.1626
▁bisschen	-11.1627
▁ausgeht	-11.1629
▁verursachten	-11.1635
▁Ausfuhr	-11.1636
▁verschoben	-11.1637
▁worüber	-11.1637
▁Jede	-11.1637
▁Aussetzung	-11.1639
▁Gute	-11.164
is	-11.1647
▁produziert	-11.1649
Palästinensische	-11.1649
▁Interpretation	-11.1649
instrumente	-11.1659
▁verstößt	-11.1662
▁Ermittlung	-11.1665
▁aufweist	-11.1669
▁begrüßenswert	-11.1671
▁Start	-11.1674
▁Atmosphäre	-11.1675
▁widerspricht	-11.1688
▁herausgestellt	-11.1688
▁Eigenschaft	-11.1689
▁Votum	-11.169
▁Kategorien	-11.1694
▁kontinuierlich	-11.1695
forschung	-11.1698
▁bekannten	-11.17
▁Erholung	-11.1701
▁sämtlicher	-11.1703
skriterien	-11.1707
Übereinkommen	-11.1707
▁komplexen	-11.1709
▁niedrig	-11.1711
V	-11.172
▁angegangen	-11.1722
▁schnellen	-11.1722
▁senden	-11.1726
▁Einzel	-11.1729
▁diesmal	-11.1733
▁Sicherheitsrat	-11.1735
kosten	-11.1737
▁Autorität	-11.174
▁Lob	-11.174
▁erfreulich	-11.1741
▁gründliche	-11.1742
▁Eurostat	-11.1742
▁Verarbeitung	-11.1745
▁Fortschritten	-11.1746
▁einseitig	-11.1747
▁Pflanzen	-11.1748
▁islamischen	-11.1751
▁aufzufordern	-11.1752
▁gesenkt	-11.1752
▁hindern	-11.1752
▁anpassen	-11.1752
▁veröffentlichen	-11.1753
sprinzips	-11.1754
▁strikt	-11.1754
▁Telekommuni	-11.1755
▁industriellen	-11.176
▁Kenntnisse	-11.176
▁israelische	-11.1763
▁Ausdehnung	-11.1764
▁Computer	-11.1772
▁geöffnet	-11.1777
▁ausführliche	-11.178
▁Konsumenten	-11.1782
Herangehensweise	-11.1787
un	-11.1792
▁Erdbeben	-11.1798
▁Griff	-11.1803
▁Verwirrung	-11.1803
▁Darfur	-11.1803
steuer	-11.1813
at	-11.1817
▁Verhältnisse	-11.1823
▁täglichen	-11.1824
▁Eigentums	-11.1825
▁eindeutigen	-11.1828
▁spätestens	-11.1829
▁spiegelt	-11.1829
▁normalerweise	-11.183
▁haushalts	-11.1831
▁Groß	-11.1837
▁höchster	-11.1839
▁energisch	-11.184
▁anscheinend	-11.1842
▁begehen	-11.1843
▁untereinander	-11.1844
▁Kolumbien	-11.1847
▁gescheitert	-11.1849
Institutionen	-11.1859
▁nötigen	-11.1861
▁personenbezogen	-11.1862
▁bestanden	-11.1868
▁Redebeitrag	-11.1869
▁zentraler	-11.1873
strategie	-11.1874
▁Gegen	-11.1876
▁streben	-11.1878
▁jährliche	-11.1883
▁juristischen	-11.1884
▁Jedes	-11.1894
▁Rechtsakte	-11.1896
▁Kredit	-11.1899
▁nachzukommen	-11.1899
ul	-11.1902
▁hinreichend	-11.1904
▁Umstand	-11.1915
▁Analysen	-11.1916
▁verweist	-11.192
▁Göteborg	-11.1921
Kommission	-11.1923
▁IWF	-11.1923
▁Details	-11.1928
▁gesetzliche	-11.1929
srunde	-11.193
▁gemessen	-11.1933
▁Sitzungsperiode	-11.1933
technologie	-11.194
▁benachteiligt	-11.1945
▁Verlagerung	-11.1948
us	-11.1952
▁Jean	-11.1953
▁errichtet	-11.1954
▁Lärm	-11.1959
▁verdeutlicht	-11.1959
▁veranlasst	-11.1959
▁vorherigen	-11.1969
▁Berg	-11.197
▁medizinischen	-11.197
▁Begriffe	-11.1971
▁Wahrscheinlich	-11.1972
▁hervorgeht	-11.1973
▁zunehmen	-11.1975
▁Rentner	-11.1977
▁Swoboda	-11.1986
▁Zuerst	-11.1986
▁Einsetzung	-11.1988
▁Merkmale	-11.1995
uecksilber	-11.1999
▁Milosevic	-11.1999
plan	-11.2002
▁Legislaturperio	-11.2004
▁Flächen	-11.2011
▁steckt	-11.2012
▁Vorbeugung	-11.2015
ualifikationen	-11.2016
▁gründet	-11.2017
▁Auslieferung	-11.202
▁anstehenden	-11.202
▁Unterscheidung	-11.2025
as	-11.2026
▁Welthandel	-11.2027
▁Konzepte	-11.2029
▁gerechten	-11.2032
▁aufweisen	-11.2035
os	-11.2035
▁verlängert	-11.2037
▁Olympische	-11.2038
▁Last	-11.2041
▁Kapazität	-11.2042
▁glaubt	-11.2043
seiten	-11.2043
▁Personenverkehr	-11.2044
▁ausgedehnt	-11.2044
▁Symbol	-11.2057
▁hiermit	-11.2058
▁einzelner	-11.2059
▁Beschwerde	-11.2059
▁stabile	-11.206
▁zugesagt	-11.2067
▁Nigeria	-11.2068
▁gründen	-11.2072
▁makroökonomisch	-11.2073
▁Geber	-11.2078
▁bekunden	-11.2083
▁ECHO	-11.2084
▁sah	-11.2085
▁Deregulierung	-11.2092
▁terroristischen	-11.2093
▁Meinungsv	-11.2095
erschiedenheiten	-11.2096
▁beschlossenen	-11.2096
ster	-11.2101
▁Sozialversicher	-11.2102
▁herstellen	-11.2105
▁mache	-11.2111
▁Aufruf	-11.2117
▁Wahlperiode	-11.2118
▁Daran	-11.2118
▁abgedeckt	-11.212
▁Thematik	-11.2125
▁Kampfes	-11.2129
▁schriftliche	-11.214
▁Einvernehmen	-11.2158
▁zunichte	-11.2158
▁darlegen	-11.216
▁betreffende	-11.2164
▁umfassender	-11.2166
▁ausgeweitet	-11.2171
▁Organismen	-11.2171
▁besucht	-11.2171
fähigkeit	-11.2172
▁zuteil	-11.2175
▁Lebensbedingung	-11.2176
▁Nationalstaaten	-11.2178
Ja	-11.218
Diversifizierung	-11.2185
▁Stadium	-11.2185
▁angefangen	-11.2185
▁ausreichenden	-11.2189
▁Schwächen	-11.2197
demokratische	-11.2207
▁the	-11.2209
▁fehlenden	-11.2211
▁zivile	-11.2213
▁Fahrzeug	-11.2216
▁veränderte	-11.2219
▁Rezession	-11.2225
▁anfangen	-11.2225
▁El	-11.2227
▁Hussein	-11.2227
gen	-11.223
▁rufe	-11.2231
▁Behinderung	-11.2232
▁Gib	-11.2233
▁gewaltigen	-11.2234
▁Vereinbarkeit	-11.2239
Verhandlungen	-11.2239
arischen	-11.2244
▁steigt	-11.2247
▁Gremium	-11.2247
los	-11.2252
▁verlängern	-11.2252
▁Medikamente	-11.2252
▁digitalen	-11.2254
▁höre	-11.2258
on	-11.2258
▁ELDR	-11.226
▁Straßenverkehrs	-11.2263
▁Gegenseitigkeit	-11.2266
ländern	-11.2266
▁Hinzu	-11.2267
▁vorgeschrieben	-11.2269
▁angestrebt	-11.2271
Abkommens	-11.2272
▁Anpassungen	-11.2273
▁Ersatz	-11.2274
▁kommende	-11.2275
▁Sozialistische	-11.2289
▁Willens	-11.229
▁begrenzte	-11.2292
▁Asylpolitik	-11.2295
▁Linke	-11.2296
▁Skandal	-11.2296
sprogrammen	-11.2297
▁REACH	-11.2298
▁Einfuhren	-11.2301
▁Menschenhandels	-11.2302
▁Impuls	-11.2304
Errungenschaften	-11.2305
▁Euroraum	-11.2306
▁überschritten	-11.2306
▁Mitgefühl	-11.2309
▁Drittstaats	-11.2312
▁Nahrungsmitteln	-11.2313
▁belegen	-11.232
▁Herz	-11.2322
▁Ursprungs	-11.2326
Europa	-11.2327
▁erzeugen	-11.2329
Konferenz	-11.2331
▁gesammelt	-11.2333
▁zweifelsohne	-11.2333
▁Lücken	-11.2334
▁Milliarde	-11.2341
▁Fahrer	-11.235
▁Flotte	-11.2353
▁einheitliches	-11.2358
produkte	-11.236
teroperabilität	-11.2361
▁Sowjetunion	-11.2361
▁Anhebung	-11.2361
▁belegt	-11.2362
▁Wochenende	-11.2369
▁MEDA	-11.2375
▁ernsthaften	-11.2375
▁Gewissen	-11.2377
▁geografischen	-11.2386
▁zugenommen	-11.2386
▁Viertel	-11.2388
behörde	-11.2389
sinitiative	-11.2393
▁jetzige	-11.2396
▁gerufen	-11.2396
▁Verschiebung	-11.2402
preis	-11.2402
▁stoßen	-11.2405
▁mußte	-11.2406
▁stehe	-11.2407
▁kommunistischen	-11.2408
▁nutzt	-11.2409
▁späteren	-11.2412
stand	-11.2414
▁ausreicht	-11.2415
▁unterliegt	-11.2417
▁Zwischenzeit	-11.2418
▁erbringen	-11.2419
▁vorne	-11.242
▁Washington	-11.2421
▁Protest	-11.2421
W	-11.2424
▁Streitkräfte	-11.2424
▁Sozialmodell	-11.2425
▁San	-11.2429
▁Grundprinzipien	-11.243
Sachverständigen	-11.2431
▁geäußerten	-11.2434
▁Pro	-11.2435
▁Hilfs	-11.2437
▁Anschein	-11.2438
▁entlassen	-11.2439
derherzustellen	-11.2443
▁nein	-11.2451
▁Armen	-11.2455
▁definitiv	-11.2458
▁ethnische	-11.2464
▁widersprechen	-11.2465
▁demnach	-11.2469
smethoden	-11.2469
▁birgt	-11.247
▁abzubauen	-11.2471
▁einstellen	-11.2475
ssituation	-11.2475
▁traditionelle	-11.2478
▁Gott	-11.248
▁Haftbefehl	-11.2485
▁Mauer	-11.2492
▁Beamte	-11.2495
▁vorantreiben	-11.2498
▁Fang	-11.2499
▁potenziellen	-11.25
▁Entschuldigung	-11.25
▁Patent	-11.2502
▁Erdgas	-11.2504
problem	-11.2506
▁Ruhe	-11.2508
emissionen	-11.2509
▁Einhalt	-11.251
▁übergehen	-11.2511
▁Tragweite	-11.2512
Runde	-11.2513
▁administrativen	-11.2513
heit	-11.2514
▁sofortige	-11.2517
▁alt	-11.2523
▁sprachen	-11.2526
▁Cotonou	-11.2528
▁Plenarsitzung	-11.253
▁Energieträger	-11.2534
▁anzubieten	-11.254
▁annimmt	-11.2547
▁Verweis	-11.2553
▁geführten	-11.2554
▁unverzichtbar	-11.2559
▁hochrangige	-11.2564
▁aufeinander	-11.2564
▁Anbau	-11.2567
▁Menschenwürde	-11.2568
▁Import	-11.2569
▁Flugzeug	-11.2571
▁verlaufen	-11.2575
▁detaillierte	-11.2577
verfolgbarkeit	-11.2582
▁schlicht	-11.2586
spartnerschaft	-11.2588
▁Afrikas	-11.2589
▁internationales	-11.259
▁religiöse	-11.259
▁ausländischen	-11.2591
▁berufen	-11.2594
▁Rechtsstaat	-11.2596
▁Instruments	-11.2597
▁zugehört	-11.2601
▁ausschlaggebend	-11.2602
obachtungsstelle	-11.2605
▁Rücksicht	-11.2609
▁Maßstab	-11.261
▁Gewässer	-11.2617
▁Drei	-11.2621
▁bürokratischen	-11.2623
sregelung	-11.2626
▁erzielte	-11.2629
▁geschah	-11.2638
▁Durchschnitt	-11.264
▁kosten	-11.2649
▁ausgeben	-11.2649
▁Friedensprozeß	-11.2651
▁gebildet	-11.2653
▁Taiwan	-11.2654
▁inhaltlich	-11.2655
▁Hunderte	-11.2657
▁Vorsorgeprinzip	-11.2657
▁strategischer	-11.2662
anforderungen	-11.2662
▁Fußball	-11.2665
▁schützt	-11.2666
▁gegründet	-11.2675
▁Verwaltungs	-11.2676
▁übersehen	-11.2677
▁Umweltschutzes	-11.2687
▁vergleichen	-11.2689
infrastruktur	-11.2689
▁Erfordernissen	-11.269
▁Belastungen	-11.2693
▁ausdrücken	-11.2698
▁korrekte	-11.27
▁erhielt	-11.2702
▁Freihandelszone	-11.2703
▁Strukturpolitik	-11.2703
▁Al	-11.2704
interessen	-11.2706
▁freier	-11.2706
▁unnötig	-11.2709
Beitritt	-11.2712
▁Michel	-11.2714
▁Vereinigung	-11.2718
▁Front	-11.2719
▁eindringlich	-11.2721
▁maximal	-11.2722
▁Bereits	-11.2723
▁hervorragend	-11.2724
or	-11.2725
▁lebenslange	-11.2726
▁Währungspolitik	-11.2728
▁nationales	-11.2729
▁ersuche	-11.2731
▁Löhne	-11.2731
▁Versorgungs	-11.2733
▁tschechischen	-11.2734
santrägen	-11.2735
▁Lager	-11.2735
▁Kombination	-11.2736
▁Streben	-11.2739
staaten	-11.2747
▁zuweilen	-11.2747
▁schwerwiegenden	-11.2749
▁zurückgezogen	-11.2751
▁Volksabstimmung	-11.2751
▁Emissionshandel	-11.2754
sträger	-11.2764
dienste	-11.2767
▁Indem	-11.2769
▁dramatischen	-11.2769
▁Zyperns	-11.277
▁Wählern	-11.277
▁unterrichtet	-11.2779
▁gegebenen	-11.2782
▁zuzulassen	-11.2783
▁ethischen	-11.2786
▁vergeben	-11.2787
sgrundlage	-11.2789
▁Seeverkehrs	-11.2789
▁Wohl	-11.279
▁leid	-11.2792
▁staatlicher	-11.2793
▁sozioökonomisch	-11.2797
trittskandidaten	-11.2798
▁aktuell	-11.2802
▁Massenver	-11.2805
▁Holz	-11.2805
eren	-11.2806
▁vertretenen	-11.2807
▁Betrügereien	-11.2807
▁analysiert	-11.2807
▁korrigiert	-11.2807
▁Ansatzes	-11.2808
▁Haushaltslinien	-11.2812
▁ermordet	-11.2813
▁Besetzung	-11.2822
▁Nordkorea	-11.2825
▁decken	-11.2825
▁erfasst	-11.2828
▁Lande	-11.2828
Naturkatastrophe	-11.2829
krise	-11.2835
▁meint	-11.2835
▁wesentliches	-11.2835
▁Verschärfung	-11.2836
▁wahrgenommen	-11.2836
▁Obgleich	-11.2836
▁iranischen	-11.2842
Gruppe	-11.2844
▁unten	-11.2853
▁legitimen	-11.2858
▁Asylbewerber	-11.286
▁Wald	-11.286
▁Besitz	-11.2864
▁nuklearen	-11.2864
rechtskonvention	-11.2866
▁verdeutlichen	-11.2879
▁harmonisieren	-11.2879
▁individuellen	-11.289
▁Berufs	-11.2891
▁vonnöten	-11.2893
▁größtenteils	-11.2893
▁Ansehen	-11.2894
▁mehrjährigen	-11.2898
▁stammt	-11.2902
▁Befreiung	-11.2904
▁nachteilig	-11.2907
▁Rechtfertigung	-11.2907
▁Abfällen	-11.2913
▁größtmögliche	-11.2917
▁objektiv	-11.2918
▁belastet	-11.2918
▁Abschnitt	-11.292
▁reformieren	-11.2922
▁Zivilisten	-11.2923
▁bedauert	-11.2928
▁Überlegung	-11.2929
nvorschlag	-11.2929
sphase	-11.2934
▁stabilen	-11.2935
▁Frontex	-11.2937
▁Entwurfs	-11.2938
▁b	-11.2939
▁Grüne	-11.294
▁Aussichten	-11.294
▁belgische	-11.294
▁Sichtweise	-11.2947
▁anzusprechen	-11.2953
▁Verbrechens	-11.2953
▁Planeten	-11.2954
▁vorgegangen	-11.2957
▁Genf	-11.2957
▁verwaltet	-11.2957
▁sinnvolle	-11.2963
▁wertvollen	-11.2964
▁derartiger	-11.2965
▁demonstrieren	-11.2966
▁vertiefen	-11.2966
▁Überblick	-11.2966
▁ausgebaut	-11.2966
Frage	-11.2972
▁geplante	-11.2975
▁zeitlich	-11.2976
▁größeres	-11.2978
▁beträchtlich	-11.2978
▁Gefährdung	-11.298
▁Hierbei	-11.2981
▁besuchen	-11.2981
▁diskriminiert	-11.2983
▁Bewohner	-11.299
▁bedanke	-11.299
▁Zufriedenheit	-11.2995
▁mehrmals	-11.2997
▁Paris	-11.2999
▁Akt	-11.3001
▁Verwaltungen	-11.3002
▁Interventionen	-11.3005
▁morgigen	-11.3007
abgeordneten	-11.3009
▁erstaunt	-11.3009
▁breit	-11.301
▁ausmacht	-11.3021
Der	-11.3021
▁fließen	-11.3021
▁Mobilisierung	-11.3024
▁selben	-11.3025
▁Satelliten	-11.3029
▁Korrektur	-11.303
über	-11.3031
kriterien	-11.3034
▁Ungleichgewicht	-11.3036
▁treiben	-11.3038
svorschlags	-11.304
▁massive	-11.3044
▁irakischen	-11.3048
▁Verkehrspolitik	-11.3049
Unzulänglichkeit	-11.3053
▁PHARE	-11.3053
▁zweierlei	-11.3053
▁Pflege	-11.3058
▁Operation	-11.3058
▁lehnt	-11.3058
▁Berechnung	-11.306
▁Rumäniens	-11.3062
▁klargestellt	-11.3069
▁International	-11.3071
▁Ganze	-11.3073
▁Mord	-11.3075
glücklicherweise	-11.3082
▁Korea	-11.3087
▁wettbewerbs	-11.309
▁vierte	-11.3094
▁Wahrnehmung	-11.3097
▁beitrittswillig	-11.3097
▁neuesten	-11.3099
▁stattfand	-11.3104
sstrukturen	-11.3104
▁potenzielle	-11.3106
▁Leuten	-11.3112
▁kubanische	-11.3112
▁Befürworter	-11.3114
▁Kein	-11.3116
▁Wirtschaftsraum	-11.3117
▁ausgegangen	-11.3117
▁Neue	-11.3122
Sicherheitsrates	-11.3124
▁überflüssig	-11.3124
▁empfiehlt	-11.3126
▁herausstellen	-11.3127
▁auszusprechen	-11.3128
ation	-11.3131
▁handelte	-11.3134
▁angegeben	-11.314
▁Strafe	-11.3148
fern	-11.3152
▁Versöhnung	-11.3156
ungerechtfertigt	-11.3156
▁UEN	-11.3157
▁Haiti	-11.316
▁Reichtum	-11.3161
▁Sozialpartnern	-11.3162
▁Substanz	-11.3163
▁erkennbar	-11.3163
▁aufgeben	-11.3167
▁Belange	-11.3171
bewirtschaftung	-11.3171
▁Hoffentlich	-11.3171
▁Tschernobyl	-11.3171
▁nützliche	-11.3174
bericht	-11.3179
▁Vietnam	-11.3179
▁Kontinuität	-11.3186
▁Ausgehend	-11.3186
▁nachhaltiges	-11.3186
▁schwach	-11.3189
▁stecken	-11.319
etrugsbekämpfung	-11.319
▁eingeladen	-11.319
▁Visum	-11.3191
▁halbe	-11.3197
▁bedenkt	-11.32
▁auszubauen	-11.3201
isierung	-11.3201
ren	-11.3201
▁Mar	-11.3202
▁intensivieren	-11.3202
▁Millenniums	-11.3203
▁zugewiesen	-11.3205
▁mitunter	-11.3213
▁Anders	-11.3215
▁vollzogen	-11.3218
▁Küste	-11.323
▁irgendwann	-11.323
rat	-11.3231
sbereiche	-11.3237
stellung	-11.3239
▁Systemen	-11.3241
schaftlicher	-11.3244
▁bedeutsam	-11.3245
unverantwortlich	-11.3248
▁normal	-11.3248
mechanismen	-11.3248
▁Gesetzen	-11.3249
▁Wegen	-11.3249
▁alternativen	-11.325
▁zwingend	-11.3253
Mitgliedsländern	-11.3262
▁Hierzu	-11.3264
▁GMO	-11.3267
▁verbindlichen	-11.327
▁Betrieben	-11.327
▁Demonstration	-11.3272
▁Schutzmaßnahmen	-11.3274
▁Passagiere	-11.3275
▁Beschleunigung	-11.3275
▁Politikern	-11.3277
▁Werk	-11.3283
▁Eingreifen	-11.3283
▁eingreifen	-11.3285
▁unnötige	-11.329
▁Register	-11.3292
▁frühere	-11.33
▁klein	-11.33
▁einzubringen	-11.3301
▁Ambitionen	-11.3303
▁elf	-11.3304
▁eingangs	-11.3305
▁Philosophie	-11.331
finanzierung	-11.3318
▁Rahmenprogramms	-11.3318
▁einschränken	-11.3319
▁bewaffneten	-11.3322
▁gemeldet	-11.3324
▁liberalen	-11.3327
ualifikation	-11.3328
▁Behinderten	-11.3329
▁profitiert	-11.3335
▁Süd	-11.3338
▁Präzedenzfall	-11.335
▁Zollunion	-11.335
▁Schiene	-11.3351
▁soziales	-11.3356
▁Gesicht	-11.3356
▁Behauptung	-11.3358
▁Zielvorgaben	-11.3359
▁Botschaften	-11.3359
außenpolitischen	-11.3361
▁welch	-11.3363
▁kleinere	-11.3363
▁verhaftet	-11.3365
▁Besitzstand	-11.3366
▁beklagen	-11.3366
▁baltischen	-11.3366
L	-11.3367
▁normale	-11.3368
sbekämpfung	-11.337
▁reine	-11.3372
▁Ungleichheit	-11.3373
▁III	-11.3376
▁Fluggäste	-11.3377
▁gedrängt	-11.3378
▁Atomwaffen	-11.338
▁gewissermaßen	-11.338
▁Klausel	-11.3383
▁begann	-11.3388
▁unlängst	-11.3395
▁unverständlich	-11.3402
▁Test	-11.3404
▁umfangreichen	-11.3404
▁geliefert	-11.341
▁Stilllegung	-11.341
▁exportieren	-11.3411
nichtungswaffen	-11.3411
▁gefaßt	-11.3415
▁audiovisuellen	-11.3416
▁Klarstellung	-11.3419
▁Europawahlen	-11.3422
▁Entsorgung	-11.3426
▁Vorkehrungen	-11.3427
▁Zweifellos	-11.3427
▁Zeitung	-11.3429
Recht	-11.343
▁städtischen	-11.3441
▁Posselt	-11.3441
▁unterworfen	-11.3441
▁diplomatische	-11.3443
regelungen	-11.3445
▁auseinandersetz	-11.3447
▁alleine	-11.3452
▁Forscher	-11.3453
▁niedriger	-11.3453
▁aufgetreten	-11.3453
j	-11.3455
▁gefolgt	-11.3456
▁planen	-11.346
▁raschen	-11.3469
Verfahren	-11.3474
▁geistige	-11.3475
▁nachhaltiger	-11.3476
▁dauerhaft	-11.3476
investitionen	-11.3478
▁We	-11.3485
▁feste	-11.3486
▁Erlass	-11.3491
▁forderte	-11.3494
▁handels	-11.3499
▁Ersuchen	-11.3503
▁Kambodscha	-11.3503
▁Freunden	-11.3504
▁ECOFIN	-11.3505
▁freiwillig	-11.3508
▁einseitige	-11.3509
▁Mercosur	-11.351
ka	-11.3511
▁niedrige	-11.3512
▁innovativen	-11.3517
▁Koalition	-11.3518
▁Völkermord	-11.3518
▁aufzustellen	-11.3519
▁hochwertige	-11.352
Zone	-11.3523
▁Völkerrechts	-11.3526
▁Bekanntlich	-11.3533
durchschnittlich	-11.3534
▁vorzusehen	-11.3536
▁versichert	-11.3536
sbefugnisse	-11.3538
▁legalen	-11.3538
▁gänzlich	-11.3548
ri	-11.3553
▁Flugzeuge	-11.3558
▁Tode	-11.3559
▁Anregungen	-11.3559
▁Akteur	-11.3561
▁Ermittlungen	-11.3562
▁Befugnis	-11.3563
▁Vernunft	-11.3563
▁Wiederbelebung	-11.3563
▁Ungerechtigkeit	-11.3563
▁auszuschließen	-11.3565
▁halb	-11.357
▁Stoffen	-11.357
▁erbracht	-11.3574
▁Petitionen	-11.3577
▁abgebaut	-11.3579
▁Realisierung	-11.3579
▁flexibler	-11.3579
▁vielerlei	-11.3579
verkehrs	-11.3581
▁Geiste	-11.3582
▁ökonomischen	-11.3585
▁Bedrohungen	-11.3586
▁Mehrzahl	-11.3587
▁Etappe	-11.3591
▁Unterlagen	-11.3593
▁Online	-11.3594
▁Unterrichtung	-11.3596
▁Berufung	-11.3603
▁breiter	-11.3604
▁Einen	-11.3607
▁Bühne	-11.361
▁Referenden	-11.361
▁Haushaltskon	-11.3611
sdisziplin	-11.3619
▁legale	-11.3621
▁Summen	-11.3621
▁zweckmäßig	-11.3627
▁Taliban	-11.3629
▁sozialistischen	-11.3631
▁Einsatzes	-11.3632
bald	-11.3636
▁großartige	-11.3638
▁Null	-11.3639
▁Erfordernis	-11.364
▁unverändert	-11.3641
▁fortfahren	-11.3641
▁Su	-11.3652
▁üben	-11.3654
▁aufzuheben	-11.3659
ndez	-11.3661
▁Konsum	-11.3662
▁ent	-11.3664
▁begünstigt	-11.3665
▁Entstehung	-11.3672
▁SIS	-11.3674
▁europaweit	-11.3675
DA	-11.3675
sinitiativen	-11.3681
▁Spiele	-11.3685
▁zeugt	-11.3687
▁demokratisches	-11.3687
▁Ministerin	-11.3688
▁f	-11.3688
sführung	-11.369
il	-11.3695
▁beschleunigt	-11.3699
▁erweist	-11.3704
▁juristische	-11.3712
▁obligatorische	-11.3713
▁wachsam	-11.3714
▁humanitärer	-11.3715
▁Kernkraftwerke	-11.3715
▁Gebäuden	-11.3715
▁verfasst	-11.372
▁einhergehen	-11.372
▁Sacharow	-11.3721
▁Zigaretten	-11.3722
hersteller	-11.3729
▁Differenzen	-11.373
▁geradezu	-11.3731
▁nennt	-11.3734
▁einzuschränken	-11.3734
▁Erstes	-11.3735
▁Zufall	-11.3738
▁Erika	-11.374
▁Gestalt	-11.374
▁bloße	-11.3743
▁Fortschritts	-11.3744
▁mußten	-11.3745
▁mobilisieren	-11.375
▁auszuweiten	-11.375
▁Geschäfte	-11.3755
▁Moskau	-11.3755
▁gewachsen	-11.3756
▁ließ	-11.3758
▁Zeitungen	-11.3758
▁regelmäßigen	-11.3758
▁kurzer	-11.376
▁ausschließen	-11.3764
▁Steuerpolitik	-11.3765
▁bestrebt	-11.3765
▁Übermittlung	-11.3765
▁deutlichen	-11.3766
▁verletzen	-11.3767
▁massiv	-11.3769
▁auswirkt	-11.3783
▁wende	-11.3784
▁Islam	-11.3788
▁geringere	-11.3789
▁Nachbarländern	-11.3792
übergreifenden	-11.3792
▁Glückwünsche	-11.3795
management	-11.3796
▁La	-11.38
▁Wirtschaften	-11.38
sprozesse	-11.3805
▁koordinierte	-11.3807
ualitäts	-11.381
▁Gültigkeit	-11.3811
▁Canc	-11.3812
▁interessanten	-11.3814
▁dorthin	-11.3815
spunkt	-11.3816
▁Moratorium	-11.3821
▁fanden	-11.3824
Autonomiebehörde	-11.3839
▁fähig	-11.3842
▁empfangen	-11.3844
▁Frankreichs	-11.3845
▁Motor	-11.3846
▁Ärzte	-11.3849
▁Monopol	-11.3854
▁völlige	-11.3856
▁demselben	-11.386
▁vernachlässigt	-11.3861
▁Sri	-11.3861
▁digitale	-11.3863
▁Anhörungen	-11.3865
▁eventuelle	-11.3868
▁chinesische	-11.3868
▁verweise	-11.3874
▁denkt	-11.3875
▁eingenommen	-11.3875
ed	-11.388
▁Trinkwasser	-11.3882
▁geschickt	-11.3885
▁Verdacht	-11.3889
▁gebührt	-11.3892
▁jederzeit	-11.3895
▁Kredite	-11.3897
▁Füßen	-11.3897
▁hervorgerufen	-11.3898
▁dramatisch	-11.3902
weit	-11.3905
Krisenmanagement	-11.3908
▁Schwangerschaft	-11.3908
▁Komplexität	-11.3908
▁befreien	-11.3908
▁Preisstabilität	-11.3908
▁strukturelle	-11.3909
ad	-11.391
▁schreiben	-11.391
▁deutliches	-11.3911
▁bisherige	-11.3912
▁Teils	-11.3919
▁sonstigen	-11.3921
Mittel	-11.3921
▁umfassendes	-11.3923
▁entsprechender	-11.3925
▁Fernseh	-11.3928
▁mehrheitlich	-11.393
▁Monats	-11.3936
▁Fach	-11.3939
her	-11.3939
▁Verfügbarkeit	-11.394
▁Verwertung	-11.394
▁Büros	-11.3941
▁echter	-11.3943
▁Standort	-11.3946
▁hierher	-11.395
übergreifende	-11.3951
▁Sein	-11.3951
▁Bahn	-11.3955
▁orientieren	-11.3956
▁ehrgeizig	-11.3959
▁sucht	-11.3964
erzeugung	-11.3964
▁Effekt	-11.3965
▁zwingt	-11.3972
▁prüft	-11.3972
namo	-11.3972
▁Abstand	-11.3972
▁tiefe	-11.3976
▁zweimal	-11.3976
mechanismus	-11.3979
volle	-11.398
▁Lehre	-11.3982
▁Neues	-11.3986
▁Vorfälle	-11.3987
▁Buch	-11.3988
▁rechtmäßig	-11.3989
▁Formulierungen	-11.399
Strukturreformen	-11.399
▁greift	-11.3993
▁Aufwand	-11.3994
▁Statuts	-11.3998
▁Klimaschutz	-11.3999
▁begründen	-11.4004
hältnismäßigkeit	-11.4004
▁doppelte	-11.4009
▁Demonstrationen	-11.4012
sversorgung	-11.4012
▁obligatorischen	-11.4013
▁komplizierte	-11.4016
▁bedeutender	-11.4017
▁Guant	-11.402
▁verweigern	-11.402
▁Abrüstung	-11.402
▁aufrufen	-11.402
▁jahrelang	-11.4021
▁herzlichen	-11.4024
▁ausgezeichnet	-11.4026
▁zusätzlicher	-11.4036
▁Wallström	-11.4036
dienst	-11.4039
gruppe	-11.404
▁ausgelegt	-11.4041
vorschläge	-11.4043
▁Anstatt	-11.4052
▁nachgewiesen	-11.4058
▁chemischen	-11.4065
ro	-11.4068
▁Minimum	-11.4069
▁verliert	-11.4069
▁vorangetrieben	-11.4069
▁voranzukommen	-11.4069
▁strikte	-11.4073
Raum	-11.4073
▁machte	-11.4076
▁östlichen	-11.4078
etzungsverfahren	-11.408
berichterstatter	-11.4084
▁Poettering	-11.4085
▁voraussichtlich	-11.4085
▁Leiden	-11.4087
▁Anbieter	-11.409
svertrags	-11.4092
▁einheitlich	-11.4093
▁Klasse	-11.4098
▁Kompromisses	-11.4098
▁hinzugefügt	-11.4101
▁gegenüberstehen	-11.4102
▁generelle	-11.4104
ia	-11.4106
▁Mich	-11.411
▁rücken	-11.4111
▁beinahe	-11.412
▁Luftraum	-11.4125
hin	-11.4125
▁Diplomatie	-11.4126
▁Aquakultur	-11.413
▁Stahl	-11.4145
I	-11.4148
▁Zugeständnisse	-11.4149
▁bedacht	-11.415
▁U	-11.4154
isten	-11.4154
▁Aktionspläne	-11.416
▁i	-11.4161
▁begriffen	-11.4162
▁Funktionen	-11.4164
▁vorbehaltlos	-11.4165
▁systematische	-11.4168
▁Potential	-11.4168
▁Traum	-11.4169
▁Fischfang	-11.4175
▁massiven	-11.4177
▁geschlechts	-11.4183
▁steigenden	-11.4183
▁Geräte	-11.4185
▁beachtliche	-11.4187
▁Norwegen	-11.419
▁Zusammen	-11.4198
▁Angabe	-11.4198
Waffenstillstand	-11.4199
▁Andernfalls	-11.4199
▁gekämpft	-11.4199
▁vergangen	-11.4205
la	-11.4205
▁Damals	-11.4216
▁Zug	-11.4219
▁Agrarsektor	-11.4224
▁Propaganda	-11.4226
▁zitieren	-11.4227
▁Dienstag	-11.4232
ol	-11.4232
▁überschreiten	-11.4233
▁national	-11.4233
▁strafrechtliche	-11.4237
▁Flotten	-11.4239
▁Osteuropas	-11.4246
▁lehne	-11.4248
▁solle	-11.4249
▁ergreift	-11.4249
▁Immer	-11.4251
▁kohärente	-11.4251
▁hofft	-11.4257
▁ausgewogenes	-11.4257
arten	-11.4259
▁mehrerer	-11.426
▁gehöre	-11.4263
▁versäumt	-11.4265
▁Haft	-11.4267
▁Gemüse	-11.427
▁Kommentare	-11.4271
Selbstbestimmung	-11.4271
▁besserer	-11.4272
handel	-11.428
▁Lücke	-11.4281
▁Statt	-11.4281
▁Artenvielfalt	-11.4281
▁Kohlendioxid	-11.4282
▁multilaterale	-11.4283
sorgniserregend	-11.4283
▁Natura	-11.4283
▁Wind	-11.4291
▁transparenten	-11.4291
▁TACIS	-11.4298
▁Inzwischen	-11.4299
▁gedenken	-11.43
▁längere	-11.4301
▁erachtet	-11.4302
▁unerläßlich	-11.4302
▁GFP	-11.4303
lez	-11.4304
▁Aserbaidschan	-11.4306
▁Rande	-11.4307
Sensibilisierung	-11.4314
▁missbraucht	-11.4314
▁eintritt	-11.4317
▁verbundene	-11.4323
▁vormittag	-11.4329
▁prinzipiell	-11.4339
▁genauen	-11.434
▁präsent	-11.4345
▁erkläre	-11.4346
▁andernfalls	-11.4348
vereinbarung	-11.4348
▁Durchbruch	-11.4348
▁Nehmen	-11.4349
▁bevorstehende	-11.4352
▁geforderten	-11.4352
▁polnische	-11.4356
splan	-11.4359
▁nördlichen	-11.436
▁Hunderttausende	-11.4361
▁ASEAN	-11.4363
▁objektive	-11.4364
▁Spielzeug	-11.4364
▁strenger	-11.4364
▁Führungsrolle	-11.4364
▁Missverständnis	-11.4368
▁geschlossenen	-11.437
▁bewährt	-11.4372
▁Island	-11.4373
▁zielen	-11.438
▁verwendeten	-11.4381
▁gleichwohl	-11.4381
▁Grundzüge	-11.4382
skörperschaften	-11.4382
▁erlitten	-11.4383
▁abhalten	-11.4383
Allgemeine	-11.4389
▁Vertragsverl	-11.4389
▁Mugabe	-11.4389
▁Herkunftsland	-11.4393
▁Abwesenheit	-11.4398
▁Modalitäten	-11.4398
▁GD	-11.4402
voll	-11.4407
▁logisch	-11.4409
▁schicken	-11.4412
▁Begeisterung	-11.4415
▁Watson	-11.4415
▁gewinnt	-11.4415
Protokoll	-11.4415
▁Schlüsselrolle	-11.4415
▁harten	-11.4422
▁Sports	-11.4422
▁West	-11.4423
▁Lom	-11.4427
▁Weshalb	-11.4431
▁ließen	-11.4433
▁industrielle	-11.4433
▁Wortmeldung	-11.4445
▁terroristische	-11.4445
sverzerrungen	-11.4448
▁verleiht	-11.4448
▁Ausweg	-11.4448
▁Sicherlich	-11.4449
▁Betonung	-11.4449
▁Menschlichkeit	-11.445
▁regelmäßige	-11.4455
▁beauftragt	-11.446
ien	-11.4462
sbehörde	-11.4464
▁legal	-11.4464
▁Berliner	-11.4465
▁Aktualisierung	-11.4465
▁geschätzt	-11.4468
▁Erfassung	-11.4473
▁Irlands	-11.4474
▁Rückzug	-11.4476
▁dramatische	-11.4477
produkt	-11.4479
▁beabsichtigen	-11.4479
▁Lichte	-11.4479
▁erschweren	-11.4482
▁Finanzhilfe	-11.4483
fonds	-11.4484
sorgane	-11.4485
▁angeregt	-11.4485
▁Unglück	-11.449
▁stattfindenden	-11.449
▁heiklen	-11.4491
Projekt	-11.4493
▁Schlag	-11.4497
▁beobachtet	-11.4502
▁Universaldienst	-11.4502
istischen	-11.4506
▁Ankündigung	-11.4512
▁Israelis	-11.4514
▁Erlaub	-11.4516
▁verschließen	-11.4516
schaftswahlen	-11.4521
▁and	-11.4521
▁gebaut	-11.4523
▁Besatzung	-11.4528
▁Instanz	-11.4529
igkeit	-11.4532
▁Umgebung	-11.4533
abstimmung	-11.4534
▁Intensivierung	-11.4534
▁Beifall	-11.4541
▁Darstellung	-11.4546
weiterentwickelt	-11.4549
▁Aktivität	-11.4563
ei	-11.4564
▁beigetreten	-11.4565
srahmen	-11.4569
▁schönen	-11.4569
▁Direkt	-11.457
▁anzusehen	-11.4573
▁Bestand	-11.4573
▁Persönlichkeit	-11.4573
▁verbesserten	-11.4574
▁Marktzugang	-11.4575
▁ankommt	-11.458
▁Übergangs	-11.4581
▁blockieren	-11.4584
▁qualifizierten	-11.4588
▁Herzegowina	-11.4592
▁Verdienst	-11.4593
▁hielt	-11.4596
▁Arbeitsmarktes	-11.4596
▁Entlassungen	-11.46
▁voranbringen	-11.4601
▁vergleichbar	-11.4602
regulierung	-11.4603
stechnologien	-11.4605
▁rechtlicher	-11.4606
▁Auftreten	-11.461
▁bürokratische	-11.4611
sklausel	-11.4614
mal	-11.4617
bau	-11.4617
▁Feld	-11.4618
▁Weltkrieg	-11.4619
▁gentechnisch	-11.4619
▁warnen	-11.462
▁gelegen	-11.4622
▁Stabilisierungs	-11.4628
▁dänische	-11.4631
▁Version	-11.4632
▁Standpunkts	-11.4634
▁Jarzembowski	-11.4635
▁Pluralismus	-11.4635
▁trennen	-11.4635
▁Stimmabgabe	-11.4635
▁kurzfristige	-11.4636
▁Konzerne	-11.4638
▁kriminellen	-11.4639
▁Postdienste	-11.464
▁Zusammenbruch	-11.4644
▁abwarten	-11.4646
anlagen	-11.4648
▁lächerlich	-11.4649
▁vertraue	-11.465
▁Rechnungshofes	-11.4651
▁Vernichtung	-11.4655
seits	-11.4658
▁ermutigend	-11.4658
▁Sekretariat	-11.4665
▁debattiert	-11.4666
▁Branchen	-11.4667
▁beeinflusst	-11.4669
▁Handelns	-11.4673
▁komplexe	-11.4675
▁schreckliche	-11.468
▁Kurden	-11.4682
▁Weitere	-11.4683
skampagnen	-11.4685
situation	-11.4688
▁befindlichen	-11.4701
▁verbreiten	-11.4704
▁zuwenden	-11.4704
▁schädlich	-11.4707
▁legte	-11.4708
▁gravierende	-11.4711
▁bürgerlichen	-11.4713
▁Corbett	-11.4721
▁Johannesburg	-11.4721
▁Reding	-11.4721
▁besetzt	-11.4721
ist	-11.4724
▁erweiterte	-11.4726
▁Posten	-11.4726
▁relevanten	-11.4738
▁präsentiert	-11.4739
▁eingestuft	-11.474
▁ausgehandelt	-11.4741
▁Operationen	-11.4745
▁Putin	-11.475
▁Gerichten	-11.4751
▁Verbündeten	-11.4751
ie	-11.4753
oder	-11.4754
▁Implementierung	-11.4756
▁auszudehnen	-11.4756
▁vorbehalten	-11.4756
end	-11.4756
▁hinausgeht	-11.4756
▁Assoziation	-11.4762
nerhalb	-11.4763
▁gestützt	-11.4765
▁nächstes	-11.4768
sektors	-11.4771
▁getrennte	-11.4772
▁Liikanen	-11.4773
▁Missachtung	-11.4773
▁beigemessen	-11.4773
▁ruft	-11.4773
▁Schwäche	-11.4774
▁überarbeitet	-11.4776
▁Dokuments	-11.4785
▁Geburt	-11.4788
Mitgliedschaft	-11.4789
Wir	-11.4789
▁riesigen	-11.479
▁Atomenergie	-11.479
▁Motto	-11.479
▁Adresse	-11.4792
▁statistischen	-11.4795
▁Blockade	-11.4795
▁gesetzlich	-11.4801
how	-11.4803
▁nukleare	-11.4803
länder	-11.4804
▁lauten	-11.4804
▁Rettung	-11.4807
▁gelegentlich	-11.4808
▁rechten	-11.4809
▁widersprüchlich	-11.4812
▁Fahrplan	-11.4813
▁Urteile	-11.4814
▁Bruttoinlands	-11.4816
▁Fischern	-11.4816
▁gingen	-11.482
▁Einwanderern	-11.4823
▁wachsen	-11.4824
▁maßgeblich	-11.4825
▁steuerlichen	-11.4828
▁äußert	-11.4829
sbeihilfen	-11.4834
▁Paritätische	-11.4834
out	-11.484
▁bewährte	-11.4842
▁verschwunden	-11.4843
▁präsentieren	-11.4843
ra	-11.4847
▁aufkommen	-11.4857
rechtslage	-11.4859
▁Armenien	-11.486
▁darzulegen	-11.486
ausschuß	-11.4861
▁Sicher	-11.4862
▁Rechtsausschuss	-11.4865
▁rechts	-11.4868
▁aufgegeben	-11.4873
▁Netzes	-11.4874
▁besprochen	-11.4878
▁plant	-11.4878
▁Pflanzenschutz	-11.488
▁aussieht	-11.4881
▁Kraftstoff	-11.4884
▁ungerecht	-11.4885
▁Team	-11.4885
▁kleines	-11.4895
▁genießt	-11.4895
▁ablehnt	-11.49
gesundheitlichen	-11.4903
▁verbleibenden	-11.4904
▁Lebensstandard	-11.4906
▁Gleichgewichts	-11.4907
▁Ausbruch	-11.4909
▁belaufen	-11.4913
▁Vorgänger	-11.492
▁irgendwo	-11.4924
▁Ex	-11.4925
▁administrative	-11.4926
au	-11.4926
▁Klonen	-11.4928
▁Grundrecht	-11.4929
▁realistische	-11.4929
▁Roth	-11.4929
▁Gutachten	-11.4931
▁einziger	-11.4931
▁wahrzunehmen	-11.4931
▁irgendwie	-11.4931
▁Software	-11.4931
▁zurückgegangen	-11.4931
▁Danach	-11.4931
▁Transaktionen	-11.4932
▁Währungsfonds	-11.4935
up	-11.4938
▁geboren	-11.4941
▁Verbrennung	-11.4946
▁Ermordung	-11.4948
▁Nichts	-11.495
▁Anschläge	-11.495
▁gesteckt	-11.4951
▁moralischen	-11.4956
▁Halbjahr	-11.4957
▁Grenzkontrollen	-11.4958
▁stellvertretend	-11.496
▁Recycling	-11.4965
▁ausgeschöpft	-11.4966
▁einschließt	-11.4966
▁geschwächt	-11.4966
▁Entsendung	-11.4966
▁Name	-11.4968
ta	-11.4969
skandidaten	-11.4971
▁Prozentsatz	-11.498
▁gezielte	-11.4984
▁Abtreibung	-11.4986
▁Bildungs	-11.4986
▁hört	-11.4988
▁steuerliche	-11.4995
▁Gütern	-11.4997
▁Aufschwung	-11.4998
Ver	-11.4999
▁Sozialschutz	-11.5
▁unklar	-11.5
▁Erwähnung	-11.5001
▁entsenden	-11.5001
▁hinzuzufügen	-11.5001
▁Humanressourcen	-11.5002
▁aktiver	-11.5003
programms	-11.5013
▁Jos	-11.5015
▁Professor	-11.5017
sformen	-11.5019
▁kürzen	-11.5019
▁einrichten	-11.5019
▁flexible	-11.5021
mitteln	-11.5023
▁unabhängiger	-11.5024
Initiative	-11.5025
▁protestieren	-11.5026
▁kultureller	-11.5028
▁EEF	-11.5032
▁Versicherung	-11.5035
▁Offensichtlich	-11.5037
▁gespannt	-11.5037
▁bestrafen	-11.5037
▁Touristen	-11.504
▁Engagements	-11.5041
gebiet	-11.5044
▁hängen	-11.5046
▁kommerzielle	-11.5047
sdebatte	-11.5052
▁Visumpflicht	-11.5055
▁Wollen	-11.5058
▁Vorschrift	-11.506
▁Hektar	-11.5062
regionen	-11.5065
▁Zusätzlich	-11.5067
▁leichte	-11.5068
▁dreißig	-11.5073
▁individuelle	-11.5074
sminister	-11.5078
Prozesses	-11.5085
▁Schwierigkeit	-11.5089
▁Meere	-11.509
▁Westsahara	-11.5091
▁vernommen	-11.5091
vollen	-11.5092
▁serbischen	-11.5094
▁einzutreten	-11.5096
▁etliche	-11.5096
▁Statistik	-11.5101
ke	-11.5102
Parlamentswahlen	-11.5105
▁Baroness	-11.5109
▁schwächen	-11.5109
▁Vorsorge	-11.5109
produkts	-11.5111
▁Erste	-11.5111
▁bloß	-11.5112
▁Widersprüche	-11.5113
▁Handelspartner	-11.5114
▁optimistisch	-11.5114
liches	-11.5119
▁zustimmt	-11.5121
▁Konzepts	-11.5122
svorsitzenden	-11.5123
▁Euratom	-11.5126
▁Wünschen	-11.5129
▁Prinzips	-11.5139
▁ausfallen	-11.5142
da	-11.5144
▁Begriffs	-11.5145
▁vorhandene	-11.5145
▁vereint	-11.5146
▁tschechische	-11.5147
▁Vizepräsidenten	-11.5147
▁Wohlstands	-11.5148
nationalisierung	-11.5152
▁St	-11.5153
▁AIDS	-11.5154
▁Thunfisch	-11.5155
▁Trend	-11.5156
ent	-11.5157
▁intensiven	-11.516
▁unzureichende	-11.5162
▁Genuss	-11.5163
▁gesucht	-11.5163
▁übergeben	-11.5167
▁Beschäftigungs	-11.5167
ic	-11.5169
▁enttäuschend	-11.5171
kommen	-11.5173
fahrzeuge	-11.5178
▁grundsätzlichen	-11.5178
gesellschaftlich	-11.5179
sfürsorge	-11.5181
▁Streitigkeiten	-11.5181
▁Oomen	-11.5181
▁rumänischen	-11.5183
▁verabschiedete	-11.519
▁Chaos	-11.5199
▁Tendenzen	-11.5199
▁drastisch	-11.5203
▁erneute	-11.5206
wirtschaftliche	-11.5206
▁Pakets	-11.5207
▁Gemeinsam	-11.5214
▁versagt	-11.5217
▁Ton	-11.5224
▁g	-11.5224
▁Monopole	-11.5233
▁Äußerung	-11.5235
▁Vitorino	-11.5235
▁Jahrzehnte	-11.5235
▁wovon	-11.5237
▁niemandem	-11.524
▁Energiebereich	-11.5243
▁niemanden	-11.5245
▁wirksames	-11.5246
▁verhängen	-11.5254
hoc	-11.5255
▁Guinea	-11.5258
▁Pack	-11.5266
sverhältnisse	-11.5266
ler	-11.5268
▁gefangen	-11.5268
ssystemen	-11.5268
▁sparen	-11.5269
▁Erkenntnis	-11.5272
▁Erwärmung	-11.5272
▁befreit	-11.5272
▁verhelfen	-11.5272
ry	-11.5272
▁Balkans	-11.5275
▁Prüfungen	-11.5277
▁schädlichen	-11.5281
▁teil	-11.5281
▁Tuberkulose	-11.5283
▁Rinder	-11.5285
▁zurückzuziehen	-11.529
▁Chile	-11.529
▁Ängste	-11.5293
Migrationsströme	-11.5293
▁innenpolitische	-11.5295
gemeinschaftlich	-11.5296
▁Kollegium	-11.5296
vertreter	-11.5296
▁Behauptungen	-11.5299
▁intensiver	-11.5301
▁jemanden	-11.5304
▁Vorgänge	-11.5305
▁steigende	-11.5308
▁Ansonsten	-11.5308
▁Erteilung	-11.5309
▁statistische	-11.531
▁Antibiotika	-11.531
sätze	-11.5312
▁Zwecken	-11.5317
▁Vorfall	-11.5321
▁europäisch	-11.5321
▁Dr	-11.5322
▁Zölle	-11.5324
▁komplizierter	-11.5325
▁Balance	-11.5325
▁Produktions	-11.5326
▁Geduld	-11.5327
▁festigen	-11.5329
▁Ideologie	-11.533
▁Beschaffung	-11.5331
▁beruhigen	-11.5334
▁Gefängnissen	-11.5339
▁Sackgasse	-11.5345
▁Wurzeln	-11.5345
▁kontraproduktiv	-11.5345
▁tagtäglich	-11.5345
rechtliche	-11.5346
▁naher	-11.5346
▁Jacques	-11.5347
▁Franzosen	-11.5349
▁grundlegendes	-11.5351
▁Befriedigung	-11.5363
▁Früchte	-11.5363
▁Heuchelei	-11.5363
▁Elend	-11.5367
▁Trilog	-11.5373
▁zeigte	-11.5375
branche	-11.5377
▁starker	-11.5378
▁außenpolitische	-11.5379
▁inhaftiert	-11.5382
▁Lehne	-11.5382
▁zunimmt	-11.5385
lo	-11.5388
▁unangemessen	-11.5388
▁übermäßige	-11.5391
▁begleiten	-11.5396
▁Industrien	-11.54
Ruijten	-11.54
▁Tagungen	-11.5412
sstrategien	-11.5418
▁Bundesrepublik	-11.5419
▁Rücktritt	-11.5419
▁Beilegung	-11.542
▁gewünschten	-11.5422
▁Rohstoffe	-11.5424
▁beimessen	-11.5427
▁Europarates	-11.543
▁aufbringen	-11.5433
▁betragen	-11.5438
▁praktiziert	-11.544
▁legitim	-11.5452
▁hundert	-11.5452
▁vorwärts	-11.5453
▁lohnt	-11.5456
▁Keine	-11.546
▁anwendbar	-11.546
sprachen	-11.5462
▁angeschlossen	-11.5464
▁Ziffern	-11.5465
▁jüngst	-11.5468
▁Spaniens	-11.5473
▁Wichtigste	-11.5474
▁Darf	-11.5474
▁Ehrgeiz	-11.5475
▁Lamy	-11.5475
▁Mütter	-11.5477
▁Alltag	-11.5477
▁Geschehnisse	-11.5478
▁belasten	-11.5481
▁unglaublich	-11.5483
U	-11.5483
▁Transit	-11.5487
bereitschaft	-11.5488
▁Bestrafung	-11.5493
▁Verknüpfung	-11.5493
▁verwehrt	-11.5493
▁Hauptstadt	-11.5493
▁Du	-11.5494
▁Lehrer	-11.5495
▁Energiesektor	-11.5498
▁ethische	-11.5499
einrichtungen	-11.551
▁Verehrte	-11.5512
▁besprechen	-11.5512
▁Einladung	-11.5512
▁Umverteilung	-11.5513
▁unterzogen	-11.5513
▁Künstler	-11.5516
▁Strafrecht	-11.5516
▁Zusatzfrage	-11.5516
▁schadet	-11.5516
funktionierenden	-11.5519
▁Tor	-11.5522
▁reformiert	-11.5523
▁Palästinensern	-11.5524
▁Sanierung	-11.5527
▁Demonstranten	-11.5531
▁sensible	-11.5532
▁ökologisch	-11.5533
▁Blickwinkel	-11.5534
verwaltung	-11.5535
▁konkurrieren	-11.5535
▁führten	-11.5536
▁Sei	-11.5541
▁Lanka	-11.5543
▁angelegt	-11.5543
▁Kodex	-11.5547
▁Aussöhnung	-11.5549
▁zurückziehen	-11.555
▁Manche	-11.555
▁überleben	-11.5551
▁genügen	-11.5553
▁Bulgariens	-11.5556
▁W	-11.5557
region	-11.556
▁einnimmt	-11.5563
▁Profit	-11.5564
▁Nachweis	-11.5564
srechte	-11.5565
▁gebührend	-11.5565
sprogramms	-11.5568
▁angemerkt	-11.5568
▁Eindämmung	-11.5569
arbeitslosigkeit	-11.557
▁geographischen	-11.5578
▁Exporte	-11.558
▁gemachten	-11.5586
sproblem	-11.5589
▁Verfechter	-11.5589
▁Erwartung	-11.5591
▁Unfällen	-11.5591
▁harmonisiert	-11.5596
ti	-11.5597
▁schätze	-11.56
qualität	-11.56
▁Schulung	-11.5602
institutionen	-11.5602
▁Körper	-11.5603
▁Staatsbürger	-11.5604
Nichtsdestotrotz	-11.5606
▁Prostitution	-11.5606
▁Universität	-11.5609
▁gewöhnlich	-11.5609
▁gebieten	-11.5619
▁konsequente	-11.5625
är	-11.5627
Geschäftsverkehr	-11.5629
ollbeschäftigung	-11.5629
▁Geldern	-11.5633
▁Geschlechts	-11.5634
▁Serben	-11.5635
▁ernannt	-11.5638
▁Mitarbeit	-11.5639
▁Harbour	-11.5644
▁Spielregeln	-11.5644
▁sonstige	-11.5645
▁perfekt	-11.5655
go	-11.5655
▁existierenden	-11.5662
▁Einreichung	-11.5663
▁finnische	-11.5664
▁besetzten	-11.5669
▁festgelegte	-11.5675
▁enden	-11.5675
▁Ethik	-11.568
▁schade	-11.5682
▁verteilen	-11.5682
▁Wahlkampf	-11.569
▁vorhergehenden	-11.5692
▁christlichen	-11.5694
Beitrittsländern	-11.5694
desto	-11.5695
▁Erziel	-11.5699
▁Rechtsakt	-11.5701
▁Kreativität	-11.5701
▁Ferrero	-11.5701
▁Eurojust	-11.5701
▁käme	-11.5704
▁Drogenhandel	-11.5704
▁intelligente	-11.5705
▁doppelt	-11.5706
▁Definitionen	-11.5707
▁Zeugen	-11.5708
▁Plattform	-11.5711
▁bestmögliche	-11.5716
▁Niederlassung	-11.572
▁Optimismus	-11.572
▁beläuft	-11.572
▁doppelten	-11.5721
▁offener	-11.5723
▁dauert	-11.5724
▁kontinuierliche	-11.5728
▁Komponente	-11.573
▁Golf	-11.5739
▁Volksrepublik	-11.5739
▁scheinbar	-11.5739
▁Jahresende	-11.5741
▁seitdem	-11.5741
▁auslösen	-11.5741
▁Bearbeitung	-11.5744
▁Herangehen	-11.5745
▁Kirche	-11.5747
▁gesundheitliche	-11.5747
▁Anhänger	-11.5747
▁Hochschulen	-11.5748
▁militärischer	-11.5749
struktur	-11.5751
▁Spektrum	-11.5754
▁benennen	-11.5758
▁geantwortet	-11.5758
▁zurückgreifen	-11.5758
▁Akte	-11.576
▁Fahrzeugen	-11.5762
ut	-11.5765
kontrollen	-11.5768
▁drohen	-11.577
swachstums	-11.5773
sstruktur	-11.5774
▁dringenden	-11.5777
▁Tragen	-11.5779
▁Mißbrauch	-11.5782
▁Kernwaffen	-11.5785
aktivitäten	-11.5786
▁kriminelle	-11.5788
▁angesetzt	-11.5788
▁partnerschaft	-11.579
▁Staatsangehörig	-11.5791
▁Beste	-11.5794
▁Kommunismus	-11.5797
▁nachvollziehen	-11.5797
▁vornherein	-11.5797
versicherung	-11.58
▁Übel	-11.5801
▁auffordert	-11.5801
▁geleisteten	-11.5803
▁direkter	-11.5803
▁Finanzmitteln	-11.5805
▁registriert	-11.5808
▁Gange	-11.5808
politischer	-11.581
▁Wertschätzung	-11.5816
▁festzuhalten	-11.5816
▁Dagegen	-11.5817
▁Mehrere	-11.5818
▁Zeitraums	-11.582
informationen	-11.5822
▁anschauen	-11.5834
für	-11.5834
▁Böge	-11.5835
▁Misstrauen	-11.5839
▁Werke	-11.5842
▁kurzfristigen	-11.5847
verhältnismäßig	-11.5851
▁gerät	-11.5853
▁Zurückhaltung	-11.5855
▁Erbes	-11.5867
▁Madeira	-11.5874
▁unvereinbar	-11.5874
co	-11.5874
▁Sensibilität	-11.5875
▁vernünftiger	-11.5876
▁Rückschritt	-11.5876
▁Telefon	-11.5876
▁Wechselkurs	-11.5876
▁EGF	-11.588
▁Importe	-11.5882
▁Klage	-11.5882
▁Rundfunk	-11.5882
▁umweltpolitisch	-11.5887
▁Grundwasser	-11.589
▁Wunder	-11.5892
▁ließe	-11.5893
ssicherheit	-11.5896
II	-11.59
▁überwiegend	-11.5901
▁Beiträgen	-11.5901
losen	-11.5902
sregelungen	-11.5908
▁übertrieben	-11.5908
▁Listen	-11.5909
▁mitzuteilen	-11.5913
▁verhält	-11.5913
Waldner	-11.5913
▁fairer	-11.5915
weltfreundlicher	-11.5922
▁Rückstand	-11.5923
▁Toten	-11.593
siehe	-11.593
Mitgliedsstaaten	-11.5931
art	-11.5932
▁aufgestockt	-11.5932
▁dementsprechend	-11.5932
▁ökonomische	-11.5939
▁anerkannten	-11.5945
▁unterdrückt	-11.5954
▁Befugnissen	-11.5955
spläne	-11.5955
▁verheerenden	-11.5959
▁soliden	-11.5967
▁sinnvoller	-11.5971
▁verlagern	-11.5972
▁erstatten	-11.5972
▁vorherige	-11.5972
Ein	-11.5973
▁umhin	-11.5989
▁verglichen	-11.5991
▁großzügig	-11.5993
▁historischer	-11.5997
▁Teilung	-11.5997
bezogene	-11.6001
sanforderungen	-11.6001
▁Zwangs	-11.6002
▁Empfänger	-11.6006
▁Aids	-11.6009
▁Robert	-11.6009
▁Jahrzehnt	-11.601
▁Medizin	-11.6011
▁erleiden	-11.6012
▁herausragende	-11.6019
technischen	-11.6022
▁Male	-11.6028
sergebnisse	-11.603
▁Thessaloniki	-11.603
▁quasi	-11.603
▁umfaßt	-11.6032
▁niedrigeren	-11.6032
lose	-11.6032
▁einräumt	-11.6033
▁Medikamenten	-11.6034
Freie	-11.6034
▁Hemmnisse	-11.6036
▁Schul	-11.6038
▁Netzwerk	-11.6045
▁Ausmaßes	-11.6046
▁Ausstattung	-11.605
▁Fortführung	-11.605
▁Ausbreitung	-11.6051
▁Erörterung	-11.6052
▁global	-11.6053
▁Gedächtnis	-11.6054
▁bekundet	-11.6055
▁nachvollziehbar	-11.6059
▁Botschafter	-11.6061
▁sexueller	-11.6063
▁Wechsel	-11.6068
▁Stammzellen	-11.607
▁gravierenden	-11.607
▁verübt	-11.6071
▁Hass	-11.6072
Steuer	-11.6075
▁Kinderarbeit	-11.6077
▁globalisierten	-11.6077
▁spürbar	-11.6081
förderung	-11.6082
ir	-11.6087
▁übermäßigen	-11.6089
Glücklicherweise	-11.609
▁demografischen	-11.6093
▁Täter	-11.6095
am	-11.6098
▁beunruhigend	-11.6099
▁echtes	-11.6101
Menschenverstand	-11.6104
▁chemische	-11.6105
▁tragische	-11.6105
▁sch	-11.6106
▁gesunken	-11.6109
Bendit	-11.6109
▁Costa	-11.611
v	-11.611
J	-11.6113
sa	-11.6114
enden	-11.6115
▁nenne	-11.6115
▁Nachbarländer	-11.6116
istische	-11.6124
▁Byrne	-11.6129
▁angesiedelt	-11.6129
▁Vom	-11.613
▁Straf	-11.613
▁Einsicht	-11.6131
▁Rand	-11.6135
Armutsbekämpfung	-11.6138
▁absoluten	-11.614
sinstruments	-11.6141
▁Wirkungen	-11.6142
sarbeiten	-11.6145
sförderung	-11.6147
▁Vereinheitlich	-11.6149
▁beheben	-11.6149
▁Cohn	-11.6149
▁unterhalb	-11.615
Fundamentalismus	-11.6152
▁kollektiven	-11.6153
▁Vermögen	-11.6153
▁potenziell	-11.6155
▁Ressource	-11.6155
▁kollektive	-11.6159
▁Referendums	-11.616
projekte	-11.6161
na	-11.6164
▁Schweigen	-11.6164
▁Erwerb	-11.6165
Be	-11.6165
▁IV	-11.6166
gebieten	-11.6169
▁drängt	-11.6172
▁vage	-11.6177
gebiete	-11.6178
▁Sonntag	-11.6189
▁realisieren	-11.6189
▁Maul	-11.6189
▁regelt	-11.6189
▁weitreichende	-11.6191
sentscheidungen	-11.6193
▁Zugehörigkeit	-11.6194
▁Gruppierungen	-11.6196
▁effizientere	-11.62
▁vollziehen	-11.6201
svorschlägen	-11.6202
▁scheitern	-11.6209
▁Gegenwart	-11.6209
▁Kunst	-11.621
▁Staatsführung	-11.6211
▁mittelfristig	-11.6211
ill	-11.6215
▁Weltgesundheits	-11.6219
▁erreichte	-11.6221
▁optimal	-11.6225
sziele	-11.6226
▁willen	-11.6227
wert	-11.6228
▁heimgesucht	-11.6229
▁Know	-11.6229
▁Länge	-11.6229
▁Roten	-11.6232
uote	-11.6233
▁begünstigen	-11.6233
▁hochwertigen	-11.6238
▁billiger	-11.6239
▁solidarisch	-11.6239
▁km	-11.624
▁erhielten	-11.6242
▁laufende	-11.6244
▁meist	-11.6249
▁Crespo	-11.6249
▁Stillstand	-11.6249
▁zurückzukehren	-11.6249
▁begeben	-11.625
▁geeigneter	-11.6251
▁Nationalismus	-11.6257
bezogenen	-11.6261
▁Modelle	-11.6266
▁entzogen	-11.627
▁förderlich	-11.627
▁Eigen	-11.6272
▁regulieren	-11.6272
▁klug	-11.6274
▁Abgaben	-11.6275
▁erheblicher	-11.6279
technologien	-11.6285
vor	-11.6285
▁Bangemann	-11.629
▁Belgrad	-11.629
▁Ausstellung	-11.6294
▁Dezentralisier	-11.6295
▁Stiftung	-11.6295
▁anhaltende	-11.6296
▁bedingt	-11.6296
▁Charakters	-11.6298
▁erklärten	-11.6298
▁extremen	-11.6299
▁Einkommens	-11.6303
sleistungen	-11.6305
▁Australien	-11.631
▁ergebenden	-11.6311
▁jedermann	-11.6311
▁diskutierten	-11.6314
▁Rauchen	-11.6322
Plan	-11.6326
▁umfassendere	-11.6328
▁fortgeschritten	-11.6328
▁realisiert	-11.6331
ebene	-11.6334
▁Zertifizierung	-11.6337
▁irakische	-11.6337
▁Rentensysteme	-11.634
▁Italiens	-11.6341
▁Afrikanischen	-11.6349
▁hervorrufen	-11.6351
▁abzuhalten	-11.6352
▁Inhalts	-11.6357
Ungleichgewichte	-11.6357
▁loben	-11.6357
▁Eingang	-11.6359
▁Spekulation	-11.636
▁Luftraums	-11.6362
▁objektiven	-11.6363
▁Geltung	-11.6364
▁Russischen	-11.6366
▁Atlantik	-11.6368
▁Bewahrung	-11.6371
▁Äthiopien	-11.6371
▁zweites	-11.6371
▁soviel	-11.6373
▁Binnengrenzen	-11.6373
▁annehmbar	-11.6375
▁Nachbarstaaten	-11.6377
▁nachmittag	-11.6379
▁afghanischen	-11.6387
▁Sprecher	-11.6387
▁ganzes	-11.6387
▁radikale	-11.6388
▁belarussische	-11.6391
▁beraubt	-11.6391
▁Uran	-11.6392
▁Zugriff	-11.6392
▁Bezahlung	-11.6392
▁sicherstellt	-11.6392
▁anhaltenden	-11.6394
▁Alters	-11.6401
▁Biokraftstoffe	-11.6403
▁Erzeugern	-11.6403
szeitraum	-11.6406
▁Orten	-11.6407
▁gewiß	-11.6412
▁Pfund	-11.6412
▁zuhören	-11.6414
problematik	-11.6417
▁APS	-11.6421
▁umfassenderen	-11.6423
▁Häuser	-11.6423
▁Kraftfahrzeug	-11.6424
probleme	-11.6426
▁Lukaschenko	-11.6428
▁einzugreifen	-11.6432
▁blicken	-11.6436
▁erschüttert	-11.6441
▁Deutschen	-11.6446
▁Volks	-11.6448
▁isoliert	-11.6449
▁Eigenschaften	-11.6451
▁Jedenfalls	-11.6453
▁Einzelpersonen	-11.6457
▁Rücken	-11.646
▁Verkehrsträger	-11.6462
▁WHO	-11.6464
▁Realitäten	-11.6466
▁Na	-11.647
Delegation	-11.647
▁Absicherung	-11.6474
▁abgeändert	-11.6474
▁Resultat	-11.648
▁unlauteren	-11.648
▁Karte	-11.6481
▁Förder	-11.6482
▁gerichteten	-11.6483
▁Besorgnisse	-11.6483
Dollar	-11.6487
▁verbindet	-11.6494
▁Kinderbetreuung	-11.6494
▁Verbrauchers	-11.6499
▁aufstellen	-11.65
▁Kroatiens	-11.6501
▁Auskunft	-11.6503
▁Bilder	-11.6506
▁zollen	-11.6507
▁Wohle	-11.6508
▁Tschad	-11.6515
▁jugoslawischen	-11.6515
▁Tausenden	-11.6515
▁löst	-11.6515
macht	-11.6518
▁Halbzeit	-11.652
▁Resolutionen	-11.652
▁Zentralbanken	-11.6523
läßlich	-11.6535
▁herauszufinden	-11.6536
▁gleichgültig	-11.6536
▁verzichtet	-11.6537
shaushalts	-11.654
▁Elektro	-11.6543
sgruppe	-11.6549
▁Abhilfe	-11.6554
spraktiken	-11.6554
▁rechtfertigt	-11.6556
▁vermag	-11.6556
▁sammeln	-11.6556
▁weitermachen	-11.6558
▁angestrebten	-11.656
sregierung	-11.656
skräfte	-11.6561
▁Soforthilfe	-11.6561
damaligen	-11.6565
▁zentrales	-11.6566
▁Zeitalter	-11.6567
Systems	-11.6567
▁Nummer	-11.6569
▁Geldpolitik	-11.6573
▁historisch	-11.6574
▁ausführlichen	-11.6575
▁Eigentlich	-11.6577
▁fortgeführt	-11.6577
▁erwerben	-11.6578
▁Muttersprache	-11.6579
▁zufällig	-11.6581
▁aufzugeben	-11.6582
▁kohärenten	-11.6584
▁Abänderungen	-11.6592
▁Interesses	-11.6598
Vertragsparteien	-11.6602
▁Anstrengung	-11.6602
▁Kriege	-11.6609
▁Mittelbetriebe	-11.6609
SL	-11.661
▁ausarbeiten	-11.6611
haushaltsplans	-11.6612
▁bilateraler	-11.6614
staatliche	-11.6615
▁dortigen	-11.6617
▁bedeutend	-11.6619
▁Berlusconi	-11.6619
▁Klauenseuche	-11.6619
▁Biomasse	-11.6619
▁vorangekommen	-11.6619
▁pflegen	-11.6619
fischerei	-11.6619
▁zeichnet	-11.662
▁Umweltbereich	-11.662
ma	-11.662
▁Patente	-11.6625
▁einschlagen	-11.6626
▁Kranken	-11.6626
▁Massaker	-11.6627
▁Berichtigungs	-11.663
▁detaillierten	-11.6636
▁Lobbyisten	-11.6641
▁sicherheits	-11.6642
▁niedrigere	-11.6651
▁Werbe	-11.6656
▁Verlaufe	-11.6656
▁Ebenfalls	-11.6661
▁Zusammenfassung	-11.6661
▁Liga	-11.6661
▁Profite	-11.6662
▁beizutreten	-11.6664
▁Alzheimer	-11.6665
▁Ansprüche	-11.6669
▁brauche	-11.6669
Programme	-11.6671
▁skeptisch	-11.6672
▁Haag	-11.6673
▁Störungen	-11.6675
▁Englisch	-11.6675
satz	-11.6678
▁Rehn	-11.6682
▁entfallen	-11.6682
▁Aktien	-11.6686
▁Dimensionen	-11.6691
programmen	-11.6693
▁Industrieländer	-11.6695
▁mündlich	-11.6697
▁aufrecht	-11.67
▁Datenbank	-11.6701
▁erstreckt	-11.6703
▁Embryonen	-11.6703
freulicherweise	-11.6703
▁machbar	-11.6703
▁unterbinden	-11.6704
▁anwesenden	-11.6721
▁vorangehen	-11.6725
▁worin	-11.6725
▁Rohstoff	-11.6726
verordnung	-11.6727
▁Rüstungs	-11.6728
▁achtet	-11.673
ität	-11.6739
▁Ernst	-11.6741
▁Pfeilers	-11.6743
▁Manchmal	-11.6745
▁Festigung	-11.6745
▁Deutlichkeit	-11.6745
▁überarbeiten	-11.6747
▁Phasen	-11.6748
angehörige	-11.6749
li	-11.6749
▁Unterschriften	-11.675
▁vorigen	-11.6753
▁diskriminierend	-11.6757
▁Vorgang	-11.6763
▁erstaunlich	-11.6766
▁gezielt	-11.6767
bereiche	-11.6768
▁mutig	-11.6769
▁erfassen	-11.677
▁Schiffs	-11.6782
▁maximale	-11.6787
▁Schwung	-11.6788
▁bekennen	-11.6791
▁Portugals	-11.6793
▁Anschuldigungen	-11.6794
▁Übergangszeit	-11.6798
▁komplex	-11.6799
▁schwachen	-11.6799
▁ereignet	-11.6802
▁Bewertungen	-11.6808
▁Heranführung	-11.6809
▁geknüpft	-11.6809
▁unterrichten	-11.6809
▁England	-11.6809
▁Übrigens	-11.6811
▁verzögert	-11.6812
▁Umweltverträg	-11.6813
▁TEN	-11.6814
▁Ausgabe	-11.6817
▁unternommenen	-11.6818
▁Inspektionen	-11.6819
spezifische	-11.6822
lai	-11.6824
sprojekte	-11.6829
▁gelitten	-11.683
▁Größenordnung	-11.683
▁Forstwirtschaft	-11.683
▁anti	-11.6837
▁Film	-11.6837
▁Erscheinung	-11.6839
me	-11.684
▁Fische	-11.6851
▁herangezogen	-11.6851
▁abschaffen	-11.6852
▁identifizieren	-11.6852
verbindungen	-11.6856
▁fühle	-11.6858
▁irgend	-11.6859
▁Verbots	-11.6861
▁geringeren	-11.6866
nd	-11.6866
▁heikle	-11.6867
▁sichert	-11.6867
▁benötigten	-11.6869
▁verschlimmert	-11.6873
agentur	-11.6875
▁wartet	-11.6876
▁ermittelt	-11.6878
▁Provinz	-11.6878
▁Anregung	-11.6878
▁Aufträge	-11.6882
▁unterbreiteten	-11.6884
▁Angola	-11.689
▁Beitrags	-11.6891
▁Antrags	-11.6892
lage	-11.6897
▁angegriffen	-11.6899
marktes	-11.6899
▁Bürgerkrieg	-11.6906
sstellen	-11.6913
▁Wogau	-11.6916
▁ausübt	-11.6916
▁Meeresumwelt	-11.6916
▁Vorwurf	-11.6916
▁Unfähigkeit	-11.6916
▁Erbringung	-11.6917
▁Großunternehmen	-11.6917
▁Vorzüge	-11.6926
▁Versuchung	-11.6929
▁Netzen	-11.6929
▁gefährdeten	-11.6932
▁Arbeitskräften	-11.6937
▁Verständigung	-11.6937
▁veranlaßt	-11.6937
▁vernichtet	-11.6937
▁belassen	-11.6937
▁jenes	-11.694
kultur	-11.6944
▁Verkehrssektor	-11.6946
smitteln	-11.6949
▁Religionen	-11.6949
▁zusammenfassen	-11.695
▁wahrhaft	-11.6951
▁Elektrizitäts	-11.6954
▁übermäßig	-11.6956
▁Anträgen	-11.6961
▁Zuweisung	-11.6965
▁vierten	-11.6967
▁Flüge	-11.697
▁Ehe	-11.6972
▁ausführen	-11.6976
änderungsanträge	-11.6977
▁Verschuldung	-11.698
▁untersagt	-11.698
▁Generaldirektor	-11.6981
▁Intoleranz	-11.6981
▁denkbar	-11.6982
märkte	-11.6983
▁Straftat	-11.6983
legen	-11.6985
Wirtschaft	-11.6986
▁friedlich	-11.6986
gehen	-11.6987
lei	-11.6995
reform	-11.6996
▁sinnlos	-11.6998
▁Währungen	-11.7
▁Selbstverständ	-11.7002
▁gehindert	-11.7002
▁Güterverkehr	-11.7004
▁Verteidigungs	-11.701
▁souveränen	-11.701
snormen	-11.701
▁umzugehen	-11.7013
▁ausgewogener	-11.7013
spotenzial	-11.7014
▁angestellt	-11.7014
▁Sorgfalt	-11.7023
▁Kirchen	-11.7023
▁Azoren	-11.7024
fall	-11.7028
▁Rating	-11.7029
rechtecharta	-11.703
▁entnehmen	-11.7034
Altersversorgung	-11.7036
saufwand	-11.704
▁hebt	-11.7043
▁David	-11.7046
▁verbietet	-11.7046
▁ausbauen	-11.7046
▁Besonderen	-11.7053
▁zutreffend	-11.7053
▁enthaltene	-11.7053
▁gerückt	-11.7061
▁Vollstreckung	-11.7068
▁verlagert	-11.7068
▁meistern	-11.7068
▁markt	-11.7068
▁Elementen	-11.7068
▁Flagge	-11.7071
skampagne	-11.7074
▁Gutes	-11.7075
▁alleinige	-11.7076
▁stimmte	-11.7076
▁einseitigen	-11.7077
▁Betriebs	-11.7078
▁Rechtsordnung	-11.708
▁zustimme	-11.7087
▁traurig	-11.7088
▁Konferenzen	-11.7088
▁John	-11.7089
▁Benachteiligung	-11.7089
▁beschließt	-11.7089
▁erledigt	-11.7089
▁gestartet	-11.7089
▁getätigt	-11.7089
▁unweigerlich	-11.7089
▁zuallererst	-11.7089
▁Handlungsbedarf	-11.709
▁Argumentation	-11.709
▁schien	-11.7093
▁englischen	-11.7093
▁melden	-11.7104
▁wiederholten	-11.7106
▁legitime	-11.7108
▁vornehmlich	-11.7111
▁weitestgehend	-11.7111
▁Bonino	-11.7111
▁anzustreben	-11.7111
▁Gegenden	-11.7111
▁liberale	-11.7114
mit	-11.7114
▁Delors	-11.7115
▁Sanktion	-11.7119
squellen	-11.7121
behörden	-11.7124
▁dritter	-11.7125
jährigen	-11.7126
▁Geschäfts	-11.7129
▁spezifischer	-11.7129
▁Verfahrensweise	-11.7129
▁schreibt	-11.7132
▁exportiert	-11.7133
▁Risikokapital	-11.7134
▁Grundrechten	-11.7134
▁optimale	-11.7137
▁Bewegungen	-11.714
▁verbleiben	-11.714
srahmenprogramm	-11.7142
▁Rente	-11.7142
▁schöne	-11.7142
di	-11.7143
verteilung	-11.7143
bildung	-11.7146
▁essen	-11.7149
verbände	-11.7152
▁Fest	-11.7154
▁entdeckt	-11.7155
deraufgenommen	-11.7155
INI	-11.7155
▁frühen	-11.7155
▁Krisensituation	-11.7156
▁Überzeugungen	-11.7157
▁Dossiers	-11.7158
technische	-11.716
hand	-11.7164
Mindeststandards	-11.7168
schen	-11.7173
▁Sa	-11.7174
▁hinterlassen	-11.7178
▁Viel	-11.7182
▁anzuschließen	-11.7182
▁Wiederholung	-11.7183
▁Inhaftierung	-11.7184
▁Ratstagung	-11.7184
▁Warnung	-11.7185
▁LIFE	-11.7185
zahl	-11.7189
▁Verhandlungs	-11.719
▁Nahost	-11.7192
▁fürchten	-11.7192
▁Kernkraft	-11.7194
▁jenem	-11.7196
▁Arafat	-11.72
▁Materialien	-11.72
▁Schwelle	-11.7202
COS	-11.721
▁Fahrgäste	-11.721
▁Säulen	-11.7213
▁Gesichtspunkten	-11.7214
verhandlungen	-11.7215
ger	-11.7219
▁einheitlicher	-11.7221
▁Entweder	-11.7222
▁Reihenfolge	-11.7222
▁angepaßt	-11.7223
▁Krankenhaus	-11.7224
▁wendet	-11.7226
▁geringsten	-11.7227
▁Ausschreibung	-11.7229
▁sozialem	-11.7236
▁Veranstaltung	-11.7237
sergebnis	-11.724
▁Bestandteile	-11.7242
orientierten	-11.7243
austausch	-11.7243
▁berechtigten	-11.7244
▁entsprochen	-11.7244
▁Gonz	-11.7244
▁ausgewiesen	-11.7246
▁Image	-11.7247
weltfreundliche	-11.7248
▁politischem	-11.7253
▁vorläufigen	-11.7254
▁eingeleiteten	-11.7257
wie	-11.7257
▁horizontale	-11.7262
▁Nordafrika	-11.7263
▁Schritten	-11.7263
▁Innenminister	-11.7265
▁Tote	-11.7265
▁asiatischen	-11.7266
▁Oostlander	-11.7266
▁Ungeachtet	-11.7266
▁Weigerung	-11.7266
▁verwandeln	-11.7266
▁gefreut	-11.7266
▁freigelassen	-11.7266
pf	-11.7268
▁Höchst	-11.7271
▁Saatgut	-11.7272
Ich	-11.7274
▁endet	-11.7275
▁verheerende	-11.7276
▁Bediensteten	-11.7279
▁Formel	-11.728
▁Umweltausschuss	-11.7283
▁Mitteilungen	-11.7284
▁gesetzten	-11.7288
Ivoire	-11.7289
▁Legitimation	-11.7289
▁problemlos	-11.7289
▁Parallel	-11.7295
▁Feststellungen	-11.7298
▁anregen	-11.7298
▁Allgemeine	-11.7306
dereingliederung	-11.7311
▁Osttimor	-11.7311
▁nützt	-11.7311
▁Rückübernahme	-11.7311
▁auszusetzen	-11.7315
▁polizeiliche	-11.732
▁relevant	-11.7322
▁jeweilige	-11.7322
dervereinigung	-11.7327
▁Rio	-11.7329
▁Letztendlich	-11.7333
▁anstrebt	-11.7333
▁hinarbeiten	-11.7335
▁Billigung	-11.7335
Energieverbrauch	-11.7335
▁dringender	-11.7339
sentwurfs	-11.734
▁orientiert	-11.7342
▁explizit	-11.7348
▁Arktis	-11.7351
▁Euroraums	-11.7354
▁Verschwendung	-11.7355
▁Möglicherweise	-11.7356
Mitglieder	-11.7358
▁Assistenten	-11.7358
▁meinerseits	-11.7362
▁Kreis	-11.7362
Aufsichtsbehörde	-11.7364
▁vorbringen	-11.7367
▁Kilometer	-11.7371
▁Bekenntnis	-11.7372
▁Hygiene	-11.7374
▁Dasselbe	-11.7378
▁verwalten	-11.7378
▁Cox	-11.7379
▁Exekutive	-11.7379
ak	-11.7379
▁Berufe	-11.738
▁ernstes	-11.738
▁Meilenstein	-11.7381
▁erwachsen	-11.7385
▁frühzeitig	-11.7386
▁Ausrüstung	-11.7386
▁erlangt	-11.739
▁ruhig	-11.739
▁nachgedacht	-11.7401
▁Vergnügen	-11.7401
▁wohin	-11.7401
▁Geste	-11.7402
▁unvermeidlich	-11.7403
▁Fehlern	-11.7404
▁Erforschung	-11.7405
▁energie	-11.7405
▁demonstriert	-11.7409
sinstitutionen	-11.7419
▁fühlt	-11.742
weiterentwickeln	-11.7424
▁Fontaine	-11.7424
▁Rentabilität	-11.7424
status	-11.7426
▁Stützung	-11.7426
▁Direktzahlungen	-11.7426
▁Nuklear	-11.7427
ce	-11.7428
▁unterziehen	-11.7429
▁einzunehmen	-11.7429
▁Chinesen	-11.7433
▁Wesentliche	-11.7444
▁Herrschaft	-11.7445
▁verzögern	-11.7446
▁wem	-11.7447
▁Se	-11.7447
▁Flucht	-11.7448
▁betraf	-11.7454
Erweiterung	-11.7458
▁mitten	-11.7462
▁Schienen	-11.7464
▁Plänen	-11.7465
▁Bekleidungs	-11.7467
▁Evans	-11.7469
▁walten	-11.7469
▁Händler	-11.7469
▁Erkrankungen	-11.7472
▁erneuten	-11.7473
▁erhöhte	-11.7475
▁gehörte	-11.7475
▁gestoßen	-11.7477
▁menschlicher	-11.7477
Herzegowina	-11.7481
▁Argumenten	-11.7481
▁mancher	-11.7482
srate	-11.7483
▁Fülle	-11.7485
▁Vorbehalt	-11.7486
▁abschließende	-11.749
▁Fuß	-11.7492
▁angedeutet	-11.7492
▁Kyi	-11.7492
▁unterschätzt	-11.7492
▁Vermittler	-11.7493
▁Fracht	-11.7496
▁Partnerschafts	-11.7497
▁Barrieren	-11.7499
▁Doppel	-11.75
▁betonte	-11.7502
▁Waffe	-11.7503
▁schwächsten	-11.7504
europäischen	-11.7507
erstatter	-11.7509
▁Ausschluss	-11.7511
▁wirksamere	-11.7512
▁Malmström	-11.7515
▁aufzeigen	-11.7515
▁bewahrt	-11.7515
▁hingenommen	-11.7515
▁Dach	-11.7517
▁geschätzten	-11.752
▁Dritte	-11.7521
eine	-11.7522
▁Bestes	-11.7523
▁menschenwürdige	-11.7525
sniveaus	-11.7525
▁hieß	-11.7529
▁Zone	-11.753
▁Plenartagung	-11.753
weg	-11.753
▁Mehrjahres	-11.7532
▁Umlauf	-11.7535
▁Luftqualität	-11.7536
▁abgelaufen	-11.7538
▁beschreiben	-11.7538
▁angekündigten	-11.7542
▁tue	-11.7543
▁Schüler	-11.7545
▁Adoption	-11.7546
sanwaltschaft	-11.7549
leistungen	-11.755
▁höherer	-11.755
▁Schiffbau	-11.7555
▁Bio	-11.756
Regelung	-11.7564
▁Veterinär	-11.7568
▁Kapitals	-11.757
▁polizeilichen	-11.7573
▁überzeugend	-11.7573
In	-11.7574
ton	-11.7577
▁Pestiziden	-11.7578
▁Athen	-11.7583
▁Nielson	-11.7583
▁vernachlässigen	-11.7583
harmonisierung	-11.7583
▁feiern	-11.7583
Protokolls	-11.7585
▁einschließen	-11.7586
▁vergangene	-11.7586
▁Basel	-11.7588
▁durchführt	-11.759
▁einfließen	-11.759
▁Gleiches	-11.7591
▁Embargo	-11.7594
Vorschriften	-11.7599
▁Schreyer	-11.7606
▁entfernen	-11.7606
▁Rothley	-11.7606
▁hindert	-11.7607
▁empfinden	-11.7613
durch	-11.7613
▁Somalia	-11.7627
▁Sozialdumping	-11.7627
▁Annan	-11.7627
zuentwickeln	-11.7629
▁wagen	-11.7631
squote	-11.7633
▁Diagnose	-11.7641
losigkeit	-11.7649
▁Versagen	-11.7651
▁Herstellern	-11.7651
▁gültig	-11.7652
▁Sevilla	-11.7653
▁Vorhandensein	-11.7653
▁Zivilluftfahrt	-11.7653
▁Barrot	-11.7653
▁anstellen	-11.7653
defizit	-11.7654
▁unterzeichneten	-11.7654
▁hegen	-11.7656
▁Häftlinge	-11.766
kriminalität	-11.7662
▁extreme	-11.7666
Agenda	-11.7669
▁Ware	-11.767
▁zurückgehen	-11.7674
ja	-11.7675
▁Troika	-11.7675
▁übereinstimmt	-11.7676
▁bedienen	-11.7676
▁auszugleichen	-11.7676
▁schlichtweg	-11.7676
▁vorkommen	-11.7676
▁widersetzen	-11.7678
▁unbefriedigend	-11.768
▁Periode	-11.7682
▁Bewerberländer	-11.7689
▁getrieben	-11.7692
▁generellen	-11.7693
ierten	-11.7695
▁großartigen	-11.7696
▁Vorteilen	-11.7697
Entwicklung	-11.7697
▁konform	-11.7698
▁UCLAF	-11.7699
sfrage	-11.7699
▁vertrieben	-11.7708
▁Kleinst	-11.7709
▁Todesfälle	-11.7712
▁Angehörige	-11.7713
▁ökologischer	-11.7714
▁Zuteilung	-11.7716
staat	-11.7718
▁sinken	-11.7722
▁Mulder	-11.7722
▁Finger	-11.7722
▁Russen	-11.7722
▁Anschluß	-11.7723
information	-11.7723
▁komplett	-11.7724
▁Kanarische	-11.7728
prävention	-11.7728
▁Lange	-11.773
▁Schein	-11.7734
▁Amerikanern	-11.7741
▁IAO	-11.7743
▁verkündet	-11.7744
▁auszudrücken	-11.7746
▁Essen	-11.7746
▁zweieinhalb	-11.7747
▁Textilindustrie	-11.7748
▁engeren	-11.7748
▁Münzen	-11.7752
▁angestrebte	-11.7755
▁Di	-11.7755
▁beides	-11.776
▁entschlossene	-11.776
▁fünfzig	-11.776
statut	-11.7761
▁ordnungsgemäßen	-11.7762
▁eingehender	-11.7763
res	-11.7766
▁c	-11.7766
▁vorgezogen	-11.7767
▁Einzelfall	-11.7767
▁überwältigende	-11.7768
▁angesprochene	-11.7771
ik	-11.7772
▁for	-11.7772
▁mithin	-11.7773
▁operative	-11.7778
▁angemessenes	-11.7779
▁Zusicherung	-11.7779
▁koordinierten	-11.778
▁Prognosen	-11.7781
▁Schienenverkehr	-11.7782
▁restliche	-11.7783
▁ideologischen	-11.7785
▁Chirac	-11.7793
▁Sarkozy	-11.7793
▁abzuwarten	-11.7793
▁Festsetzung	-11.7793
▁Bestehen	-11.7797
▁berechtigte	-11.7798
▁Lagerung	-11.7798
▁bittet	-11.7806
▁Anklage	-11.7806
sreform	-11.7809
▁stößt	-11.7812
▁fragt	-11.7814
▁missachtet	-11.7816
▁mitgewirkt	-11.7816
▁Nordsee	-11.7816
▁verläuft	-11.7816
▁starten	-11.7816
▁Anstoß	-11.7817
▁Rechtsrahmens	-11.7825
DEM	-11.7827
institutioneller	-11.7827
▁eingeschlagen	-11.783
▁horizontalen	-11.7835
▁Zuschüsse	-11.7838
▁systematischen	-11.7838
▁Hinrichtungen	-11.7839
▁Cardiff	-11.784
▁zutrifft	-11.784
▁Extremisten	-11.784
▁Beschlußfassung	-11.784
▁hinfällig	-11.784
▁Hüterin	-11.7841
he	-11.7842
▁Zahlreiche	-11.7847
▁Sekunden	-11.7849
▁galt	-11.785
▁Vater	-11.785
▁Einverständnis	-11.7853
▁Geißel	-11.7853
▁iranische	-11.7853
produkten	-11.7854
haushaltsplan	-11.7859
▁Feuer	-11.7859
ziel	-11.786
▁flexiblen	-11.7861
▁Tragödien	-11.7863
▁Konföderale	-11.7863
▁Malaria	-11.7863
▁Mandelson	-11.7863
▁auszustatten	-11.7863
▁benachbarte	-11.7863
▁öffnet	-11.7863
▁deckt	-11.7864
▁benannt	-11.787
▁finanzierten	-11.787
▁größtmöglichen	-11.7871
▁gestanden	-11.7873
▁weigert	-11.7874
▁Kongress	-11.7875
▁Institut	-11.7879
▁zusammenhängend	-11.7881
standards	-11.7883
▁bekannte	-11.7884
man	-11.7887
▁zusammengefasst	-11.7887
▁Daseinsvorsorge	-11.7887
Bestandsaufnahme	-11.7888
▁Strecke	-11.7889
▁Reserven	-11.7892
▁regiert	-11.7895
Gesprächspartner	-11.7896
▁unterschätzen	-11.7897
▁gebührende	-11.7898
▁zuverlässige	-11.7904
▁Cashman	-11.7911
▁Sklaverei	-11.7911
▁Seitdem	-11.7911
▁versehen	-11.7915
▁nötige	-11.7929
▁Plans	-11.793
▁beziehungsweise	-11.7935
▁Umweltschäden	-11.7936
bestände	-11.7938
▁eindeutiger	-11.7941
▁Iren	-11.7945
▁Buchstabe	-11.7949
▁Beileid	-11.7951
▁notwendiger	-11.7952
▁ähnlicher	-11.7956
Nutzen	-11.7957
▁Herzlich	-11.7958
▁Rechtmäßigkeit	-11.7959
▁bewältigt	-11.7959
▁IND	-11.7959
▁Verbringung	-11.7959
▁zahlt	-11.7959
);	-11.7959
▁Bewußtsein	-11.796
▁Proteste	-11.796
▁Bürgermeister	-11.796
so	-11.7961
per	-11.7963
▁Spitzen	-11.7969
▁exakt	-11.7969
▁Programmplanung	-11.7972
mangel	-11.7973
technik	-11.7976
▁erworben	-11.7979
▁ärmeren	-11.798
▁umstritten	-11.7982
▁strebt	-11.7982
▁Vorreiterrolle	-11.7982
▁beschreiten	-11.7982
▁Konzertierung	-11.7983
Tagung	-11.7983
Mitteln	-11.7983
▁gelenkt	-11.7985
sgemeinschaft	-11.7989
▁Entfernung	-11.7993
▁Resultate	-11.7994
ion	-11.7999
▁Gefangene	-11.8002
▁geredet	-11.8003
▁tot	-11.8005
▁Initiativrecht	-11.8006
▁Nichteinhaltung	-11.8006
▁Obama	-11.8006
▁wecken	-11.8007
▁Kampagnen	-11.8007
▁CIA	-11.8007
Maßnahmen	-11.8008
▁vergleichbare	-11.8009
▁geografische	-11.8009
▁Fortbildung	-11.8011
▁sozialistische	-11.8012
▁Einwohnern	-11.8014
▁Verstößen	-11.8016
▁unbestreitbar	-11.802
▁herrschenden	-11.8029
▁Arm	-11.8029
▁erwägen	-11.803
▁genehmigen	-11.8031
▁Hätte	-11.8031
▁Dumping	-11.8032
abkommens	-11.8032
▁Flugverkehr	-11.8035
▁imperialistisch	-11.804
▁gewünschte	-11.804
▁Fast	-11.8041
voraussetzung	-11.8041
▁Fünftens	-11.805
▁Einspruch	-11.8055
▁fungieren	-11.8056
▁Olivenöl	-11.8057
▁Fangmöglichkeit	-11.8058
▁erachten	-11.8062
▁Maschinen	-11.8065
▁Kabeljau	-11.8067
▁jedwede	-11.8072
▁verzeichnet	-11.8078
▁Einschüchterung	-11.8079
▁erhebt	-11.808
▁dahinter	-11.8081
▁Lama	-11.8083
▁Erasmus	-11.8083
▁saubere	-11.8084
▁Donau	-11.8087
▁Hauptproblem	-11.8088
▁Eigentumsrechte	-11.8088
▁unsererseits	-11.8088
▁verursachte	-11.8089
▁möglicher	-11.8089
▁Repression	-11.809
▁Zentren	-11.8091
▁religiöser	-11.8091
▁Grundprinzip	-11.8094
▁Zinsen	-11.8095
▁irgendein	-11.8096
▁sitzt	-11.8097
sbereichs	-11.8098
▁Beschreibung	-11.8103
▁Velzen	-11.8103
▁Mauretanien	-11.8106
nahmeregelungen	-11.8108
▁Behinderte	-11.8112
▁Europarats	-11.8116
▁Abgabe	-11.8116
wissensbasierten	-11.8124
▁Ber	-11.8125
▁verwickelt	-11.8127
▁Unzufriedenheit	-11.8127
▁entstehenden	-11.8128
▁feststellt	-11.8128
▁Laufzeit	-11.8128
▁Umgestaltung	-11.8128
▁einsehen	-11.813
▁ordentlich	-11.8131
▁höchstens	-11.8131
▁zentral	-11.8132
▁formell	-11.8133
▁Standpunktes	-11.8134
▁zweier	-11.8135
▁Luftverschmutz	-11.8137
▁Moral	-11.8139
▁ausgewählt	-11.814
▁Linien	-11.8145
▁McCreevy	-11.8152
▁vorzubeugen	-11.8152
▁gewandt	-11.8152
▁Kriegs	-11.8154
▁günstig	-11.8157
▁unterbrechen	-11.8159
sbedarf	-11.8161
▁breiteren	-11.8165
▁mitwirken	-11.8165
▁Osterweiterung	-11.8165
▁Betrachtung	-11.8165
▁Rohstoffen	-11.8166
▁tägliche	-11.8171
▁auftritt	-11.8171
gesetz	-11.8173
▁festgenommen	-11.8176
▁Biokraftstoffen	-11.8179
druck	-11.8184
▁Finanzrahmens	-11.8188
▁jen	-11.8188
▁beschämend	-11.8189
▁Transfer	-11.8192
▁beschuldigt	-11.8194
▁eingeht	-11.8199
beihilfen	-11.8199
▁Norm	-11.8199
▁Versprechungen	-11.82
▁aussenden	-11.82
nentwurf	-11.8205
regeln	-11.8208
▁abschließenden	-11.8209
▁überholt	-11.8209
▁Konventionen	-11.8217
▁bedeutsamen	-11.822
▁verwaltungs	-11.8222
▁versorgen	-11.8225
▁kooperieren	-11.8229
▁umwelt	-11.8234
ell	-11.8237
▁resultierenden	-11.824
▁erteile	-11.8244
▁grünen	-11.8245
▁privater	-11.8245
▁Bourlanges	-11.8249
▁Südkorea	-11.8249
▁Verzicht	-11.8249
▁erledigen	-11.8249
▁gestoppt	-11.8249
▁Grundsätzlich	-11.8249
Agenturen	-11.8258
▁Foren	-11.8259
▁Hürden	-11.8261
▁wolle	-11.8261
rechts	-11.8263
rechtsaktivisten	-11.8263
▁bestünde	-11.8265
▁Hauptziele	-11.8267
▁ehrgeiziges	-11.8272
▁drastische	-11.8272
▁Kaukasus	-11.8273
▁Lebensunterhalt	-11.8274
▁Verlierer	-11.8274
▁bißchen	-11.8274
▁gedauert	-11.8274
▁verfrüht	-11.8274
▁Merkel	-11.8274
▁mutige	-11.8277
▁Serbiens	-11.8283
▁Strecken	-11.8284
▁Gegenleistung	-11.8286
▁enthielt	-11.8286
▁eingeschlossen	-11.8288
▁Vertriebenen	-11.8289
▁vertieft	-11.829
rechtssituation	-11.8291
▁entwickelte	-11.8298
▁intern	-11.8298
▁Handhabung	-11.8299
▁gewillt	-11.8299
▁verbergen	-11.8299
▁vergrößern	-11.8299
▁Erfindungen	-11.8301
▁Sachverhalt	-11.831
▁Verspätung	-11.8311
Bürgerinitiative	-11.8323
Behrendt	-11.8324
▁Lulling	-11.8324
▁Medina	-11.8324
▁Unruhen	-11.8324
▁algerische	-11.8324
▁schlimm	-11.8325
pa	-11.8326
▁beherrscht	-11.8327
▁Neufassung	-11.833
▁Futtermitteln	-11.8333
▁Dell	-11.8334
▁alternativer	-11.8339
▁intensiviert	-11.834
grenzen	-11.8343
▁Randzio	-11.8348
Plath	-11.8348
▁unumgänglich	-11.8348
▁Agrarausgaben	-11.8349
paket	-11.8349
▁freiwilliger	-11.835
▁Führerschein	-11.8353
Krankheit	-11.8354
▁verfolgten	-11.8357
notwendigerweise	-11.8361
▁Befürchtung	-11.8361
▁effektivere	-11.8363
▁informelle	-11.8365
szeit	-11.8367
▁Amtes	-11.8369
▁Winter	-11.837
▁Vorzug	-11.8371
kette	-11.8372
▁Venezuela	-11.8373
▁Eskalation	-11.8373
▁Rücküberweisung	-11.8373
▁Nenner	-11.8376
skraft	-11.8381
nahme	-11.8381
▁Südens	-11.8383
▁nachgekommen	-11.8385
▁vorteilhaft	-11.8385
ete	-11.8388
▁Entsprechend	-11.8388
▁audiovisuelle	-11.839
▁Regelwerk	-11.839
erzeuger	-11.8393
▁Drittland	-11.8394
▁gebotenen	-11.8395
▁ausrichten	-11.8398
▁Investitions	-11.8402
▁deutet	-11.8403
▁schwache	-11.8403
▁konkretes	-11.8403
▁ansteigen	-11.8405
▁indes	-11.8407
erleichterungen	-11.8411
ert	-11.8411
▁Warenverkehr	-11.8412
▁entschiedene	-11.8413
▁la	-11.8414
▁latein	-11.8418
Mißtrauensantrag	-11.8419
Haushaltsführung	-11.8423
▁indonesische	-11.8423
▁Sierra	-11.8423
▁Ausgestaltung	-11.8426
▁westliche	-11.8426
ier	-11.8426
▁Flugsicherheit	-11.8427
▁Schau	-11.8427
▁unterstützte	-11.8432
▁vorübergehend	-11.8432
▁befugt	-11.8435
▁Opt	-11.844
sbemühungen	-11.8441
smitgliedern	-11.8442
Mission	-11.8444
serklärungen	-11.8445
▁Kraftfahrzeugen	-11.8447
▁verständigen	-11.8448
▁Entwicklungs	-11.8449
▁Gerichts	-11.845
▁Wachstumspakts	-11.8452
▁unzulässig	-11.8454
▁Elektrizität	-11.8454
überwachung	-11.8454
▁katastrophale	-11.8459
▁überraschend	-11.846
▁Nationalität	-11.8462
▁gründlichen	-11.8462
abhängigkeit	-11.8462
▁arme	-11.8462
▁eigen	-11.8462
Kriegsverbrechen	-11.8465
▁Personals	-11.8471
raum	-11.8471
▁zumeist	-11.8473
id	-11.8474
▁Verhäng	-11.8476
▁Extremismus	-11.8477
▁Langen	-11.8477
▁abzu	-11.8479
▁Inspektion	-11.8486
▁Klimaänderung	-11.8487
▁Wahlrecht	-11.8489
Übereinkommens	-11.8491
▁ausgeglichen	-11.8491
▁Bezugnahme	-11.8493
▁Bürgers	-11.8496
Beeinträchtigung	-11.8499
▁Empörung	-11.8499
▁aufzuzeigen	-11.8499
▁konzipiert	-11.8499
▁Block	-11.8499
▁geforderte	-11.8505
▁Derartige	-11.8505
▁Fern	-11.8507
Sch	-11.8507
▁Reformprozess	-11.851
Haushalts	-11.8514
▁Voraus	-11.8515
strukturen	-11.8517
▁Leiter	-11.8521
▁Modells	-11.8522
▁Bedürfnis	-11.8523
▁Kasachstan	-11.8524
▁intervenieren	-11.8524
▁transportiert	-11.8524
▁Siedlungen	-11.8524
▁Finanzhilfen	-11.8524
▁Genauso	-11.8524
▁indirekte	-11.8524
▁streiten	-11.8524
▁Berichtes	-11.8525
ziele	-11.8531
▁fortschrittlich	-11.8534
▁sprachliche	-11.8535
▁Spaltung	-11.8537
▁End	-11.8539
▁gerichtete	-11.8539
▁materiellen	-11.8539
▁Diktator	-11.8543
auswirkungen	-11.8546
▁Ruanda	-11.8549
▁Römische	-11.8549
▁unterschrieben	-11.8549
derhergestellt	-11.8549
tender	-11.855
▁Gefühle	-11.8551
▁Usbekistan	-11.8552
Kleinunternehmen	-11.8555
▁Unabhängig	-11.8561
▁Koexistenz	-11.8562
▁Zinssätze	-11.8566
▁Besondere	-11.8566
sposition	-11.8567
▁Oberste	-11.8573
▁Arbeitslose	-11.8573
▁Auftragsvergabe	-11.8575
▁Materie	-11.8575
▁Schlacht	-11.8575
▁Lebenserwartung	-11.8575
betriebe	-11.8576
teressengruppen	-11.858
▁Erläuterungen	-11.8581
vier	-11.8583
▁Normung	-11.8587
bewegung	-11.8588
▁Ausschreibungen	-11.8592
ze	-11.8593
▁Synergien	-11.8594
iv	-11.8596
ED	-11.8597
▁namentliche	-11.86
▁Ankara	-11.86
▁Identifizierung	-11.86
▁Palette	-11.86
▁Vertrieb	-11.8602
▁Errungenschaft	-11.8603
▁dynamischen	-11.8604
Süd	-11.8611
▁stabilisieren	-11.8613
▁repräsentiert	-11.8614
Preis	-11.8614
▁strategisch	-11.8618
▁durchgeführte	-11.862
▁Brennstoffe	-11.8622
▁justiziellen	-11.8624
▁Stolz	-11.8625
▁Transporte	-11.863
▁zögern	-11.8631
▁ausschließliche	-11.8633
▁Ra	-11.8634
▁versprechen	-11.8639
▁Rasse	-11.8643
▁ergänzende	-11.8644
▁gewerbliche	-11.8644
außergewöhnliche	-11.8647
▁teurer	-11.8649
▁Inhaber	-11.8651
▁verdoppeln	-11.8651
▁ermäßigte	-11.8651
▁Gewalttaten	-11.8651
▁festgesetzt	-11.8652
▁begegnet	-11.8652
▁eingeführten	-11.8653
▁ausführlicher	-11.8655
▁bedeutsame	-11.866
sgesellschaft	-11.8661
▁Freizeit	-11.8663
Nordische	-11.8663
▁Grundwerte	-11.8673
▁gebilligten	-11.8674
▁Gebot	-11.8676
▁Deckung	-11.8676
entgegenzuwirken	-11.8677
▁Titley	-11.8677
▁Auswertung	-11.8677
sbereichen	-11.8678
▁Freundschaft	-11.8682
▁Gehalt	-11.8688
▁innovativer	-11.8688
▁ethnischer	-11.869
▁Köln	-11.8694
▁erwarteten	-11.8699
▁grünes	-11.87
▁tausend	-11.8701
sstelle	-11.8702
▁Garc	-11.8702
▁betreibt	-11.8702
▁klarzustellen	-11.8704
▁Vorrechte	-11.8705
▁behandelten	-11.8708
▁Briten	-11.8709
▁Atom	-11.8711
lichkeitsprüfung	-11.8711
slosigkeit	-11.8712
mo	-11.8713
Z	-11.8715
▁Hochwasser	-11.8719
▁konstitutionell	-11.8719
steuern	-11.872
ou	-11.8724
verbrauchs	-11.8726
tend	-11.8728
zusammenführung	-11.8728
▁Bösch	-11.8728
▁Castro	-11.8728
▁Nepal	-11.8728
▁einzudämmen	-11.8728
▁ersichtlich	-11.8728
▁traditionell	-11.8731
gesch	-11.8741
▁erachte	-11.8743
▁Rechtssystem	-11.8744
▁liegende	-11.8749
▁Strafrechts	-11.8751
▁Schweine	-11.8752
▁Mais	-11.8752
Euro	-11.8752
▁Sammlung	-11.8754
▁arbeitslos	-11.8755
▁Vergütung	-11.8755
▁Isolation	-11.8757
▁Soll	-11.8758
▁Seuche	-11.876
▁Schwachstellen	-11.8761
▁erfolgreicher	-11.8765
▁dynamische	-11.8771
▁einzigartige	-11.8772
▁Verbände	-11.8772
▁indirekten	-11.8778
▁Zusammenfassend	-11.878
▁willkürlich	-11.878
▁praktischer	-11.8781
▁Schutzniveau	-11.8783
Timor	-11.8794
▁Vertreters	-11.8795
▁Muster	-11.8798
▁Kontakten	-11.8802
▁re	-11.8802
▁bestmöglichen	-11.8804
▁Binnen	-11.8805
▁Zentral	-11.8806
▁gewartet	-11.8806
▁weitesten	-11.8807
Reform	-11.8809
▁SOKRATES	-11.8809
sentscheidung	-11.881
do	-11.8817
▁Nationale	-11.8818
▁trat	-11.8821
Fonds	-11.8821
▁Mitbestimmung	-11.8826
▁Deutschlands	-11.8828
▁Dolmetscher	-11.8829
▁gekauft	-11.883
▁Demzufolge	-11.8832
▁abdecken	-11.8832
verfahrens	-11.8834
▁mittelständisch	-11.8834
▁aufzeigt	-11.884
▁Finanzmarkt	-11.8844
netz	-11.8847
▁stärkeres	-11.8847
▁weiten	-11.8849
▁Ermessen	-11.8851
▁öffentliches	-11.8853
▁brutale	-11.8855
▁Wandels	-11.8857
▁entfalten	-11.8858
▁vehement	-11.8858
▁designierte	-11.8858
▁zeitliche	-11.8863
▁erstrecken	-11.8864
▁wertvoll	-11.8866
▁Morde	-11.8868
▁Korrekturen	-11.8872
▁Konfrontation	-11.8873
▁Polens	-11.8873
▁CE	-11.8874
Artikel	-11.8875
Problem	-11.8876
ordnung	-11.8878
▁Anschlag	-11.888
▁konservativen	-11.8881
zeiten	-11.8883
▁Vergehen	-11.8885
▁eventuellen	-11.8892
▁katastrophalen	-11.8893
▁verschlossenen	-11.89
▁empfunden	-11.89
▁empfinde	-11.8901
▁Netzwerke	-11.8905
ken	-11.8906
sgrad	-11.8909
ow	-11.8909
▁Unterfangen	-11.891
▁Vertraulichkeit	-11.891
▁gedient	-11.891
▁konsultieren	-11.891
▁kümmert	-11.891
▁modernisieren	-11.891
▁Aufschub	-11.8911
▁Budgets	-11.8916
▁detailliert	-11.8917
▁höheres	-11.8918
▁behinderten	-11.892
buch	-11.8921
Energieerzeugung	-11.8922
▁getroffene	-11.8924
▁Maßnahmenpaket	-11.8929
▁vielfältigen	-11.8929
ierte	-11.8929
▁brechen	-11.893
▁albanischen	-11.8933
kennzeichnung	-11.8933
▁Erzeugnis	-11.8936
▁Sprichwort	-11.8937
▁Wachsamkeit	-11.8937
▁gerettet	-11.8937
▁inhaltliche	-11.8937
▁Aufbauwerk	-11.8938
▁blieb	-11.8941
sanlagen	-11.8944
▁tiefen	-11.8949
▁gewährten	-11.8949
▁multinationale	-11.895
▁Werften	-11.8952
szentren	-11.8953
fahren	-11.8954
▁Ministern	-11.8956
▁zulässigen	-11.8957
▁dachte	-11.8957
svorhaben	-11.8962
▁Geflügel	-11.8963
▁Währungs	-11.8963
▁bestellt	-11.8963
▁Karas	-11.8966
▁SWIFT	-11.8968
▁tibetische	-11.8968
▁obligatorisch	-11.8969
▁Grenzregionen	-11.8972
▁Sir	-11.8973
▁Unsinn	-11.8974
▁steuern	-11.8974
▁Wortes	-11.8975
▁Landwirt	-11.8979
▁sprachlichen	-11.898
▁akzeptiere	-11.8982
▁veröffentlichte	-11.8983
ach	-11.8986
▁leere	-11.8987
no	-11.8988
Nichtverbreitung	-11.8989
▁bemerkenswerte	-11.899
▁Bangladesch	-11.899
▁anderthalb	-11.899
▁biometrische	-11.899
▁draußen	-11.899
▁einzubinden	-11.899
Rates	-11.8992
ben	-11.8993
▁Risikobewertung	-11.8993
▁Wortmeldungen	-11.8996
▁Anwendungen	-11.8998
▁unrealistisch	-11.9001
▁Wahlbeobachtung	-11.9003
▁Minen	-11.9003
▁Zuwanderer	-11.9009
▁Antragsteller	-11.9009
▁einreichen	-11.9009
Berichts	-11.9012
▁Drohungen	-11.9012
▁ernster	-11.9014
▁Grenzwert	-11.9015
▁Reduktion	-11.9016
▁maritime	-11.9016
▁untergräbt	-11.9016
▁verschiedenste	-11.9017
▁Gazastreifen	-11.9017
▁Ford	-11.9021
▁Schadstoffe	-11.9021
▁bestimmtes	-11.9022
▁Direktor	-11.9023
Region	-11.9023
▁erhöhten	-11.9025
▁überdies	-11.9026
▁günstigen	-11.9035
Russland	-11.9036
Regime	-11.9038
▁Geldes	-11.9038
▁Juncker	-11.9043
▁erwecken	-11.9043
▁Bescheid	-11.9043
▁Berufsbildung	-11.9043
▁Eingriff	-11.9044
▁Wynn	-11.9045
▁passt	-11.9045
▁Website	-11.9047
▁Reformierung	-11.9049
▁behinderte	-11.9054
▁Unterzeichner	-11.9056
▁Vorgehens	-11.9057
ay	-11.9059
das	-11.9067
▁Ausfuhren	-11.9068
▁Kohlenstoff	-11.9068
▁schlechtes	-11.9069
▁gehandhabt	-11.9069
▁Westeuropa	-11.9071
▁widmet	-11.9072
Gipfels	-11.9073
Inverkehrbringen	-11.9073
▁to	-11.9075
▁Instrumentarium	-11.9077
▁Hin	-11.908
▁Brände	-11.9089
▁Hof	-11.9089
▁prioritäre	-11.9094
arbeiten	-11.9095
▁aufgedeckt	-11.9096
▁Niederlage	-11.9096
▁Innenpolitik	-11.9097
mission	-11.9101
▁Schokolade	-11.9102
barkeit	-11.9103
▁Finanzmärkten	-11.9103
▁EGKS	-11.9104
▁Musik	-11.9109
▁fünfte	-11.911
▁bulgarischen	-11.9113
▁Nachfolger	-11.9113
we	-11.9115
Beifall	-11.9118
▁Diktaturen	-11.9118
gleichszahlungen	-11.9119
▁Träger	-11.9121
▁Bundeskanzler	-11.9122
▁Sitze	-11.9131
▁Mittelmeerraums	-11.9131
▁Wales	-11.9133
▁Mart	-11.9135
▁Drucks	-11.9135
Persönlichkeiten	-11.914
▁Einzelplan	-11.9141
Markt	-11.9142
▁Spekulationen	-11.9145
▁Privileg	-11.915
▁behilflich	-11.915
▁ebnen	-11.915
▁untrennbar	-11.915
▁Raumordnung	-11.9151
▁Landschaft	-11.9151
▁traurige	-11.9157
▁künftiger	-11.9158
projekt	-11.9159
▁dargelegten	-11.9166
▁Disziplin	-11.9166
▁zuviel	-11.9167
▁Veranstaltungen	-11.9168
▁beiseite	-11.9169
▁luxemburgischen	-11.9175
▁unterstützten	-11.9177
▁Burundi	-11.9177
▁befolgt	-11.9177
▁aufzugreifen	-11.9177
▁Gegenzug	-11.9177
▁Letztlich	-11.9177
▁Marktöffnung	-11.9177
▁weiterleiten	-11.9178
▁betroffene	-11.9178
isiert	-11.9179
▁Etikett	-11.918
form	-11.9183
▁schrittweisen	-11.9184
isieren	-11.9184
▁Präsidiums	-11.9186
▁eingehende	-11.9186
▁Bali	-11.9187
▁geschlossene	-11.9189
▁eingesetzten	-11.9191
▁Militärs	-11.9191
▁öfter	-11.9193
▁Kraftstoffe	-11.9194
▁wen	-11.92
gang	-11.92
ski	-11.9201
▁quo	-11.9203
▁Abwicklung	-11.9204
▁Bowis	-11.9204
▁Coelho	-11.9204
▁Rocard	-11.9204
▁befolgen	-11.9204
▁einigermaßen	-11.9204
▁ausgezahlt	-11.9205
BG	-11.9205
▁bedenklich	-11.9206
▁Teilhabe	-11.9206
▁Raumes	-11.9208
▁Bündnis	-11.9209
▁feststellte	-11.921
▁afrikanische	-11.921
▁Stein	-11.921
▁lobenswert	-11.921
tra	-11.921
▁realistischen	-11.9214
▁verbracht	-11.9217
▁Fünfzehn	-11.9218
▁wachen	-11.922
▁hielten	-11.9221
▁merkwürdig	-11.9222
▁anerkannte	-11.9224
▁Gehälter	-11.9224
▁radikal	-11.9224
▁Seeleute	-11.9225
transaktionen	-11.9225
▁Kreuz	-11.9227
▁Doping	-11.923
▁Herman	-11.9231
▁Furcht	-11.9231
▁Vorabend	-11.9231
▁leugnen	-11.9232
▁aktualisiert	-11.9233
▁pakistanische	-11.9234
▁bewährten	-11.9235
▁aufnimmt	-11.9236
▁einmalige	-11.9237
▁Wor	-11.9239
union	-11.9241
kt	-11.9242
▁Elite	-11.9244
▁Lernens	-11.9251
▁älterer	-11.9252
Mittelmeerländer	-11.9256
▁bedrohen	-11.9257
▁slowenischen	-11.9257
▁gespalten	-11.9258
▁verschafft	-11.9258
▁Allgemeinheit	-11.9258
▁Burma	-11.9258
▁Bislang	-11.9258
▁Erlaubnis	-11.9258
▁WPA	-11.9261
▁Bereicherung	-11.9261
▁Nabucco	-11.9263
▁Auflösung	-11.9264
▁leichten	-11.9266
▁freundlich	-11.9267
▁vorläufige	-11.9271
produzenten	-11.9275
terschaftsurlaub	-11.9278
▁Ausmaße	-11.9278
▁plädiere	-11.9279
▁Vergewaltigung	-11.9282
setzung	-11.9282
weise	-11.9282
binnenmarkt	-11.9284
▁Werkzeug	-11.9285
▁Jagd	-11.9285
▁Rechnungslegung	-11.9285
▁verzerrt	-11.9285
▁Marktteilnehmer	-11.9286
▁Zwang	-11.9286
▁Kapitalismus	-11.9286
▁auszugeben	-11.9288
▁Arbeitszeiten	-11.9288
spraxis	-11.9291
sführer	-11.9293
▁Raumfahrt	-11.9295
netze	-11.9299
▁attraktiv	-11.9301
fang	-11.9306
▁geschlagen	-11.9307
▁formal	-11.9307
äh	-11.9311
unter	-11.9312
▁Futter	-11.9312
▁gewarnt	-11.9313
▁plädiert	-11.9313
▁teilhaben	-11.9313
▁Einheitswährung	-11.9313
▁Zugänglichkeit	-11.9313
▁Letzte	-11.9315
▁mutigen	-11.9316
▁Ratingagenturen	-11.9316
▁vorbeugende	-11.9318
funktion	-11.9319
▁aufgeworfenen	-11.9326
▁Jerusalem	-11.9333
▁Nahrung	-11.9334
spaket	-11.9335
lösung	-11.9338
▁Dilemma	-11.934
▁Seattle	-11.934
slage	-11.9342
haltung	-11.9346
▁Richtungen	-11.9347
Europäische	-11.9347
▁reibungslose	-11.9347
▁lieben	-11.9356
mengen	-11.9356
▁Verhaftung	-11.9357
▁komplexer	-11.9357
Ziele	-11.9358
▁Theorie	-11.9361
▁unzureichenden	-11.9362
▁Minderjährigen	-11.9365
bi	-11.9366
tag	-11.9367
▁Verhofstadt	-11.9368
▁herbeiführen	-11.9368
▁Strafsachen	-11.9368
▁radikalen	-11.9368
▁ETA	-11.9369
▁hinterher	-11.9369
▁Ostseeraum	-11.937
▁ausspricht	-11.9371
ek	-11.9371
pol	-11.9373
▁Act	-11.9374
geld	-11.9374
▁vorzustellen	-11.9376
▁du	-11.9379
slosenquote	-11.9381
operationellen	-11.9383
▁Letztere	-11.9385
Partei	-11.9386
▁Ausländer	-11.9386
▁Zweite	-11.9388
▁Fachleute	-11.9389
▁Übergriffe	-11.939
▁Bergbau	-11.939
▁Sozialmodells	-11.9391
▁neoliberalen	-11.9392
▁Gewähr	-11.9392
▁vorab	-11.9393
▁Außenwirtschaft	-11.9394
rt	-11.9395
▁unangebracht	-11.9395
▁einmischen	-11.9395
▁Verweigerung	-11.9395
▁Pensionsfonds	-11.9395
▁Fragesteller	-11.9397
▁Argentinien	-11.9398
▁Genehmigungen	-11.9399
▁Tsunami	-11.94
▁Inspektoren	-11.9402
▁Angebote	-11.9404
▁Repräsentanten	-11.9405
▁logische	-11.9405
▁reif	-11.941
▁Treffens	-11.941
▁verfassungs	-11.9411
▁kurdischen	-11.9412
▁Ohren	-11.9413
▁Verbrecher	-11.9421
▁Verkehrsmittel	-11.9421
▁Verzweiflung	-11.9421
▁angelangt	-11.9423
▁Weihnachten	-11.9424
▁schwieriges	-11.9432
▁Freihandels	-11.9433
▁stetig	-11.9433
▁klingt	-11.9433
▁globales	-11.9434
ß	-11.9439
▁theoretisch	-11.944
▁kleinsten	-11.9441
▁Illusion	-11.9441
▁bezog	-11.9441
▁Bewerber	-11.9444
▁Waldbrände	-11.9444
woher	-11.9446
▁Arzt	-11.9446
sdiensten	-11.9448
▁rückt	-11.9448
▁Singapur	-11.945
▁Vigo	-11.9451
▁Mindestnormen	-11.9451
Haushaltsentwurf	-11.9452
kosysteme	-11.9452
rei	-11.9454
▁Zentralasien	-11.9456
smarkt	-11.9457
▁fundamental	-11.946
▁nordischen	-11.9462
sunternehmen	-11.9463
stelle	-11.9464
meisterschaft	-11.9468
▁schottischen	-11.947
▁Redebeiträge	-11.9473
▁Arbeitsmärkte	-11.9474
▁ausdrückliche	-11.9474
▁Schwächung	-11.9478
▁Balkanstaaten	-11.9479
▁Umweltprobleme	-11.9479
▁Rücknahme	-11.9479
▁materielle	-11.948
▁USD	-11.948
▁Grünbuchs	-11.9481
az	-11.9481
▁Feind	-11.9483
alisierung	-11.9485
zahlen	-11.9486
▁ausgestellt	-11.9489
▁ähnliches	-11.949
▁Bürgerschaft	-11.9501
▁importiert	-11.9502
▁konsolidieren	-11.9506
▁entlang	-11.9506
▁Prag	-11.9507
▁jeher	-11.9507
▁Stoff	-11.9508
▁Weltbevölkerung	-11.9509
äu	-11.9509
▁zulässt	-11.9509
▁gemeinschafts	-11.9511
▁Ecofin	-11.9512
▁rechtsstaatlich	-11.9518
▁zugestanden	-11.9519
skommission	-11.9519
▁regional	-11.952
ug	-11.9525
▁Bevölkerungen	-11.953
▁Flugzeugen	-11.953
▁sudanesische	-11.9534
▁Saudi	-11.9534
▁Bedarfs	-11.9535
▁Prestige	-11.9535
▁weitergeführt	-11.9537
iz	-11.9538
spezifischen	-11.9544
tion	-11.955
▁Neutralität	-11.9562
▁Umwandlung	-11.9562
▁Differenzierung	-11.9562
▁Arbeitsgruppen	-11.9564
▁Würden	-11.9564
▁Drama	-11.9565
▁Gebiets	-11.9566
▁beschlossene	-11.9567
▁seinerseits	-11.9568
▁Mindestmaß	-11.9571
▁Vorrednern	-11.9573
▁geschaffenen	-11.9576
▁Gerichtshofes	-11.9576
▁Kandidat	-11.9579
ich	-11.9581
sparteien	-11.9584
▁lebenslanges	-11.9585
▁einheimischen	-11.9585
▁Gemeinde	-11.9588
▁klassischen	-11.9589
▁vorenthalten	-11.959
▁weigern	-11.959
▁befördert	-11.959
▁unterwerfen	-11.9592
▁stabil	-11.9593
▁glaubwürdige	-11.9593
▁gestellte	-11.9594
▁Instanzen	-11.9596
▁herrschte	-11.9596
▁ASEM	-11.9598
▁Großbritanniens	-11.9599
sstunde	-11.9603
swert	-11.9603
▁unfähig	-11.9604
▁aufgeteilt	-11.9606
▁beipflichten	-11.9606
▁Szenario	-11.9607
▁lebende	-11.9609
▁Ausweisung	-11.9612
▁enormer	-11.9614
Konvention	-11.9614
▁Höhepunkt	-11.9614
▁Benennung	-11.9618
▁Eckpfeiler	-11.9618
▁Gibraltar	-11.9618
▁Tiermehl	-11.9618
▁zusammenhängen	-11.9618
▁Erpressung	-11.9618
▁zusichern	-11.9618
za	-11.9627
▁stellend	-11.9628
▁Finanzsektor	-11.9631
▁Konkret	-11.9637
▁Spannung	-11.9637
▁erfolgten	-11.9638
sverordnung	-11.964
▁Spender	-11.9641
▁erkenne	-11.9641
▁einst	-11.9642
▁Stich	-11.9643
konvention	-11.9645
strafrechtlichen	-11.9646
▁Amnesty	-11.9646
▁aufgewendet	-11.9646
▁begeistert	-11.9646
▁weswegen	-11.9646
▁Brustkrebs	-11.9646
▁Blokland	-11.9646
▁Jemen	-11.9647
▁Weiterführung	-11.9647
▁Konkurs	-11.9648
▁ginge	-11.9649
▁billige	-11.965
▁Referenz	-11.9652
zug	-11.9652
▁persönlicher	-11.9654
▁ansieht	-11.9655
▁erreichbar	-11.9657
▁berühmten	-11.9658
vi	-11.9664
▁Klagen	-11.9667
▁demografische	-11.967
▁Sprach	-11.9672
Verhaltensweisen	-11.9674
▁gewürdigt	-11.9675
▁fortzuführen	-11.9675
▁schriftlichen	-11.9675
▁zurückzukommen	-11.9675
▁Reisekosten	-11.9675
▁repräsentieren	-11.9678
gestaltung	-11.9684
▁unlautere	-11.9685
▁gültigen	-11.9688
▁strengeren	-11.9692
▁Li	-11.9694
▁real	-11.97
▁Lannoye	-11.9703
▁Verschwinden	-11.9703
▁Ärmsten	-11.9703
Arabien	-11.9705
▁nützen	-11.9706
▁harmonisierten	-11.9707
▁geführte	-11.9709
▁Geschlecht	-11.9709
▁Verbrauchs	-11.971
▁plädieren	-11.971
▁durchlaufen	-11.9711
abschätzungen	-11.9711
▁Klar	-11.9712
pe	-11.9715
▁aufgeführten	-11.9715
▁basierend	-11.9716
▁vorschreiben	-11.9718
▁Green	-11.972
▁grüne	-11.973
ET	-11.973
▁bevorzugt	-11.973
▁Beunruhigung	-11.9732
▁Hisbollah	-11.9732
▁wundern	-11.9732
▁Pestizide	-11.9732
▁unterstellt	-11.9735
Kopf	-11.9739
▁Kommentar	-11.974
▁nieder	-11.9742
werte	-11.9742
▁formulierten	-11.9745
▁verankerten	-11.9746
▁Börsen	-11.9747
▁tiefer	-11.9749
▁dringliche	-11.9751
▁unabdingbare	-11.9751
▁Veto	-11.9752
angelegenheiten	-11.9752
▁Global	-11.9753
▁Betrugs	-11.9754
▁Welle	-11.9755
▁Arbeitgebern	-11.9756
▁Business	-11.9757
▁erweckt	-11.976
▁ehrliche	-11.9761
▁Begleitung	-11.9762
▁Militarisierung	-11.9764
▁fällen	-11.9764
▁Einmal	-11.9766
▁Brücken	-11.9768
▁Haushalten	-11.9776
▁kohärent	-11.9777
▁Wertpapier	-11.9778
halben	-11.9783
daten	-11.9786
▁Hauptanliegen	-11.9789
▁vereinen	-11.979
▁Kalten	-11.9793
▁bestreiten	-11.9793
verfassungsmäßig	-11.9793
▁Gunsten	-11.9794
▁Justizbehörden	-11.9795
Jugend	-11.9797
▁offenbart	-11.9802
rechtskommission	-11.9802
▁Fremdenverkehrs	-11.9805
▁Wende	-11.9809
▁Unklarheiten	-11.981
▁Eis	-11.9815
▁ausführte	-11.9818
▁zwecks	-11.9818
▁Gen	-11.9827
▁König	-11.9828
▁vereinbarte	-11.9829
Paket	-11.983
▁sofortigen	-11.9831
▁fiel	-11.9835
nez	-11.984
▁verschlechtern	-11.984
▁restriktive	-11.9844
▁berühren	-11.9846
▁Gewissheit	-11.9847
▁Kurzum	-11.9847
▁verfolgte	-11.985
amerikanische	-11.9852
ber	-11.9853
▁plus	-11.9855
▁europaweite	-11.9855
▁Weltraum	-11.9856
▁interpretiert	-11.9858
▁günstige	-11.986
▁daraufhin	-11.9862
▁Texten	-11.9862
▁angeklagt	-11.9864
sgesellschaften	-11.9866
▁Human	-11.9868
▁traf	-11.9869
▁Vorwürfe	-11.9871
▁geopfert	-11.9875
▁Feira	-11.9875
▁kehren	-11.9876
▁ordnungs	-11.9877
▁unverzügliche	-11.9877
▁Umweltausschuß	-11.988
▁Brücke	-11.9882
▁Gewinner	-11.9885
wasser	-11.9885
▁strafrechtlich	-11.9888
▁räumen	-11.9895
▁bewilligt	-11.9896
ungssicherheit	-11.9898
▁reichlich	-11.9899
haft	-11.9899
▁durfte	-11.99
▁sorgfältige	-11.9901
▁Ära	-11.9902
▁voranschreiten	-11.9903
▁verantworten	-11.9904
▁Hautala	-11.9904
▁hervorhebt	-11.9904
▁veränderter	-11.9906
vertrag	-11.9907
handlungstisch	-11.9914
▁moralisch	-11.9919
▁harmonisierte	-11.9921
ph	-11.9924
smaßnahme	-11.9924
▁zusehen	-11.9926
▁Maßstäbe	-11.9929
▁Sonderbericht	-11.9932
▁Alexander	-11.9933
▁Kaschmir	-11.9933
▁Nördliche	-11.9933
▁praktizieren	-11.9933
▁Vertagung	-11.9934
▁hege	-11.9934
transport	-11.9941
▁Verhaftungen	-11.9944
gebühren	-11.9946
▁ausweiten	-11.9948
▁ausländischer	-11.9948
▁Termine	-11.9948
▁mitberatende	-11.9949
Wasserversorgung	-11.9949
basis	-11.995
▁zutage	-11.9951
▁betrug	-11.9955
▁Brand	-11.9956
aktionssteuer	-11.9957
▁Hintertür	-11.9962
Mehrsprachigkeit	-11.9963
▁Moldawien	-11.9963
▁Morillon	-11.9963
▁Theato	-11.9963
Regeln	-11.9964
▁Protokolle	-11.9966
▁alter	-11.9966
▁betriebliche	-11.9966
▁Jordanien	-11.9966
▁Mitteleuropa	-11.9968
▁Klauseln	-11.997
▁vereinten	-11.9974
weite	-11.9974
▁umgegangen	-11.9984
beschäftigung	-11.9984
▁sahen	-11.9986
▁verantwortliche	-11.9989
▁beimisst	-11.9992
▁Konkurrenten	-11.9996
▁einführt	-12
▁Haager	-12.0004
▁Reis	-12.001
▁Reaktoren	-12.0014
skapazitäten	-12.0014
▁Mittelmeers	-12.0014
ot	-12.0017
▁baldige	-12.0017
▁Graefe	-12.0021
▁stürzen	-12.0021
▁Oslo	-12.0021
▁Beleg	-12.0021
▁fortführen	-12.0021
▁Berufsleben	-12.0023
▁ankommen	-12.0023
▁Stimmung	-12.0023
▁kommentieren	-12.0024
▁Strafverfahren	-12.0025
▁Ausstieg	-12.0026
▁einberufen	-12.0027
▁Kernkraftwerken	-12.0027
liste	-12.0031
▁mitberatend	-12.0035
▁Komponenten	-12.0043
Regionen	-12.0045
▁Baskenland	-12.0046
▁Vernetzung	-12.0051
▁beeindruckt	-12.0051
▁präzisieren	-12.0051
▁Neuerungen	-12.0051
▁Kommunikations	-12.0055
▁Zwangsarbeit	-12.006
▁heiße	-12.0061
▁spezieller	-12.0062
sprozessen	-12.0064
▁äußerte	-12.0066
▁Leinen	-12.0069
▁Vereinigungen	-12.0069
▁Vergessen	-12.008
▁Baringdorf	-12.008
▁bezweifle	-12.008
▁geübt	-12.008
▁verhältnismäßig	-12.0081
▁Tun	-12.0082
Rechts	-12.0082
▁Breitband	-12.0083
alität	-12.0083
▁Gottes	-12.0083
▁erarbeiteten	-12.0083
▁Mafia	-12.0086
▁Ersten	-12.0086
phase	-12.0086
ca	-12.0087
▁einfordern	-12.0087
▁Asylbewerbern	-12.009
▁übersetzt	-12.0091
katastrophe	-12.0092
▁fester	-12.0092
ende	-12.0093
überprüfung	-12.0093
AIDS	-12.0094
▁Berechnungen	-12.0096
▁tunesische	-12.0096
Aus	-12.0099
▁Entscheidend	-12.0102
▁totalitären	-12.0103
▁Aufbaus	-12.0103
▁Alpen	-12.0103
▁Misserfolg	-12.0104
▁gesonderte	-12.0105
▁Firma	-12.011
▁Kaliningrad	-12.011
▁Sterckx	-12.011
▁vergrößert	-12.011
▁Elles	-12.011
▁vonstatten	-12.011
▁bearbeitet	-12.011
▁herausgegeben	-12.011
▁verfallen	-12.011
▁geringste	-12.0112
ft	-12.0113
vorsitzenden	-12.0113
▁moderner	-12.0115
▁Inhalten	-12.0116
makroökonomische	-12.0121
▁sinnvollen	-12.0121
▁Eingriffe	-12.0123
orientierte	-12.0124
▁zitiert	-12.0127
prozess	-12.0129
▁Karten	-12.0129
instrument	-12.0131
▁Lektion	-12.0132
▁brachten	-12.0134
trollausschusses	-12.0136
halten	-12.0136
▁Kammer	-12.0137
▁gestorben	-12.0139
▁verständigt	-12.0139
Rationalisierung	-12.0139
▁anwendet	-12.0139
▁einzureichen	-12.0139
▁Inselregionen	-12.014
saktivitäten	-12.0142
▁nachweisen	-12.0144
ultilateralismus	-12.0148
situationen	-12.0151
▁Bewerberländern	-12.0153
▁Artikeln	-12.0153
sgeschichte	-12.0157
▁Fehl	-12.0162
▁Erläuterung	-12.0162
▁Finanztrans	-12.0166
▁Erweiterungen	-12.0167
▁Broek	-12.0169
▁geraume	-12.0169
Finanzinstrument	-12.017
▁Grundstein	-12.0171
▁Reich	-12.0173
▁zuverlässig	-12.0173
▁Durchschnitts	-12.0174
▁Zusammenleben	-12.0174
▁billig	-12.0175
▁allemal	-12.0176
GA	-12.0176
▁Bus	-12.0177
▁gefassten	-12.0177
▁brutalen	-12.0178
▁Glas	-12.0178
ursacherprinzip	-12.0179
sbewusstsein	-12.018
sbefugnis	-12.0191
▁unsicheren	-12.0195
▁inhaltlichen	-12.0197
▁los	-12.0197
▁Parlamentariern	-12.0197
▁Guatemala	-12.0199
▁Thailand	-12.0199
▁erneuern	-12.0199
mitglieder	-12.0203
schlagen	-12.0207
▁Unterbrechung	-12.0208
▁Produkts	-12.0209
▁Leone	-12.0209
▁Präventiv	-12.021
▁niedrigsten	-12.0213
▁Verspätungen	-12.0214
▁Versuchen	-12.0215
▁schädliche	-12.0219
▁gewollt	-12.022
▁Kreise	-12.0226
▁Mitgesetzgeber	-12.0229
▁riskieren	-12.0229
▁verdoppelt	-12.0229
▁Kairo	-12.0229
liberalisierung	-12.0229
▁auferlegen	-12.0229
▁Entstehen	-12.0229
▁Hilfsmaßnahmen	-12.023
▁Aushandlung	-12.023
bewertung	-12.0231
ssitzung	-12.0231
▁Wirken	-12.0233
▁Skepsis	-12.0236
übertragung	-12.0241
last	-12.0253
▁Luxemburger	-12.0254
wa	-12.0255
▁Liquidität	-12.0256
▁geweckt	-12.0259
▁mitzuwirken	-12.0259
▁tolerieren	-12.0259
▁erstattet	-12.0259
▁Kenia	-12.0259
▁mobilisiert	-12.0259
▁hinweist	-12.0259
sstand	-12.026
besteuerung	-12.026
▁reproduktiven	-12.0261
▁feierlich	-12.0262
personal	-12.0267
wechsel	-12.0267
Schlüsselelement	-12.0267
▁Letzten	-12.0268
▁ausreichender	-12.0269
ale	-12.0275
op	-12.0279
▁einhält	-12.0281
▁geworfen	-12.0283
▁ansetzen	-12.0285
sunterschiede	-12.0286
▁Schwedens	-12.0286
▁Asbest	-12.0289
▁Aznar	-12.0289
▁zurückgewiesen	-12.0289
▁herausgreifen	-12.0289
▁unterschieden	-12.0289
▁Juniliste	-12.029
▁Versicherungen	-12.0293
▁Nachdenken	-12.0296
methoden	-12.0299
spartner	-12.0299
ha	-12.0302
▁ungewöhnlich	-12.0303
▁Virus	-12.0303
srisiken	-12.0307
▁Wohnsitz	-12.0307
▁Fluss	-12.0312
th	-12.0312
▁Mitgliedsland	-12.0316
▁Parameter	-12.0316
▁unzählige	-12.0316
▁angestiegen	-12.0319
▁signalisiert	-12.0319
▁Überdies	-12.0319
▁hervorgegangen	-12.0319
▁angehoben	-12.0322
▁Terroranschläge	-12.0323
Handelshemmnisse	-12.0323
▁dreimal	-12.0325
▁lagen	-12.0326
▁aufgebracht	-12.0327
▁Tochter	-12.033
▁treibende	-12.0331
▁Sechs	-12.0335
▁immense	-12.0337
▁reguliert	-12.0338
▁Zusatzstoffe	-12.0339
▁Urlaub	-12.0345
▁aufgezwungen	-12.0346
▁Generell	-12.035
▁McKenna	-12.035
▁gefoltert	-12.035
▁gehofft	-12.035
▁identifiziert	-12.035
▁zurückgekehrt	-12.035
▁vollzieht	-12.035
▁Kommunen	-12.0353
sagenda	-12.0355
▁Hochschul	-12.0356
rahmenrichtlinie	-12.0356
sunsicherheit	-12.0364
▁Prämien	-12.0364
▁marokkanischen	-12.0364
▁maßgebliche	-12.0365
▁Internets	-12.0365
▁vorwiegend	-12.0369
▁gerechter	-12.0371
▁Angriffen	-12.0372
▁formelle	-12.0372
sänderungen	-12.0373
▁angeführten	-12.0374
▁Abwanderung	-12.0376
▁naiv	-12.0376
▁Ferber	-12.038
▁Rübig	-12.038
▁auszutauschen	-12.038
▁zugefügt	-12.038
▁Weitergabe	-12.038
▁darzustellen	-12.0381
▁Europäerinnen	-12.0385
▁Piraterie	-12.0385
▁fragte	-12.0391
tan	-12.0392
sverträge	-12.0394
kapitalistischen	-12.0397
▁beispielhaft	-12.0403
▁christliche	-12.0405
▁nützlichen	-12.0405
zi	-12.0408
▁slowakischen	-12.0409
▁Bruch	-12.0409
▁fossilen	-12.041
▁Lampedusa	-12.041
▁gereicht	-12.041
▁resultiert	-12.041
▁zugesichert	-12.041
▁weitergegeben	-12.0412
ort	-12.0413
Sicherheitsrat	-12.0415
smöglichkeit	-12.0417
▁Peter	-12.0422
bahn	-12.0424
seite	-12.043
Prestige	-12.0431
▁Unterschrift	-12.0435
ür	-12.0436
beschränkungen	-12.0439
▁reibungslos	-12.0441
▁GATT	-12.0441
▁behoben	-12.0441
▁MwSt	-12.0441
▁Stillegung	-12.0441
▁Tony	-12.0442
▁Radio	-12.0443
▁breitere	-12.0443
▁ausgeliefert	-12.0444
sordnung	-12.0444
▁wohnen	-12.0444
▁Finanzkontrolle	-12.0446
▁ordentliche	-12.045
▁Invasion	-12.045
all	-12.0454
▁Juristische	-12.0458
skultur	-12.0458
▁europaweiten	-12.0458
▁Verhaltens	-12.046
▁Einwanderungs	-12.046
▁nachfolgenden	-12.0463
▁ergreife	-12.0467
unwahrscheinlich	-12.0468
pidla	-12.0472
▁Dimas	-12.0472
▁Haug	-12.0472
▁kommunistische	-12.0477
▁korrekten	-12.0481
kraft	-12.0488
Agentur	-12.0488
▁fünften	-12.0493
▁vorläufig	-12.0494
▁nachgehen	-12.0495
▁Amtssprachen	-12.0495
▁reich	-12.0496
▁schlug	-12.0498
▁Beschäftigte	-12.0499
▁Modulation	-12.0502
▁Kofi	-12.0503
▁Pen	-12.0508
betrieb	-12.0508
▁Unterschieden	-12.0512
▁Ca	-12.0519
▁Marken	-12.0523
▁p	-12.0529
▁Müll	-12.0531
▁zugeteilt	-12.0532
▁verknüpfen	-12.0533
▁k	-12.0537
▁Sachverständige	-12.054
▁Klimapolitik	-12.0541
▁einstimmige	-12.0541
▁Schifffahrt	-12.0542
▁serbische	-12.0544
richtlinien	-12.0547
▁stärkerem	-12.0549
▁gerichtlichen	-12.0551
rechten	-12.0552
stehen	-12.0553
▁medizinischer	-12.0554
▁abweichen	-12.0554
▁Gewerkschafts	-12.0557
gegen	-12.056
▁gerichtliche	-12.056
▁Bücher	-12.0562
▁Dürre	-12.0562
▁erschreckend	-12.0562
▁Laufenden	-12.0565
▁Verwaltungsrat	-12.0566
bo	-12.0567
▁überzeugende	-12.0568
▁Tiergesundheit	-12.0569
▁Juden	-12.057
▁vortragen	-12.0575
▁Himmel	-12.0577
▁natürlicher	-12.0577
minister	-12.0578
▁entsandt	-12.058
▁reproduktive	-12.0582
▁PNR	-12.0583
▁zurückhaltend	-12.0584
▁weitgehende	-12.0585
Kriterien	-12.0589
▁Urheber	-12.059
skapazität	-12.059
▁vielfältige	-12.0591
▁unnötigen	-12.0592
▁seltsam	-12.0594
Komplementarität	-12.0595
▁angezeigt	-12.0595
▁einbezieht	-12.0595
▁importieren	-12.0595
▁Tierhaltung	-12.0596
▁Hausaufgaben	-12.0596
▁einzeln	-12.0596
▁Weisen	-12.0596
▁radioaktive	-12.0598
▁Umweltbelastung	-12.0598
▁Spar	-12.0604
▁übrige	-12.0604
ly	-12.0606
▁Fünf	-12.0608
kapazität	-12.0613
▁Kraftfahrzeuge	-12.0614
▁Eigentümer	-12.0615
Politikbereichen	-12.0616
einsparungen	-12.0617
▁Netto	-12.0622
▁vermehrt	-12.0622
▁hervorgehen	-12.0624
▁setze	-12.0624
▁fischen	-12.0624
sp	-12.0624
▁unschuldige	-12.0626
▁einhergeht	-12.0627
▁Transplantation	-12.0627
▁Realismus	-12.0627
▁skandalös	-12.0628
▁drücken	-12.0628
▁Unternehmern	-12.0629
▁Mitspracherecht	-12.0633
▁umsetzt	-12.0635
▁unerträglich	-12.0641
frei	-12.0644
▁Orientierungen	-12.0648
▁Erscheinungen	-12.065
sozioökonomische	-12.0653
▁etwaige	-12.0656
▁Glaubens	-12.0657
▁gedeckt	-12.0658
▁appelliert	-12.0658
▁verstecken	-12.0658
▁Grundpfeiler	-12.0658
▁Kurzem	-12.066
▁Polizisten	-12.0664
▁Begünstigten	-12.0665
▁ideologische	-12.0667
▁aufheben	-12.0669
Gesetz	-12.0674
▁Karibik	-12.0674
▁Sand	-12.0675
ez	-12.0678
sdienst	-12.0682
▁stellten	-12.0684
▁rascher	-12.0686
▁gewöhnt	-12.0689
▁infolgedessen	-12.0689
▁präzisiert	-12.0689
▁vorgegeben	-12.0689
▁Ozean	-12.069
▁verfassen	-12.069
▁erfaßt	-12.069
▁womöglich	-12.0691
▁Diplomaten	-12.0693
▁bescheiden	-12.0694
▁Galicien	-12.0695
▁Klassen	-12.0696
▁terroristischer	-12.0702
▁kostenlos	-12.0704
Agrarerzeugnisse	-12.0707
ag	-12.0713
▁Notfall	-12.0714
▁überlegt	-12.0717
▁Inflationsrate	-12.0718
▁schwierigsten	-12.0719
▁innehat	-12.0719
maßnahme	-12.0719
▁Berichtsentwurf	-12.072
▁studieren	-12.0721
▁Jackson	-12.0721
▁anzuregen	-12.0721
▁Textilien	-12.0721
▁Sogar	-12.0721
▁universellen	-12.0722
que	-12.0723
Eisenbahnverkehr	-12.0725
▁gegeneinander	-12.0725
▁akzeptable	-12.0727
sproblemen	-12.0728
▁Sehen	-12.0729
▁Zeitrahmen	-12.0731
sche	-12.0732
preisen	-12.0734
▁Ch	-12.0737
▁ukrainischen	-12.0741
▁gelang	-12.0744
▁Besonderheit	-12.0746
▁wünschte	-12.0747
▁dringendsten	-12.0747
punkt	-12.0749
▁Zeuge	-12.0753
▁anzuheben	-12.0754
Sozialleistungen	-12.0755
▁Verursacher	-12.0755
▁derjenige	-12.0762
▁letztere	-12.0762
sgarantien	-12.0764
▁formalen	-12.0764
europäische	-12.0767
▁fundierte	-12.0768
▁weitergehende	-12.0769
werk	-12.0775
▁Endergebnis	-12.0778
Generalsekretärs	-12.078
bereichen	-12.0783
▁Mitbürgern	-12.0783
▁unmittelbarer	-12.0783
▁Immerhin	-12.0784
Bürgern	-12.0786
▁Persönlich	-12.0786
▁angerichtet	-12.0792
▁Missionen	-12.0793
▁Bomben	-12.0793
▁Gewerkschaft	-12.0793
▁tat	-12.0798
▁unternehmerisch	-12.0799
▁Rebellen	-12.08
▁erregend	-12.0801
ziehen	-12.0802
▁Jan	-12.0803
ment	-12.0804
pass	-12.0808
platz	-12.0808
▁engagierte	-12.0809
▁Vorgehensweisen	-12.0811
▁Flugverkehrs	-12.0811
modell	-12.0814
▁strikten	-12.0815
▁entworfen	-12.0815
▁Mißtrauen	-12.0821
▁interessierten	-12.0821
▁Familienleben	-12.0823
▁subventioniert	-12.0826
▁gebrochen	-12.0827
skonzept	-12.0829
▁Entschädigungen	-12.0831
▁Benutzung	-12.0831
▁Besucher	-12.0832
▁vorziehen	-12.0833
▁Angestellten	-12.0835
▁Pi	-12.0839
▁angekommen	-12.0841
▁Pass	-12.0841
▁schwerwiegend	-12.0841
▁geographische	-12.0843
▁Fünften	-12.0845
Zusammenarbeit	-12.0846
▁klarere	-12.0847
▁Fachwissen	-12.0847
▁Sachlage	-12.0848
▁Architektur	-12.085
▁sozialpolitisch	-12.0851
▁Fahr	-12.0851
schancen	-12.0851
material	-12.0853
▁Schuldigen	-12.0854
▁Benutzer	-12.0857
▁Agrarbereich	-12.0859
▁Strenge	-12.0863
wesen	-12.0866
▁formellen	-12.0868
spersönlichkeit	-12.0872
▁tiefgreifende	-12.0872
erklärung	-12.0874
pläne	-12.0878
▁reinen	-12.0878
▁Volumen	-12.0879
▁zuzuhören	-12.0879
▁Einblick	-12.088
▁nachher	-12.0881
▁Respektierung	-12.0881
setzen	-12.0883
▁wehren	-12.0884
▁Lieferanten	-12.0884
▁vertretbar	-12.0885
▁Lesen	-12.0885
▁knappen	-12.0889
▁Koordinator	-12.0889
▁Vorhabens	-12.089
▁wunderbare	-12.089
reise	-12.0894
▁Flut	-12.0897
▁befördern	-12.09
▁geschätzte	-12.0906
▁Rechtssysteme	-12.0907
▁erschien	-12.0907
▁Finanzpolitik	-12.0907
bedarf	-12.0909
▁Missstände	-12.091
▁Asylverfahren	-12.0911
▁Ta	-12.0911
▁Zersplitterung	-12.0911
▁involviert	-12.0911
▁vorangebracht	-12.0911
▁Isolierung	-12.0912
▁Ideal	-12.0916
▁treffend	-12.092
▁vorübergehenden	-12.0924
▁ablaufen	-12.0925
cken	-12.0925
▁Fluggastdaten	-12.0929
▁gesteigert	-12.0933
▁Geiseln	-12.0935
Währungsgebiet	-12.0936
▁Arme	-12.0936
▁bemerkte	-12.0939
▁liberalisiert	-12.0939
▁Fälschung	-12.0942
▁Lamfalussy	-12.0943
▁Duisenberg	-12.0943
▁Salafranca	-12.0943
▁Schröder	-12.0943
▁anzukurbeln	-12.0943
▁ausgenutzt	-12.0943
▁georgische	-12.0943
▁Immigration	-12.0945
fahrzeugen	-12.0947
▁Klassifizierung	-12.0948
eh	-12.0948
▁IKT	-12.095
▁aufgeklärt	-12.0951
▁Lateinamerikas	-12.0962
▁identisch	-12.0965
▁Erwachsenen	-12.0968
▁Fusion	-12.097
▁überarbeiteten	-12.0971
▁Zonen	-12.0974
▁menschliches	-12.0975
▁Absätze	-12.0975
▁Beharrlichkeit	-12.0976
▁Ludford	-12.0976
▁bedient	-12.0976
▁woran	-12.0977
▁Profil	-12.098
▁pflichte	-12.0981
▁Berater	-12.0982
▁militärisch	-12.0983
▁gewissenhaft	-12.0984
▁bestmöglich	-12.0986
▁kritischer	-12.0986
▁Treibhausgasen	-12.0987
▁Streitbeilegung	-12.0987
kommission	-12.0987
▁leeren	-12.0987
▁eingeschränkter	-12.0988
▁interpretieren	-12.0989
Parlamentarische	-12.0989
▁herkömmlichen	-12.0995
▁bemerkenswert	-12.0996
ling	-12.1001
▁Task	-12.1002
▁zusätzliches	-12.1002
▁Zehntausende	-12.1004
normen	-12.1005
▁Vier	-12.1007
▁effizientes	-12.1008
▁rumänische	-12.1008
▁schockiert	-12.1008
▁zuerkannt	-12.1008
▁Straffreiheit	-12.1008
▁Erlaß	-12.1009
▁nachweislich	-12.101
▁angelegte	-12.1012
▁Daul	-12.1014
▁Gold	-12.1015
▁Stresstests	-12.1015
▁ausgebildet	-12.1018
▁sensibel	-12.1026
▁Karl	-12.1027
▁Liberale	-12.1028
▁inakzeptable	-12.1031
prinzip	-12.1033
▁blieben	-12.1038
sangehörigkeit	-12.1038
▁bescheidenen	-12.1038
operativen	-12.1039
▁Präsentation	-12.1041
▁unterminieren	-12.1041
▁beschreibt	-12.1041
Charta	-12.1043
▁paradox	-12.1046
▁zügige	-12.1047
trollausschuss	-12.1048
schnittlichen	-12.1048
Ge	-12.1059
gr	-12.106
▁befürchtet	-12.1062
▁künstlich	-12.1067
▁Langzeit	-12.107
▁feierliche	-12.107
Ausschuss	-12.1072
▁Honig	-12.1073
▁Kodifizierung	-12.1073
▁Zumindest	-12.1073
▁Zustandekommen	-12.1073
▁abdeckt	-12.1073
▁auszuhandeln	-12.1073
▁Wallis	-12.1073
▁versichere	-12.1073
▁Fairness	-12.1073
▁Sozialausschuss	-12.1075
▁Fahrt	-12.1075
▁zusammenkommen	-12.108
▁ungehindert	-12.108
▁Territoriums	-12.1081
▁Machen	-12.1085
▁Rechtshilfe	-12.1087
Es	-12.109
vereinbarungen	-12.1091
▁Techniken	-12.1092
▁anhören	-12.1093
▁billigt	-12.1096
▁Reihen	-12.1097
▁späten	-12.1097
▁Reifen	-12.11
▁Reisenden	-12.1102
gut	-12.1102
▁Stil	-12.1102
▁Auszahlung	-12.1103
▁Obergrenzen	-12.1104
▁Weisheit	-12.1106
▁umgewandelt	-12.1106
▁Infolgedessen	-12.1106
▁Steuerzahlern	-12.1106
▁gesund	-12.1106
▁Nunmehr	-12.1106
▁weitergeleitet	-12.1106
▁abbauen	-12.1107
▁Dessen	-12.1107
▁Tarif	-12.1107
▁ganzer	-12.1108
▁Tr	-12.1108
▁psychischen	-12.1111
▁fraglichen	-12.1112
▁formale	-12.1116
▁sowieso	-12.1117
▁Bereichs	-12.1117
▁genauere	-12.112
▁früherer	-12.112
▁Zellen	-12.1122
▁Hindernissen	-12.1124
▁lege	-12.113
▁Garant	-12.1133
▁attraktiver	-12.1136
▁reiche	-12.1136
▁andauernden	-12.1137
▁Klimas	-12.1138
systemen	-12.1138
▁Mitchell	-12.1139
stechnologie	-12.1144
▁tragisch	-12.1145
▁Radikalen	-12.1146
ip	-12.115
spiel	-12.1151
▁Ruhezeiten	-12.1151
▁bestätigte	-12.1152
ho	-12.1153
▁englische	-12.1156
▁damalige	-12.1157
▁Immobilien	-12.1157
▁Standpunkten	-12.1159
amt	-12.1161
▁gleichzeitiger	-12.1163
▁verbreitete	-12.1168
▁Verbote	-12.1171
▁Berechtigung	-12.1171
▁Südkaukasus	-12.1171
▁auszurichten	-12.1171
▁Abgrenzung	-12.1172
▁Siebten	-12.1173
geschwindigkeits	-12.1173
▁arbeitenden	-12.1175
stoff	-12.1176
smission	-12.1177
▁Hilfestellung	-12.1177
mitten	-12.1182
▁Krisenbewältig	-12.1182
managements	-12.1186
Er	-12.1186
▁künstliche	-12.1191
▁entscheidendes	-12.1191
srichtlinien	-12.1194
▁Sympathie	-12.1204
▁Krediten	-12.1204
zusammenzufassen	-12.1204
▁Gebhardt	-12.1204
▁INTERREG	-12.1204
▁SOLVIT	-12.1204
▁etablieren	-12.1204
▁Demnach	-12.1205
▁Nassauer	-12.1205
▁absichtlich	-12.1205
▁Anwesenden	-12.1208
▁Service	-12.1208
Herr	-12.121
▁untergeordnet	-12.1216
▁japanischen	-12.1221
▁Hans	-12.1221
▁forderten	-12.1221
▁verarbeitet	-12.1222
ungs	-12.1225
▁Gil	-12.1225
bild	-12.1226
▁Dioxin	-12.1226
zusammenarbeitet	-12.1226
▁Züge	-12.1232
▁schätzt	-12.1232
▁wechseln	-12.1232
▁übliche	-12.1232
sschutz	-12.1234
▁aufzuhalten	-12.1236
▁Immigranten	-12.1238
zugegebenermaßen	-12.1239
▁Getränke	-12.124
▁Versäumnisse	-12.124
▁Ro	-12.1241
▁Nachbar	-12.1242
▁Koordinatoren	-12.1243
▁älter	-12.1243
▁bevorzugen	-12.1244
Unternehmen	-12.1244
▁Einheiten	-12.1245
▁weiterführen	-12.1251
▁Ratsvorsitzende	-12.1252
diensten	-12.1253
▁vorgeben	-12.1253
▁nationalistisch	-12.1254
schreiben	-12.1256
▁Mitglieds	-12.1258
Mail	-12.126
▁Pa	-12.1264
▁Do	-12.1264
▁Rechtsschutz	-12.1265
mer	-12.1269
▁Kette	-12.127
▁Rompuy	-12.1271
▁Ermutigung	-12.1271
▁restriktiven	-12.1273
übereinkommen	-12.1276
▁beherrschen	-12.1276
▁Verkaufs	-12.1282
▁Lkw	-12.129
▁Sender	-12.1291
▁allgemeines	-12.1297
▁Reformvertrag	-12.1297
ine	-12.1297
▁gemischten	-12.13
fälle	-12.1301
▁Grönland	-12.1304
▁ausgeräumt	-12.1304
▁Party	-12.1304
▁Zustände	-12.1305
▁beleben	-12.1305
▁Wendepunkt	-12.1305
▁fangen	-12.1305
▁effizienteren	-12.1305
kapital	-12.1306
▁Sonst	-12.1313
▁UNHCR	-12.1316
▁vierzig	-12.1316
klausel	-12.1316
▁schnellere	-12.1317
urchschnittliche	-12.1317
▁schwarzen	-12.1326
▁Seen	-12.1327
führung	-12.1329
▁angeben	-12.133
krieg	-12.1332
einkommens	-12.1332
▁Verzerrungen	-12.1333
▁Abweichungen	-12.1334
▁Verzehr	-12.1338
▁gefestigt	-12.1338
▁verwässert	-12.1338
▁indigene	-12.1338
▁verbringen	-12.1338
▁Benzin	-12.1338
▁Schwarzarbeit	-12.1339
▁operationelle	-12.134
▁ausnutzen	-12.1342
ungsweise	-12.1343
▁jemandem	-12.1344
▁überfällig	-12.1344
▁Sätze	-12.1345
▁Zustrom	-12.1347
▁Gipfeltreffens	-12.1349
friedenstellende	-12.1351
▁linken	-12.1354
▁untragbar	-12.1358
▁übertragenen	-12.1362
▁beruhende	-12.1365
▁pragmatische	-12.1366
▁wussten	-12.1366
▁Hinter	-12.1367
▁verurteile	-12.1369
▁Räume	-12.1371
▁Laufbahn	-12.1371
▁Abchasien	-12.1371
▁Wurzel	-12.1371
▁gekostet	-12.1371
▁verschlimmern	-12.1371
▁abgewickelt	-12.1371
▁Konstruktion	-12.1371
▁höchstmögliche	-12.1371
pornographie	-12.1372
▁austauschen	-12.1372
sberichte	-12.1375
▁jugoslawische	-12.1375
▁Rhetorik	-12.1376
▁Kompromissen	-12.1378
▁begründete	-12.1379
▁Auftragswesen	-12.138
▁beklagt	-12.1381
▁Unruhe	-12.1382
sinteressen	-12.1384
▁Hoffen	-12.1384
führer	-12.1384
▁vermute	-12.139
▁Kommunistischen	-12.1392
▁Effekte	-12.1395
▁Besuchs	-12.1397
▁Zitat	-12.1397
▁äußere	-12.1399
▁aufgeschlossen	-12.1402
▁Einfrieren	-12.1405
▁EuGH	-12.1405
▁Napolitano	-12.1405
▁Philippinen	-12.1405
▁Pirker	-12.1405
▁irgendetwas	-12.1405
▁erlaube	-12.1405
▁Vorschub	-12.1405
▁Ortega	-12.1405
▁vorgeworfen	-12.1407
unberücksichtigt	-12.1408
▁Unternehmertum	-12.1413
▁Erkenntnissen	-12.1415
▁Besitzstandes	-12.1415
ex	-12.1416
▁ausgerichteten	-12.1418
▁dergleichen	-12.1419
▁hochwertiger	-12.1421
▁anzustellen	-12.1422
▁wirkungsvoll	-12.1426
sfaktor	-12.143
▁reichende	-12.143
▁Kontrollsystem	-12.1431
leben	-12.1436
▁Helms	-12.1439
▁Logistik	-12.1439
▁ermuntern	-12.1439
▁fliehen	-12.1439
▁anzuhören	-12.1439
▁Erforderlich	-12.1439
▁Freisetzung	-12.1439
▁aufpassen	-12.1439
▁Tierversuche	-12.144
▁Vorurteile	-12.1441
▁Schranken	-12.1442
einzelstaatliche	-12.1445
▁schwerlich	-12.1448
▁durchführbar	-12.1449
▁privat	-12.145
▁Lobby	-12.1451
▁ehrgeiziger	-12.1452
▁gerechnet	-12.1452
niveau	-12.1453
▁Hauptverantwort	-12.1455
▁vorgegebenen	-12.1455
▁berühmte	-12.1457
zahlungen	-12.1459
▁Europe	-12.1459
Haushaltsdefizit	-12.1459
▁Ostens	-12.1462
▁Anteils	-12.1462
märkten	-12.1468
swachstum	-12.1468
▁Positiv	-12.1468
▁Klaus	-12.1472
▁ausnahmslos	-12.1473
▁betraut	-12.1473
▁Beweislast	-12.1473
▁weitergeben	-12.1475
▁landen	-12.1477
von	-12.1481
▁Auslaufen	-12.1482
▁Infektion	-12.1482
▁Schwarzen	-12.1483
▁machten	-12.1483
▁gesetzgeberisch	-12.1485
▁greifbare	-12.1489
▁kontrollierten	-12.1493
▁quer	-12.1494
▁European	-12.1496
weiten	-12.1498
gehalt	-12.1498
▁städtische	-12.1501
▁vernichten	-12.1502
▁langfristiger	-12.1504
▁auszu	-12.1506
▁Collins	-12.1507
▁EWU	-12.1507
▁Weißrussland	-12.1507
▁räumt	-12.1507
▁gleichbedeutend	-12.1507
▁zurückgeht	-12.1507
▁rechtmäßigen	-12.1508
▁erfährt	-12.1509
Staatsangehörige	-12.1511
▁Fläche	-12.1511
▁vorderste	-12.1512
▁wieso	-12.1514
▁gekoppelt	-12.1515
Information	-12.1515
▁spezielles	-12.1517
▁Meerespolitik	-12.1518
log	-12.1519
▁Georgiens	-12.1526
▁ordentlichen	-12.1528
staatlichkeit	-12.1531
▁Datenbanken	-12.1534
▁Schweizer	-12.1535
verbot	-12.1536
▁Beleidigung	-12.1537
▁Meldungen	-12.1539
▁bestärkt	-12.1541
▁Kanäle	-12.1541
▁gesamt	-12.1542
▁Letzt	-12.1542
▁Armutsgrenze	-12.1542
▁Einwand	-12.1543
▁allesamt	-12.1548
▁maßgeblichen	-12.1549
▁binden	-12.1549
▁beruhenden	-12.155
▁Hilfsmittel	-12.1551
▁annähernd	-12.156
entscheidungen	-12.1562
▁unbestritten	-12.1562
▁Fördermittel	-12.1566
▁willkürliche	-12.1569
▁euro	-12.157
▁schuld	-12.1571
▁Raketen	-12.1572
▁Angebots	-12.1572
haus	-12.1574
▁teilnimmt	-12.1575
▁Reichweite	-12.1575
▁Schrecken	-12.1576
▁Eile	-12.1576
Alba	-12.1578
▁Eintritt	-12.1578
sk	-12.1585
▁MdEP	-12.1585
▁Illusionen	-12.1587
▁Festung	-12.1591
▁Tunnel	-12.1591
▁Vergemeinschaft	-12.1592
sbildung	-12.1594
[...]
