▁the	3416171
,	2552556
.	1882140
▁of	1734812
▁to	1612813
▁and	1369271
▁in	1059613
▁that	841172
▁is	801789
▁a	799106
▁for	543381
▁I	537342
▁on	476833
▁	438592
▁be	432263
▁this	431166
▁we	415385
▁are	358802
▁have	342034
▁it	338665
▁not	325017
▁as	309786
▁with	304349
▁which	297717
0	287151
▁European	280511
-	257642
▁will	249302
▁by	249221
▁The	247643
▁has	222113
'	200479
s	194953
▁Mr	187369
▁Commission	171209
2	164576
▁an	162486
▁would	161885
▁at	159797
▁also	158779
1	155706
▁all	151616
▁should	151593
▁-	144856
▁from	144690
▁President	142275
▁We	142108
▁our	141343
▁must	140538
▁but	132673
▁been	128748
▁Union	122453
▁Parliament	117390
▁It	115452
▁can	112756
▁you	111217
▁was	107826
▁Member	106929
▁more	106876
▁or	104303
▁report	104014
▁its	103889
▁States	103191
▁their	99542
▁Council	98947
▁there	98225
▁like	97918
▁do	97861
9	97365
▁very	93773
▁Europe	92788
▁these	89777
▁This	89730
▁In	89361
▁they	87952
▁EU	86970
▁one	85013
▁countries	83624
▁who	80104
▁so	79714
▁about	77660
▁what	77093
▁other	76973
▁us	75540
)	75210
▁need	74476
▁(	73728
▁important	72343
▁my	71489
▁people	71200
▁only	70845
▁new	69340
5	69006
▁policy	68622
▁time	68122
▁because	67618
▁if	67569
:	66123
▁no	64666
▁up	61191
▁am	60782
▁now	60087
▁support	59979
▁out	59886
▁such	59423
?	59412
3	58116
▁make	57399
▁into	57060
▁between	56220
▁those	56050
▁take	55018
▁work	54922
▁rights	52667
▁when	52466
▁therefore	52244
▁some	51838
▁being	51165
▁any	50675
▁them	50404
4	50258
▁political	49856
▁made	49116
▁were	48863
▁than	47858
▁way	47848
▁believe	47050
▁economic	46555
▁Commissioner	46367
;	45394
▁say	45120
▁many	44576
▁proposal	44232
▁fact	44202
▁against	43934
7	43439
▁first	43110
6	42252
▁social	42249
8	42027
▁market	41654
▁think	40729
▁Committee	40694
▁just	40216
▁That	40007
▁well	39882
▁development	39828
▁issue	39764
▁point	39354
▁years	39266
▁future	38397
▁situation	38152
▁order	38113
▁human	37935
▁right	37801
▁two	37657
’	37573
▁cannot	37525
▁country	37516
▁question	37408
▁citizens	37336
▁'	37335
▁debate	37320
▁here	37279
▁does	37248
▁even	37071
▁want	36983
▁same	36961
▁measures	36910
▁possible	36871
▁had	36841
▁As	36282
▁could	36011
▁part	35656
▁public	35650
▁said	35289
▁most	35225
/	35178
▁today	34980
▁agreement	34510
▁already	34336
▁where	34064
▁me	33952
▁clear	33945
▁national	33788
▁too	33667
▁within	33657
▁good	33656
▁much	33627
▁Mrs	33049
▁still	32924
▁how	32647
▁know	32615
▁financial	32358
▁year	32245
▁There	32100
▁However	32028
▁particular	31918
▁–	31876
▁both	31862
▁use	31852
▁common	31821
▁over	31424
▁Community	31396
▁cooperation	31202
▁under	31028
▁view	30992
▁course	30958
▁hope	30711
ing	30437
▁world	30414
▁taken	30295
▁own	30068
▁international	30030
▁your	29958
▁ensure	29911
▁able	29841
▁see	29808
▁level	29802
▁case	29760
V	29727
▁system	29530
▁his	29441
▁area	29398
▁process	28829
▁then	28447
▁why	28436
▁vote	28394
▁put	28136
▁rapporteur	27931
▁energy	27886
▁means	27799
▁last	27662
▁information	27582
▁number	27505
▁problem	27456
▁may	27426
▁example	27407
▁action	27284
▁without	26987
▁gentlemen	26792
▁through	26708
▁problems	26546
▁House	26508
▁If	26491
▁however	26418
▁directive	26371
Y	26328
▁place	26090
▁budget	25734
▁he	25554
▁necessary	25516
▁particularly	25502
▁great	25324
▁give	25296
▁Madam	25273
▁issues	25159
▁before	25110
▁protection	24941
▁end	24916
▁long	24880
▁areas	24645
▁given	24639
▁far	24403
▁regard	24288
▁respect	24248
▁security	24217
▁Treaty	24182
▁position	24137
▁matter	23962
▁legal	23921
▁women	23829
▁law	23793
▁resolution	23615
▁whether	23264
▁amendments	23149
▁again	23089
▁decision	22924
▁sector	22920
▁Group	22863
▁Members	22833
▁set	22795
▁ladies	22636
▁further	22584
▁thank	22526
▁United	22511
▁role	22476
▁since	22403
▁proposals	22372
▁programme	22261
%	22165
▁behalf	22126
▁terms	22108
▁basis	22081
▁certain	21760
▁services	21704
▁trade	21606
▁aid	21388
▁rules	21360
▁come	21253
▁done	21248
▁A	21187
▁favour	21093
▁legislation	21001
▁health	20983
▁next	20796
▁different	20781
▁better	20767
▁s	20691
▁present	20607
▁help	20535
▁agree	20519
▁framework	20354
▁needs	20353
▁But	20180
▁What	20141
▁adopted	20091
▁crisis	19946
▁continue	19905
▁opinion	19904
▁institutions	19863
▁ask	19663
▁progress	19429
▁change	19410
▁after	19406
▁wish	19390
▁concerned	19349
▁going	19148
▁For	19143
▁result	18908
▁State	18870
▁group	18869
▁whole	18756
▁three	18611
▁towards	18577
▁few	18566
▁forward	18481
▁welcome	18375
▁approach	18309
▁working	18305
▁something	18295
▁principle	18145
▁resources	17841
▁conditions	17725
▁current	17618
▁subject	17607
▁including	17492
▁go	17486
▁proposed	17392
▁voted	17335
▁opportunity	17311
▁really	17216
▁Presidency	17197
▁importance	17192
▁shall	17164
▁did	17121
▁specific	17120
▁million	17080
▁used	17027
▁provide	17026
▁employment	16998
▁together	16986
▁authorities	16975
▁policies	16927
▁especially	16925
▁increase	16893
▁state	16848
▁On	16843
▁every	16726
▁transport	16683
▁during	16647
▁second	16593
▁regulation	16522
▁industry	16517
▁clearly	16512
▁negotiations	16511
▁find	16487
▁general	16477
▁safety	16469
▁strategy	16467
▁account	16392
▁itself	16333
▁products	16313
▁become	16309
▁quite	16306
▁down	16303
▁responsibility	16271
▁another	16253
▁high	16224
▁least	16197
▁greater	16171
▁environmental	16151
▁rather	16088
▁serious	15992
▁research	15924
▁small	15874
▁third	15729
▁They	15698
▁No	15394
▁regions	15364
▁always	15333
▁difficult	15332
▁democracy	15306
▁making	15288
▁fundamental	15286
▁once	15262
▁essential	15237
▁call	15223
▁reason	15221
▁access	15177
▁These	15107
▁effective	15106
▁deal	15076
▁interests	15060
▁real	15055
▁achieve	14990
▁things	14957
▁attention	14934
▁society	14885
▁major	14858
▁taking	14851
▁freedom	14821
▁democratic	14817
▁based	14746
▁implementation	14735
▁money	14660
▁internal	14654
▁get	14597
▁At	14580
▁government	14501
▁efforts	14464
▁economy	14451
▁various	14446
▁large	14372
▁positive	14336
▁points	14290
▁environment	14258
▁each	14217
▁yet	14054
▁words	14010
▁hand	13949
▁committee	13901
▁free	13874
▁procedure	13852
▁while	13829
▁back	13762
▁allow	13716
▁involved	13697
▁competition	13668
▁less	13627
▁region	13615
▁consider	13609
▁single	13600
▁look	13536
▁concerns	13457
▁full	13452
▁funds	13419
▁Affairs	13397
▁having	13378
▁programmes	13373
▁Government	13349
▁reform	13348
▁growth	13325
▁companies	13238
▁control	13126
▁step	13088
▁majority	13065
▁So	13046
▁EUR	12965
▁objectives	12961
▁children	12923
▁power	12908
▁best	12877
▁agreements	12859
▁quality	12851
▁peace	12845
▁fully	12840
▁standards	12799
▁food	12777
▁solution	12747
▁interest	12739
▁Lisbon	12725
▁certainly	12697
▁workers	12692
▁decisions	12683
▁often	12681
▁simply	12637
▁amendment	12583
▁recent	12540
▁Turkey	12467
▁her	12432
▁aware	12429
in	12427
▁agricultural	12414
▁extremely	12406
▁concern	12376
▁force	12326
▁production	12316
▁bring	12315
▁global	12272
▁relations	12227
▁groups	12173
▁accept	12163
▁dialogue	12146
▁text	12133
▁main	12111
▁create	12066
▁following	12053
▁form	11992
▁enlargement	11956
▁might	11919
▁actually	11915
▁ago	11910
▁context	11909
▁initiative	11904
▁objective	11782
▁risk	11778
▁period	11778
▁life	11705
▁developing	11697
▁Article	11681
▁available	11661
▁states	11641
▁mentioned	11629
▁questions	11590
▁non	11575
▁others	11532
▁fight	11512
▁jobs	11500
▁indeed	11497
▁Court	11492
▁improve	11446
▁Let	11425
▁start	11408
▁Finally	11374
▁regional	11366
▁field	11342
▁meeting	11326
ou	11313
▁currently	11289
▁open	11273
▁results	11255
▁appropriate	11245
▁concerning	11140
▁And	11109
▁consumers	11082
▁impact	11063
▁understand	11018
▁responsible	10999
▁To	10905
▁themselves	10891
▁management	10878
▁members	10858
▁let	10852
▁climate	10822
▁doing	10798
▁months	10796
▁cases	10790
▁Russia	10768
!	10735
▁euro	10726
▁matters	10696
▁principles	10653
▁systems	10641
▁needed	10638
▁education	10634
▁key	10586
▁With	10568
▁data	10536
▁reasons	10519
▁thing	10476
▁enough	10428
▁parties	10325
▁kind	10320
▁feel	10312
▁day	10305
▁longer	10273
▁compromise	10259
▁reports	10224
▁regards	10221
▁projects	10200
▁costs	10189
▁individual	10128
▁funding	10127
▁activities	10117
▁though	10112
▁achieved	10090
▁tax	10058
▁Convention	10054
▁priority	9984
▁commitment	9970
▁idea	9969
"	9968
▁although	9967
▁among	9957
▁local	9891
▁draft	9858
▁little	9841
▁governments	9837
▁significant	9825
▁due	9803
▁past	9769
▁lack	9767
▁promote	9746
▁sure	9739
▁excellent	9721
▁line	9699
▁aim	9694
▁true	9687
▁congratulate	9671
▁nothing	9670
▁mean	9655
▁provided	9650
▁Amendment	9636
▁My	9625
▁perhaps	9605
▁plan	9593
▁Rights	9585
▁special	9573
▁effect	9565
▁sustainable	9561
▁act	9526
▁final	9501
▁strong	9463
▁lead	9450
▁labour	9427
▁prevent	9422
▁writing	9416
▁include	9409
▁nuclear	9399
▁solidarity	9372
▁young	9363
▁regarding	9359
▁legislative	9355
▁guarantee	9347
▁above	9259
▁aspects	9248
▁moment	9243
▁makes	9230
▁agenda	9191
▁seen	9185
▁integration	9177
▁joint	9171
▁play	9170
▁markets	9131
▁foreign	9129
▁agreed	9124
▁remain	9117
▁consumer	9116
▁project	9100
▁several	9097
▁transparency	9071
▁comes	9066
(	9057
▁Our	9030
▁upon	9029
▁Directive	8994
▁apply	8973
▁contribution	8928
▁relation	8911
▁actions	8902
Office	8899
▁civil	8894
▁benefit	8877
▁population	8822
ed	8812
▁response	8802
▁discussion	8799
▁addition	8767
▁communication	8744
▁Secondly	8720
▁Therefore	8710
▁values	8688
▁technical	8680
▁practice	8678
▁criteria	8662
▁share	8647
▁speak	8642
▁him	8636
▁pay	8621
▁move	8594
▁existing	8587
▁colleagues	8577
▁seems	8576
▁provisions	8565
▁procedures	8546
▁business	8535
▁short	8520
▁changes	8493
▁elections	8487
▁pleased	8481
▁answer	8470
▁investment	8455
▁One	8447
▁soon	8409
▁ourselves	8397
▁assistance	8391
▁accession	8391
▁stability	8371
▁service	8318
▁until	8313
▁violence	8305
term	8284
▁express	8278
▁Minister	8245
▁crucial	8228
▁carried	8224
▁terrorism	8214
▁creation	8209
▁organisations	8204
▁voting	8200
▁adopt	8197
▁success	8193
▁cohesion	8188
▁poverty	8169
▁everyone	8163
▁basic	8163
▁never	8149
▁saying	8147
▁China	8144
▁regulations	8132
▁asked	8123
▁mind	8114
▁military	8100
▁tabled	8072
▁farmers	8063
▁consequences	8031
▁statement	7984
▁fishing	7979
‘	7974
▁held	7962
▁sense	7940
▁war	7925
▁namely	7916
▁application	7910
▁increased	7902
▁protect	7898
▁balance	7892
▁increasing	7887
▁cultural	7887
▁relating	7872
▁term	7831
▁reduce	7830
▁training	7825
▁close	7802
▁presented	7791
▁times	7790
▁show	7780
▁requirements	7774
▁required	7768
▁everything	7758
▁request	7754
▁develop	7744
▁opportunities	7741
▁budgetary	7734
▁draw	7698
▁When	7695
▁meet	7683
▁throughout	7666
▁instruments	7659
▁job	7644
▁value	7630
▁nature	7629
▁thus	7624
▁rule	7620
▁stage	7619
▁equal	7591
▁priorities	7574
▁either	7565
▁All	7534
▁called	7520
DE	7514
▁UN	7507
Q	7496
▁cost	7469
▁mention	7445
se	7442
▁around	7442
▁initiatives	7430
▁face	7401
▁tell	7396
▁keep	7381
▁week	7366
▁demand	7347
▁community	7343
▁powers	7334
▁prepared	7323
▁conflict	7306
▁she	7249
▁pressure	7249
▁Party	7247
▁external	7246
▁reached	7237
▁decided	7234
▁task	7232
▁instrument	7232
▁road	7228
▁across	7225
▁movement	7192
▁potential	7189
▁five	7186
▁fisheries	7174
▁expressed	7172
▁talking	7159
▁tomorrow	7149
▁address	7147
▁using	7136
▁establish	7125
▁raised	7114
▁four	7097
▁levels	7088
▁monitoring	7088
▁implemented	7058
▁reading	7039
▁conclusion	7036
▁waste	7008
y	6999
▁off	6987
▁experience	6987
▁item	6984
▁quickly	6981
▁justice	6974
▁effort	6970
▁included	6967
▁direction	6961
▁established	6959
▁victims	6951
▁Fund	6944
▁crime	6938
▁medium	6933
▁focus	6928
▁recently	6909
▁try	6904
▁challenges	6899
▁previous	6897
▁review	6884
▁fellow	6883
▁doubt	6875
▁partners	6872
▁implement	6860
▁absolutely	6847
▁fair	6842
▁enable	6837
▁vital	6836
▁France	6835
▁Ireland	6835
▁coming	6825
▁private	6824
▁ever	6818
▁French	6818
▁illegal	6797
▁effects	6791
▁Conference	6769
▁borders	6764
▁sectors	6756
▁billion	6749
▁agriculture	6743
▁talk	6737
▁reforms	6737
▁supported	6729
▁completely	6711
▁thanks	6699
▁reality	6684
▁note	6675
▁reduction	6667
▁brought	6665
▁water	6660
▁immigration	6659
▁found	6653
▁outside	6638
▁Development	6629
▁package	6595
é	6579
▁giving	6575
▁extent	6554
▁finally	6531
▁live	6510
▁reach	6503
▁along	6502
▁cause	6490
▁took	6487
▁businesses	6459
▁applied	6458
▁structural	6457
▁light	6456
▁almost	6448
▁representatives	6441
▁heard	6435
▁price	6431
▁presidency	6430
▁possibility	6420
▁Republic	6410
▁amount	6409
▁unemployment	6407
▁encourage	6396
▁stress	6390
▁behind	6389
▁Firstly	6388
▁December	6386
▁discussed	6374
▁left	6357
▁document	6350
▁additional	6347
▁coordination	6345
▁direct	6338
▁Nations	6313
▁relevant	6310
▁prices	6305
▁ensuring	6300
▁motion	6293
▁takes	6287
▁list	6284
▁model	6283
▁away	6281
▁Furthermore	6274
▁British	6271
▁natural	6271
▁Africa	6261
▁follow	6255
▁assessment	6250
▁discussions	6248
▁living	6243
▁emissions	6239
▁creating	6226
▁treatment	6220
▁competitiveness	6215
▁confidence	6206
▁events	6199
▁received	6186
▁parliamentary	6174
▁offer	6164
▁US	6162
▁strengthen	6159
▁East	6145
▁begin	6145
▁guidelines	6138
▁practical	6138
▁discrimination	6133
▁remains	6129
▁discuss	6123
▁nor	6116
▁air	6108
▁turn	6083
▁proper	6080
▁approved	6079
▁capacity	6067
▁scope	6057
▁expect	6048
▁Of	6043
▁add	6037
▁days	6037
▁unacceptable	6031
▁adoption	6030
▁goods	5990
▁considered	5988
▁avoid	5974
▁affected	5972
▁care	5971
▁despite	5940
▁family	5937
▁old	5931
▁Central	5927
▁lot	5923
▁men	5922
▁knowledge	5921
▁precisely	5920
▁solutions	5915
▁asylum	5908
▁cross	5904
▁humanitarian	5902
▁rate	5882
▁carry	5882
▁trying	5881
A	5875
▁effectively	5872
▁difficulties	5866
▁developed	5841
m	5840
▁aimed	5828
▁shown	5807
▁connection	5806
▁defence	5806
▁First	5804
▁instead	5802
▁summit	5797
▁Bank	5786
▁honourable	5779
▁reference	5775
▁regime	5769
▁side	5769
▁contribute	5766
▁efficiency	5760
▁six	5749
▁Democrats	5734
▁remind	5732
▁Policy	5720
▁Agreement	5720
▁Justice	5719
▁circumstances	5718
▁huge	5717
▁C	5703
e	5702
▁stop	5689
▁Germany	5687
▁according	5682
▁message	5661
▁June	5661
▁forces	5660
▁partnership	5659
▁May	5658
▁administrative	5653
▁International	5644
▁World	5638
▁conclusions	5634
▁active	5630
▁accordance	5627
▁status	5622
▁improving	5620
▁created	5620
▁committed	5614
▁Economic	5607
▁beginning	5606
▁allowed	5588
▁minimum	5586
▁hard	5582
▁challenge	5581
▁Regulation	5573
▁providing	5572
▁speech	5571
▁technology	5568
▁WTO	5566
▁consideration	5558
▁rightly	5558
▁propose	5557
▁independent	5557
▁provides	5549
▁oil	5548
▁combat	5546
▁goes	5546
▁date	5545
▁participation	5537
▁benefits	5536
▁culture	5534
▁considerable	5531
▁People	5527
▁enterprises	5522
▁duty	5520
▁criminal	5512
▁death	5510
▁half	5505
▁He	5497
▁Social	5488
▁total	5484
▁calls	5484
▁Now	5484
▁rural	5483
▁personal	5482
▁content	5481
▁innovation	5479
▁forms	5469
▁institutional	5466
▁successful	5465
▁supply	5454
▁capital	5450
▁referred	5444
▁stand	5443
▁return	5434
▁implementing	5432
▁self	5427
▁provision	5423
▁stated	5420
▁Brussels	5410
▁views	5392
▁specifically	5390
▁lives	5389
▁dealing	5388
▁seriously	5376
▁accepted	5373
▁Kosovo	5370
▁unfortunately	5368
al	5366
▁purpose	5365
▁scientific	5360
▁promoting	5352
▁overall	5352
▁colleague	5340
▁closely	5331
▁beyond	5318
▁receive	5311
▁%	5288
▁plans	5281
▁decide	5277
▁steps	5275
▁comments	5274
▁Mediterranean	5257
▁introduction	5256
▁wanted	5245
▁directly	5230
▁commitments	5218
▁measure	5189
▁requires	5186
▁ways	5184
▁equality	5175
▁happen	5170
▁financing	5169
▁produce	5152
▁Israel	5151
▁strategic	5150
▁expenditure	5145
▁ban	5144
▁media	5140
▁history	5136
a	5133
▁Today	5133
▁complete	5127
▁setting	5108
▁demands	5094
▁leave	5094
▁intended	5092
▁urgent	5088
▁Greece	5088
▁Summit	5084
▁Constitution	5083
▁animal	5082
▁myself	5076
▁January	5071
European	5068
▁industrial	5067
▁How	5060
▁maintain	5055
sized	5052
▁German	5046
▁party	5041
▁event	5041
▁sufficient	5038
▁product	5021
▁supporting	5020
▁entire	5019
▁per	5019
▁activity	5019
▁paid	5019
▁Iraq	5012
▁central	5003
▁exchange	4999
▁poor	4999
▁aspect	4982
▁alone	4974
▁bodies	4969
▁home	4968
▁low	4964
▁competitive	4959
▁anything	4959
▁exist	4955
▁wrong	4952
▁police	4943
▁efficient	4940
▁speaking	4937
▁candidate	4936
▁properly	4935
▁Europeans	4934
▁Human	4928
▁authority	4926
▁represent	4904
▁join	4900
▁paragraph	4893
▁led	4889
▁highly	4885
▁known	4884
▁discussing	4881
▁weeks	4881
▁gas	4878
▁anti	4873
▁establishing	4872
▁limited	4870
▁Although	4868
▁similar	4867
▁developments	4866
▁shows	4864
▁Irish	4854
▁genuine	4852
▁type	4850
▁gives	4844
▁Charter	4842
▁caused	4837
▁higher	4836
▁refer	4835
▁conclude	4833
▁calling	4824
▁Unfortunately	4821
▁study	4819
▁producers	4815
▁fund	4811
▁risks	4811
▁yesterday	4801
▁early	4796
▁respond	4790
▁ambitious	4789
▁whom	4785
▁re	4784
▁increasingly	4775
▁improved	4774
ö	4772
▁represents	4768
▁urge	4767
▁animals	4748
▁produced	4744
▁Since	4734
▁opposition	4731
▁border	4730
▁emphasise	4725
▁happened	4709
▁achieving	4706
▁obviously	4704
▁strengthening	4694
▁Italy	4687
▁Thank	4686
▁later	4680
▁manner	4676
▁Security	4672
▁aims	4666
▁currency	4651
▁language	4648
▁reducing	4647
▁South	4647
▁infrastructure	4643
▁Rules	4636
▁hear	4630
▁Spanish	4626
▁useful	4625
▁Moreover	4621
▁require	4621
▁threat	4618
▁convinced	4617
border	4615
▁annual	4613
▁sometimes	4609
n	4608
▁says	4608
▁regret	4605
called	4601
▁looking	4600
▁wants	4596
▁earlier	4595
▁name	4592
▁March	4591
responsibilities	4585
▁limit	4583
▁conference	4582
▁broad	4582
▁remember	4580
▁B	4578
▁former	4575
▁damage	4575
▁outcome	4574
▁Foreign	4574
▁recognise	4561
▁firstly	4551
▁rise	4551
▁elements	4550
▁recognition	4526
▁concept	4517
▁acceptable	4517
▁spirit	4515
▁documents	4514
▁hold	4511
▁ten	4507
up	4504
▁analysis	4501
▁influence	4497
▁entirely	4496
▁balanced	4492
▁member	4490
▁parts	4480
▁monetary	4478
▁comment	4476
▁prevention	4476
▁introduce	4473
▁pointed	4472
▁introduced	4472
▁Spain	4471
▁thinking	4471
▁contrary	4469
▁word	4463
▁reduced	4458
▁comprehensive	4447
▁thought	4441
▁combating	4439
▁building	4436
▁Nevertheless	4434
▁consensus	4434
making	4428
▁rapporteurs	4426
▁delegation	4417
▁American	4414
▁facing	4411
▁liberalisation	4410
▁becoming	4409
▁asking	4405
▁press	4399
▁sources	4398
▁concrete	4396
▁differences	4396
ly	4372
▁laws	4364
▁Environment	4359
▁origin	4359
▁methods	4357
▁morning	4356
▁After	4353
▁dangerous	4350
Z	4347
▁networks	4343
▁establishment	4342
▁probably	4333
▁Indeed	4331
▁commercial	4325
▁closer	4324
▁perspective	4321
FR	4321
▁flexibility	4320
▁relationship	4320
▁recommendations	4319
▁Internet	4317
▁union	4316
▁added	4313
▁Ministers	4309
▁de	4307
▁met	4307
▁alternative	4306
▁America	4306
▁organisation	4296
▁body	4294
▁raise	4290
▁September	4288
▁directives	4285
▁rest	4284
▁applies	4281
▁else	4280
▁company	4277
▁refugees	4275
▁exactly	4267
▁strongly	4265
▁practices	4263
▁sitting	4255
▁UK	4252
▁sort	4252
▁sanctions	4246
▁staff	4242
▁Some	4225
▁negative	4215
▁drawn	4213
▁forget	4208
▁laid	4194
▁MEPs	4192
▁bear	4190
▁ideas	4179
▁network	4175
▁attempt	4172
▁trust	4171
▁Paper	4169
▁chance	4166
▁dealt	4158
▁submitted	4152
▁seek	4143
▁opening	4140
▁failure	4134
▁parliaments	4131
▁constructive	4131
▁method	4126
▁Green	4125
▁mechanism	4123
▁Palestinian	4122
▁enormous	4120
▁November	4119
▁intervention	4116
▁dimension	4100
▁informed	4096
▁Italian	4095
▁correct	4090
▁critical	4087
▁institution	4084
▁Ladies	4080
▁Romania	4076
▁immediately	4065
▁targets	4059
▁definition	4059
▁putting	4055
▁transparent	4054
▁improvement	4051
▁integrated	4051
▁person	4044
▁agencies	4041
▁obligations	4039
▁addressed	4033
▁happy	4033
t	4028
▁reply	4025
▁contains	4023
▁Kingdom	4010
▁organised	4009
▁fall	4005
▁growing	4005
▁mandate	4002
▁unable	3995
▁Middle	3992
▁administration	3991
▁send	3987
▁By	3986
▁mutual	3985
▁managed	3983
▁ahead	3981
▁sensitive	3979
▁mainly	3975
▁discharge	3973
▁fraud	3970
▁ground	3959
▁Prime	3959
▁consultation	3956
▁Turkish	3956
▁big	3954
▁fear	3952
▁Iran	3948
▁mechanisms	3944
▁age	3940
▁governance	3937
▁Agency	3937
▁build	3937
▁Trade	3936
▁October	3936
▁seem	3935
▁Amendments	3926
▁merely	3925
▁Chamber	3924
▁choice	3921
▁Amsterdam	3917
▁ones	3916
▁simple	3915
▁Even	3909
▁Procedure	3892
▁leaders	3891
▁disaster	3885
▁exercise	3884
▁leading	3884
▁persons	3883
▁elected	3877
▁signed	3875
▁thousands	3873
▁Programme	3870
▁positions	3868
▁Health	3867
▁run	3866
▁complex	3865
▁statements	3864
▁operation	3861
▁ought	3861
▁resolve	3856
▁read	3850
▁told	3849
▁debates	3848
▁impossible	3846
▁easy	3843
▁child	3842
et	3841
▁Russian	3839
▁guarantees	3835
▁burden	3834
▁continuing	3829
▁lost	3828
▁understanding	3828
▁Strategy	3826
▁substantial	3819
▁evidence	3812
▁figures	3810
▁came	3806
▁worked	3803
▁includes	3800
▁speakers	3790
▁payments	3790
▁peoples	3785
▁subsidiarity	3780
▁Ukraine	3778
▁intention	3774
▁independence	3773
▁totally	3759
▁repeat	3751
▁wishes	3750
▁desire	3750
▁Many	3747
▁degree	3746
▁attitude	3740
▁adequate	3736
▁membership	3735
▁traffic	3732
▁rejected	3732
▁related	3724
▁bringing	3720
▁renewable	3719
▁structure	3718
▁extend	3711
▁situations	3710
▁recommendation	3709
▁promotion	3708
▁rates	3704
▁cover	3697
▁trafficking	3697
▁controls	3696
▁resolutions	3695
▁table	3694
▁territory	3689
▁grateful	3687
▁treaty	3678
▁affairs	3671
▁fish	3670
▁SMEs	3667
▁expression	3664
▁failed	3662
▁technologies	3661
▁Portugal	3660
▁instance	3659
▁lines	3658
▁Cyprus	3656
▁income	3653
▁opposed	3653
▁obvious	3645
▁highlight	3641
▁actual	3640
▁supports	3638
▁economies	3635
▁involvement	3633
▁intend	3631
▁families	3631
▁involving	3630
▁Thirdly	3623
▁getting	3622
▁linked	3610
▁Nos	3606
▁Schengen	3606
▁Structural	3605
▁secure	3603
▁office	3600
▁forced	3598
▁substances	3593
▁immediate	3590
▁official	3581
▁Monetar	3570
▁talks	3563
▁truly	3558
▁original	3554
▁adopting	3554
▁votes	3548
▁Funds	3548
▁happening	3547
▁weapons	3545
▁sound	3545
▁Pact	3540
▁ready	3535
▁recognised	3535
▁North	3533
▁faced	3532
▁plenary	3524
▁greatest	3523
▁land	3516
▁granted	3514
▁enter	3512
▁seeking	3511
▁tourism	3508
▁goal	3507
▁appeal	3505
▁acts	3495
▁advantage	3488
▁drugs	3487
▁protecting	3483
▁starting	3472
▁followed	3470
▁minorities	3468
▁election	3465
▁Poland	3465
▁travel	3462
á	3455
▁interesting	3452
▁Public	3452
▁disease	3450
▁meetings	3448
▁cut	3448
▁appear	3447
▁sides	3445
▁finance	3444
▁July	3443
▁covered	3442
▁Why	3440
▁Sweden	3440
▁subsidies	3435
▁defend	3434
▁danger	3418
▁explain	3414
▁diversity	3411
▁carefully	3400
▁sea	3396
▁heart	3396
▁pollution	3395
▁element	3391
▁co	3391
▁suffering	3390
▁designed	3389
▁shared	3387
▁reject	3386
▁ability	3383
▁thereby	3379
▁gender	3379
▁proposing	3379
▁spent	3374
▁tackle	3369
▁structures	3367
▁globalisation	3365
▁continues	3362
▁conduct	3362
▁comply	3361
▁committees	3352
▁export	3351
▁detailed	3350
▁safe	3348
▁changed	3348
▁communities	3345
▁Swedish	3345
▁range	3345
▁bad	3344
▁minority	3344
▁mobility	3343
▁involve	3341
▁floor	3338
▁binding	3337
▁sign	3333
▁presence	3332
▁naturally	3332
▁taxation	3329
▁arms	3327
▁serve	3318
▁African	3318
▁harmonisation	3307
▁evaluation	3306
▁ACP	3305
▁criticism	3297
▁judicial	3297
PL	3295
▁delay	3288
▁series	3288
▁competence	3285
▁While	3277
▁Auditors	3273
▁emphasis	3270
▁anyone	3262
▁Greek	3261
▁bilateral	3258
▁reasonable	3255
▁Eastern	3248
▁expected	3248
▁Belarus	3247
▁voice	3244
▁credibility	3243
▁nations	3233
▁consistent	3232
▁approval	3231
▁planning	3230
▁causes	3228
▁consumption	3227
▁target	3226
▁improvements	3225
▁S	3215
▁amongst	3214
▁limits	3213
▁vehicles	3207
▁credit	3202
▁representative	3201
▁standard	3200
▁detail	3197
▁otherwise	3195
▁late	3194
▁Energy	3192
▁maximum	3186
▁hours	3181
▁affect	3181
▁participate	3178
▁employees	3175
▁campaign	3174
uestion	3172
▁April	3172
▁grounds	3171
▁declaration	3169
▁Sea	3169
▁worth	3161
▁arrangements	3159
d	3157
▁initial	3138
▁board	3132
▁neither	3130
▁obligation	3129
▁monitor	3128
▁Only	3125
▁tobacco	3123
▁lower	3122
▁Such	3121
▁Agriculture	3120
▁generally	3117
▁obtain	3116
▁factor	3115
▁freedoms	3112
▁domestic	3108
▁citizen	3107
▁rapid	3105
▁signal	3103
▁immigrants	3100
▁rail	3100
▁compensation	3099
▁entry	3099
▁gave	3098
▁languages	3097
▁An	3097
▁easier	3094
▁started	3092
▁Western	3092
▁Barroso	3087
▁lies	3086
▁source	3085
▁contributions	3085
▁appears	3084
▁inform	3084
▁encouraging	3083
▁Commissioners	3082
▁religious	3079
▁constitutional	3075
▁Those	3073
▁attacks	3072
▁delighted	3071
▁respected	3069
▁factors	3065
▁goals	3057
▁moving	3053
▁G	3050
▁politicians	3050
▁whilst	3036
▁permanent	3032
▁fail	3032
▁round	3032
▁politics	3032
▁From	3029
▁Research	3028
▁proposes	3026
ice	3022
▁debt	3017
▁continent	3014
▁sent	3012
▁month	3011
▁facilitate	3010
▁Bulgaria	3010
▁welfare	3005
▁Socialist	3004
▁regulatory	3002
▁PPE	2995
▁General	2992
▁flexible	2992
▁Afghanistan	2991
▁professional	2987
▁evening	2986
▁negotiating	2982
▁imposed	2980
▁crimes	2977
▁experts	2977
based	2975
▁terrorist	2974
▁modern	2970
▁maritime	2969
▁conflicts	2966
▁placed	2959
▁recovery	2959
▁Roma	2957
▁equally	2955
▁interested	2955
▁NATO	2954
▁tasks	2950
▁endorse	2949
es	2947
▁restrictions	2946
▁appropriations	2946
▁opinions	2944
▁visa	2944
▁requirement	2940
▁construction	2933
▁Balkans	2932
▁oral	2932
▁Czech	2932
the	2932
▁reflect	2931
▁capable	2929
▁spending	2928
▁Legal	2925
▁compliance	2923
▁century	2922
▁impose	2919
▁Euro	2916
▁likely	2914
▁personally	2914
▁link	2913
▁inclusion	2912
▁resolved	2911
▁H	2910
▁guaranteed	2909
▁scale	2906
▁Budgets	2905
▁closed	2903
▁partner	2900
▁traditional	2898
r	2897
▁transfer	2896
▁works	2895
▁numerous	2892
▁fighting	2892
▁Strasbourg	2890
▁helping	2889
▁defined	2889
▁Copenhagen	2889
▁firm	2888
▁solve	2888
▁labelling	2884
▁referendum	2884
▁Netherlands	2884
▁investments	2882
▁continued	2879
▁forthcoming	2868
▁exists	2866
▁purposes	2865
▁allowing	2863
▁payment	2862
▁Treaties	2862
▁diseases	2857
▁awareness	2857
▁Portuguese	2857
IT	2852
▁glad	2850
▁Stability	2849
▁operations	2848
▁separate	2846
▁Austria	2843
▁migration	2841
▁banks	2840
▁voluntary	2839
▁trading	2838
▁existence	2831
▁According	2831
▁letter	2829
▁officials	2829
▁Market	2827
▁customs	2821
▁occasions	2820
▁demonstrated	2820
▁distribution	2818
▁effectiveness	2817
▁disasters	2816
PT	2815
▁assure	2811
▁worse	2808
▁demonstrate	2805
▁Rule	2805
▁Baltic	2803
▁via	2803
▁Framework	2802
▁Luxembourg	2800
▁knows	2800
▁peaceful	2799
▁safeguard	2798
▁millions	2798
▁learn	2797
▁operators	2791
▁Ombudsman	2787
▁functioning	2787
▁remarks	2780
▁protected	2779
th	2779
▁associated	2776
▁operate	2770
▁post	2768
▁entitled	2767
▁Another	2765
▁legitimate	2764
▁tried	2762
▁USA	2756
▁top	2755
▁Lastly	2754
▁constitution	2750
▁justified	2749
▁contained	2745
▁Fundamental	2744
▁passengers	2742
▁individuals	2739
▁option	2737
▁manage	2735
▁attack	2735
▁amounts	2731
▁examples	2730
▁strict	2728
▁Nice	2728
▁concluded	2728
▁primarily	2727
▁realise	2726
▁ultimately	2724
▁wide	2722
▁ECU	2720
▁overcome	2718
▁base	2715
▁dignity	2708
▁suggest	2704
▁scheme	2699
▁allocated	2696
▁difference	2695
▁path	2692
▁approve	2692
▁Action	2691
▁loss	2689
▁mission	2686
▁hands	2686
▁Do	2685
▁extended	2685
▁speed	2685
▁passed	2681
▁substance	2680
▁p	2677
▁noted	2676
▁played	2673
▁Despite	2669
The	2667
▁imports	2666
▁Not	2665
▁II	2664
▁involves	2662
President	2662
▁examine	2661
▁material	2661
▁i	2661
▁average	2659
▁emergency	2659
▁corruption	2657
▁Chinese	2657
▁planned	2654
▁Prodi	2651
▁pension	2649
▁nevertheless	2647
▁violations	2644
▁cooperate	2641
▁truth	2641
▁firmly	2639
▁Given	2636
▁penalty	2635
▁unless	2634
▁visit	2632
▁whatever	2631
▁High	2628
▁sexual	2626
▁treated	2624
▁somewhat	2622
▁taxes	2622
▁CAP	2618
▁got	2618
an	2617
▁February	2616
▁revision	2616
▁lose	2614
▁Perhaps	2612
▁lay	2612
▁Financial	2609
▁Here	2608
▁Organisation	2607
▁farming	2606
▁vision	2604
▁ethnic	2600
▁ministers	2598
▁impression	2596
▁Transport	2596
▁Women	2595
▁decisive	2595
▁requested	2593
▁NGOs	2591
▁written	2590
▁vulnerable	2588
▁happens	2587
▁Assembly	2586
▁statistics	2582
▁technological	2582
▁Croatia	2581
▁Agenda	2581
▁offers	2580
▁confirm	2580
▁obstacles	2578
▁exclusion	2576
▁collective	2570
▁temporary	2569
▁considering	2566
▁India	2565
▁secondly	2565
▁drawing	2564
▁property	2562
▁preparing	2560
▁industries	2558
▁fishermen	2554
▁mass	2554
▁man	2554
▁please	2554
▁Serbia	2552
▁Dutch	2550
ntergovernmental	2546
▁Because	2546
▁Head	2546
▁prove	2544
▁Fisheries	2543
▁highest	2543
▁insurance	2541
▁allows	2540
▁prepare	2532
▁latter	2530
▁clause	2529
▁quotas	2529
▁spoken	2528
EC	2527
▁gone	2526
▁duties	2524
▁phase	2522
▁session	2519
▁applying	2519
▁compared	2518
▁preventing	2518
▁Then	2515
▁fulfil	2513
▁excessive	2513
▁abuse	2511
▁latest	2510
▁accounts	2509
▁sensible	2508
▁urgently	2508
▁agency	2507
▁car	2504
▁proceedings	2503
▁relates	2503
▁processes	2503
▁expectations	2502
▁gain	2502
▁willing	2501
▁spoke	2500
▁counter	2499
▁occasion	2498
▁codecision	2497
▁undoubtedly	2492
▁contact	2492
▁places	2491
▁appreciate	2489
▁Asia	2489
▁fuel	2488
▁constantly	2488
▁centre	2484
▁fiscal	2482
▁operational	2482
▁extension	2481
▁prosperity	2481
▁record	2480
▁pursue	2479
▁announced	2477
▁wonder	2477
▁space	2474
▁precise	2474
▁stronger	2473
▁electronic	2471
▁described	2470
▁courage	2468
▁keeping	2465
▁intends	2463
▁operating	2463
▁stocks	2461
▁court	2459
▁New	2459
▁types	2456
▁Consumer	2455
▁represented	2454
▁facts	2454
▁conciliation	2451
▁association	2449
▁introducing	2448
▁arguments	2443
▁clarify	2439
▁welcomed	2432
▁tool	2430
▁historic	2428
▁beings	2426
▁strategies	2424
▁Israeli	2423
▁normal	2420
▁studies	2419
▁proceed	2419
▁submit	2417
▁barriers	2417
▁largely	2412
▁exploitation	2411
▁innovative	2407
▁kept	2406
▁determined	2406
▁confirmed	2405
▁materials	2405
▁brief	2403
▁politically	2402
▁convergence	2402
▁debating	2401
▁behaviour	2401
▁pillar	2399
▁seven	2398
▁succeed	2397
▁strengthened	2397
▁fields	2395
▁contracts	2393
▁briefly	2393
▁published	2391
▁pass	2390
terinstitutional	2388
S	2387
▁pre	2385
▁equipment	2380
▁ratification	2380
▁details	2373
▁Alliance	2366
▁realistic	2363
▁sovereignty	2362
▁brings	2360
▁function	2359
▁Constitutional	2358
▁electricity	2357
▁perfectly	2353
▁amending	2352
▁Report	2352
▁maintaining	2351
General	2349
▁undertaken	2347
▁insist	2345
▁largest	2341
▁Employment	2336
▁follows	2334
▁leadership	2330
▁coordinated	2324
▁suffer	2322
▁Instead	2319
▁paper	2318
▁finding	2317
▁define	2316
▁urgency	2316
▁felt	2315
▁Protection	2312
▁answers	2312
▁determination	2308
▁condemn	2307
▁unfair	2303
▁universal	2302
▁supervision	2296
▁budgets	2291
▁waiting	2289
▁believes	2286
▁coherent	2286
▁careful	2284
▁offered	2283
▁parliament	2282
▁absence	2281
▁significantly	2278
▁qualified	2276
▁ongoing	2275
▁difficulty	2274
▁legally	2274
▁united	2273
▁wait	2273
▁identity	2273
▁advance	2272
▁minutes	2272
▁proved	2270
B	2268
▁Finland	2267
to	2266
▁dependent	2262
▁argument	2259
AT	2259
▁nation	2254
▁disposal	2253
▁highlighted	2252
▁transition	2249
▁test	2248
▁changing	2248
▁stable	2243
▁news	2243
▁assess	2241
▁acknowledge	2239
▁significance	2238
▁Subject	2236
▁accidents	2236
▁restructuring	2235
▁CO	2232
▁fine	2231
▁driving	2229
▁genuinely	2229
▁understood	2228
NL	2224
▁medical	2224
▁territorial	2221
year	2220
▁waters	2219
▁exports	2215
▁near	2214
▁figure	2212
▁Protocol	2211
▁M	2209
▁claim	2208
▁Consequently	2207
▁seeing	2207
▁vessels	2206
▁Latin	2205
▁valuable	2204
▁wine	2203
▁satisfactory	2203
▁patients	2196
▁ports	2194
▁negotiation	2192
%.	2192
▁holding	2192
▁resulting	2192
▁referring	2190
▁deficit	2190
▁Last	2187
ü	2184
▁remove	2183
▁primary	2181
▁leads	2181
▁absolute	2180
▁grant	2176
▁Internal	2176
▁becomes	2174
▁considers	2173
▁apart	2172
▁choose	2171
▁television	2171
▁Control	2169
▁BSE	2168
▁Hungarian	2168
▁assume	2168
▁invest	2167
▁sport	2167
▁White	2166
l	2163
▁suggested	2161
▁enjoy	2161
▁daily	2160
▁Dur	2158
▁meat	2158
▁neighbours	2157
▁condition	2155
▁amended	2154
▁playing	2153
▁code	2150
▁transitional	2147
▁someone	2146
▁saw	2141
▁Once	2140
▁Regional	2140
▁More	2138
▁constitute	2136
▁plants	2135
▁Food	2131
▁preparation	2129
▁built	2128
▁sustainability	2128
▁requests	2128
▁External	2126
▁etc	2126
▁double	2124
▁neighbouring	2123
▁maintained	2123
▁Northern	2122
▁Safety	2122
▁Greens	2122
▁elsewhere	2121
▁sets	2120
▁destruction	2120
▁room	2120
▁actively	2119
▁learning	2118
▁Cooperation	2116
▁extra	2116
▁users	2110
▁numbers	2109
▁deep	2106
▁Britain	2106
▁regular	2101
▁friends	2099
▁cars	2099
▁partly	2097
▁wider	2096
▁version	2096
no	2096
▁drug	2096
▁prisoners	2096
▁Austrian	2095
▁stands	2094
▁medicines	2094
▁previously	2094
▁Can	2094
▁investigation	2093
▁satisfied	2093
▁release	2093
▁sufficiently	2093
▁zone	2093
▁concentrate	2092
▁GDP	2092
▁identify	2088
▁moreover	2088
▁Georgia	2088
▁listen	2088
▁thanking	2087
▁shadow	2087
▁meant	2086
▁honour	2085
▁indicated	2084
▁reconstruction	2083
▁milk	2083
▁opposite	2082
▁aviation	2082
▁possibly	2081
▁deliver	2080
▁timetable	2079
▁identified	2078
▁inadequate	2077
▁interpretation	2076
▁Does	2076
▁tragic	2076
▁greatly	2073
▁links	2073
▁Kyoto	2072
▁obliged	2069
▁Europol	2067
▁formal	2065
▁running	2064
▁contain	2064
▁possibilities	2059
COM	2056
▁deserves	2055
▁head	2048
▁compulsory	2048
▁implications	2047
▁proportion	2046
▁Thus	2041
▁completed	2040
▁suffered	2038
▁P	2036
▁Without	2036
▁went	2034
▁societies	2034
▁launched	2033
▁attempts	2031
▁feed	2028
▁affects	2028
▁species	2027
▁carrying	2026
▁multilateral	2022
▁himself	2021
▁afternoon	2016
▁debated	2015
o	2015
▁West	2013
Christian	2012
▁issued	2011
▁options	2011
▁topic	2009
▁Having	2009
▁schemes	2007
▁complicated	2007
▁prospects	2006
▁helped	2003
▁speeches	2001
▁southern	2000
▁urban	2000
▁seeks	1998
▁sugar	1996
▁plant	1992
▁Secretary	1992
▁centres	1990
▁Common	1989
▁hearing	1989
▁advertising	1989
▁conducted	1989
▁Representative	1987
▁tragedy	1983
▁surely	1983
▁uniform	1983
▁facilities	1983
▁poorest	1983
▁Belgian	1981
▁guaranteeing	1978
▁enforcement	1976
▁school	1975
▁considerations	1973
▁proof	1972
▁competent	1969
H	1969
▁ratified	1968
▁massive	1968
▁openness	1967
▁extensive	1967
▁Will	1967
▁Barcelona	1965
▁chosen	1963
▁Belgium	1962
▁definitely	1960
▁heavy	1958
▁spite	1950
í	1949
▁whereby	1945
▁assist	1945
▁accident	1943
▁purely	1943
▁check	1943
▁exception	1943
▁addressing	1942
▁constant	1941
▁moral	1941
▁spread	1937
▁Pakistan	1936
▁National	1934
▁diplomatic	1933
▁unanimously	1932
▁deals	1931
▁Hungary	1930
▁governing	1929
▁worst	1927
▁successfully	1926
▁front	1925
ES	1925
▁worldwide	1924
▁Presidents	1922
▁mistake	1918
relatively	1918
▁cuts	1918
▁demanding	1917
free	1917
▁stressed	1914
▁refers	1914
▁solely	1914
▁Socialists	1913
▁pensions	1913
▁sorry	1911
▁trans	1910
▁gap	1909
▁Danish	1909
▁hundreds	1907
scale	1906
▁ships	1905
▁foremost	1905
▁eight	1903
▁easily	1900
▁Japan	1899
er	1898
▁Where	1898
▁rapidly	1898
▁D	1897
▁producing	1897
▁cities	1896
▁R	1895
▁depend	1895
▁hopes	1894
▁essentially	1893
▁acting	1892
▁correctly	1891
▁extending	1890
▁beef	1889
▁increases	1889
▁determine	1888
▁respects	1887
ó	1886
▁background	1886
▁Home	1885
▁harmful	1884
▁stake	1882
▁remaining	1882
▁tools	1879
▁profits	1879
▁advice	1877
▁core	1877
▁prior	1875
▁Under	1873
▁players	1873
▁granting	1873
▁considerably	1872
▁texts	1871
▁decades	1870
▁van	1869
▁nationals	1867
▁geographical	1867
▁taxpayers	1864
▁phenomenon	1864
▁depends	1864
▁adapt	1864
▁advantages	1863
▁charges	1863
▁promised	1862
▁Thursday	1861
▁dispute	1860
▁threats	1859
▁bit	1857
▁chairman	1855
▁d	1854
▁claims	1853
▁Liberal	1852
▁feeling	1852
▁Bosnia	1851
▁experienced	1848
▁Nor	1848
▁Korea	1848
▁Budgetary	1848
▁heritage	1846
▁Both	1843
▁extreme	1840
▁suitable	1840
▁reaction	1839
▁worrying	1839
▁oppose	1836
▁Rur	1835
▁enabling	1835
▁opened	1834
▁bureaucracy	1834
▁supposed	1833
▁savings	1833
▁achievement	1832
▁heading	1832
▁intellectual	1831
▁spend	1831
▁communications	1830
▁crises	1829
▁environmentally	1828
▁generation	1827
▁skills	1827
▁quote	1826
▁recall	1825
▁sum	1824
▁paying	1824
▁Minutes	1824
▁contributed	1824
▁focused	1823
▁doubts	1820
▁inter	1818
▁powerful	1817
▁competences	1816
▁speaker	1814
▁emphasised	1813
▁strength	1813
▁rich	1813
▁historical	1812
▁manufacturers	1812
economic	1812
▁clarity	1811
▁wealth	1811
▁entered	1809
▁willingness	1809
▁Cuba	1808
▁legitimacy	1806
▁regrettable	1805
▁port	1804
▁Growth	1803
▁modified	1802
▁reflected	1801
▁summer	1800
▁article	1800
▁imagine	1799
▁ECB	1798
▁healthy	1797
▁supplementary	1797
▁encouraged	1796
▁applicable	1796
▁stock	1794
▁whereas	1793
▁proud	1793
▁convention	1793
▁passenger	1792
▁island	1792
▁arise	1792
▁dynamic	1791
▁reliable	1791
▁regarded	1790
▁unnecessary	1790
▁incorporated	1789
▁constitutes	1789
▁thorough	1789
▁enhance	1786
▁applications	1784
▁violation	1783
▁favourable	1783
▁performance	1783
▁replace	1782
▁undertakings	1782
▁courts	1782
▁size	1780
▁Just	1779
▁break	1779
▁protocol	1779
▁...	1777
▁biggest	1777
▁applicant	1776
session	1774
▁Partnership	1772
▁declared	1772
▁Denmark	1771
▁certainty	1770
▁negotiated	1767
▁smaller	1767
▁reaching	1766
▁Polish	1765
▁succeeded	1764
▁affecting	1763
▁Parliamentary	1762
▁tests	1761
▁intentions	1761
and	1760
related	1756
▁removed	1756
▁Authority	1755
▁Are	1753
▁firms	1753
▁launch	1752
▁fairly	1745
▁e	1745
▁T	1745
▁everybody	1743
▁schools	1741
▁Tourism	1740
▁Christian	1738
▁greenhouse	1735
▁intervene	1733
▁Left	1731
▁religion	1731
▁consequence	1730
▁afraid	1729
▁Berlin	1729
▁obtained	1729
▁restore	1728
▁reservations	1727
▁excluded	1726
▁explanation	1726
▁reiterate	1725
▁airlines	1725
▁Maastricht	1724
▁sake	1722
▁engage	1720
▁citizenship	1719
▁utmost	1718
▁aside	1717
▁marketing	1717
▁deserve	1716
ugoslavia	1714
▁drafting	1713
▁deeply	1712
▁eastern	1712
▁presenting	1712
▁south	1708
▁sought	1708
▁Industry	1707
▁Morocco	1703
▁leader	1702
▁Joint	1701
▁wording	1699
▁necessarily	1699
▁retain	1698
▁Burma	1697
▁disabled	1697
▁targeted	1696
▁piece	1696
▁jointly	1696
▁subjects	1692
▁save	1691
▁weak	1690
▁Before	1690
▁E	1689
▁creates	1688
▁importantly	1680
▁eliminate	1679
▁Citizens	1679
▁treaties	1677
▁Follow	1674
EL	1674
▁negotiate	1672
▁green	1671
▁Culture	1668
▁commit	1667
▁electoral	1667
▁raising	1666
▁Association	1666
▁prospect	1666
▁surprised	1666
▁Slovakia	1662
▁mark	1662
▁tonnes	1661
▁eye	1661
▁leaving	1661
▁meaning	1659
▁terrible	1655
▁admit	1655
▁examined	1654
▁simplification	1653
▁credible	1650
▁repeatedly	1650
▁outstanding	1649
▁vast	1649
▁checks	1648
▁profit	1647
▁armed	1644
▁bureaucratic	1643
▁buildings	1642
▁eyes	1642
▁expressing	1641
▁justify	1640
▁carbon	1639
▁welcomes	1639
▁showing	1637
▁suggestions	1637
▁employers	1637
▁combined	1636
▁import	1635
▁charge	1633
▁category	1631
▁representation	1630
▁complaints	1629
▁Albania	1628
▁reflects	1628
▁candidates	1628
▁fleet	1624
▁healthcare	1621
▁incentives	1618
▁kinds	1618
▁shape	1617
▁yes	1617
▁periods	1616
▁delays	1615
▁acquis	1615
▁pleasure	1615
▁ordinary	1612
▁shortcomings	1611
▁hardly	1609
▁transactions	1608
▁exceptional	1606
▁revised	1605
▁nearly	1605
▁science	1603
▁fewer	1603
▁alcohol	1601
▁settlement	1600
▁hit	1599
▁Civil	1599
▁elderly	1599
▁turned	1599
▁foundations	1598
▁Over	1597
▁bank	1597
▁deadline	1595
▁below	1594
▁Plan	1594
▁picture	1594
▁broader	1593
▁widespread	1593
▁none	1590
▁bearing	1590
▁expense	1590
▁relate	1589
▁prison	1588
▁aircraft	1587
lecommunications	1586
▁Well	1586
▁unemployed	1586
RO	1586
▁allocation	1586
▁preparations	1585
▁belief	1584
▁underline	1583
▁patent	1583
▁stance	1583
[	1582
▁trend	1581
▁drafted	1581
out	1581
▁EC	1580
▁Bureau	1579
▁ambition	1578
▁falls	1578
▁Macedonia	1577
▁multi	1574
▁larger	1573
▁warmly	1572
▁resulted	1571
▁honest	1570
▁Arab	1569
▁postal	1568
▁repeated	1568
▁economically	1567
▁nonetheless	1566
wide	1566
▁quota	1566
▁bound	1565
▁biodiversity	1565
tergovernmental	1562
▁undermine	1561
▁educational	1560
▁liability	1559
▁army	1559
▁lasting	1559
▁processing	1558
▁satisfaction	1557
▁condemned	1556
▁freely	1553
▁digital	1553
▁preserve	1553
▁penalties	1552
▁transatlantic	1552
▁boost	1552
▁explained	1551
▁restricted	1550
▁reserve	1549
▁outset	1548
▁Budget	1548
▁inflation	1548
▁gradually	1547
▁tackling	1546
▁cancer	1545
▁expensive	1545
]	1545
▁invite	1544
▁door	1540
st	1538
▁unity	1538
▁occurred	1537
▁civilian	1537
▁twenty	1537
▁secret	1536
▁lessons	1535
▁widely	1534
▁unfortunate	1534
▁Clearly	1532
C	1532
▁covers	1531
▁fresh	1531
▁trial	1530
▁te	1529
▁ethical	1529
▁abolition	1528
▁Lithuania	1528
▁fruit	1527
▁collaboration	1527
▁Palestinians	1526
▁turning	1526
▁became	1524
▁hence	1522
▁night	1522
▁recommend	1520
▁physical	1519
▁populations	1519
▁basically	1518
▁enhanced	1517
▁racism	1517
▁airports	1517
▁regulate	1517
▁coordinate	1516
▁city	1515
▁English	1513
▁insufficient	1513
▁students	1513
▁uncertainty	1512
▁stay	1511
▁causing	1510
▁promises	1509
▁receiving	1508
▁losses	1506
▁youth	1506
▁chain	1504
▁PSE	1504
▁ignore	1504
▁indicators	1504
▁Obviously	1503
▁unanimous	1502
▁amend	1502
▁railway	1502
▁declarations	1500
▁Islamic	1499
▁pact	1498
▁raw	1496
▁financed	1496
▁shares	1496
▁warning	1495
▁Time	1494
▁offering	1494
▁arrest	1493
▁noise	1493
▁deaths	1493
▁indicate	1493
▁regulated	1493
▁congratulations	1492
▁Geneva	1492
▁red	1492
▁undertaking	1491
▁She	1490
▁terrorists	1490
▁withdraw	1489
▁ecological	1489
▁puts	1489
▁suggestion	1488
▁engaged	1488
▁associations	1488
▁generations	1488
▁listened	1487
▁began	1487
▁EMU	1486
▁forest	1485
▁Gaza	1482
▁undertake	1482
▁demonstrates	1481
▁finances	1481
▁fast	1481
▁clean	1480
▁regardless	1480
▁author	1479
▁familiar	1479
▁minute	1475
▁killed	1474
▁prevented	1473
▁journalists	1473
▁buy	1473
▁extraordinary	1472
ä	1471
▁War	1471
▁IGC	1471
▁sphere	1470
▁procurement	1468
▁territories	1467
▁weight	1466
▁marine	1465
▁qualifications	1465
▁F	1463
▁permit	1463
▁prefer	1461
▁strike	1460
▁promoted	1459
▁belong	1459
▁necessity	1459
▁push	1457
on	1457
▁Americans	1456
▁supplies	1455
▁Free	1455
▁faith	1454
our	1453
▁section	1452
▁looked	1450
▁contacts	1449
▁lie	1449
▁tribute	1448
▁compatible	1447
I	1447
▁arising	1446
▁Nonetheless	1444
▁nobody	1443
▁minister	1441
▁presentation	1441
▁sincerely	1440
▁talked	1440
▁count	1440
▁drivers	1440
▁sending	1439
▁struggle	1434
▁De	1434
▁London	1433
▁dumping	1433
▁viable	1433
▁reinforce	1432
▁Finnish	1432
▁sovereign	1432
▁couple	1432
▁beneficial	1431
▁promise	1430
▁radical	1429
▁revenue	1429
▁blame	1429
▁informal	1428
▁frequently	1428
▁roads	1427
▁accompanied	1426
▁collection	1426
▁clarification	1425
▁afford	1423
▁Office	1422
▁contract	1422
▁clearer	1421
ear	1421
▁pursued	1420
▁northern	1420
▁Second	1419
▁slow	1418
▁Labour	1418
▁Also	1417
▁efficiently	1417
▁suspended	1417
▁coherence	1416
▁severe	1415
▁enlarged	1415
▁forum	1414
▁battle	1414
▁parents	1414
imbabwe	1413
▁agrees	1412
▁congratulating	1412
▁team	1411
▁moved	1411
▁observed	1410
▁alongside	1409
▁grow	1409
▁unique	1409
▁divided	1408
▁abstained	1408
▁refuse	1407
▁harmonised	1406
▁conventions	1405
▁distinction	1404
▁judgment	1404
▁demographic	1403
▁transit	1403
▁torture	1401
▁register	1400
▁organise	1399
▁Centre	1399
▁strictly	1398
EEC	1396
▁division	1396
▁shortly	1396
▁items	1396
▁percentage	1396
▁disappointed	1396
▁unanimity	1395
▁exclusively	1394
▁Service	1393
▁unions	1393
▁rejection	1390
▁Soviet	1389
▁approximately	1388
▁occur	1387
▁accessible	1387
▁choices	1387
▁Declaration	1386
▁apparent	1385
▁Otherwise	1383
▁observation	1383
▁alternatives	1382
▁wage	1380
▁Like	1380
▁simplify	1377
▁troops	1376
▁Any	1376
▁Their	1375
▁Every	1374
▁respecting	1374
▁fourth	1374
▁Chechnya	1372
▁parallel	1371
▁consulted	1370
▁forests	1370
▁stations	1369
▁evident	1369
▁Atlantic	1369
level	1367
i	1366
▁begun	1364
▁perspectives	1364
▁emerging	1364
▁Malta	1362
▁surveillance	1361
▁Rome	1361
▁campaigns	1361
▁ruling	1361
▁Canada	1361
▁textile	1360
▁defending	1359
▁crops	1358
▁mere	1358
▁desirable	1358
▁Single	1358
▁directed	1357
▁timely	1357
▁Most	1356
▁threatened	1356
▁confusion	1355
▁route	1355
▁Moldova	1354
▁Great	1354
▁loans	1353
▁friendly	1351
▁Petitions	1350
▁compete	1350
▁replaced	1347
▁acceptance	1347
▁vehicle	1345
▁permitted	1345
▁yourself	1343
▁tangible	1342
Mediterranean	1342
▁Statute	1340
▁Defence	1339
▁Egypt	1338
▁mid	1338
▁standing	1337
▁restrict	1337
▁defining	1336
▁Two	1335
▁experiencing	1335
▁genetically	1335
▁respective	1334
outermost	1334
EU	1333
▁hoped	1333
▁friend	1333
▁lacking	1332
▁image	1331
▁reflection	1331
▁declare	1330
▁categories	1330
▁connected	1328
▁chemical	1328
▁Act	1327
▁conservation	1327
▁treat	1327
▁Cohesion	1324
▁Allow	1324
▁refused	1324
▁traditions	1323
▁usual	1323
▁raises	1322
▁impetus	1322
▁sharing	1322
▁rising	1321
▁banking	1319
▁highlights	1316
▁pursuan	1315
▁react	1315
▁tradition	1314
▁characteristics	1314
▁threshold	1313
▁Investment	1311
X	1310
▁assessments	1310
▁joined	1310
▁logical	1309
▁farms	1307
▁imposing	1307
▁showed	1306
country	1306
▁controversial	1304
▁disagree	1304
▁slightly	1303
▁Regarding	1303
▁consequently	1303
▁procedural	1302
▁Palestine	1301
▁worthy	1300
▁forgotten	1299
▁signing	1299
▁funded	1297
▁plays	1296
▁pro	1296
▁observe	1295
▁intensive	1295
▁joining	1294
▁authorisation	1294
è	1293
▁housing	1293
▁spring	1292
▁mobile	1291
▁reported	1290
▁ambitions	1289
▁blood	1289
▁contributing	1288
▁integrity	1287
▁Education	1287
▁north	1286
▁banned	1286
▁whatsoever	1285
▁subsequently	1283
▁observers	1283
▁approaches	1283
▁victim	1282
▁residence	1282
▁motions	1282
▁interim	1281
governmental	1281
▁railways	1279
▁estimated	1279
▁chapter	1279
▁OLAF	1279
▁missing	1279
▁socio	1278
▁reconciliation	1278
▁dramatic	1277
▁freight	1277
▁representing	1276
▁liberal	1276
▁destroyed	1275
▁migrants	1275
▁solid	1275
▁valid	1274
▁accordingly	1273
▁organizations	1271
▁preliminary	1271
▁systematic	1271
▁justification	1269
▁integrate	1268
▁underlying	1268
▁controlled	1266
▁notably	1265
▁protest	1264
▁preventive	1263
▁envisaged	1263
▁keen	1262
):	1261
▁comparison	1261
▁Information	1261
▁equivalent	1260
▁subsequent	1260
▁error	1259
▁helpful	1258
▁restrictive	1256
quality	1256
▁managing	1256
▁universities	1255
▁Tunisia	1255
▁net	1255
▁participating	1254
▁harm	1253
▁Brazil	1253
▁sales	1253
▁achievements	1253
▁surrounding	1252
▁fire	1252
▁coastal	1252
▁regularly	1251
▁covering	1251
▁scrutiny	1250
▁looks	1248
▁occupation	1247
▁resistance	1247
▁advanced	1247
▁appointment	1247
▁emission	1247
▁movements	1245
▁incorporate	1245
▁exceptions	1244
▁ill	1243
▁Please	1243
▁advocate	1242
▁founded	1240
▁resource	1239
▁imported	1238
▁cultures	1238
▁infrastructures	1238
▁Sudan	1238
▁losing	1237
▁disputes	1237
▁Patten	1237
▁woman	1237
▁inhabitants	1236
▁track	1236
▁Solana	1235
▁exchanges	1234
▁Dublin	1234
▁eventually	1233
▁notice	1231
▁conviction	1230
▁mandatory	1228
▁Monday	1228
▁gained	1228
▁Lebanon	1228
▁chemicals	1227
▁failing	1226
▁sentence	1226
▁mistakes	1226
▁flows	1225
▁stages	1224
re	1224
▁Doha	1224
▁fears	1223
▁judge	1221
▁thousand	1220
▁fixed	1219
▁solved	1218
▁win	1218
▁suggests	1217
▁gross	1217
▁Services	1216
▁convince	1216
▁Ms	1216
▁providers	1216
▁statute	1216
▁regimes	1215
▁safeguarding	1215
▁examination	1214
▁drive	1214
▁liked	1213
▁ignored	1213
▁consent	1213
▁reductions	1212
▁experiences	1211
▁precautionary	1210
▁fails	1209
▁dead	1208
▁infringement	1208
▁ratify	1208
▁Iraqi	1207
▁inside	1207
▁fires	1205
▁nine	1205
▁Solidarity	1204
▁monitored	1203
▁neighbourhood	1203
▁Objective	1202
▁Communist	1202
▁Could	1202
▁signs	1201
▁rely	1200
▁pursuing	1199
▁accountability	1197
▁compromises	1197
▁jurisdiction	1197
▁length	1196
▁confident	1195
▁Similarly	1194
▁accepting	1194
▁marked	1193
▁tolerance	1193
▁hundred	1192
▁soil	1192
▁abroad	1191
▁foundation	1190
▁offices	1190
▁consistency	1188
▁house	1188
▁withdrawal	1187
▁abuses	1186
▁older	1186
▁furthermore	1186
reaching	1186
▁fuels	1185
▁consolidation	1184
▁dangers	1182
▁sympathy	1182
▁opt	1182
▁acknowledged	1181
▁investigations	1181
▁albeit	1179
▁president	1179
▁resolving	1179
▁anniversary	1178
▁Chairman	1178
▁stringent	1176
▁listening	1176
HU	1176
▁Friday	1175
▁Libya	1175
▁expansion	1174
▁recognises	1174
▁containing	1174
▁concentration	1173
▁stakeholders	1173
▁breach	1173
▁criterion	1172
▁backing	1172
▁Syria	1172
▁wages	1171
▁investors	1170
▁criminals	1169
▁visited	1169
▁sight	1169
debate	1168
▁functions	1168
▁Criminal	1167
))	1167
▁block	1166
▁refugee	1165
▁models	1165
▁assets	1164
▁violent	1163
▁denied	1163
outh	1163
▁arrive	1162
▁meantime	1162
▁prime	1162
▁released	1161
▁immunity	1160
▁expertise	1159
▁perfect	1159
▁employed	1158
▁actors	1158
▁pretext	1158
▁invited	1157
▁organic	1156
▁gradual	1155
▁popular	1154
▁variety	1154
▁August	1153
▁learned	1152
▁Ashton	1152
▁commend	1152
▁Liberals	1151
▁autonomy	1151
c	1151
▁hour	1151
▁delegations	1150
▁dictatorship	1150
▁visible	1150
▁usually	1150
▁humanity	1150
▁entering	1149
▁names	1149
▁fifteen	1148
or	1147
▁decline	1147
▁executive	1146
▁modernisation	1146
▁notes	1146
▁Brok	1145
▁except	1143
▁contrast	1142
▁decent	1142
▁ceiling	1141
▁Hence	1140
▁visas	1140
▁female	1139
▁Who	1139
▁resumed	1138
▁tonight	1138
▁falling	1136
▁accounting	1135
▁ideal	1135
▁inquiry	1135
▁Millennium	1134
▁Slovenia	1134
▁Scotland	1133
▁warm	1133
▁paragraphs	1133
▁incentive	1132
▁Democratic	1132
▁virtually	1132
erheugen	1132
▁hopefully	1131
▁observations	1131
▁badly	1131
▁maintenance	1130
▁distributed	1130
▁substantially	1129
▁cutting	1129
▁Reform	1129
▁ALDE	1129
▁voters	1129
▁endeavour	1128
▁supervisory	1128
▁appointed	1127
▁outlined	1127
▁L	1126
▁scientists	1126
▁Naturally	1123
▁Above	1123
▁GMOs	1123
▁Other	1123
▁examining	1122
▁registration	1122
▁features	1120
▁acted	1119
▁reporting	1119
▁helps	1119
▁sad	1118
yes	1116
▁died	1116
▁shipping	1115
▁renewed	1115
▁black	1114
▁proven	1113
▁apparently	1113
▁consultations	1112
▁catch	1112
▁fit	1111
▁motor	1111
▁fate	1111
▁endorsed	1111
▁partnerships	1111
▁programming	1110
▁absurd	1110
▁sincere	1109
▁closure	1109
▁clauses	1108
▁finish	1108
▁safeguards	1108
▁ageing	1108
▁fifth	1108
▁sums	1107
▁consistently	1106
▁leaves	1106
▁pilot	1106
▁avoided	1106
▁search	1106
▁indication	1105
discrimination	1105
▁J	1105
▁argue	1105
▁coal	1104
▁adequately	1104
▁completion	1104
▁initially	1099
▁disastrous	1099
▁tough	1099
▁essence	1097
▁unilateral	1097
▁borne	1095
te	1095
▁Decision	1095
▁democratically	1094
▁dossier	1094
▁exclusive	1093
▁minor	1093
▁evaluate	1093
▁productivity	1092
▁Would	1092
▁focusing	1092
▁devoted	1091
▁explicitly	1091
▁cope	1091
▁Fischler	1091
▁everywhere	1091
▁enables	1090
▁OSCE	1090
▁destroy	1090
▁detention	1090
▁excuse	1089
▁flow	1088
▁privacy	1088
▁die	1087
one	1087
▁sites	1086
▁sub	1086
D	1085
▁arrived	1085
▁Bush	1084
▁host	1084
▁meets	1084
▁reserves	1083
▁imperative	1083
▁birth	1083
▁testing	1083
▁tackled	1081
▁fought	1081
▁deny	1079
▁Helsinki	1079
▁struck	1077
▁emerged	1074
▁shift	1074
▁game	1074
▁productive	1073
▁damaging	1073
▁repression	1072
▁attend	1071
vote	1070
▁inspection	1069
▁irregularities	1067
▁personnel	1067
▁answered	1067
▁heads	1065
▁deficits	1064
▁Iranian	1064
▁System	1063
▁seekers	1063
▁accused	1063
▁volume	1063
time	1062
▁fulfilled	1061
▁murder	1061
▁rigorous	1060
▁Switzerland	1060
▁assurance	1060
▁recommended	1060
▁autumn	1059
▁continuation	1059
▁card	1059
▁corresponding	1059
▁Whilst	1058
▁sit	1058
▁desired	1057
▁uses	1057
▁cheap	1055
▁delivered	1054
▁soldiers	1054
▁Santer	1054
▁democratisation	1054
▁Estonia	1054
▁progressive	1053
▁flights	1052
▁enshrined	1052
▁consolidate	1051
▁Tibet	1051
▁Tampere	1051
▁ship	1050
▁hazardous	1049
▁touch	1048
▁presents	1047
▁collapse	1047
▁exemption	1046
▁sections	1046
▁investigate	1046
▁straight	1046
▁sole	1045
▁pace	1045
▁un	1044
▁homes	1044
▁linguistic	1041
▁lists	1040
▁ensured	1040
▁fundamentally	1040
▁laying	1039
▁enabled	1038
day	1037
▁airport	1037
▁socially	1036
▁train	1035
▁story	1034
▁inspections	1033
▁storage	1033
▁Wednesday	1033
▁MEP	1031
▁notion	1031
▁Schulz	1031
▁repercussions	1030
▁EIB	1030
▁Stockholm	1030
▁simplified	1030
▁farm	1029
▁openly	1029
▁responses	1028
▁inevitably	1028
▁initiated	1028
▁attached	1027
▁ended	1026
▁removal	1026
friendly	1026
▁sold	1025
▁researchers	1025
▁surprise	1024
▁Everyone	1024
▁detriment	1024
▁Institute	1024
▁internationally	1023
▁producer	1023
▁Special	1023
▁euros	1022
▁forestry	1022
▁islands	1021
▁ownership	1021
▁inequalities	1020
▁adapted	1020
▁logic	1020
est	1019
▁participants	1019
▁wherever	1019
▁twice	1018
▁multiannual	1017
▁handling	1017
▁component	1017
▁transferred	1016
▁exposed	1016
▁dependence	1016
▁originally	1016
▁sex	1015
▁accurate	1015
▁posts	1014
▁monopoly	1014
▁disadvantaged	1014
▁sell	1013
▁donors	1013
▁findings	1012
▁statistical	1011
▁constituency	1010
▁sale	1010
▁attractive	1008
▁object	1008
▁false	1008
▁Algeria	1008
▁title	1008
▁Fourthly	1007
▁feature	1007
▁preparatory	1006
▁pressing	1006
▁exploit	1006
▁errors	1005
▁innocent	1005
initiative	1005
▁routes	1004
▁foodstuffs	1004
ienna	1003
▁football	1003
▁practically	1003
▁middle	1002
▁presidential	1002
▁Liberties	1000
▁potentially	1000
▁automatically	1000
▁discipline	1000
▁serves	1000
▁western	999
▁constraints	999
▁travelling	999
▁principal	997
▁stricter	997
▁Latvia	997
▁minds	996
▁wished	996
▁concessions	996
▁obstacle	996
▁recycling	996
of	996
▁systematically	995
▁Federal	995
▁irrespective	994
▁adverse	994
▁assured	993
▁harmonise	993
▁character	992
▁comparable	990
▁floods	990
▁foot	990
▁characterised	989
▁Timor	988
▁Galileo	988
▁assessing	988
▁fallen	987
▁planet	987
▁Globalisation	987
▁Kurdish	986
▁horizontal	985
▁class	985
▁retirement	985
à	985
▁won	985
▁enterprise	984
ong	984
▁distance	983
▁deciding	983
COD	982
▁vocational	982
▁references	981
▁USD	981
▁intelligent	980
▁grants	980
▁guilty	980
▁demanded	980
▁civilians	979
▁GUE	979
▁wholeheartedly	978
▁broadly	978
▁pays	977
▁Congo	977
▁facility	977
▁embargo	976
▁disabilities	975
▁criticisms	975
▁stating	975
▁transposition	974
▁silence	974
▁lifelong	974
▁adjustment	972
placing	972
▁pillars	972
▁expert	970
▁worried	969
▁saving	969
▁complied	969
▁tape	968
▁blind	968
▁Saddam	968
▁recorded	968
▁banana	968
▁stick	968
▁onto	967
▁generate	967
▁telling	966
▁reinforced	966
NGL	966
▁closing	965
▁assessed	965
▁bases	964
▁objections	964
▁appalling	964
▁appreciation	964
depth	963
▁wake	963
▁relief	963
▁coordinating	962
▁Hamas	962
▁inappropriate	962
▁scheduled	961
b	960
▁indirect	960
▁abandon	959
▁survival	959
CS	959
▁criticised	958
▁Federation	958
▁channels	956
▁composition	955
▁articles	955
▁camps	955
▁comitology	955
▁incidents	955
▁interference	955
▁remained	954
▁label	954
▁stopped	954
▁transfers	953
▁Third	952
▁cent	952
▁unit	952
▁Mexico	951
▁subjected	951
▁pharmaceutical	950
▁design	949
▁decade	949
▁protectionism	949
▁marks	949
▁refusal	948
▁hunger	948
▁delicate	947
▁deadlines	947
▁missions	947
medicinal	946
▁draftsman	946
▁Annex	946
▁zero	946
ALE	946
▁formally	946
▁punishment	944
▁thoroughly	944
▁persecution	942
▁grave	942
▁satellite	941
▁adaptation	941
▁arrangement	941
▁returned	941
▁exclude	940
▁lesson	939
▁towns	939
▁audiovisual	938
▁federal	938
▁topics	937
▁attach	937
▁Romanian	937
▁ideological	936
▁atmosphere	936
▁seat	935
▁victory	935
▁race	935
employed	935
▁contradiction	934
▁conscience	934
▁arises	933
▁passing	933
▁stimulate	933
▁reviewed	933
▁biofuels	932
▁era	932
▁withdrawn	932
▁Should	932
▁rating	932
▁AIDS	931
▁thirdly	931
▁Day	930
SK	930
▁town	930
▁Black	930
▁contributes	930
ic	929
▁remarkable	929
▁authorised	928
▁generous	927
▁estimates	925
▁Baroness	925
▁speculation	924
▁alarming	924
▁reminded	924
▁realised	924
▁tuna	923
▁quick	923
▁moratorium	923
▁addresses	923
▁avoiding	923
▁Indonesia	922
▁smoking	921
▁His	921
▁sports	921
▁beneficiaries	920
▁obtaining	919
▁remark	918
▁persuade	918
▁clarified	918
▁empty	917
▁Christians	917
▁Congress	917
erts	917
▁differ	916
▁gases	916
▁Montenegro	915
+	914
▁macro	913
▁arrested	913
▁m	913
▁differently	913
▁divide	912
▁Kong	912
▁analyse	910
▁fashion	910
▁Kinnock	910
▁cease	910
▁mine	910
▁incident	909
▁emphasises	908
▁unprecedented	907
▁incomes	907
▁micro	907
▁anywhere	907
▁livestock	906
▁whenever	906
▁Code	906
▁cycle	906
▁indicates	905
▁root	905
▁born	904
▁bottom	903
▁pointing	903
▁corporate	902
▁consists	902
▁topical	902
▁terror	902
▁served	901
by	900
▁ultimate	900
▁trends	899
▁everyday	897
▁genocide	897
▁demonstration	897
▁quantity	897
▁translation	896
▁Asian	896
▁indispensable	895
▁enjoyed	895
▁ends	894
▁mother	894
▁remit	893
▁prerequisite	893
▁integral	893
▁instability	893
▁lowest	893
▁monopolies	892
▁doors	892
▁den	892
▁governed	891
▁unlike	891
▁stresses	891
▁solving	890
von	890
▁registered	890
▁witnessed	890
▁concepts	890
▁interventions	890
▁definitive	890
▁investing	890
▁sees	889
▁diverse	889
▁heavily	889
▁reverse	888
as	888
▁publicly	888
▁adding	888
▁thinks	888
▁praise	887
▁revolution	887
▁CFSP	887
▁pesticides	886
▁strikes	886
▁footing	886
▁devote	886
▁enthusiasm	885
▁sustained	885
▁removing	885
▁democracies	885
▁xenophobia	885
▁assembly	884
▁wise	884
▁Democrat	884
▁normally	883
▁cast	883
▁inevitable	882
▁disparities	882
▁facilitating	882
▁Through	881
FI	881
▁patents	880
▁wonderful	880
▁responding	880
▁abolished	880
▁cells	879
▁foster	879
▁criticise	879
▁Hague	878
▁Apart	878
▁genetic	878
▁creative	878
▁offences	878
▁Madrid	878
▁expenses	877
▁wars	877
▁believed	877
▁posed	877
▁recognising	876
▁stem	876
▁book	875
▁steel	875
▁attempting	875
▁patient	875
▁describe	874
CNS	874
▁licences	874
▁uphold	874
▁remote	873
▁satisfy	872
▁isolated	872
off	872
▁earmarked	871
▁cattle	871
▁illegally	870
▁Monti	870
▁combination	870
▁Milosevic	870
▁donor	870
▁dual	870
▁moves	870
▁profound	870
▁irresponsible	870
▁availability	869
▁precedent	868
▁relationships	868
▁abolish	868
▁Blair	867
▁Resolution	867
▁strive	867
▁organization	867
▁caught	867
▁ensures	866
▁Democracy	866
▁advances	864
▁map	864
▁poorer	864
▁modest	864
▁frankly	864
▁orientation	863
▁civilisation	863
▁foods	863
▁workforce	862
▁aspirations	862
▁dream	862
▁gets	861
▁messages	861
▁explanations	859
▁condemnation	859
▁affair	858
isation	858
▁Freedoms	856
▁inequality	855
parliamentarians	853
▁claimed	852
▁emerge	852
▁isolation	851
▁workplace	850
▁audit	850
▁vague	849
misunderstanding	849
▁gratitude	849
▁licence	849
disproportionate	848
▁appeared	848
▁rational	848
▁Neighbourhood	848
▁postponed	847
▁philosophy	847
▁limiting	846
▁tremendous	846
▁Caucasus	846
▁relative	846
▁enforce	845
▁warrant	845
▁mental	845
▁Until	845
▁tariff	845
▁feels	844
▁multinational	844
▁manufacturing	844
▁interpreted	844
▁promotes	844
▁confirms	844
▁disadvantage	843
▁energies	843
▁indirectly	842
▁multinationals	842
uite	842
▁rare	842
▁requiring	841
▁securing	841
▁burdens	841
wing	840
▁concluding	840
▁emphasize	840
▁expressly	840
ork	839
▁resort	839
▁Each	838
▁Conciliation	838
▁maybe	837
▁Neither	836
▁survive	836
▁displaced	835
▁fleets	834
▁radio	833
▁radioactive	833
▁Taiwan	832
▁Or	832
▁Nordic	831
▁warming	831
▁exert	831
▁faces	831
▁location	830
▁Nigeria	830
▁dedicated	830
▁handled	830
▁fault	830
ness	830
▁preference	830
)).	829
▁signals	829
▁Thanks	829
▁roll	829
▁Bar	829
▁encouragement	829
▁occupied	828
▁pragmatic	828
▁threatening	828
▁quantities	828
▁preferred	827
▁roots	827
▁Guinea	827
▁drop	827
▁computer	826
▁privatisation	826
▁weaknesses	825
▁shame	825
▁transnational	825
esterday	825
▁aiming	824
LT	824
▁neighbour	824
▁bananas	824
▁Olympic	824
▁focuses	824
▁broken	823
▁depth	822
▁Prize	822
▁delayed	822
▁publication	822
▁feasible	822
▁sectoral	822
▁input	821
▁problematic	821
▁exploited	821
▁dairy	820
▁Paragraph	820
▁generated	819
▁pipeline	818
▁positively	818
▁explicit	818
▁enforced	818
▁banning	817
▁complaint	817
▁Against	817
▁remedy	816
▁Paris	816
▁Hussein	816
▁secondary	815
▁flight	815
▁Frontex	815
▁perform	815
▁combine	814
▁drinking	813
▁elimination	813
▁accepts	812
▁Peace	812
▁Eurostat	812
▁abandoned	812
▁intelligence	812
▁symbolic	811
▁player	811
▁runs	810
ranging	810
▁initiate	810
▁safer	809
▁scandal	809
▁pity	809
▁pose	808
▁administrations	806
▁recognize	806
▁determining	805
▁complexity	805
▁broadcasting	805
▁faster	804
▁overwhelming	804
▁driven	803
▁violated	803
▁wind	802
▁Articles	802
▁doctors	801
▁recital	801
▁disappointment	800
▁mines	800
▁identification	800
▁Ecofin	800
▁recession	800
▁IMF	799
▁invested	799
▁judiciary	798
▁merit	798
▁understandable	798
▁Certainly	798
▁agents	797
▁Rather	797
▁conjunction	797
▁HI	797
▁Frattini	797
▁abortion	797
▁hide	797
▁suspension	796
▁strange	796
▁units	795
▁Goals	795
▁biological	794
▁dioxide	794
▁pensioners	794
▁implies	793
accession	793
▁backed	793
▁encourages	792
▁controlling	791
▁Chancellor	791
▁specified	791
▁OECD	791
▁simplifying	790
▁holds	789
▁concentrated	788
▁communicate	788
▁regulating	788
▁announcement	787
▁selection	787
▁pluralism	787
▁expand	787
▁adjustments	787
▁Barnier	786
▁professionals	786
▁coast	786
▁sadly	785
▁Law	785
▁integrating	785
▁Anyone	783
▁eligible	783
▁flag	783
▁Relations	783
▁Beijing	783
▁derogation	783
▁suppliers	782
▁Colombia	781
▁Perspective	781
▁zones	781
▁fragile	781
▁preservation	781
▁organized	781
▁telephone	781
▁await	781
▁Laeken	781
▁tend	780
▁shortage	780
▁ties	779
▁postpone	779
▁separation	779
▁urged	779
▁rejecting	779
▁convey	779
▁demonstrations	779
▁brutal	778
▁establishes	778
▁seas	777
▁acquired	777
▁margin	776
▁unified	776
▁surplus	776
▁harmonization	775
▁imbalances	775
▁spectrum	775
▁consolidated	775
▁deliberately	773
▁renewal	773
▁Darfur	773
▁complement	773
▁College	772
▁minors	772
▁reproductive	772
▁analyses	772
▁Balkan	772
▁wishing	771
▁seats	771
▁continuous	771
▁belonging	771
▁dates	770
▁enhancing	770
▁ending	770
▁judges	770
▁halt	770
▁university	770
▁split	770
▁lend	769
▁invitation	769
▁copyright	769
▁swift	769
▁stabilisation	768
▁east	768
▁narrow	768
▁deregulation	768
▁defended	768
▁transmission	768
▁intolerable	768
▁rid	767
▁prevail	767
▁match	767
▁substantive	766
▁Palacio	766
▁medicine	766
▁Serbian	765
▁quarter	763
▁fulfilling	763
▁arisen	763
▁components	763
▁abstain	763
▁unsatisfactory	762
▁tabling	762
▁Regions	762
▁Swoboda	761
▁derogations	761
▁grown	760
▁formulated	760
▁traceability	760
▁platform	760
▁located	759
▁Muslim	758
▁bears	758
▁Afghan	758
▁reconcile	757
▁teachers	756
▁threaten	755
▁bill	755
▁owners	755
▁famous	755
▁officially	755
▁girls	754
▁exemptions	753
▁Board	753
▁Adjustment	753
▁eliminating	753
▁trouble	753
▁cloning	753
▁existed	753
▁packaging	753
ietnam	752
▁reforming	752
▁explanatory	752
▁prostitution	752
▁undermining	752
▁detrimental	752
▁entrepreneurs	751
▁Slovak	751
▁definite	751
▁reassure	751
▁diplomacy	750
▁demonstrating	750
▁tension	750
▁hoping	750
▁Arctic	750
▁symbol	750
▁circulation	749
▁twelve	749
▁Haiti	748
determination	748
▁accountable	748
▁responded	747
▁entails	747
▁deprived	747
▁earthquake	747
▁residents	746
▁Process	746
▁indications	746
▁momentum	746
▁advocates	746
▁cofinancing	745
▁Islands	745
▁fishery	745
▁Communities	745
▁journey	745
▁macroeconomic	744
▁escape	744
▁witness	744
▁listed	744
▁Washington	744
▁thoughts	744
▁Freedom	744
▁seemed	744
▁customers	743
▁attended	743
▁inspectors	743
▁worthwhile	743
ge	742
▁swiftly	742
▁theory	742
▁streets	742
▁refusing	742
▁distortions	741
▁salaries	741
▁tariffs	741
▁revealed	741
▁sensitivity	741
▁gaps	741
▁definitions	741
▁worker	740
▁biotechnology	740
▁pursuit	740
▁financially	739
▁frontiers	739
▁electorate	739
▁execution	739
▁Poettering	739
▁compensate	739
▁mobilisation	737
▁approving	737
▁ECHO	737
▁preserving	737
▁merits	737
▁hypocrisy	736
▁autonomous	736
▁ad	735
▁proves	735
▁Bolkestein	735
▁formed	735
▁asks	735
▁surprising	735
▁subsidy	735
▁identifying	734
▁Albanian	734
▁pan	734
▁Equality	734
▁dear	733
▁issuing	733
▁nationality	733
▁tensions	733
▁misleading	733
▁Forum	733
▁tourist	732
▁knew	732
▁guide	731
▁guidance	731
known	731
▁optimistic	731
▁awaiting	730
▁tendency	730
▁socialist	730
▁ministerial	730
▁disability	729
▁courageous	729
▁airline	728
▁operates	728
▁textiles	728
▁Christmas	728
▁consult	727
▁lawyers	727
▁Round	727
▁REACH	727
▁wanting	727
▁mercury	727
▁sooner	726
▁exact	725
▁Concerning	725
▁carriers	724
▁online	724
▁convincing	724
▁earth	723
▁laundering	723
▁blocked	723
▁insecurity	723
▁selling	722
▁organising	722
▁formula	722
▁continuity	722
▁learnt	721
▁vigilant	721
▁Martin	721
▁classification	721
▁veto	720
▁redundancies	720
▁suddenly	719
▁toxic	719
▁finds	718
▁infringements	718
▁weekend	718
▁noticed	718
▁software	718
▁career	718
▁Basque	717
▁Climate	717
▁mixed	717
▁lengthy	716
▁arbitrary	716
▁opponents	715
▁depending	714
▁coalition	714
ugoslav	714
▁officers	714
▁publish	713
▁knowing	713
▁Danube	713
▁Surely	713
▁offence	713
▁senior	712
▁wave	712
▁disappointing	712
▁transportation	712
▁constituents	712
▁summary	711
▁coins	711
▁newly	711
▁successes	711
▁Directorate	710
▁reformed	710
▁jeopardise	710
▁Among	710
▁contamination	710
▁underlined	710
▁capacities	710
▁reactions	710
ú	710
▁Much	709
▁complementary	709
▁speaks	709
▁Gender	709
▁delivery	708
▁slowly	708
▁hitherto	708
▁attitudes	708
▁expresses	708
▁Industrial	707
▁deterioration	707
▁newspaper	707
▁permits	707
▁condemning	706
▁advocated	706
▁papers	705
▁contradictory	705
▁God	704
▁alleged	704
▁Cotonou	704
▁mix	704
ive	704
▁geared	704
▁DG	704
▁excessively	703
▁acquire	703
▁Erika	703
▁allies	701
▁scenario	701
▁prompt	700
▁theme	700
▁propaganda	700
▁automatic	700
▁tolerate	699
▁belongs	699
▁wholly	699
▁petitions	699
▁discovered	699
▁centuries	698
▁Mugabe	698
▁update	698
▁voices	698
▁Area	697
▁meaningful	697
▁mobilise	697
▁realities	696
▁restriction	696
▁devastating	695
▁write	695
▁manoeuvre	695
U	694
▁Southern	694
▁agreeing	694
▁reunification	693
▁authors	693
▁charter	693
▁pick	693
▁caution	693
▁privileged	693
▁inland	692
▁MEDA	692
▁censure	692
▁user	691
▁phrase	691
▁smooth	691
▁bigger	691
▁supranational	690
▁prisons	690
▁station	690
▁fruitful	690
▁Working	689
▁reception	689
▁Next	689
▁cod	688
▁mutually	688
▁disappear	687
▁tested	687
▁Moscow	687
▁undermined	687
▁Sever	687
▁departments	687
▁frequent	686
▁structured	686
▁redundant	686
▁ex	686
▁outline	685
▁costly	685
▁deliberations	685
▁compare	684
▁prejudice	684
▁seriousness	684
▁inclusive	684
all	683
▁Cuban	683
▁applaud	683
incomprehensible	682
▁modes	682
▁newspapers	682
▁partial	682
▁Fortunately	681
▁eurozone	681
▁sentences	681
▁Norway	680
▁capabilities	680
▁mountain	680
▁entail	680
▁engagement	680
▁Organization	679
▁adapting	678
being	678
▁supporters	678
▁cheaper	678
▁judgments	678
▁indigenous	678
▁owe	677
▁incompatible	677
▁conventional	677
▁recourse	677
▁weakness	677
▁alliance	676
▁immense	676
▁suspend	676
▁III	676
▁ingredients	676
▁memory	676
old	675
g	675
▁expecting	675
▁feelings	675
▁Conservative	674
▁rhetoric	674
▁clothing	673
▁founding	673
▁white	672
▁continually	672
▁Chernobyl	672
▁organs	672
▁mentions	671
▁buying	671
▁differing	671
▁returning	671
▁murdered	671
▁preferences	671
▁killing	670
▁interfere	670
▁weaken	670
▁plus	669
▁wall	669
▁Posselt	669
for	669
▁mentioning	669
▁liberty	669
▁Mercosur	668
▁Accordingly	668
▁Communication	668
▁allocate	668
▁Equal	668
▁apologise	668
▁profitable	667
▁excise	667
▁intense	667
▁maternity	667
▁Euratom	666
▁painful	665
▁translated	665
▁competitors	665
▁tens	664
▁awarded	664
▁chair	664
▁fill	664
▁purchase	663
▁watch	663
▁charged	663
▁argued	662
▁incapable	662
▁certification	661
▁unclear	660
▁conferences	660
▁limitations	660
▁disregard	660
▁sheep	660
▁techniques	659
▁severely	659
▁revise	659
▁Political	659
▁Customs	659
▁billions	659
▁books	659
▁proportionality	659
▁receives	658
▁countryside	658
▁finished	658
▁cooperating	658
▁poses	658
▁collected	658
▁Iceland	657
▁pending	657
▁proactive	657
▁refrain	657
▁assent	656
▁launching	656
▁scandalous	656
▁vitally	656
▁throw	655
▁instances	655
interoperability	655
▁Sri	654
▁dimensions	654
▁fairer	654
▁additives	654
▁restricting	654
▁assumed	654
▁slaughter	654
▁viewed	654
▁adhere	654
▁roles	653
▁anybody	653
▁forecasts	652
▁mothers	652
▁conditional	651
▁appropriately	651
▁marking	651
▁Together	650
▁dare	650
▁Personally	650
▁Director	649
▁contradict	649
▁settled	649
▁Turning	649
▁exceed	648
▁drastic	648
▁Finance	648
▁transform	647
▁participated	647
▁breaking	647
▁recommends	647
▁objection	646
▁reputation	646
▁mainstreaming	646
▁hearings	646
u	646
▁contents	646
▁referendums	646
▁harmonising	645
▁technically	645
▁handed	645
▁bridge	644
▁Whether	644
▁retained	644
▁viability	644
▁ridiculous	644
▁counterfeiting	643
▁Further	643
▁distortion	643
▁domain	643
▁stood	642
▁eco	642
▁disarmament	642
▁shoulder	642
▁cold	641
▁breaches	641
▁admitted	641
▁diversification	641
▁Azerbaijan	640
▁boundaries	640
▁site	640
▁promising	640
▁artificial	640
▁allowances	640
▁ideology	639
▁intent	639
▁judged	639
▁opens	639
▁worry	638
▁recognized	638
▁destroying	638
▁sends	638
▁olive	638
▁Sakharov	638
▁destination	637
▁pushing	637
▁letters	637
▁activists	637
▁injured	636
▁touched	636
▁commerce	636
▁highlighting	636
▁supplied	635
▁petition	635
▁neutral	635
▁profile	635
▁Three	635
lez	634
▁guiding	634
▁discriminatory	634
▁conducting	634
▁Putin	633
▁Herzegovina	633
▁entirety	633
▁reinforcing	633
▁impunity	633
▁exempt	633
▁opposing	633
▁Tuesday	632
▁dismantling	632
▁Media	632
▁austerity	632
▁missed	631
▁handle	631
▁precondition	631
▁excellence	631
▁Seventh	630
▁measured	630
▁Sahara	630
▁suspect	630
▁likewise	630
▁liberties	630
▁prohibited	630
▁deemed	629
▁guided	629
▁simpler	629
▁Has	629
▁striking	629
▁liberalization	629
E	629
▁ILO	628
▁film	628
▁protests	628
▁SIS	627
▁alter	627
▁Confedera	626
▁San	626
▁profession	626
▁Le	626
▁underlines	626
▁disagreement	626
▁requesting	625
▁ruled	625
▁cooperative	625
▁debts	625
▁Jean	625
▁organisms	625
▁pressures	625
▁Indian	625
▁CFP	624
▁fossil	624
▁Meanwhile	624
▁lifting	624
▁chapters	623
▁welcoming	623
▁lacks	623
▁moderate	623
▁advise	623
▁Gulf	622
▁ineffective	622
▁threatens	622
▁recover	622
▁silent	622
▁independently	622
▁%.	621
▁supplement	621
▁spreading	621
▁peripheral	621
▁Michel	621
ndez	620
▁venture	620
able	619
▁psychological	619
▁Taliban	619
▁suspicion	619
ery	619
▁manufacture	618
▁advisory	618
▁punished	618
▁abide	617
▁UEN	617
▁somewhere	617
▁insisted	616
▁transformation	616
▁installations	616
▁prosecution	615
▁relevance	615
▁chose	615
▁extradition	615
▁EP	614
▁airspace	614
▁attempted	614
▁visits	614
▁transposed	614
▁unrealistic	614
▁replacing	613
▁informing	613
▁quantitative	613
▁distinguish	612
▁attaches	612
Maritime	612
▁altogether	612
▁accusations	612
▁tone	612
uestions	611
▁cautious	611
▁Conservatives	611
▁mostly	611
▁departure	610
▁sentenced	610
▁schedule	609
▁separately	609
operation	609
▁settle	609
▁Cambodia	608
▁dominant	608
▁Gothenburg	608
▁Eurojust	608
▁rescue	607
▁uncertain	607
▁safeguarded	607
▁formulate	607
▁weapon	607
▁pride	606
▁exposure	606
▁produces	606
▁typical	606
▁confined	606
▁industrialised	606
▁delivering	606
▁Small	606
▁exercised	606
▁teaching	605
▁totalitarian	605
▁deplore	605
vis	605
▁echo	605
▁Slovenian	605
▁identical	605
▁permission	604
▁thrust	604
▁emphasising	604
▁facto	604
▁interpret	604
▁inability	603
▁attract	603
▁blocking	603
▁duration	603
Europe	603
▁professions	603
▁confronted	602
▁precedence	602
▁Again	602
▁veterinary	601
▁internally	601
▁anyway	601
▁Natura	601
▁unification	601
▁premature	600
▁absent	600
▁robust	600
▁decrease	598
▁deliberate	598
▁Chair	598
▁restoring	598
▁bio	597
▁cultivation	596
▁imbalance	596
▁appreciated	596
▁pornography	596
▁warn	596
▁Sport	596
productive	595
▁equipped	595
▁preferential	595
▁England	595
▁hoc	594
▁stipulates	594
▁toys	594
▁partially	594
▁vis	593
▁disappeared	593
▁adjust	593
▁trials	592
▁O	592
▁exemplary	591
▁disadvantages	591
▁coexistence	591
▁strongest	590
▁K	589
▁Islam	589
▁wrote	589
▁plenty	589
▁forcing	588
▁deeper	588
▁innovations	588
▁processed	588
▁unresolved	588
▁vary	587
▁qualitative	587
▁harsh	587
▁anticipated	587
▁EDF	587
▁asset	587
▁Watson	587
▁gaining	586
▁survey	586
▁outbreak	586
▁globally	586
▁sporting	585
▁reactors	585
▁redress	585
▁speedy	585
▁rigour	584
▁love	584
▁Jarzembowski	584
▁Wallst	584
▁paramount	584
▁entity	584
▁Corbett	584
▁upheld	584
▁incidentally	583
▁teams	583
▁confused	583
▁hatred	583
▁minimal	583
▁complying	583
regulation	582
▁deepening	582
▁aquaculture	582
le	582
▁draws	582
▁Jerusalem	582
▁restored	582
▁perpetrators	582
▁afterwards	581
▁submitting	581
▁linking	581
DA	580
▁Foundation	580
▁prevents	580
▁chances	580
▁globalised	580
▁exceeded	579
▁signatures	579
▁calm	579
▁repressive	579
▁lift	579
▁resume	579
▁reciprocity	579
▁duly	579
▁Johannesburg	578
▁judgement	578
▁assumption	578
▁bans	578
▁vessel	578
▁Caribbean	578
▁occurs	578
▁secured	578
▁employ	578
▁fairness	577
▁neo	577
▁Monitoring	577
▁standardisation	577
▁ASEAN	577
▁decommissioning	577
▁exercising	576
▁Israelis	576
▁capitalist	576
▁motivated	576
▁Bulgarian	575
▁reconsider	575
▁proliferation	575
▁aggressive	575
▁optimism	574
▁endeavours	574
building	573
k	573
▁lived	573
▁expanding	573
▁currencies	573
▁soft	572
▁assurances	572
▁entities	572
▁confront	572
▁envisage	572
drew	572
▁benefiting	571
▁taxpayer	571
▁scourge	571
▁precarious	571
▁dependency	570
▁eat	570
▁bus	570
▁salary	570
▁affordable	570
▁recruitment	570
▁gains	569
▁confine	569
▁introduces	569
▁dollar	569
▁migratory	569
▁houses	569
▁forth	569
▁mining	569
&	568
▁exceptionally	568
▁insofar	568
▁maintains	568
▁witnessing	568
▁prohibition	568
▁wisdom	568
▁accompanying	568
▁Unless	567
▁privilege	567
call	567
▁thirty	567
▁alike	567
us	566
▁announce	566
▁plain	566
▁alive	566
▁cash	566
▁boats	565
▁COM	565
▁secretariat	565
▁unlikely	565
▁incorporating	565
▁specialist	565
▁Lom	565
▁fell	565
▁cards	565
▁evil	564
▁website	564
▁inspired	564
▁deficiencies	564
▁parameters	564
▁database	563
▁emphatically	563
▁records	563
▁Armenia	562
Parliament	562
▁strengthens	562
▁impressive	561
▁concludes	561
▁decides	561
▁Innovation	561
▁eliminated	561
▁modernise	561
▁relocation	560
▁owing	560
▁Besides	560
▁promptly	559
use	559
▁navigation	559
▁oppression	559
▁vigorously	558
▁divisions	557
▁understands	557
▁Reding	557
▁shipbuilding	557
▁successive	557
▁injustice	556
▁benefited	556
▁margins	556
▁pushed	555
ers	555
▁rehabilitation	555
▁inherent	555
▁imprisoned	554
▁simultaneously	554
▁Environmental	554
▁breast	554
▁investigated	554
▁rigid	554
▁Global	554
▁excess	554
▁Japanese	554
▁communautaire	554
▁Canc	554
▁mistaken	554
▁obligatory	553
▁prosperous	553
▁radiation	553
▁Nobody	553
▁individually	553
▁deployment	552
▁frameworks	552
▁journalist	552
▁frank	552
▁description	552
▁anticipate	551
▁spare	551
▁thrown	551
▁summits	551
▁ease	551
▁evaluating	550
▁conversion	550
▁begins	550
▁circle	550
▁straightforward	550
▁assisting	550
▁courses	550
▁art	550
▁suggesting	550
speed	549
▁unite	549
▁TACIS	549
▁Change	549
entrepreneurship	549
▁Oomen	548
▁emergence	548
▁Agreements	548
▁applicants	547
▁replacement	547
▁protein	547
▁democrats	547
▁Roth	547
▁resist	547
▁managers	547
▁academic	546
▁restoration	546
▁multiple	546
▁millennium	546
▁hygiene	546
▁Nuclear	545
▁selected	545
▁street	545
▁occupational	545
▁dramatically	545
▁updated	545
▁approaching	544
▁incorrect	544
▁nationalism	543
▁acute	543
▁League	543
▁damaged	543
▁alert	543
▁Games	543
▁Ukrainian	543
▁bold	542
▁utterly	542
▁workable	542
▁harassment	542
▁specify	541
▁PHARE	541
▁overcoming	541
▁orders	541
▁phenomena	540
itorino	540
namo	540
▁Enlargement	540
▁weaker	540
▁stipulated	540
▁prize	540
▁permanently	539
▁reasonably	539
▁incredibly	539
▁suspected	539
▁Guant	539
▁Pacific	539
▁classes	539
▁Socrates	539
▁protectionist	539
ism	538
▁presidencies	538
month	538
▁lobby	537
▁neglected	537
▁seize	537
▁channel	536
▁Scientific	536
▁uranium	536
▁catastrophe	536
▁barrier	535
▁virtue	535
▁backwards	535
▁pricing	535
▁servants	535
▁lifted	534
▁Dr	534
▁risen	534
▁smuggling	533
▁page	533
▁meal	533
▁repair	533
▁transported	533
▁ELDR	533
▁Support	532
▁Harbour	532
▁machinery	532
Ruijten	532
▁codes	532
▁scene	531
▁acknowledges	531
▁dominated	531
▁earn	530
▁GSP	530
▁politician	530
▁flood	530
▁Chile	529
▁checked	529
▁eve	529
▁imperialist	529
▁sustain	529
▁Sunday	529
▁wasted	529
▁vaccination	529
▁gambling	529
how	529
▁pull	528
▁nice	528
▁decentralised	528
▁Mann	528
▁exporting	527
▁Sometimes	527
▁evaluated	527
▁annex	527
▁disturbing	526
▁screening	526
▁Crespo	526
▁govern	526
▁pure	526
▁Liikanen	526
▁lawyer	526
▁advocating	526
long	526
▁fundamentalism	526
▁hidden	526
▁Jos	526
▁Regulations	525
▁ignoring	525
▁provisional	525
▁consulting	525
▁cornerstone	525
▁expects	525
▁Sixth	525
▁waiver	525
date	524
▁noon	524
oriented	524
▁Far	524
▁groundwater	524
▁intensify	524
▁gallery	524
▁cow	523
▁abolishing	523
state	523
▁Lehne	523
▁completing	523
▁formation	523
▁Korean	523
▁forgetting	523
▁devices	522
▁studied	522
▁unjustified	521
▁allegations	521
▁crop	521
▁award	521
▁kilometres	521
▁celebrate	521
▁contradictions	520
▁crossing	520
▁Lamy	520
▁purchasing	520
▁Cypriot	520
▁starts	520
▁weather	519
▁corrected	519
▁switch	519
▁centralised	519
▁confirmation	519
▁Burmese	519
▁forefront	519
▁validity	518
▁observer	518
▁shameful	518
▁replied	518
▁Spring	518
looking	517
▁signature	517
▁overview	517
▁dying	517
▁Opportunities	517
▁gesture	517
▁replies	517
▁liable	517
▁artists	517
▁hospital	516
▁Progress	516
▁stepping	516
▁ethics	516
▁Have	516
▁Nothing	515
▁coverage	515
▁racist	515
▁Ferrero	515
▁splendid	515
▁imprisonment	515
▁encountered	514
▁Lukashenko	514
▁saved	514
▁weakened	514
▁urging	514
▁harder	513
▁perceived	513
▁eradicate	513
▁fortunately	513
▁surface	513
▁competing	513
▁assuming	513
▁correspond	513
▁incredible	512
▁concerted	512
▁Tak	512
▁dubious	512
▁occurring	512
▁Pack	512
▁notification	511
▁retention	511
▁mergers	511
▁stressing	511
▁Non	511
);	511
▁trained	511
▁pave	510
▁preserved	510
▁Section	510
▁chaos	510
▁Annual	510
▁Governments	509
▁radically	509
ô	509
▁scarcely	509
▁damages	509
▁discover	509
▁turns	509
it	508
▁organ	508
▁challenging	508
▁reserved	508
▁goodwill	508
▁flying	508
way	508
▁flags	508
▁blow	507
▁enormously	507
▁Madeira	507
▁consolidating	507
▁timing	507
▁appoint	507
▁anxious	507
▁connections	506
▁vegetable	505
▁settlements	505
▁Consumers	505
▁detained	504
▁quoted	504
▁Costa	504
▁poorly	504
▁legislate	504
▁Scottish	504
Waldner	504
▁repeating	503
▁deployed	503
Bendit	503
▁rejects	503
▁undermines	503
▁striving	503
▁carries	503
▁incorporation	503
č	503
▁guardian	503
▁Tibetan	503
▁Professor	503
▁humane	502
▁legislators	502
▁unknown	502
▁trialogue	502
▁shut	502
▁fees	502
▁prevailing	502
▁adults	502
▁Cohn	501
▁treating	501
▁retail	501
▁postponement	501
▁vice	501
▁expanded	501
▁Lanka	500
▁conscious	500
▁lorries	500
▁compliment	500
▁tight	500
▁illness	500
▁passport	499
Russia	499
▁incurred	499
▁poultry	498
▁assistants	498
▁barely	498
▁hypocritical	498
▁substitute	498
▁fines	498
▁reiterated	498
▁Executive	497
▁prominent	497
▁secrecy	497
▁Thessaloniki	497
▁transferr	497
▁evolution	497
▁river	496
—	496
▁slavery	496
▁improves	496
▁Aid	496
▁luck	496
▁alleviate	496
▁Ministry	496
▁Agricultural	496
▁Whatever	496
▁eradication	495
▁attacked	495
▁mankind	495
▁visibility	495
▁serving	494
▁explaining	494
▁exported	494
▁catches	494
▁fathers	494
▁accessibility	494
▁Russians	494
▁kill	493
▁wild	493
▁derived	493
▁creativity	492
▁compatibility	492
▁blocks	492
▁claiming	492
▁unambiguous	492
▁display	492
▁sorts	491
▁rape	491
▁bid	491
▁Part	491
▁collect	491
▁Serbs	491
▁Chad	490
▁communist	490
▁wines	490
▁John	490
▁Muslims	490
▁modification	489
▁illustrates	489
▁unilaterally	489
▁herself	488
▁farmer	488
▁arrival	488
▁pointless	488
▁accelerate	488
▁Which	487
▁EGF	487
▁Erasmus	487
▁proving	487
▁analysed	487
▁legality	487
▁dictator	487
▁stimulating	486
▁Belgrade	486
▁Administration	486
▁lobbyists	485
▁appeals	485
▁El	485
▁cotton	485
▁pretty	485
▁unusual	485
▁executions	485
▁distant	485
▁phasing	484
▁tunnel	484
▁calculated	484
▁confidentiality	484
▁grass	484
▁passive	484
▁Accession	483
▁underpin	483
▁counting	483
▁clarifying	483
▁contractual	483
▁frontier	483
ary	483
▁convictions	483
▁voiced	482
▁complain	482
▁quo	482
▁transaction	482
▁Alzheimer	482
▁levy	482
▁allowance	482
▁loan	482
▁proceeding	481
▁taught	481
▁virus	481
▁Everything	481
▁council	481
▁Angola	480
▁shareholders	480
▁Rehn	480
▁Jacques	480
▁patience	479
▁failures	479
▁honesty	479
▁lastly	479
▁chocolate	479
N	479
▁translate	479
▁proportionate	478
▁cereals	478
▁hinder	477
▁Cross	477
▁underway	477
▁male	477
▁capita	477
▁Bangemann	477
▁ecosystems	477
▁insisting	477
▁quarters	477
▁pieces	477
▁adds	476
▁admission	476
we	476
ve	476
▁tourists	476
▁tune	476
▁annually	476
▁viewpoint	476
▁Water	475
▁adopts	475
▁beautiful	475
made	475
▁packages	475
▁readiness	475
▁sceptical	474
▁countless	474
▁aggression	474
▁condolences	474
▁Sadly	474
▁Network	474
▁conform	473
▁occupying	473
▁camp	473
▁drought	473
▁driver	473
▁counterparts	473
▁somehow	473
▁eligibility	473
▁refuses	473
▁Work	473
▁behave	473
▁perception	472
▁Berlusconi	472
▁analysing	472
▁forming	472
▁labels	472
▁embryos	472
▁shocking	472
▁ratio	472
▁supportive	472
▁imposition	471
▁havens	471
▁trains	471
▁questionable	471
▁Ethiopia	471
▁antibiotics	471
▁overseas	470
▁mad	470
▁favoured	470
▁excluding	470
▁perpetrated	470
▁Australia	469
▁Moroccan	469
▁estimate	469
makers	469
▁committing	469
▁watching	469
▁Kurds	469
▁SME	469
▁reaffirm	469
▁Initiative	469
Š	468
▁misuse	468
▁violate	468
▁growers	468
▁coup	468
▁intolerance	468
standing	467
▁reviewing	467
▁contaminated	467
▁Malmst	467
▁tries	467
▁nowhere	467
▁tender	467
ising	467
▁persecuted	467
▁panel	467
sided	467
▁undemocratic	466
▁flooding	466
▁readmission	466
▁slight	466
▁prohibit	466
▁desperate	466
M	466
▁honestly	465
▁engineering	465
▁Florence	465
▁protects	464
▁hospitals	464
▁Nepal	464
▁capability	464
intensive	464
▁favours	464
▁factories	464
▁unequivocal	464
▁refunds	463
▁vegetables	463
▁Take	463
▁Independent	463
▁persistent	463
▁neutrality	463
▁offensive	463
▁delete	463
▁crew	463
▁Wogau	463
▁Good	463
▁denying	463
▁denounce	463
class	462
▁remembered	462
▁peacekeeping	462
▁shaping	462
▁facilitation	462
▁revising	462
trade	462
▁indicating	462
▁minimise	462
▁Mar	461
▁coordinator	461
▁organisational	461
developed	461
▁Somalia	461
▁distinguished	461
▁humans	461
▁abused	461
▁sixth	461
▁earliest	461
▁reveals	460
▁methodology	460
▁Sch	460
▁charging	460
▁geopolitical	460
▁imminent	460
▁responsibly	460
▁electrical	460
▁themes	460
regional	459
▁specialised	459
▁alarm	459
▁explore	459
▁unreasonable	459
▁extremism	459
▁suicide	459
▁lagging	459
▁donation	458
▁Gonz	458
▁counts	458
▁tied	458
▁warnings	458
▁Workers	458
▁Technology	458
uartet	458
▁epidemic	458
▁moments	458
▁visitors	458
▁commodity	457
▁opted	457
▁struggling	457
▁reliability	457
▁dreadful	457
▁Swiss	457
▁hamper	457
▁concentrating	456
▁honoured	456
▁Anti	456
▁cruel	456
▁classified	455
▁lesser	455
▁equitable	455
▁contempt	455
▁Delors	455
▁shocked	455
▁vaccines	455
▁smart	455
▁illustrate	454
▁underestimate	454
INI	454
L	454
▁preferable	454
▁buses	454
▁pages	454
▁breakthrough	453
▁dollars	453
▁diagnosis	453
▁accord	453
▁attending	453
▁premium	452
▁supposedly	452
▁wood	452
▁GM	452
enezuela	451
▁Bonino	451
US	451
▁investigating	451
party	451
▁tighten	451
▁regrettably	451
▁institute	451
▁adult	451
▁weakening	451
▁worries	450
▁designated	450
▁yield	450
▁somebody	450
▁persist	450
▁eleven	450
▁visiting	450
▁miss	450
▁factory	450
▁extends	450
▁deadlock	450
▁sudden	449
▁extremists	449
▁approached	449
▁Azores	449
▁Sharon	449
▁authoritarian	449
▁boosting	449
sch	449
▁performed	449
▁reflecting	449
▁indicative	448
▁biomass	448
▁checking	448
▁childcare	448
▁Fontaine	448
▁dissemination	448
▁commendable	447
ant	447
▁hostage	447
▁store	447
▁headings	447
▁Oostlander	447
▁vigorous	447
▁employee	447
▁tragedies	447
P	447
▁deleted	446
▁embark	446
▁feet	446
▁Byrne	446
▁onwards	446
▁Delegation	446
▁devise	446
▁overlook	446
▁Cologne	446
▁collectively	446
▁guard	446
down	445
▁upper	445
▁grasp	445
▁punish	445
▁resident	445
▁mediation	444
▁Evans	444
▁aids	444
▁influenced	444
SL	444
▁sessions	444
▁architecture	444
▁weakest	444
▁congestion	444
proliferation	443
▁pain	443
▁displayed	443
▁ceasefire	443
▁ozone	443
▁economics	443
▁discretion	443
O	443
▁catastrophic	443
▁consist	442
COS	442
▁updating	442
▁Right	442
▁comparative	442
▁lobbying	441
▁Up	441
▁religions	441
▁LIFE	441
▁Competition	441
▁resolutely	440
en	440
▁legislator	440
▁frustration	440
▁arrests	440
▁attain	440
▁limitation	440
▁keeps	440
▁impacts	439
▁Prosecutor	439
▁nets	439
▁None	439
▁renewables	439
▁thematic	439
▁controversy	439
▁W	439
ally	438
▁Children	438
▁villages	438
▁defines	438
▁experiments	438
▁bombs	438
▁harmony	438
▁stabilise	438
▁Cox	438
▁Robert	437
▁realisation	437
▁Cypriots	437
▁commission	437
▁privileges	437
▁birds	437
▁predecessor	437
▁credits	437
aside	436
▁Arafat	436
▁assigned	436
▁unequal	436
▁box	436
▁councils	436
▁preconditions	436
DEM	436
▁fly	436
▁personality	436
▁explains	436
▁convenience	436
▁conceal	435
▁engaging	435
▁Red	435
▁arena	435
▁rebuild	435
▁Al	435
▁assert	435
▁N	435
▁illnesses	435
▁reacted	435
▁negotiators	434
commerce	434
ity	434
▁Annan	434
▁copy	434
▁sacrifice	434
▁internet	434
▁stepped	434
▁rarely	434
▁subscribe	434
▁allocating	434
▁balances	434
▁protective	433
▁suit	433
▁piracy	433
▁nowadays	433
▁Mulder	433
▁tuberculosis	433
ç	433
▁Galicia	433
terrorism	433
▁inconsistent	433
▁defeat	433
▁Rothley	433
▁breeding	433
▁nonsense	432
▁cure	432
▁interconnection	432
▁reduces	432
▁km	431
▁measuring	431
▁duplication	431
rate	431
▁urges	431
▁Chirac	430
▁seed	430
▁selective	430
▁traditionally	430
▁regulators	430
▁Instrument	430
▁intra	430
▁reveal	429
▁gather	429
▁documentation	429
▁ultra	429
▁mouth	429
▁bought	429
We	428
▁fragmentation	428
▁collecting	428
▁David	428
▁varied	428
▁entrusted	428
▁distinct	428
▁labelled	428
▁holiday	428
▁Seville	428
Ivoire	427
ry	427
▁broadband	427
▁congratulated	427
ation	427
▁smoothly	427
▁inspiration	427
▁instructions	427
▁corrupt	427
▁capitalism	426
▁engine	426
▁distort	426
▁legacy	426
▁overlooked	426
▁colonial	426
East	426
▁Poverty	426
▁dealings	426
▁interaction	425
▁enemy	425
mouth	425
▁Kyi	425
▁lending	425
▁versions	425
▁foreseen	425
▁smoke	425
▁uncontrolled	425
▁admittedly	425
▁adhered	425
▁Sarkozy	425
▁Canary	425
▁suited	425
▁province	425
?'	424
▁referenda	424
right	424
▁shorter	424
▁Schreyer	424
▁auspices	424
▁engines	424
▁Looking	424
▁locally	424
▁migrant	424
▁verify	424
▁outlook	424
▁arriving	424
▁Management	423
▁alia	423
▁Countries	423
▁Saudi	423
▁responds	423
os	423
sighted	423
▁defenders	422
▁arguing	422
▁Dell	422
▁accede	422
▁endanger	422
▁Air	422
▁reads	422
▁readily	422
▁verification	422
▁undesirable	422
▁Algerian	422
▁choosing	422
▁WHO	422
▁west	421
▁atrocities	421
▁dynamism	421
▁al	421
▁legislature	421
▁incineration	421
▁submission	421
▁shop	421
▁condemns	420
▁Mandelson	420
▁Dimension	420
▁reciprocal	420
▁exploiting	420
▁regain	420
▁Tribunal	420
▁interpreters	420
▁fostering	420
▁Prestige	420
▁spheres	419
▁mortality	419
▁endorses	419
▁formulation	419
▁sick	419
▁headquarters	419
▁timber	419
▁accorded	419
▁fatal	419
▁sharp	418
big	418
▁weigh	418
▁roadmap	418
▁Cashman	418
▁executed	418
▁calculation	418
▁contracting	418
▁cigarettes	417
▁deeds	417
▁manufactured	417
▁premiums	417
▁feasibility	417
▁generating	417
▁thresholds	417
▁statutory	417
▁UCLAF	417
▁blue	417
▁temptation	416
▁Society	416
▁Barrot	416
▁Category	416
first	416
▁discriminated	416
▁Sir	416
▁Equally	416
▁civilised	416
Community	416
▁heat	415
igo	415
▁confrontation	415
▁Suu	415
▁bomb	415
▁conformity	415
▁Mauritania	415
▁unconditional	415
▁PNR	415
▁dropped	414
▁winter	414
▁holdings	414
▁dark	414
▁disappearance	414
▁aforementioned	414
▁fifty	414
▁IND	414
▁regrets	414
▁stimulus	414
▁hearts	414
▁Medina	413
▁coin	413
▁spot	413
▁games	413
ê	413
▁realize	413
▁misery	413
▁shock	413
▁landscape	413
▁Merkel	413
▁manufacturer	413
▁Rio	413
▁Bangladesh	413
▁loud	412
▁obsolete	412
▁ECR	412
▁Albanians	412
▁Cardiff	412
▁decisively	412
▁conflicting	412
▁Aung	411
▁bulk	411
▁Obama	411
▁EPP	411
▁prerogatives	411
▁desperately	410
▁seconds	410
▁warned	410
▁Bourlanges	410
▁specifications	410
▁resignation	410
▁Former	410
▁withdrawing	410
▁forwards	410
▁younger	410
▁reaches	409
east	409
▁invasion	409
▁deprive	409
▁Sudanese	409
▁amounting	409
▁besides	409
▁cite	408
▁McCreevy	408
▁breakdown	408
▁unchanged	408
▁doctor	408
▁finalised	408
▁studying	408
▁injuries	408
▁elite	407
▁Nobel	407
▁unequivocally	407
▁foreseeable	407
▁Fifth	407
five	407
▁certificates	407
▁reasoning	407
elzen	406
▁machine	406
▁dictatorships	406
▁backs	406
▁expectation	406
▁Overall	406
▁Lulling	405
▁petrol	405
▁Uzbekistan	405
minded	405
▁beliefs	405
▁combining	405
▁standpoint	405
▁adjourned	405
▁ideals	404
▁accommodate	404
▁evidently	404
▁inhumane	404
▁diesel	404
▁polluting	404
compliance	404
▁revenues	404
▁slightest	404
Behrendt	403
▁Fourth	403
▁Currently	403
▁delegated	403
▁fabric	403
▁List	403
▁disgraceful	403
▁enjoys	403
▁imply	403
▁disgrace	403
▁temporarily	402
▁superfluous	402
▁Recently	402
▁Life	402
▁brave	402
▁ICT	402
▁fulfilment	402
▁beneficiary	402
▁Garc	401
▁principally	401
▁correction	401
▁milestone	401
▁advised	400
▁Athens	400
▁Fifteen	400
▁ally	400
▁Certain	400
Plath	400
▁populated	400
▁Sierra	400
▁questioned	400
▁Aviation	400
▁GNP	400
▁Business	400
▁neoliberal	399
▁finger	399
▁backdrop	399
▁safely	399
▁immigrant	399
▁neglect	399
▁Randzio	399
▁murders	399
▁sulphur	399
▁fragmented	399
▁stone	399
▁literally	398
▁modify	398
▁metres	398
▁CIA	398
▁Inquiry	398
▁equity	398
▁continents	398
▁circles	398
▁loopholes	398
▁music	398
▁Nielson	397
▁constructively	397
▁objectively	397
▁toll	397
▁liberalised	397
hand	397
▁maize	397
▁grips	396
▁continuously	396
▁juncture	396
▁ceilings	396
▁traffickers	396
▁odds	396
▁insistence	396
▁questioning	396
▁Belarusian	396
▁corresponds	396
▁coincidence	396
▁father	396
▁Measures	396
▁Something	396
▁worsening	395
T	395
▁reinforcement	395
▁St	395
▁renew	395
–	395
line	395
ROM	395
▁diet	395
▁counterfeit	395
▁operator	395
▁prudent	394
▁relocations	394
▁Lama	394
▁Langen	394
▁hot	394
▁ballot	394
▁reservation	393
▁chaired	393
▁Indonesian	393
▁functional	393
▁Bay	393
der	393
▁licensing	393
▁speculative	393
▁intimidation	393
▁insists	393
▁speeding	393
▁frame	393
ist	392
▁remuneration	392
▁student	392
▁wondering	392
▁demonstrators	392
▁pollutants	392
▁accurately	392
▁proportions	392
▁wrongly	392
▁characteristic	391
▁inventions	391
▁impartial	391
▁cited	391
▁appearance	391
▁director	391
▁reminding	391
▁leap	391
▁Ankara	390
▁extraordinarily	390
▁Titley	390
▁respectively	390
▁Jordan	390
▁construct	390
▁employer	390
▁confuse	390
ns	389
▁U	389
▁Four	389
democratic	389
liberal	389
▁Florenz	388
▁relatives	388
▁precious	388
▁tolerated	387
▁malaria	387
▁Tomorrow	387
ñ	387
▁afforded	387
▁Sustainable	387
▁profitability	386
financial	386
▁named	386
▁synergies	386
▁extremist	386
▁gathered	386
▁Castro	386
▁Basel	386
▁transpose	385
▁gold	385
▁Too	385
▁imposes	385
BG	385
▁possession	385
▁Incidentally	385
▁profoundly	385
▁gathering	385
▁Re	385
▁file	385
▁emphasized	384
▁Mart	384
▁boat	384
▁verdict	384
▁department	384
▁socialists	384
▁unwilling	384
▁destructive	384
▁justifies	384
▁quest	383
▁pledge	383
▁modernising	383
▁bombing	383
▁passports	383
▁influx	383
▁norms	383
p	383
▁virtual	382
▁exchanging	382
balanced	382
▁cancelled	382
▁comprehensible	382
▁score	382
▁beforehand	382
▁accomplished	381
▁corridors	381
▁ancient	381
▁Karas	381
▁ECOFIN	381
▁federalist	380
▁overdue	380
h	380
▁parental	380
▁conservative	380
▁Bear	380
▁Burundi	380
▁window	380
▁accelerated	380
▁blackmail	379
▁arose	379
▁Kazakhstan	379
▁penalised	379
▁hesitate	379
▁Men	379
▁Juncker	379
▁modifications	379
▁Daphne	378
▁conferred	378
▁synergy	378
▁satisfactorily	378
▁redistribution	378
▁Tunisian	378
▁heating	378
▁Ultimately	378
▁abandoning	378
▁clubs	378
▁restraint	378
▁describes	378
▁evasion	377
▁feedingstuffs	377
▁SWIFT	377
AIDS	377
▁arm	377
▁reminder	377
▁undergoing	377
▁cohesive	377
▁equip	377
▁beg	377
▁frequency	377
▁Combat	376
▁corporations	376
▁Wynn	376
ia	376
life	376
▁dividing	375
▁Technological	375
▁escalation	375
▁prosecutor	375
▁liberalise	375
▁yourselves	375
▁asbestos	375
▁frozen	375
▁observance	374
▁churches	374
▁peacefully	374
▁liberalising	374
▁lowering	374
ï	374
▁Wales	374
▁ascertain	373
▁broaden	373
▁relaunch	373
F	373
▁authorise	373
▁calculations	373
▁varies	373
▁salmon	373
▁ambiguous	372
▁enforcing	372
at	372
▁recipient	372
▁Faced	372
▁devised	372
▁observing	372
case	372
f	372
▁rice	372
▁derive	372
▁exacerbate	371
▁theoretical	371
▁refuge	371
▁traders	371
▁Unlike	371
▁Recent	371
▁Nabucco	371
▁adjusted	371
▁films	371
▁performing	371
▁publicity	370
▁cleaner	370
▁experiment	370
▁Rocard	370
▁rulings	370
▁troika	370
▁Dalai	370
▁notified	370
▁Chapter	370
▁justifiable	370
▁Germans	370
▁storm	369
▁tsunami	369
▁predict	369
▁electric	369
▁solar	369
▁ECSC	369
▁Coelho	369
▁discrepancies	369
thirds	369
▁incumbent	369
▁Be	369
ised	369
▁relying	369
▁Wall	368
▁specialists	368
▁Bowis	368
▁supplemented	368
▁sanction	368
▁marriage	368
▁prioritise	368
▁images	368
▁Gross	368
▁altered	368
▁commodities	368
▁Arabia	368
▁Bali	368
▁Secretariat	367
▁fortunate	367
▁protocols	367
▁harmonious	367
▁stopping	367
▁GMO	367
▁odd	367
▁encounter	367
▁expressions	367
▁tends	367
▁Presidencies	367
▁rests	367
▁reluctant	367
▁addiction	366
▁tendencies	366
▁chief	366
▁upholding	366
▁unstable	366
▁shops	366
▁Rwanda	366
▁Ford	366
▁passage	365
▁dozens	365
erhofstadt	365
law	365
▁vacuum	365
▁plea	365
▁shipowners	365
producing	365
▁tongue	365
▁cell	364
▁acknowledging	364
tabilisation	364
Applause	364
▁horse	364
▁exacerbated	364
▁friendship	364
▁assisted	364
▁generic	363
▁operated	363
▁termed	363
▁persuaded	362
▁practised	362
▁infected	362
▁Seattle	362
▁fed	361
▁Data	361
▁Admittedly	361
▁ecosystem	361
▁varying	361
▁hesitation	361
▁recipients	361
▁memorandum	361
▁University	361
▁Amnesty	361
▁exciting	360
▁forecast	360
▁quiet	360
▁municipal	360
▁deepen	360
▁sittings	360
▁decoupling	360
▁separated	360
▁Croatian	360
▁importing	360
▁degrees	360
▁hectares	360
▁possess	360
▁Lebanese	360
Herzegovina	360
▁distorted	360
▁ASEM	359
minute	359
▁dilemma	359
growing	359
▁premises	359
▁emerges	358
▁bonds	358
▁interpretations	358
▁securities	358
▁progressing	358
▁prompted	358
▁Lithuanian	357
▁feeding	357
▁Temporary	357
▁blatant	357
▁shortages	357
▁Cup	357
▁gear	357
▁advisable	357
▁oblige	357
▁approximation	357
▁Police	357
▁Prevention	357
▁exhaustive	357
▁outrageous	357
▁celebrating	356
▁complies	356
▁hierarchy	356
▁mutilation	356
▁realism	356
▁closest	356
emen	356
▁publishing	356
▁Supervisor	355
▁glass	355
▁illicit	355
▁confusing	355
▁barbaric	355
▁tankers	355
▁drink	355
▁Staff	355
▁recommending	355
▁incomplete	355
▁intensified	354
▁indicator	354
▁rebuilding	354
▁originating	354
▁differentiated	354
▁calendar	354
financing	354
▁journeys	354
▁foreigners	353
▁Ber	353
▁unnecessarily	353
▁Singapore	353
▁targeting	353
▁sounds	353
▁supplying	353
▁directions	353
▁Directives	353
▁iron	353
▁ETA	353
▁unaware	353
▁Others	352
de	352
▁Dialogue	352
▁plight	352
▁unavoidable	352
▁unreservedly	352
▁ball	352
▁trap	352
▁drastically	351
▁Hautala	351
▁Universal	351
▁capitals	351
▁changeover	351
▁endless	351
▁outcomes	351
▁sacrificed	351
▁Maybe	351
▁directors	351
▁endeavouring	351
▁rush	351
▁surpluses	351
▁recitals	351
▁pregnant	351
▁illustrated	350
▁attendance	350
▁disruption	350
▁confidential	350
▁Greenland	350
▁reimbursement	350
▁practise	350
▁turnover	350
▁reaffirmed	350
risk	350
▁scientifically	349
▁club	349
▁Herman	349
▁qualify	349
▁Argentina	349
▁tightening	349
▁delaying	349
▁appealing	349
▁illusion	349
▁deplorable	349
▁exerted	349
▁suffers	349
▁supporter	349
upreme	349
▁usefulness	349
▁concur	349
▁incidence	349
parliamentary	349
▁Lannoye	349
▁waterways	349
▁undertook	349
▁patterns	348
▁winners	348
▁rooted	348
▁exceeding	348
▁depleted	348
▁retaining	348
▁origins	348
▁shipyards	347
▁zu	347
▁shed	347
▁balancing	347
▁Blokland	347
▁penal	347
▁anxiety	347
▁freezing	347
▁secular	346
▁output	346
▁chairmen	346
▁underestimated	346
▁holders	346
▁travellers	346
▁freeze	346
▁outdated	346
▁skilled	346
▁convicted	346
▁combated	346
needed	346
▁hunting	345
▁super	345
▁resolute	345
▁optional	345
political	345
▁Baringdorf	345
▁policing	345
▁seventh	345
▁Likewise	344
▁dossiers	344
▁destiny	344
▁Leonardo	344
ana	344
▁Ortega	344
▁forever	344
▁influenza	344
▁brain	343
decentralisation	343
▁motivation	343
▁automotive	343
▁develops	343
▁stabilising	342
▁tactics	342
▁evaluations	342
▁curb	342
▁irreversible	342
▁resettlement	342
▁bloc	342
▁enthusiastic	342
▁detainees	342
▁modulation	342
▁optimum	342
▁winner	342
▁unlawful	341
▁vigilance	341
▁undergo	341
▁dialogues	341
▁en	341
▁Kaliningrad	341
▁tougher	340
▁uncertainties	340
▁differs	340
▁eating	340
▁hopeful	340
▁emotional	340
▁exporters	340
▁prescribed	340
ka	340
▁returns	340
▁sky	340
▁agri	340
▁widening	339
▁transformed	339
▁expulsion	339
▁Graefe	339
onourable	339
led	339
ial	339
▁occasionally	339
▁designation	338
▁unsustainable	338
▁representations	338
▁touches	338
▁subsidised	338
▁Morillon	338
▁bargaining	338
▁Feira	338
▁habits	338
▁repatriation	338
▁manipulation	338
evident	338
▁Gibraltar	337
▁imagination	337
▁phone	337
▁Leone	337
▁Post	337
▁breaks	337
▁similarly	336
▁Hopefully	336
▁criticising	336
▁esteem	336
▁household	336
▁Egyptian	336
▁vicious	336
▁signatories	335
▁City	335
▁disregarded	335
▁edge	335
▁Institutions	335
▁seeds	334
iolence	334
▁embarked	334
▁offset	334
▁Aznar	334
▁command	334
▁biometric	334
▁Theato	334
▁multilingualism	334
▁Sterckx	334
▁Sky	334
▁compensatory	334
▁unjust	334
▁McKenna	334
▁drift	334
▁insult	334
▁Oslo	334
▁blockade	333
▁endorsement	333
▁baby	333
ar	333
▁transmitted	333
▁honey	333
▁Elles	333
established	333
▁rectify	333
▁sacrifices	333
▁staffing	333
▁constituent	332
▁skill	332
▁web	332
▁multilateralism	332
▁stories	332
▁Ferber	332
decision	332
▁crucially	332
▁accommodation	332
▁portfolio	332
▁useless	332
▁bloody	332
▁vain	332
▁pertinent	332
▁historically	331
increasing	331
ransatlantic	331
▁teach	331
▁Leinen	331
ã	331
▁discourage	331
▁continental	331
▁IT	331
▁steady	331
▁impressed	331
▁Georgian	331
▁resumption	331
▁households	331
▁indifferent	331
▁applause	331
▁thirds	330
▁coach	330
▁associate	330
▁heed	330
▁hostile	330
▁Catholic	330
▁Things	330
▁provider	330
▁racial	330
▁bankruptcy	330
▁render	330
▁rivers	330
▁headed	330
▁Prague	329
▁Transparency	329
▁importers	329
▁equilibrium	329
▁pandemic	329
▁penalise	329
▁unfounded	329
▁pockets	329
▁filled	328
▁consisting	328
▁facilitated	328
▁shot	328
▁ambiguity	328
▁mobilised	328
▁liquidity	328
▁massacre	328
▁destined	328
▁Broek	328
▁ratifying	328
▁qualities	328
personnel	328
▁contributors	328
▁Lampedusa	328
▁Assistance	328
▁wealthy	327
▁scandals	327
▁cancellation	327
food	327
nez	327
▁ranging	327
▁reluctance	327
▁par	327
▁merger	327
▁climatic	327
▁confirming	327
▁format	327
▁phased	327
▁preceded	327
▁Almost	327
▁square	327
Nordic	327
▁deteriorating	326
▁outlines	326
style	326
private	326
▁Regrettably	326
▁Speaking	326
▁Lamfalussy	326
▁pretend	326
▁Thailand	326
▁rose	326
ion	326
▁cosmetics	326
▁Cairo	325
▁generosity	325
▁Church	325
▁Dimas	325
▁inviting	325
▁expectancy	325
▁Due	325
▁Arrest	325
▁pupils	325
▁Saturday	325
▁ignores	325
▁voluntarily	325
▁fulfils	325
▁nutrition	325
▁quicker	325
▁flu	325
▁envisages	325
▁suppose	324
▁slogan	324
▁dedication	324
▁accessing	324
▁rigorously	324
▁heartfelt	323
▁ratings	323
▁coordinators	323
arious	323
▁intensity	323
▁likelihood	323
▁Canadian	323
favoured	323
▁forwarded	323
▁Child	323
▁awarding	323
▁reap	323
▁allocations	323
▁Gr	322
▁intermediate	322
▁intervening	322
▁progressively	322
▁GATT	322
▁Official	322
▁novel	322
efficient	322
▁benchmarks	322
▁drain	321
▁donations	321
▁challenged	321
▁season	321
▁allegedly	321
▁desertification	321
▁makers	321
▁inefficient	321
▁o	321
nationalisation	321
▁postponing	321
▁grey	321
▁outright	321
▁timetables	321
▁customer	321
▁percent	321
▁occupy	321
v	320
▁educated	320
▁seized	320
war	320
▁pledged	320
▁universally	320
▁inquiries	320
▁entrepreneurial	320
▁Kenya	320
▁chamber	320
track	320
▁bitter	320
▁recalled	320
▁attacking	319
▁preventative	319
▁grassroots	319
discriminatory	319
▁wisely	319
▁violating	319
▁church	319
▁overnight	319
▁Senate	319
▁reintegration	318
▁corner	318
▁Haug	318
▁tickets	318
establish	318
▁guideline	318
▁notwithstanding	318
▁composed	318
▁coasts	318
sharing	318
­	318
▁rethink	317
▁forums	317
▁marginalised	317
▁Trans	317
▁ordered	317
▁arrange	317
▁referral	317
▁unused	317
▁Progressive	317
▁watered	317
▁Co	317
specific	317
▁NGO	317
▁clinical	317
point	317
▁Based	317
▁distances	317
▁Chechen	317
▁unrest	316
▁ignorance	316
▁consumed	316
▁killings	316
▁violates	316
▁yours	316
▁Ludford	316
▁mitigate	316
▁Needles	316
▁GBP	316
▁fraudulent	315
▁seafarers	315
man	315
▁richer	315
▁Experience	315
▁native	315
▁cargo	315
▁allotted	315
▁constitutions	315
▁motives	315
ne	315
▁cancel	315
▁pertain	315
▁forgive	314
▁communicated	314
▁hugely	314
▁batteries	314
keeping	314
▁curious	314
▁scepticism	314
▁reconciling	314
▁landfill	314
▁illustration	314
▁injury	314
▁Her	314
▁prevailed	314
which	313
▁inclined	313
▁embrace	313
▁authorising	313
▁staying	313
▁chiefly	313
▁abandonment	313
▁Movement	313
▁lively	313
▁mobilising	313
▁plane	313
▁annum	313
▁standardised	313
▁presently	313
▁Poles	313
annual	313
▁devastated	312
▁Daul	312
▁interfering	312
▁undeniable	312
▁differentiation	312
▁Guatemala	312
▁overly	312
▁denominator	312
▁inadmissible	312
▁jeopardising	312
▁predictable	312
benefit	312
▁forty	311
▁appearing	311
▁grand	311
going	311
▁tantamount	311
▁chronic	311
▁headway	311
▁Groups	311
▁denial	311
▁broadcast	311
nen	311
▁richest	311
ce	311
▁trees	311
▁polluter	311
▁upset	311
▁computers	311
▁fluctuations	311
▁cynical	311
▁Rompuy	311
▁Jewish	310
▁supplier	310
▁ticket	310
▁Salafranca	310
▁doctrine	310
▁Fifthly	310
national	310
▁UNHCR	310
▁despair	310
▁conduc	310
▁Patent	310
existent	310
▁rises	310
▁doping	310
general	310
▁King	310
▁insight	310
▁ashamed	310
▁symbols	310
▁doubtless	310
▁dictate	309
▁stuck	309
▁cigarette	309
▁Duisenberg	309
▁letting	309
▁token	309
▁distribute	309
▁attributed	309
▁absorb	309
▁Jackson	309
▁steadily	309
▁derivatives	309
▁impasse	309
▁nationalist	309
▁summarise	309
▁tortured	309
▁Asylum	308
▁detected	308
▁comprising	308
▁Did	308
▁sexes	308
▁tiny	308
▁remedies	308
▁fantastic	307
▁laudable	307
▁surrender	307
▁burning	307
▁cleared	307
▁Bonn	307
▁corrections	307
▁fits	307
▁meaningless	307
▁acknowledgement	307
▁busy	307
elected	307
▁midst	306
▁premise	306
▁Cold	306
▁inhuman	306
▁magnificent	306
effective	306
▁volumes	306
▁dwell	306
▁acceding	306
▁indignation	306
▁emergencies	306
▁unlimited	305
▁clearing	305
▁pigs	305
▁disciplinary	305
▁misgivings	305
▁channelled	305
▁logistics	305
▁Eurodac	305
▁acquisition	305
do	305
▁la	305
▁village	305
▁accompany	304
▁synthetic	304
▁Gebhardt	304
▁spiral	304
▁unhappy	304
▁marginal	304
▁Armenian	304
▁mature	304
▁qualification	304
▁dioxin	304
▁erosion	304
▁Ministerial	303
▁Mitchell	303
▁Alexander	303
▁Parties	303
▁passes	303
▁cleansing	303
š	303
▁Wallis	303
▁forcefully	303
▁elect	303
hour	303
▁prevails	303
▁shopping	303
ful	303
dumping	303
market	303
▁Recommendation	302
▁Philippines	302
▁enjoying	302
pidla	302
▁stamp	302
▁noble	302
▁bridges	302
▁doubtful	302
▁Fischer	302
▁proceeds	302
▁arranged	302
▁lorry	302
▁surveys	301
▁Ossetia	301
▁Nassauer	301
▁master	301
▁Pirker	301
▁Warrant	301
▁catalogue	301
▁pleasant	301
▁conditionality	301
▁pig	301
is	301
▁occurrence	301
▁moderation	301
▁t	301
▁Abkhazia	301
▁dictators	301
▁La	300
▁contemporary	300
▁horror	300
▁transparently	300
▁massacres	300
▁proximity	300
▁explosion	300
▁Kof	300
▁soya	300
▁Guarantee	300
▁Throughout	300
▁Specifically	299
▁aftermath	299
▁avail	299
▁hiding	299
over	299
▁identifies	299
▁catalyst	299
ò	299
▁horrific	299
▁scenarios	299
▁junta	299
▁CE	299
▁stupid	299
▁absorption	299
▁paradox	299
South	298
▁doubled	298
▁reinforces	298
▁mismanagement	298
▁Region	298
▁Functioning	298
▁Almunia	298
▁artistic	298
▁Refugees	298
▁establishments	298
▁distress	298
▁Radical	297
ner	297
▁successor	297
▁militarisation	297
▁flagrant	297
▁homeland	297
▁feared	297
▁polls	297
▁Kashmir	297
▁answering	297
▁mode	297
▁triggered	297
▁Title	296
▁walls	296
▁suspects	296
▁detection	296
introductory	296
▁generates	296
social	296
▁degradation	296
speaking	296
▁infection	296
▁intensively	296
▁dignified	295
▁Hungarians	295
▁endangered	295
▁exit	295
▁classic	295
oung	295
▁nomination	295
▁lawmaking	295
▁volatility	295
▁tables	295
▁detect	295
▁predicted	295
▁fusion	295
▁Izquierdo	295
▁complementarity	295
▁identities	294
▁unexpected	294
▁declining	294
▁databases	294
▁norm	294
▁Reconstruction	294
▁generalised	293
▁branch	293
▁college	293
▁Howitt	293
▁objects	293
▁select	293
▁plainly	293
▁tempted	293
fire	293
▁customary	293
▁categorically	293
▁believing	293
▁Napolitano	293
▁administered	292
▁Institutional	292
board	292
▁Collins	292
▁deforestation	292
▁reward	292
roots	292
▁couples	292
▁enlarge	292
▁upgrading	292
▁fronts	292
▁Experts	292
▁upcoming	292
▁champion	292
▁machines	292
▁indifference	291
▁registers	291
▁tenth	291
▁unsafe	291
▁supplements	291
designate	291
▁Force	291
▁Access	291
▁irrelevant	291
▁reopen	290
▁sheet	290
▁Un	290
▁shores	290
▁factual	290
▁preferably	290
▁clients	290
▁Communism	290
▁miles	290
▁envoy	290
▁aged	290
▁enemies	290
▁preamble	289
▁abundantly	289
▁Syrian	289
▁SOL	289
▁favourably	289
▁treatments	289
▁ages	289
▁suppression	289
▁eminent	289
▁Clinton	289
▁gladly	289
▁repetition	289
▁globe	289
▁Gradin	289
▁globalization	289
▁Particularly	289
▁Whitehead	289
▁stored	289
▁achievable	289
▁wellbeing	289
▁timeframe	289
▁backward	289
▁concession	289
▁Lord	288
▁landing	288
▁bordering	288
▁dismantle	288
▁compensated	288
▁consultative	288
▁Between	288
▁Recital	288
▁Competitiveness	288
▁Either	288
GA	288
▁craft	288
▁Savary	287
▁defects	287
▁extraction	287
▁coupled	287
▁explosive	287
▁describing	287
▁Lange	287
▁therapeutic	287
▁incorporates	287
▁grain	287
ated	287
▁budgeting	287
▁travelled	286
▁commissioned	286
▁comprises	286
▁Buitenweg	286
▁Gil	286
▁panic	286
▁institutes	286
▁platforms	286
▁files	286
▁Twenty	286
▁pledges	286
▁legitimately	286
▁advantageous	285
▁extensively	285
handed	285
▁advancing	285
▁Helms	285
▁mini	285
▁unduly	285
▁anger	285
▁broke	285
▁pregnancy	285
▁Revolution	285
▁don	285
▁hardest	285
▁Farmers	284
▁concentrations	284
▁adherence	284
▁bathing	284
▁appointments	284
▁holidays	284
▁reactor	284
G	284
▁ranks	284
▁traps	284
ń	284
▁temperature	283
▁coincide	283
▁routine	283
▁Frassoni	283
▁catching	283
▁eventual	283
▁cows	283
go	283
▁livelihoods	283
▁fundamentalist	283
▁Lamassoure	283
▁situated	283
▁overriding	283
▁drinks	282
▁utilisation	282
▁inspire	282
▁exceeds	282
▁enlargements	282
▁speedily	282
▁rationale	282
▁vulnerability	282
▁starch	282
▁heated	282
▁flawed	282
▁Draft	282
▁Monnet	282
▁Martens	281
▁benchmarking	281
▁backbone	281
▁Conduct	281
▁Paul	281
▁deterrent	281
▁deaf	281
▁scoreboard	281
▁risky	281
▁Training	281
▁Road	281
▁cosmetic	281
si	281
▁shelter	280
▁Pen	280
▁fitting	280
▁motorways	280
▁affirm	280
▁breathe	280
▁locations	280
▁rolling	280
▁deem	280
▁oversight	280
▁Turkmenistan	280
Saharan	280
▁purchases	280
ethnic	280
▁consume	280
▁Basically	280
▁shifting	279
▁winning	279
▁taste	279
▁patenting	279
▁investor	279
▁Gas	279
▁deploy	279
▁Better	279
▁aspire	279
▁automobile	279
▁subsidiary	279
▁Country	279
▁precautions	279
▁proportional	278
▁butter	278
▁awful	278
▁rapprochement	278
▁tribunal	278
▁Malaysia	278
▁favouring	278
▁stipulate	278
▁Mozambique	278
▁trigger	278
▁diplomats	278
▁waves	278
▁mail	278
▁tripartite	277
▁installation	277
▁homework	277
▁Maghreb	277
▁Tajani	277
▁negligence	277
▁earned	277
▁exercises	277
▁habitats	277
▁tighter	277
▁expiry	277
▁hydrogen	277
▁convert	277
▁Drugs	276
▁ring	276
▁benchmark	276
▁stops	276
▁forge	276
eterinary	276
▁domination	276
▁Hatzidakis	276
▁clash	276
▁expelled	276
▁Crowley	276
▁indefinitely	276
▁gravity	276
▁agendas	276
▁paradoxical	276
▁dreams	276
▁Ten	276
▁EPAs	276
▁proclaimed	276
▁Technical	275
ized	275
No	275
▁livelihood	275
▁levelled	275
▁Jews	275
▁fleeing	275
▁fix	275
▁auditing	275
▁genital	275
▁declaring	275
▁constructed	275
▁omission	275
▁exaggerated	275
▁resign	275
▁pictures	275
▁vested	275
omic	275
▁employing	275
▁lifestyle	275
▁contentious	275
hrkop	275
▁Doyle	274
mail	274
▁gratifying	274
▁Along	274
▁notable	274
▁sand	274
▁mentality	274
▁crews	274
▁adversely	274
▁spell	274
▁crude	274
▁Trakatellis	274
▁boycott	273
▁Colleagues	273
▁prolong	273
▁civic	273
age	273
▁luxury	273
▁discriminate	273
▁trace	273
▁compelled	273
▁critics	273
▁whoever	273
▁maximise	273
▁ESDP	273
▁trip	272
▁Haarder	272
▁elaborate	272
▁decreased	272
▁Terrorism	272
▁gulf	272
▁George	272
▁Berg	272
tic	272
▁obliges	271
▁homosexuals	271
▁obscure	271
▁motto	271
▁branches	271
▁Contrary	271
owned	271
▁distributing	271
▁supreme	271
▁basin	271
▁insignificant	271
▁joy	270
▁Minsk	270
▁unregulated	270
▁roughly	270
▁seal	270
▁Level	270
▁characterise	270
▁realising	270
▁Schr	270
▁strain	270
▁spouses	270
▁worded	270
▁witnesses	270
▁defensive	270
▁ice	269
▁volunteers	269
▁Jan	269
▁approves	269
▁unthinkable	269
▁cocoa	269
▁cereal	269
▁prohibiting	269
▁exhausted	269
▁tonne	269
▁coffee	269
▁Di	269
▁arrogance	269
▁stems	269
▁Schroedter	269
vez	269
▁Cultural	269
▁prerequisites	268
▁decreasing	268
ki	268
▁undergone	268
▁twin	268
Burton	268
▁steer	268
ş	268
▁embryonic	268
▁Strip	268
ă	268
▁intercultural	268
▁scrapping	268
▁leverage	268
▁lasted	268
▁landmines	268
▁Fatuzzo	268
▁famine	268
▁certificate	267
▁intrinsic	267
▁smallest	267
raising	267
▁Tony	267
▁Lancker	267
▁dry	267
▁Dayton	267
▁Alpine	267
▁liaison	267
▁soul	267
▁initiating	267
less	267
aire	267
▁sentiments	267
▁owner	266
▁beer	266
new	266
▁Airbus	266
▁marketed	266
▁losers	266
nchez	266
▁suffice	266
▁assassination	266
▁Trichet	266
▁denounced	266
▁libraries	266
▁maturity	265
▁seminar	265
▁Inter	265
▁comprehensively	265
▁giant	265
▁mistrust	265
▁CITES	265
▁meanwhile	265
▁hedge	265
▁cumbersome	265
▁valued	265
▁habit	265
▁unpleasant	265
▁Mission	265
ET	265
▁style	264
▁dictated	264
▁Kallas	264
▁Peru	264
▁fee	264
fledged	264
▁commented	264
▁discrepancy	264
ring	264
▁encompass	264
▁formulating	264
▁transporting	264
▁assertion	263
▁Future	263
▁gene	263
▁disposed	263
▁leisure	263
▁attracted	263
ous	263
▁rough	263
chi	263
▁walk	263
▁Deputy	263
▁Hughes	263
▁History	263
▁fat	263
▁mountains	263
▁listing	263
▁fixing	262
▁miracle	262
▁Klaus	262
▁vaccine	262
▁takeover	262
Africa	262
if	262
▁sticking	262
▁Maltese	262
▁alcoholic	262
▁Breyer	262
▁exerting	262
Ε	262
▁cabotage	262
▁Stream	262
▁celebrated	261
▁Position	261
▁Sj	261
stedt	261
▁bankrupt	261
▁ESF	261
▁Five	261
▁sophisticated	261
▁censorship	261
▁Company	261
▁Racism	261
▁commissioners	261
▁admiration	260
▁careers	260
▁dissatisfaction	260
▁dismissed	260
▁predominantly	260
▁interview	260
▁reversed	260
▁paths	260
▁Kyrgyzstan	260
▁cleaning	260
▁monies	260
▁capture	260
▁audits	260
▁wheel	260
▁veal	260
▁restructure	260
▁IMO	260
▁undeclared	260
▁geographic	260
▁tightened	260
▁knock	259
Weggen	259
▁websites	259
▁permissible	259
▁Six	259
▁anticipation	259
▁phases	259
▁conceived	259
▁annexed	259
▁compromised	259
▁Front	259
▁throwing	259
▁Hans	259
▁Edinburgh	259
▁diversify	259
▁Habsburg	259
▁prohibits	259
▁Laos	258
▁Maij	258
▁failings	258
▁hormones	258
▁isolate	258
▁overhaul	258
▁waterway	258
▁magnitude	258
▁Being	258
▁revive	258
▁mandates	258
▁critically	258
▁grip	258
▁Eritrea	258
▁conception	258
▁finishing	257
▁instrumental	257
carbon	257
▁interpreting	257
▁incoming	257
▁closures	257
▁crystal	257
▁da	257
▁specifies	257
▁settling	257
▁thereof	257
▁waged	257
▁Dupuis	257
tat	257
▁ENP	257
▁indiscriminate	256
▁nominal	256
▁Ambassador	256
▁workings	256
▁presumably	256
▁slaughtered	256
▁carcinogenic	256
▁civilisations	256
▁presupposes	256
▁governmental	255
▁discharges	255
▁officer	255
▁Recovery	255
▁recovered	255
sessions	255
▁strategically	255
▁deletion	255
products	255
▁transposing	255
▁bills	255
▁wife	255
▁Tobin	255
ill	255
▁substitution	255
▁Cunha	255
▁revolutionary	255
▁sorted	255
▁shocks	255
▁tailored	255
▁fruits	255
▁happily	255
▁stretch	255
▁rebate	255
▁reproduction	255
active	254
▁Govern	254
▁Franco	254
▁monthly	254
▁Operation	254
▁assumes	254
▁fingerprints	254
▁populist	254
▁laboratories	254
▁mainstream	254
▁eggs	254
▁appointing	254
▁tropical	253
▁Tax	253
▁standstill	253
▁astonishing	253
▁hake	253
▁Sepp	253
▁Review	253
▁artificially	253
founded	253
▁mercy	253
▁definitively	253
▁mood	253
▁formalities	253
▁freed	253
▁Leon	253
▁clashes	253
be	253
▁authorisations	253
mongst	252
China	252
▁lying	252
isa	252
ization	252
▁pattern	252
▁unfavourable	252
▁Journal	252
ø	252
round	252
▁accusation	251
▁abilities	251
▁divergent	251
▁sun	251
dvisory	251
▁wip	251
▁infectious	251
▁perceive	251
▁sharply	251
▁Alps	251
Ö	251
▁angle	251
▁provocation	251
▁Animal	251
▁TEN	251
▁handing	251
▁foresee	250
▁Nazi	250
▁matches	250
▁Munich	250
▁inalienable	250
▁dealers	250
▁pool	250
▁converted	250
▁continual	250
▁Weber	250
▁Liese	250
▁corrective	250
▁subordinate	250
▁disrupt	250
▁exempted	249
▁constructing	249
▁calculating	249
▁Implementation	249
▁unrestricted	249
▁clearance	249
▁facilitates	249
▁colour	249
▁pronounced	249
▁Baghdad	249
▁comfort	248
▁Duff	248
▁Ocean	248
▁Simpson	248
▁dissidents	248
▁passion	248
▁evolving	248
▁cluster	248
w	248
▁ears	248
▁opting	248
▁ceremony	248
▁counteract	248
▁Colombian	248
▁sterling	247
▁suspending	247
▁tanks	247
▁municipalities	247
▁misused	247
▁emotion	247
▁wasting	247
▁infringed	247
▁Maaten	247
▁progressed	247
▁abstaining	247
▁Uganda	247
▁offenders	247
▁scarce	247
▁improper	246
▁appropriation	246
▁expired	246
▁Goebbels	246
military	246
▁invaluable	246
▁powerless	246
▁b	246
▁WEU	246
▁eradicating	246
▁owned	246
▁Drug	246
▁evolve	246
ri	245
ten	245
▁formerly	245
▁earthquakes	245
▁apologies	245
▁hostages	245
▁groupings	245
▁stagnation	245
▁rumours	245
▁strengths	245
▁forceful	245
polluter	245
▁illusions	245
▁umbrella	245
▁communism	244
▁beet	244
▁custody	244
▁Libyan	244
▁waited	244
▁polluted	244
▁Nicholson	244
▁correlation	244
▁nutritional	244
▁campaigning	244
▁tie	244
▁totalitarianism	244
▁signatory	244
▁delegates	244
▁Pakistani	244
▁row	244
Á	243
generation	243
▁Turks	243
▁inflicted	243
▁outbreaks	243
▁Flynn	243
▁Arms	243
▁Unemployment	243
▁ecologically	243
▁varieties	243
▁Staes	243
▁xenophobic	243
▁Times	243
▁fats	243
▁disparity	243
▁Statement	243
▁excludes	243
▁relieve	243
▁Platform	243
▁provoked	242
æ	242
▁ERDF	242
▁abstract	242
ld	242
▁surrounded	242
▁criminality	242
▁Negotiations	242
ists	242
▁prestige	242
▁chains	242
taking	242
▁remembering	242
▁auditors	242
▁Sellafield	241
▁metals	241
▁reside	241
▁flat	241
▁irregular	241
▁Giscard	241
▁Guidelines	241
▁codification	241
cost	241
▁turnout	241
▁deteriorated	241
▁documented	241
type	241
▁distributors	241
▁reassuring	241
▁contend	241
▁Mechanism	241
▁Tomlinson	241
▁Wurtz	240
▁rounds	240
▁bluefin	240
▁Wise	240
▁apparatus	240
▁commonly	240
▁Africans	240
▁spectacular	240
▁Buzek	240
▁Conventions	240
▁astonished	240
▁FAO	240
▁repeal	240
▁counted	240
▁confess	240
▁Eurocontrol	239
nsch	239
▁dominate	239
▁brilliant	239
alencia	239
▁ferry	239
back	239
▁consequent	239
▁annexes	239
▁mess	239
▁minimis	239
▁nationally	239
▁accuracy	239
▁Peijs	238
▁argues	238
▁ample	238
▁disclosure	238
▁residing	238
▁accounted	238
▁Fraga	238
▁Whereas	238
▁relies	238
tech	238
▁circumvent	238
▁Making	238
▁seasonal	238
▁gangs	238
▁Solbes	238
▁cornerstones	238
▁connect	237
▁interrupted	237
▁tired	237
▁lobbies	237
▁recording	237
▁Jensen	237
▁Eurobarometer	237
▁Marco	237
▁Fava	237
▁rendered	237
uaestors	237
▁carrier	237
▁hauliers	237
▁permitting	236
▁rebels	236
▁liberation	236
▁Department	236
▁Capital	236
▁semi	236
▁influential	236
▁flourish	236
▁Belder	236
▁layer	236
▁diplomas	236
▁reactionary	236
ller	236
▁reacting	236
▁broadcasters	236
▁roaming	236
▁rectified	236
▁constituted	236
▁specifying	236
▁haulage	236
▁MEDIA	236
▁acquiring	235
▁Tannock	235
▁underground	235
▁invoked	235
▁unwanted	235
▁ruin	235
▁endeavoured	235
▁slave	235
▁commissioner	235
▁doubling	235
▁residues	235
▁avian	235
arela	235
▁offshore	234
▁reassured	234
▁commence	234
▁devising	234
In	234
▁logistical	234
▁prosecuted	234
▁endorsing	234
▁Tibetans	234
▁discards	234
▁Generally	234
▁Representatives	234
▁dismiss	234
▁logically	234
▁transplantation	234
▁complaining	234
▁forbidden	234
▁inconsistencies	233
▁announcing	233
▁recast	233
▁dozen	233
longside	233
▁systemic	233
IS	233
▁sat	233
aladministration	233
▁EEAS	233
▁biogas	233
▁amazed	233
sector	233
▁flee	233
▁reorganisation	233
▁oceans	233
ling	233
▁oldest	233
▁lodged	233
▁abstention	233
▁supervise	233
saving	232
Alba	232
▁subsidise	232
▁embassies	232
▁collapsed	232
▁caring	232
▁horrendous	232
▁Genoa	232
▁se	232
▁Thyssen	232
▁exhaust	232
▁Galeote	232
▁Istanbul	232
▁enacted	232
▁inflexible	232
▁henceforth	232
um	232
▁cry	231
ups	231
▁bind	231
▁flexicurity	231
▁teeth	231
▁mafia	231
R	231
▁Alavanos	231
ies	231
▁clarifications	231
▁intending	231
▁Nord	231
▁Markov	231
▁matched	231
▁haste	230
▁hate	230
▁Holland	230
▁advisers	230
▁Busquin	230
▁compiled	230
▁video	230
▁cutbacks	230
▁contexts	230
▁Lucas	230
▁collaborate	230
▁MPs	230
▁tolls	230
▁sympathetic	230
▁comfortable	230
▁commensurate	230
▁flagship	230
▁cooperated	229
▁geographically	229
▁requisite	229
▁TENs	229
▁needing	229
▁dirty	229
▁Administrative	229
▁Diamantopoulou	229
”	229
▁Pope	229
▁Schmidt	229
▁hormone	229
▁compel	229
▁exile	229
▁vigour	229
▁Madagascar	229
▁broadest	229
nterim	229
▁Scandinavian	229
▁Uruguay	229
▁verified	229
▁Works	229
▁reconciled	229
▁attentive	229
▁cinema	229
▁diminish	229
▁falsified	228
▁prejudices	228
▁Gaddafi	228
▁Chichester	228
il	228
ultiannual	228
▁presidents	228
▁scrap	228
umanitarian	228
▁alliances	228
▁golden	228
▁Had	228
▁enrichment	228
▁exchanged	228
▁Brittan	228
▁underpinning	228
▁inconceivable	228
Rapporteur	228
▁bone	228
▁Pensioners	228
▁Italians	227
▁oppressed	227
▁notify	227
▁dire	227
▁superstate	227
▁unbalanced	227
▁son	227
▁constituencies	227
▁unpaid	227
▁excesses	227
▁mediator	227
▁bar	227
▁insecure	226
▁ceased	226
▁Katiforis	226
▁Piebalgs	226
▁laboratory	226
▁timescale	226
▁Warsaw	226
▁Nigerian	226
ov	226
▁protesting	226
▁employability	226
▁utilised	226
▁misguided	226
▁headlines	226
▁expose	226
▁quoting	226
▁bounds	226
▁jeopardised	226
▁differentiate	226
▁utilise	226
▁contest	226
el	226
▁actor	226
▁Gollnisch	226
▁persistence	226
▁adjusting	226
▁harbour	226
▁nominated	225
▁interdependence	225
▁finalise	225
▁superpower	225
election	225
commercial	225
▁cadmium	225
▁Peter	225
▁homosexual	225
▁Out	225
▁Renault	225
▁accuse	225
▁restricts	225
rez	225
▁printed	225
▁predecessors	225
▁physically	225
▁morally	224
▁sensibly	224
▁unquestionably	224
▁confronting	224
▁alas	224
▁flesh	224
▁Morgan	224
▁aspiration	224
▁McCarthy	224
▁accomplish	224
▁manages	224
II	224
▁breath	224
III	224
▁biased	224
▁divorce	224
▁evade	224
▁levies	224
▁EBRD	224
▁intervened	223
▁widest	223
ez	223
)(	223
▁vertical	223
▁teacher	223
▁dictatorial	223
like	223
▁Was	223
▁conceivable	223
▁horizon	223
▁variable	223
▁lots	223
▁warrants	223
▁revival	222
▁naive	222
▁Lambert	222
▁simultaneous	222
ssel	222
▁rain	222
▁entrust	222
▁Interior	222
▁undue	222
▁rewarded	222
▁conveyed	222
▁gift	222
stop	222
▁Brenner	222
▁raft	222
▁decree	222
development	222
▁underpinned	222
az	222
▁manifest	222
▁clarifies	222
▁salute	222
▁Independence	222
▁administer	222
ging	222
▁Earth	222
▁Look	221
▁mineral	221
▁efficacy	221
▁disagreements	221
▁nationalities	221
▁UNESCO	221
avier	221
▁pesticide	221
▁speculators	221
▁invention	221
▁rightful	221
▁Perry	221
▁majorities	221
▁Latvian	221
▁justifiably	221
▁Guantanamo	220
▁handful	220
technological	220
dragging	220
▁magic	220
un	220
▁slip	220
▁enlarging	220
▁practicable	220
▁courtesy	220
▁proceeded	220
▁Gallagher	220
▁Channel	220
funded	220
▁Linkohr	220
▁Ottawa	220
▁Maes	220
▁pipelines	220
▁tyres	220
▁nurses	220
▁Stand	220
▁boards	219
defined	219
▁spiritual	219
enthusiastically	219
▁harvest	219
▁solemn	219
▁infringe	219
▁posted	219
▁lax	219
▁widen	219
▁rotation	219
▁taboo	219
▁wearing	219
▁experimental	219
▁appraisal	219
▁aegis	219
▁depriv	219
interest	219
binding	219
▁retailers	219
▁detract	219
▁embarrassing	219
oluntary	219
▁mindful	219
▁Already	219
▁celebration	219
▁disputed	219
run	219
win	218
▁outlining	218
Estaing	218
▁Caudron	218
▁Abu	218
▁intermediaries	218
▁c	218
▁filling	218
▁perverse	218
▁unforeseen	218
▁Tajikistan	218
▁Rapporteur	218
▁brand	218
▁dogma	218
▁defends	218
▁trample	218
▁Brazilian	217
▁monitors	217
▁Schuman	217
▁alignment	217
▁enhancement	217
▁comparisons	217
▁hectare	217
▁ICAO	217
▁defeated	217
▁disappearing	217
▁Romano	217
▁notorious	217
▁desires	217
▁achieves	217
▁appreciates	217
▁loyal	217
▁sweeping	217
▁intact	217
▁applauded	217
▁Abbas	217
▁unpunished	217
▁INTERREG	217
▁Eurogroup	217
tariff	217
▁stereotypes	217
▁spokesman	217
▁downturn	216
sufficiency	216
▁Thors	216
Å	216
▁Anna	216
▁costing	216
sufficient	216
▁translations	216
▁revealing	216
ment	216
▁equals	216
▁weighting	216
▁Sacconi	216
cut	216
▁degrading	216
▁blank	216
▁FP	216
▁observatory	216
▁vein	216
▁reviews	216
▁boys	215
▁admire	215
▁mortgage	215
▁measurement	215
▁Essen	215
j	215
▁lawful	215
▁drama	215
▁Us	215
▁Senegal	215
▁Kabul	215
▁environments	215
SMEs	215
▁earnings	215
▁Flanders	215
▁Cappato	215
▁unbundling	215
▁enquiry	215
Atlantic	215
▁childhood	215
▁percentages	215
▁opposes	215
ealand	215
▁expires	215
▁Especially	215
▁stolen	214
▁compliments	214
▁designations	214
▁kindly	214
▁hampered	214
▁Ribeiro	214
seekers	214
▁vicinity	214
▁pressed	214
government	214
▁peer	214
▁catering	214
▁liberalism	214
▁properties	214
▁na	214
▁opium	214
▁hanging	213
▁accords	213
▁Bertens	213
▁Eurobonds	213
▁marketplace	213
▁marriages	213
▁endure	213
▁utter	213
▁convenient	213
▁provinces	213
▁motorway	213
▁loses	213
▁arable	213
▁Lagendijk	213
▁Strategic	213
▁accumulated	213
▁breached	213
ending	213
▁maps	212
▁persists	212
rm	212
▁importation	212
▁Precisely	212
▁remainder	212
▁marginalisation	212
▁Schmid	212
▁custom	212
▁attributable	212
▁potato	212
▁Borders	212
▁correspondence	212
▁prescription	212
▁pioneering	212
west	212
Mr	212
▁veritable	212
sea	212
▁provoke	212
▁Budapest	212
▁LEADER	212
▁stream	212
driven	211
▁attained	211
▁prolonged	211
▁unfairly	211
▁bottlenecks	211
▁Respect	211
▁prisoner	211
land	211
▁Ramos	211
▁complicity	211
▁sufferers	211
▁wear	211
Proliferation	211
▁calculate	211
▁clock	211
terrorist	211
▁suffrage	211
▁communicating	210
▁encompasses	210
▁atypical	210
▁compounds	210
▁Rossa	210
▁Transnistria	210
side	210
▁fierce	210
▁unscrupulous	210
▁ambassador	210
▁Orden	210
▁Andersson	210
▁prosecute	210
▁Coordination	210
rs	210
▁portion	209
▁rejoice	209
EGF	209
▁Turmes	209
▁severity	209
American	209
▁parity	209
▁halfway	209
▁accumulation	209
▁centred	209
▁guilt	209
▁hole	209
▁bees	209
▁admissible	209
▁scrutinise	209
rapporteur	209
▁deputy	209
▁treats	209
third	209
▁meagre	209
▁tenders	208
▁Reference	208
ul	208
▁relocate	208
▁consular	208
▁uniformity	208
▁praised	208
egislative	208
▁recalling	208
▁simplistic	208
▁Figueiredo	208
▁Opel	208
▁twofold	208
▁holder	208
▁entitlement	208
green	208
▁blamed	208
▁inconsistency	208
▁harmonize	208
▁streamlining	207
▁regulates	207
▁Kauppi	207
▁Mov	207
▁realistically	207
▁bizarre	207
▁liberals	207
me	207
▁Nowadays	207
▁Fair	207
▁random	207
▁crux	207
▁Ahern	207
▁opportune	207
▁attracting	207
▁ITER	207
▁fled	207
▁outrage	207
▁speeded	207
▁preceding	207
▁embryo	207
▁resorting	206
▁cruelty	206
▁Lakes	206
▁faithful	206
▁MAI	206
▁organize	206
▁determines	206
▁TRIPS	206
▁fourthly	206
▁advent	206
J	206
▁passionate	206
▁Frankly	206
▁boxes	206
▁dating	206
▁overlap	206
▁inherited	205
▁Lynne	205
▁combustion	205
▁fur	205
▁Honduras	205
▁satisfying	205
▁rebel	205
▁Hitler	205
▁kick	205
▁counterpart	205
examine	205
▁extract	205
▁Facility	205
▁unsuccessful	205
▁technique	205
▁distorting	205
▁atomic	205
▁chicken	205
▁SA	205
▁cheque	205
▁Situation	205
▁wholehearted	205
▁enforceable	205
▁symptoms	205
▁brink	205
▁sleep	205
▁unambiguously	205
pez	204
▁babies	204
▁colours	204
▁externally	204
▁EAGGF	204
▁bread	204
▁corps	204
▁Colom	204
▁toward	204
▁embarking	204
▁ACTA	204
▁EIT	204
▁superior	204
▁Thomas	204
▁shipments	204
▁educate	204
▁adequacy	204
▁agent	204
▁Miert	204
▁undeniably	204
▁Pinochet	204
▁Catalan	204
▁jungle	204
▁Congratulations	204
▁Often	204
▁fourteen	203
▁contemplate	203
▁culturally	203
▁Echelon	203
▁terminology	203
▁Heading	203
▁dismantled	203
▁federalism	203
▁measurable	203
▁Manuel	203
▁footwear	203
▁ambassadors	203
▁Garriga	203
▁downward	203
▁Montreal	203
▁Particular	203
▁spared	203
▁insufficiently	203
▁revisit	203
▁homophobia	203
▁accelerating	203
▁recreational	203
▁appliances	203
▁discovery	203
▁unitary	203
▁broadening	202
▁Adam	202
▁distrust	202
▁retraining	202
▁skin	202
▁glaring	202
▁prudence	202
▁primacy	202
▁federation	202
▁imagined	202
▁emotions	202
▁tolerant	202
business	202
▁tanker	202
▁URBAN	202
▁residential	202
▁untenable	202
▁shoulders	201
▁denies	201
▁lip	201
▁scenes	201
▁motivate	201
▁objectivity	201
▁Hezbollah	201
▁succession	201
▁ride	201
▁Watts	201
▁calmly	201
▁Waste	201
▁drag	201
▁concentrates	201
▁prerogative	201
▁ran	200
▁wheat	200
▁Rhine	200
▁district	200
▁suspicions	200
▁dynamics	200
▁respectful	200
▁phones	200
z	200
▁g	200
▁cr	200
▁wing	200
▁tree	200
▁omitted	200
▁triangle	200
▁Christianity	200
▁smokers	200
▁oils	200
▁Casaca	200
nd	200
▁lapses	200
▁doomed	200
▁deferred	200
▁suits	200
▁recovering	200
▁brutally	200
▁eighteen	200
▁beaten	200
▁dust	200
▁additionality	200
▁reversal	199
▁parent	199
service	199
▁homeless	199
▁storms	199
▁sentiment	199
water	199
▁holistic	199
▁mainland	199
▁Wijsenbeek	199
▁delegate	199
▁Army	199
▁empire	199
▁bail	199
▁hazards	199
▁Observatory	199
▁Campania	199
▁complained	199
▁inefficiency	199
▁watched	199
Semitism	199
▁del	199
▁Papayannakis	199
▁concise	199
▁Bonde	199
▁streamline	199
▁wholesale	199
▁precision	199
▁armaments	199
▁Karl	199
▁axis	198
▁shoes	198
▁admirable	198
▁Point	198
▁amounted	198
▁intensification	198
▁daughter	198
▁healthier	198
▁recognizes	198
▁handicaps	198
▁fauna	198
▁COP	198
▁bury	198
▁stoning	198
▁tandem	198
▁shaped	198
men	198
▁ocean	198
▁Fukushima	198
▁invoke	198
▁reiterating	198
▁ante	198
▁march	198
▁abduction	198
▁geography	197
ta	197
▁frustrated	197
▁Grosch	197
▁curtail	197
▁hardship	197
▁declined	197
▁unanswered	197
▁swept	197
mentioned	197
employment	197
▁resigned	197
▁Purvis	197
▁employs	197
▁Kohl	197
▁feedback	197
▁weekly	197
▁invented	197
▁motive	197
izing	197
▁MacCormick	197
▁vodka	197
▁Immigration	196
▁troubled	196
▁Roman	196
▁Iron	196
▁cyanide	196
nder	196
▁variations	196
▁impartiality	196
▁EFD	196
▁aeroplanes	196
▁steering	196
▁punishing	196
▁gentleman	196
▁shorten	196
▁bovine	196
▁outgoing	196
▁density	196
▁Duma	196
▁conversations	196
▁eager	196
▁hesitant	196
ng	196
▁tendering	196
public	196
▁democratization	196
▁exporter	195
▁Naples	195
▁equation	195
▁thirteen	195
▁renounce	195
▁yardstick	195
▁UKIP	195
▁harmonized	195
▁Pursu	195
▁Togo	195
▁foc	195
▁pause	195
▁enrich	195
▁bee	195
▁phthalates	195
▁reprehensible	195
ß	195
▁exacerbat	195
▁bird	195
▁casualties	195
▁Eurovignette	195
▁Spencer	195
▁corridor	195
▁literature	195
▁lifetime	194
distance	194
▁terribly	194
▁rooms	194
▁paternity	194
eastern	194
▁additions	194
▁Steel	194
▁realm	194
▁democrat	194
▁influencing	194
▁convened	194
▁Roure	194
▁Iraqis	194
profit	194
▁yields	194
▁originate	194
▁pivotal	194
▁deportation	194
▁interrupt	194
▁Gargani	193
▁competitions	193
▁populism	193
▁tunnels	193
▁Undertaking	193
▁diminishing	193
▁diminished	193
▁excuses	193
▁index	193
▁pessimistic	193
▁Macao	193
he	193
▁Davies	193
▁intermodal	193
▁slots	193
▁combines	193
eld	193
▁disorders	193
▁divergence	192
▁behaving	192
▁comprise	192
▁elementary	192
▁prescribe	192
▁prevalent	192
▁posting	192
▁inserted	192
▁avoidance	192
▁avoids	192
erification	192
▁elapsed	192
▁ironic	192
▁trades	192
▁Coal	192
▁supermarkets	192
▁shifted	192
▁jeopardy	192
▁flaws	192
▁punishable	192
▁defender	192
▁grows	192
▁abducted	192
▁bond	192
▁bureaucrats	192
co	192
▁buried	191
▁James	191
▁assault	191
▁philosophical	191
▁networking	191
▁contravention	191
▁recipe	191
▁commenting	191
▁Large	191
▁align	191
▁unites	191
▁illiteracy	191
▁professionalism	191
▁distressing	191
▁Mexican	191
▁Still	191
ver	191
▁discusses	191
▁bogg	191
▁Blak	191
▁withstand	191
▁paralysis	191
▁factions	191
▁resisted	191
catch	191
▁chairing	191
▁Decisions	191
▁Deprez	191
▁Stalin	190
▁Biarritz	190
▁spends	190
▁Kroes	190
▁dispel	190
existence	190
▁planes	190
▁scratch	190
▁accustomed	190
▁underlining	190
▁businessmen	190
▁spatial	190
▁hasty	190
▁deter	190
competitive	190
ietnamese	190
▁Discussion	190
▁obstruct	190
▁devastation	190
▁Increasing	190
▁summ	190
institutional	190
▁Schmitt	190
▁appealed	190
▁entitlements	190
▁Karamanou	190
versus	190
▁Instance	189
£	189
▁crossed	189
▁y	189
▁regretted	189
▁parliamentarian	189
▁tense	189
▁feeds	189
▁Paasilinna	189
▁escaped	189
▁Current	189
▁inventory	189
▁judging	189
ise	189
▁oversee	189
▁shake	189
▁sensitivities	189
stay	189
▁outweigh	189
▁complications	189
▁Tindemans	189
▁sympathise	189
▁impede	189
▁provocative	189
▁Bos	189
▁madness	189
▁fastest	189
▁remedied	189
▁Weiler	189
▁compromising	189
▁catastrophes	189
▁tractors	188
▁joke	188
▁coastline	188
▁recycled	188
▁deadly	188
▁hell	188
▁Sarajevo	188
▁Greeks	188
▁scant	188
▁Space	188
▁cultivated	188
▁Confederation	188
▁arts	188
▁inadequacy	188
▁bi	188
▁nightmare	188
▁circulating	188
▁hindered	188
▁guise	188
derman	187
▁nitrates	187
▁emigration	187
▁shield	187
▁assumptions	187
▁selecting	187
▁spirits	187
▁transcend	187
▁deserved	187
▁fortress	187
▁ECJ	187
▁timid	187
▁leeway	187
▁pluralist	187
▁authoritative	187
▁suspicious	187
▁intensifying	187
▁IAEA	187
Article	187
▁Andean	187
▁dissent	187
▁lucrative	187
▁economical	187
▁clever	186
that	186
▁upgrade	186
▁legislating	186
▁Subcommittee	186
▁anticipating	186
nuclear	186
▁Cresson	186
▁Troika	186
▁bolster	186
▁consign	186
▁optimal	186
▁Monterrey	186
▁cement	186
▁Languages	186
▁Fabre	186
▁Disease	186
▁ombudsman	186
▁Beyond	186
▁regulator	186
uality	186
▁GNI	186
▁midnight	186
▁unhealthy	186
▁defer	186
▁amazing	186
▁void	186
ch	185
▁enriched	185
▁peculiar	185
▁Immunities	185
▁revert	185
▁Naval	185
▁hostilities	185
▁irrational	185
▁ICC	185
▁carers	185
▁dictates	185
▁taxed	185
▁Euromed	185
▁Morgantini	185
Aubrespy	185
▁ministries	185
▁cessation	185
▁ideally	185
▁loved	185
▁lady	185
not	185
▁unwillingness	185
▁cycles	185
▁tissues	185
▁probability	185
▁endangering	185
▁Muscardini	185
▁convene	184
▁versa	184
▁NUTS	184
▁Refugee	184
▁Lalumi	184
▁preparedness	184
▁underdeveloped	184
informed	184
Robles	184
▁renovation	184
▁rotat	184
▁jail	184
▁Liechtenstein	184
▁commended	184
▁Pronk	184
▁DNA	184
▁Developing	184
▁Ban	184
▁insert	184
▁weakens	184
▁Ch	184
▁tailor	184
▁egg	183
▁unbridled	183
▁Curtain	183
▁talent	183
▁avert	183
▁disseminate	183
legislative	183
▁explored	183
▁reimbursed	183
ski	183
▁fundamentalists	183
▁Companies	183
▁Equator	183
▁picked	183
▁cap	183
▁reopening	183
▁genes	183
▁superficial	183
▁purchased	183
▁extinction	183
▁Fiji	183
▁Cameroon	183
▁Congolese	183
▁hotel	183
▁omissions	183
▁complements	183
▁grid	183
end	183
▁missile	183
▁prioritising	183
▁destroys	183
▁sanitation	182
step	182
▁nitrogen	182
▁sinking	182
▁myth	182
▁carpet	182
▁Estonian	182
▁Diamandouros	182
▁dementia	182
with	182
▁Frankfurt	182
▁unqualified	182
▁fortune	182
▁Banotti	182
▁sine	182
▁qua	182
▁respectable	182
▁Migu	182
▁Plus	182
▁traded	182
▁pragmatism	182
▁Norwegian	182
▁epidemics	182
▁Burg	182
▁sizes	182
more	182
▁Read	182
▁Smet	182
▁beauty	182
▁crazy	182
ojvodina	181
▁Meeting	181
▁eastward	181
▁destabilising	181
▁IRA	181
▁analytical	181
▁borrowing	181
▁interconnected	181
▁multicultural	181
▁tide	181
▁abstentions	181
▁rationalisation	181
fraud	181
▁arbitration	181
▁statutes	181
▁credentials	181
▁device	181
▁visions	181
▁subsidising	181
▁presume	181
▁Schnellhardt	181
▁NAFO	181
▁wipe	181
▁cyber	181
▁restate	181
▁productions	181
▁shortfall	181
▁quorum	181
▁enact	181
attached	180
▁Serb	180
▁depressing	180
▁guarantor	180
▁patentability	180
▁Saint	180
▁hazard	180
compulsory	180
▁republics	180
▁sparsely	180
▁Thousands	180
▁expire	180
▁compound	180
▁Taoiseach	180
▁unjustifiable	180
▁indisputable	180
▁relax	180
▁frequencies	180
Palestinian	180
▁arrogant	180
citizens	180
▁overwhelmingly	180
▁telecoms	180
▁minerals	180
▁lag	180
▁sacred	180
▁justifying	180
▁resounding	180
▁Tehran	180
taining	180
▁Local	179
▁retreat	179
▁probable	179
▁misunderstood	179
▁Miranda	179
▁distinguishing	179
▁avenues	179
▁Campos	179
▁battles	179
Member	179
▁transmit	179
▁segregation	179
▁tour	179
▁Order	179
▁loophole	179
▁ferries	179
▁Catalonia	179
▁divides	179
▁trivial	179
▁redouble	179
▁noticeable	179
▁Cabrol	179
▁contributor	179
▁Ferreira	179
▁loyalty	179
red	179
▁indebted	179
▁load	178
▁overturn	178
▁containers	178
▁manipulated	178
▁lightly	178
▁therapy	178
▁cheaply	178
▁pharmaceuticals	178
▁headline	178
▁interregional	178
▁satisfies	178
ci	178
▁Ben	178
▁distinctive	178
handling	178
▁atmospheric	178
▁triumph	178
▁periodic	178
▁Stevenson	178
▁plastic	177
▁Directorates	177
▁memories	177
▁potatoes	177
▁cartels	177
▁Legislation	177
▁volatile	177
▁lunch	177
▁conversation	177
▁lucky	177
▁Schwaiger	177
▁Emissions	177
▁liquid	177
▁modernised	177
▁economists	177
▁despicable	177
▁obey	177
▁viewpoints	177
▁volunteering	177
▁crossroads	177
▁reiterates	177
▁EPLP	176
▁succeeding	176
▁Pre	176
▁Tobacco	176
▁testify	176
▁Moura	176
▁Go	176
▁Ceders	176
▁consciences	176
▁criticized	176
▁thin	176
▁disregarding	176
▁cogeneration	176
Bissau	176
▁Polo	176
▁reasoned	176
▁humiliating	176
▁drafts	176
▁lever	176
▁Richard	176
SEC	176
▁remarkably	176
▁flora	176
▁testimony	176
▁possesses	176
▁bombings	176
▁supervising	175
▁Proposal	175
▁addicts	175
▁twentieth	175
▁Rapid	175
▁predictability	175
▁Borrell	175
▁fever	175
▁announcements	175
▁Pan	175
▁eighth	175
▁River	175
▁hindering	175
▁delight	175
▁rock	175
▁Olympics	175
▁alarmed	175
German	175
▁obsession	175
▁recruit	175
▁Bjerregaard	175
It	175
▁EEA	175
▁champions	175
▁easing	175
▁dated	175
▁insolvency	175
▁starvation	175
▁sadness	175
▁correctness	175
▁Migration	175
▁attentively	175
▁tyranny	175
ol	175
▁munitions	175
▁Earlier	174
▁advancement	174
▁Maria	174
▁concealed	174
▁pulling	174
▁frightening	174
egardless	174
▁Essentially	174
▁Marques	174
▁Michael	174
▁dishonest	174
▁forged	174
African	174
▁punitive	174
aw	174
▁petty	174
non	174
▁inconvenience	174
▁comparing	174
▁immune	174
▁Product	174
inci	174
▁uniformly	174
▁spotlight	174
▁brother	174
▁Panel	173
▁Camp	173
member	173
▁hostility	173
▁advertisements	173
▁Silva	173
▁synonymous	173
▁Rack	173
tre	173
▁Ma	173
▁implied	173
▁Bill	173
▁upwards	173
▁reproach	173
▁portfolios	173
▁installed	173
ian	173
▁waive	173
▁Reduc	173
▁fitted	173
▁dissatisfied	173
▁Oreja	173
▁harness	173
▁blatantly	173
▁charity	173
▁dogs	173
ncreased	173
▁locked	173
▁envelope	173
▁diabetes	173
▁lapse	172
▁mountainous	172
▁screen	172
▁Torres	172
▁wounded	172
▁fodder	172
▁flexibly	172
▁districts	172
▁Studies	172
▁Souchet	172
▁Near	172
▁separating	172
▁hungry	172
▁sustaining	172
▁slowdown	172
▁Nicaragua	172
▁destabilise	172
▁resistant	172
▁Tillich	172
▁paramilitary	172
euro	172
CAP	172
▁immoral	172
▁sailing	172
▁Specific	172
▁Militar	172
▁perseverance	172
▁panacea	172
ro	172
▁eagerly	171
▁usage	171
▁practitioners	171
▁bloodshed	171
▁authorization	171
▁tar	171
▁quantified	171
▁penalising	171
▁aroused	171
▁centralisation	171
▁unionists	171
▁optimise	171
▁arbitrarily	171
▁concede	171
▁pleasing	171
▁Railway	171
▁Products	170
▁Moscovici	170
▁imperialism	170
▁enhances	170
▁Never	170
▁greet	170
▁Rothe	170
ef	170
▁Everybody	170
▁contravene	170
▁immensely	170
industrial	170
▁colonies	170
▁overarching	170
▁morality	170
▁frustrating	170
▁brake	170
▁stemming	170
▁devot	170
▁Improvement	170
▁multitude	170
▁uniting	170
▁EPA	170
▁Back	170
▁Long	170
▁cynicism	170
▁recurring	170
▁Coming	170
▁angry	170
eye	170
▁prudential	169
▁proteins	169
▁Chilean	169
W	169
▁stalemate	169
▁uprising	169
▁specially	169
▁dog	169
aeda	169
house	169
care	169
▁cooperatives	169
▁skies	169
▁satellites	169
▁Polledo	169
▁negotiator	169
▁absorbed	169
▁endocrine	169
▁tenacity	169
▁beat	169
ries	169
▁succeeds	169
▁paved	169
▁Horn	169
enterprises	169
▁equivalence	169
▁LDCs	169
▁kills	169
▁harmless	169
ak	169
▁SLIM	168
));	168
▁influences	168
▁Jim	168
▁mitigation	168
▁engineers	168
▁Major	168
▁Improving	168
▁Spinelli	168
half	168
▁married	168
▁withholding	168
▁virtues	168
▁distorts	168
▁delivers	168
▁loose	168
▁recalls	168
open	168
▁readings	168
▁humiliation	168
▁therein	168
▁eroded	168
▁crown	168
▁murderers	168
▁Anything	168
▁deteriorate	168
▁Learning	168
▁prominence	168
▁EMAS	168
ć	168
▁disciplines	167
▁Moldovan	167
▁farce	167
▁McNally	167
▁pseudo	167
▁PKK	167
functioning	167
za	167
▁planting	167
▁summarised	167
▁neglecting	167
you	167
▁Brown	167
working	167
▁remarked	167
ek	167
▁verbal	167
▁entailed	167
▁spaces	167
management	167
▁gay	167
▁tackles	167
▁Forest	167
▁Liberia	167
▁Seychelles	167
▁Plooij	167
▁ambiguities	167
▁fighters	167
▁streamlined	167
▁loading	167
▁chooses	167
▁beverages	166
▁suppressed	166
lvarez	166
▁relaxed	166
▁nickel	166
oggenhuber	166
fold	166
▁pollute	166
▁safest	166
▁Effort	166
▁Securities	166
▁collateral	166
▁evolved	166
▁supervised	166
▁disseminating	166
▁suppress	166
ese	166
▁manpower	166
▁breadth	166
outs	166
▁emphasizes	166
▁till	166
▁rearing	166
▁der	166
▁Pr	166
▁Illegal	166
▁Fishing	166
▁prosecutors	166
▁stark	166
▁Medicines	166
▁innocence	166
▁brutality	166
▁Rojo	166
▁rally	166
▁regeneration	166
▁verge	166
▁Goldstone	165
▁implements	165
▁fanaticism	165
▁injustices	165
▁cheapest	165
▁interception	165
▁Turin	165
▁abusive	165
▁republic	165
▁appalled	165
▁ruined	165
fits	165
▁FTA	165
▁invitations	165
▁Parish	165
▁electors	165
▁parcel	165
▁Cambodian	165
▁destinations	165
▁flourishing	165
ory	165
▁acid	165
▁incitement	165
nik	165
▁horrors	165
▁deriv	165
▁receipt	165
▁Lahti	165
▁starving	165
▁protagonists	165
▁dragg	165
▁chairmanship	165
void	164
▁dedicate	164
▁Phare	164
▁seminars	164
▁prefers	164
Ancona	164
▁shaken	164
▁KLA	164
▁depopulation	164
▁renewing	164
▁unsuitable	164
cultural	164
▁protested	164
▁disturbed	164
▁infections	164
▁Grand	164
▁cabinet	164
ACP	164
▁handicapped	164
▁phrases	164
▁multilingual	164
▁kidnapped	164
▁durable	164
▁needless	164
▁rubbish	164
▁unbelievable	164
▁acceleration	164
▁theft	163
▁Someone	163
▁operative	163
▁Sturdy	163
▁Considering	163
▁Additional	163
▁loudly	163
▁practising	163
▁deposit	163
▁insulting	163
rling	163
▁Miguel	163
▁fruition	163
▁adaptability	163
▁mixture	163
▁regionalisation	163
▁Sharia	163
▁fascinating	163
hearted	163
▁chickens	163
▁accus	163
▁questionnaire	163
▁searching	163
▁tip	163
▁shy	163
▁unwise	163
▁designs	163
▁profiles	163
▁discredit	163
▁Herzog	163
▁reminiscent	162
▁bridging	162
▁obesity	162
▁hurry	162
▁mockery	162
▁diversified	162
▁halted	162
▁biofuel	162
▁cat	162
▁Papua	162
▁reign	162
▁Peres	162
▁pilots	162
fi	162
▁GPS	162
▁rewards	162
irresponsibility	162
ʼ	162
finding	162
▁retired	162
▁incur	162
▁audience	162
▁intermediary	162
▁persuasion	162
▁defenceless	162
ier	162
▁dioxins	162
▁Coast	162
▁EURES	162
▁Tamil	162
▁correcting	162
talling	162
▁certified	162
▁affirmation	162
used	162
▁withdrew	162
▁longest	161
ability	161
▁battery	161
▁behaved	161
▁Sa	161
hull	161
▁cooling	161
▁admitting	161
▁Programmes	161
van	161
▁denouncing	161
▁reaffirms	161
▁Mayor	161
▁creditors	161
▁desert	161
▁theatre	161
▁unconditionally	161
▁cloned	161
▁Holocaust	161
▁Border	161
▁exhibition	161
health	161
▁Ali	161
▁levied	161
▁default	161
ermanent	161
good	161
▁infring	161
▁fascism	160
▁auditor	160
▁vehemently	160
financed	160
▁guards	160
▁builds	160
▁destabilisation	160
▁sacrificing	160
▁reinstate	160
▁Bavaria	160
▁technocratic	160
▁girl	160
▁Neves	160
▁exploring	160
▁converting	160
▁adhering	160
▁joins	160
▁Gra	160
▁apology	160
▁Kremlin	160
▁Integrated	160
ti	160
▁instituted	160
▁differential	160
▁Responsibility	160
▁relaxation	160
▁complemented	160
▁scrapped	160
▁resale	160
ans	160
▁proposition	160
continuation	160
enice	160
▁pains	160
▁Catania	160
▁Oettinger	160
▁presumption	160
▁Leyla	160
▁McCartin	160
▁tragically	160
▁Wolf	160
allelersundi	160
▁halting	160
▁Galician	160
▁ideologies	160
▁Est	160
▁Torture	160
▁wordings	160
▁releasing	160
▁exodus	160
▁peak	160
▁shipyard	159
▁tricky	159
Margallo	159
K	159
▁screens	159
▁uneven	159
▁manifestly	159
▁asserted	159
▁repealing	159
▁salmonella	159
▁shortcoming	159
▁instructed	159
▁pedestrians	159
▁glance	159
▁regularity	159
▁Jeggle	159
▁lump	159
▁universality	159
▁ear	159
▁oneself	159
▁redefine	159
▁Keyser	159
▁contravenes	159
▁vitality	159
▁Radwan	159
▁Eurlings	159
▁indulge	159
▁Gomes	159
▁combatting	159
▁dumped	159
▁Chief	159
▁contacted	159
rrez	159
▁overlapping	158
grass	158
▁disintegration	158
▁Aarhus	158
▁circulated	158
▁torn	158
trafficking	158
art	158
▁enquiries	158
▁inspect	158
▁contention	158
▁susceptible	158
Lisbon	158
▁blacklist	158
▁owes	158
▁underlie	158
▁flax	158
▁Addiction	158
▁patented	158
▁onerous	158
▁landed	158
▁armies	158
ad	158
much	158
irrankoski	157
▁deserving	157
▁junior	157
▁persuading	157
ts	157
▁Porto	157
▁replaces	157
▁cake	157
ł	157
▁multifunctional	157
▁inferior	157
▁EFSA	157
▁missiles	157
▁refund	157
▁Angelilli	157
▁conserve	157
▁Kla	157
▁Macedonian	157
▁apartheid	157
▁Menrad	157
▁anchored	157
▁Conditions	157
▁misled	157
▁reintroduce	157
▁bare	157
▁orderly	157
▁awaited	157
▁struggles	157
▁disorder	157
▁crash	156
▁complacency	156
▁Close	156
▁designate	156
▁warfare	156
▁Appendix	156
▁Bowe	156
▁focussed	156
▁stumbling	156
ė	156
▁disappoint	156
▁derives	156
▁sacrosanct	156
▁purse	156
▁Arias	156
▁examinations	156
▁Important	156
▁copies	156
▁Timorese	156
▁prospective	156
▁unpopular	156
▁sights	156
apatero	156
start	156
▁thanked	156
▁Farage	156
▁dismissal	156
▁futile	156
▁consensual	156
▁Salvador	156
▁comparability	156
▁worsened	156
▁survived	156
▁dogmatic	156
▁reflections	156
▁husband	156
▁inaccurate	156
▁naming	156
▁guests	156
▁Guti	156
▁fatalities	156
▁Stubb	155
▁protracted	155
▁backgrounds	155
▁tread	155
▁mildly	155
▁tracks	155
▁enlightened	155
▁communicable	155
What	155
▁Markets	155
labelling	155
▁fait	155
▁asymmetric	155
▁savage	155
▁Durban	155
▁cowardly	155
▁spade	155
▁allergies	155
▁Renewable	155
▁empowered	155
▁thereafter	155
▁enduring	155
▁handicap	155
▁cater	155
▁Assurance	155
▁understandably	155
▁Anglo	155
▁inaction	155
▁Integration	155
°	155
▁pretending	155
▁wounds	155
▁Charles	154
▁oriented	154
▁unpredictable	154
▁stayed	154
▁publications	154
ting	154
▁freeing	154
▁oppressive	154
▁lowered	154
▁firmness	154
▁Heritage	154
▁sizeable	154
▁hammer	154
▁sorrow	154
▁mayor	154
▁judgements	154
▁overfishing	154
Euro	154
▁Czechs	154
▁Port	154
▁Paulsen	154
ma	154
▁Kreissl	154
rfler	154
▁fullest	154
idal	154
▁directing	154
▁illogical	154
▁confines	154
▁dinner	154
▁interactive	154
▁corporation	154
▁complicate	154
▁crack	154
▁aerospace	154
▁marvellous	153
▁plead	153
▁Ortuondo	153
▁modifying	153
▁hurt	153
▁episode	153
▁Rapkay	153
including	153
▁Additionally	153
▁materialise	153
Matthews	153
▁dominance	153
▁firmer	153
▁mislead	153
▁paralysed	153
hle	153
▁accidental	153
▁Money	153
▁gestures	153
▁geostrategic	153
▁usefully	153
▁broadcasts	153
disciplinary	153
ight	153
reading	153
▁consultants	153
▁Objectives	152
liba	152
▁height	152
▁chaotic	152
▁endemic	152
▁eradicated	152
▁goodness	152
▁doorstep	152
▁Actually	152
▁pursues	152
▁Poos	152
▁Ahtisaari	152
consuming	152
eviating	152
▁provisionally	152
▁Boel	152
▁Watch	152
▁unacceptably	152
▁displaying	152
▁awkward	152
▁compensating	152
legislator	152
▁dispose	152
▁workload	152
▁Marie	152
State	152
▁finalising	152
cutting	152
▁Science	152
post	152
▁allay	152
ca	152
but	152
▁depart	152
▁revitalise	152
▁reassurance	152
▁Whenever	152
▁revenge	152
▁Bahrain	152
$	152
▁indivisible	152
▁commemorate	152
▁Strengthening	152
▁surprises	152
▁proclaim	151
▁grouping	151
▁Interreg	151
▁overshadowed	151
▁sidelined	151
▁implants	151
▁cloud	151
▁partisan	151
▁governs	151
▁diverted	151
▁lacked	151
▁stir	151
▁gauge	151
▁Trafficking	151
▁negatively	151
▁energetic	151
▁synthesis	151
▁Fernandes	151
▁wondered	151
▁compile	151
▁weighed	151
cs	151
▁heaven	151
▁paint	151
rgensen	151
▁investigative	151
▁competencies	151
▁perpetuate	151
▁occurrences	151
▁conclusive	151
▁sham	151
▁deported	151
▁admits	151
▁Myanmar	151
▁trips	151
▁Clear	151
▁f	151
▁Package	151
▁culmination	151
▁Ever	151
▁Gill	151
▁Issues	151
▁promotional	151
▁Tsatsos	151
▁fortnight	151
▁impending	150
▁discretionary	150
▁aggravated	150
▁bankers	150
▁informative	150
▁notions	150
▁diligence	150
▁prosper	150
▁confiscation	150
▁turmoil	150
▁examines	150
▁Credentials	150
▁plurality	150
▁coexist	150
▁abortions	150
▁Imbeni	150
▁federations	150
▁telephones	150
▁incorrectly	150
▁markedly	150
▁fascist	150
▁disturbances	150
▁orientations	150
▁anonymous	150
▁altering	150
▁militias	150
▁willingly	150
▁Remember	150
▁fraction	150
▁electromagneti	150
▁Orthodox	150
▁grew	150
ll	150
▁carte	150
▁unrelated	150
na	150
▁lamentable	150
▁Aelvoet	150
▁petitioners	150
▁criticises	150
▁library	150
▁Mundus	150
▁rushed	150
basing	150
▁Brinkhorst	150
▁Srebrenica	150
▁tactical	149
▁Unit	149
▁modalities	149
▁admissibility	149
▁bids	149
▁Mafia	149
▁reuse	149
▁designing	149
▁rein	149
▁originated	149
human	149
▁Andalusia	149
▁chairs	149
▁subsistence	149
▁Kirkhope	149
▁Trading	149
pe	149
▁strand	149
▁occasional	149
▁Weapons	149
▁prey	149
▁kilometre	149
que	149
▁emphatic	149
▁slaves	149
▁impoverished	149
▁Wiersma	149
▁flame	149
▁escalating	149
▁pulled	149
▁metal	149
▁riots	149
▁activist	149
▁accessions	149
▁broadened	149
▁compelling	149
▁pet	149
▁defective	149
▁l	149
▁organizing	148
▁supermarket	148
▁authorized	148
▁discouraging	148
▁Oil	148
▁redundancy	148
▁commonplace	148
▁Aids	148
▁TACs	148
▁Land	148
▁releases	148
▁lights	148
▁realises	148
▁BBC	148
▁Andr	148
▁flouted	148
▁coping	148
▁centrally	148
utonomous	148
▁horses	148
▁awaits	148
▁dared	148
ritten	148
▁deposits	148
▁brakes	148
▁Gorsel	148
▁outlets	148
▁intervals	148
ida	148
▁sincerity	148
▁Standards	148
▁cabin	147
▁coincides	147
▁ensu	147
▁inseparable	147
▁Piecyk	147
▁hunt	147
▁generously	147
▁brush	147
▁Giansily	147
▁belts	147
▁switching	147
▁bother	147
▁pav	147
▁implication	147
▁manifestation	147
income	147
▁worsen	147
▁overtaken	147
▁Though	147
▁Carlos	147
▁Banks	147
▁Smith	147
▁waging	147
▁ruthless	147
▁deficient	147
▁plutonium	147
▁supplementing	147
▁Commons	147
▁periphery	147
▁umpteenth	147
▁paedophilia	147
▁Ethiopian	147
▁recruited	147
▁consciousness	147
▁creators	147
▁deception	146
▁reprocessing	146
▁trapped	146
▁thorny	146
▁Milan	146
▁alien	146
▁transplant	146
▁grubbing	146
▁editorial	146
▁invisible	146
▁ash	146
▁Schwab	146
▁Canaries	146
▁wonders	146
▁Kiev	146
▁Insurance	146
▁Romanians	146
▁FIFA	146
▁Consensus	146
▁deprivation	146
▁coffers	146
▁reversing	146
▁Kratsa	146
paragraph	146
▁emit	146
▁blocs	146
▁burnt	146
people	146
▁modernization	146
▁defendants	146
▁importer	146
▁wary	146
▁interdependent	145
▁UNICEF	145
▁Redondo	145
abiding	145
▁Payment	145
▁erroneous	145
▁Amend	145
▁hydrocarbons	145
▁consuming	145
▁Private	145
▁bode	145
▁stipulat	145
▁residual	145
▁Memorandum	145
▁multimedia	145
▁seemingly	145
▁incompetence	145
▁confiscated	145
▁relocating	145
▁speeds	145
▁exaggeration	145
peripheral	145
▁calves	145
▁litigation	145
▁simplicity	145
▁Hoppenstedt	145
▁educating	145
▁placement	145
▁Apparently	145
▁Petersberg	145
▁patently	145
▁pooling	145
▁Donnelly	145
represented	145
imbabwean	145
▁Television	145
▁acceded	145
awaited	145
neath	145
▁cancelling	145
▁Governor	145
▁acquainted	144
▁geo	144
▁boom	144
▁sixty	144
connecting	144
▁Na	144
▁prioritised	144
▁ammunition	144
x	144
▁aeroplane	144
▁yielded	144
▁keys	144
▁epidemiological	144
▁adoptions	144
▁Bolivia	144
▁mg	144
▁yearly	144
two	144
▁typically	144
teborg	144
▁Establish	144
▁Failure	144
▁Effective	144
▁sciences	144
▁unworthy	144
▁aligned	144
▁Discrimination	144
▁Islamist	144
only	144
▁ripe	144
▁Louis	144
▁pigmeat	143
▁forcibly	143
▁implicit	143
▁Niebler	143
▁Imagine	143
▁quasi	143
▁disguised	143
▁unwarranted	143
▁Old	143
▁Election	143
▁sorely	143
▁slowing	143
▁prosecuting	143
▁Buttiglione	143
▁stakes	143
▁celebrations	143
▁afflict	143
▁shifts	143
▁fares	143
▁birthday	143
▁Hizbollah	143
▁auction	143
▁shirk	143
origin	143
▁reconstruct	143
▁Kosovar	143
▁fun	143
▁print	143
▁comprehend	142
▁inspected	142
▁Comoros	142
▁pessimism	142
▁abus	142
▁candidacy	142
▁verifiable	142
▁bones	142
▁scanners	142
▁deceive	142
▁adolescents	142
emptive	142
▁murderous	142
▁circulate	142
fly	142
ő	142
▁stateless	142
▁sexually	142
▁nationalistic	142
▁undertakes	142
▁spur	142
environmental	142
▁Kok	142
▁Silguy	142
▁Ghilardotti	142
▁Pi	142
▁registering	142
▁nail	142
▁Mario	142
▁proverb	142
▁intelligently	142
▁precedents	142
▁portal	142
▁rewarding	142
MT	141
▁pot	141
▁implicitly	141
▁Sub	141
▁Lankan	141
▁swine	141
▁Boeing	141
▁activated	141
▁blanket	141
hm	141
▁resisting	141
sex	141
▁bypass	141
▁Mandela	141
▁Macartney	141
▁Dam	141
For	141
▁coercion	141
▁Poto	141
▁Hulten	141
▁Caspian	141
▁heroin	141
▁radicalisation	141
▁disarm	141
▁declares	141
▁Nistic	141
▁Sakellariou	141
▁constraint	141
▁vanguard	141
union	141
▁roof	141
▁Simply	141
▁workplaces	141
▁contested	141
▁imaginative	141
Neyra	141
▁decidedly	141
▁foolish	141
▁proclamation	141
▁bars	141
▁verbatim	141
▁rulers	141
▁graduates	141
▁Motors	141
▁schooling	140
▁Google	140
▁beginnings	140
ine	140
▁attachment	140
▁guess	140
▁About	140
generational	140
▁pious	140
▁adaptations	140
▁Netanyahu	140
▁boarding	140
▁Gazprom	140
▁residue	140
▁lion	140
▁inertia	140
▁upheaval	140
▁affront	140
▁mixing	140
▁hurdles	140
▁cautiously	140
▁Rotterdam	140
▁unusually	140
▁inextricabl	140
▁Ghent	140
▁stimulated	140
uadras	140
▁Hundreds	140
▁thrive	140
ir	140
▁unease	140
▁rationalise	140
such	140
▁terminals	140
▁earmarking	140
▁restructured	140
▁ventures	139
▁fished	139
▁surround	139
▁Berisha	139
▁tyre	139
▁mounting	139
▁invoking	139
▁band	139
▁filed	139
▁endured	139
▁See	139
▁retrograde	139
▁Conclusions	139
▁Focus	139
size	139
▁nervous	139
▁Miller	139
▁consisted	139
▁honouring	139
▁Flemish	139
▁grasped	139
▁predictions	139
▁Less	139
▁participatory	139
▁bacteria	139
▁vocation	139
▁turbulence	139
▁inward	139
▁preach	138
▁downwards	138
▁tremendously	138
▁Exchange	138
Latin	138
▁McGuinness	138
▁negligible	138
▁Mont	138
▁Promot	138
▁Tunnel	138
▁seamen	138
▁telecom	138
▁barbarity	138
▁disclose	138
▁Theorin	138
▁attribute	138
▁Credit	138
▁societal	138
▁th	138
▁wretched	138
▁conscientious	138
▁Br	138
▁Pristina	138
▁termination	138
▁panels	138
▁Maat	138
▁Helmut	138
▁receptive	138
▁assign	138
▁densely	138
▁wreck	138
▁widened	137
Israel	137
▁cheese	137
▁keenly	137
▁volcan	137
ological	137
ttering	137
lasting	137
energy	137
▁ludicrous	137
▁discriminating	137
▁ninth	137
fighting	137
▁bias	137
▁surprisingly	137
▁unreported	137
mails	137
▁alibi	137
▁beekeeping	137
▁Gauz	137
▁Rugova	137
▁Wijkman	137
▁compassion	137
empt	137
▁supervisors	137
▁True	137
▁interruption	137
▁disguise	137
▁modu	137
▁pluralistic	137
indiscriminately	137
rich	137
▁relaunching	137
▁repairs	137
▁Myller	137
▁Bucharest	136
▁whichever	136
▁clothes	136
▁kg	136
▁repayment	136
▁deviate	136
▁Aceh	136
▁clearest	136
▁decrees	136
▁Open	136
▁Radio	136
▁tactic	136
▁assertions	136
▁grandchildren	136
▁ESA	136
▁persevere	136
▁terminal	136
▁Wim	136
▁Kindermann	136
▁cares	136
▁incalculable	136
▁Ensur	136
▁Mutual	136
ger	136
underdevelopment	136
▁decentralized	136
▁Pasty	136
▁Napoletano	136
▁Sahrawi	136
▁gun	136
bner	136
▁Svensson	136
▁leghold	136
▁Langenhagen	136
▁homosexuality	136
▁greed	136
▁recess	136
▁abundance	136
▁earning	136
▁Peninsula	136
▁confer	136
▁unquestionable	136
▁Pillar	136
▁Urban	136
▁rockets	136
▁originates	136
▁instruction	136
▁controllers	135
▁Nagorno	135
▁legitimise	135
▁TB	135
▁dispense	135
▁gifts	135
▁projected	135
▁accommodating	135
▁Chemicals	135
▁Provan	135
violent	135
▁formulae	135
guin	135
▁crying	135
▁discontent	135
▁Royal	135
▁irony	135
▁formality	135
▁obliging	135
▁poet	135
▁watering	135
ended	135
▁vitamins	135
▁poll	135
▁spin	135
▁disapproval	135
▁Gucht	135
▁beating	135
▁lands	135
pre	135
▁antibiotic	135
calan	135
VV	135
▁jump	135
▁MED	135
▁temperatures	135
▁fool	135
▁liabilities	135
▁discoveries	135
▁sink	135
▁acutely	135
▁upward	135
▁formidable	135
▁Eurozone	134
usz	134
▁classical	134
▁preclude	134
▁Haider	134
▁powder	134
▁commencement	134
so	134
▁chambers	134
▁Preparation	134
▁Santini	134
▁Dimitrakopoulos	134
▁setbacks	134
▁Full	134
▁draftsmen	134
Turkey	134
▁tissue	134
▁Hecke	134
turn	134
▁measurements	134
▁stifle	134
▁medication	134
▁Goepel	134
▁hindrance	134
▁Te	134
▁sponsorship	134
▁impaired	134
▁retire	134
▁infamous	134
▁setback	134
▁McMillan	134
▁Covenant	134
▁trapping	134
▁shooting	134
▁lethal	134
▁separatist	134
enophobia	134
▁piecemeal	134
▁broker	134
crisis	134
paid	134
▁affirmed	134
▁Lewandowski	134
▁Examples	134
▁supremacy	133
▁Setting	133
▁assistant	133
▁GALILEO	133
Everything	133
▁Elmar	133
▁dangerously	133
▁drawbacks	133
▁campaigned	133
▁Scandinavia	133
▁Man	133
▁Austrians	133
▁kidnapping	133
amp	133
▁dose	133
▁herds	133
▁plunged	133
▁Kov	133
▁disseminated	133
XX	133
▁precaution	133
▁reinstated	133
▁alluded	133
▁Assessment	133
▁fan	133
▁bull	133
▁Aegean	133
approval	133
▁Buen	133
▁directorate	133
▁Building	133
▁fragility	133
▁rank	133
▁shore	133
▁Irrespective	133
▁banknotes	133
▁pronouncements	133
▁opponent	133
▁Bosnian	133
▁malnutrition	132
▁crossings	132
▁breeders	132
▁reassess	132
▁Fiori	132
▁Notwithstanding	132
▁extremes	132
▁activate	132
▁giants	132
▁wiser	132
▁Deva	132
▁Compar	132
▁casting	132
▁Hieronymi	132
▁assemblies	132
▁speculate	132
stitutionalised	132
▁SARS	132
treatment	132
▁borrow	132
▁inadequacies	132
▁beaches	132
▁contractors	132
▁suitably	132
▁harming	132
▁peat	132
▁guns	132
▁inject	132
▁pensioner	132
▁empower	132
▁overthrow	132
▁Fabra	132
▁suitability	132
▁literacy	132
▁Kabila	132
▁framed	132
▁motherhood	132
▁Lu	132
▁Ukrainians	132
%)	132
▁fertile	132
Presidents	131
▁tonnage	131
▁stays	131
▁arsenal	131
▁spill	131
▁bilaterally	131
▁Anyway	131
▁channelling	131
▁ecology	131
▁slogans	131
alley	131
▁brothers	131
▁noteworthy	131
▁impoverishment	131
▁Nazism	131
creating	131
▁signalled	131
▁Blottnitz	131
air	131
▁blessing	131
▁Diversity	131
Fortress	131
▁scarcity	131
▁decency	131
▁militarily	131
▁rocket	131
▁arrives	131
▁inspiring	131
▁masses	131
pillar	131
▁therapies	131
▁unblock	131
▁Khartoum	130
oting	130
▁recognizing	130
▁Petersburg	130
▁Gahrton	130
▁breathing	130
▁cofinanced	130
▁Accord	130
▁Jov	130
▁humble	130
▁sidelines	130
▁anomaly	130
▁curtailed	130
▁poison	130
▁paradigm	130
▁raped	130
▁Wulf	130
▁encountering	130
▁relied	130
▁UCITS	130
▁Frontiers	130
▁silver	130
▁complacent	130
considered	130
▁mayors	130
▁Miss	130
mitigating	130
▁picking	130
▁cultivate	130
▁clout	130
Scott	130
▁Subsequently	130
▁occupies	130
▁extracted	130
▁saddened	130
▁defect	130
▁tending	130
▁Roadmap	130
▁faults	130
▁Aires	130
▁Later	130
▁elites	130
▁Cape	130
▁segment	130
▁audio	130
▁fibre	130
▁devil	130
▁irreplaceable	130
▁swing	130
▁grief	130
▁slower	130
▁unfolding	130
ranking	130
mo	130
▁vaccinated	130
▁manager	130
▁adventure	129
▁administering	129
▁repealed	129
▁depletion	129
▁sits	129
▁Unity	129
ba	129
▁successors	129
added	129
▁relieved	129
▁expos	129
▁Gy	129
▁Samland	129
▁expulsions	129
▁socialism	129
▁favourite	129
▁orphan	129
▁client	129
▁groundwork	129
▁etcetera	129
▁intellectuals	129
▁extrajudicial	129
▁altar	129
intentioned	129
▁Pom	129
▁untrue	129
▁Communists	129
▁Hume	129
▁attractiveness	129
▁inner	129
▁Fridays	129
▁depression	129
▁MS	129
ik	129
▁conspicuous	129
▁forgot	129
▁energetically	129
▁hemp	129
▁laborious	129
▁McMahon	129
▁salt	129
▁happiness	129
▁participates	129
▁penetration	129
Karabakh	128
▁helicopters	128
▁unifying	128
▁circumstance	128
▁corners	128
▁hypothetical	128
▁federalists	128
▁inadequately	128
▁authentic	128
▁printing	128
▁hitting	128
▁tears	128
▁disrupted	128
four	128
▁polluters	128
▁tended	128
▁personalities	128
▁plasma	128
▁sway	128
▁blaming	128
▁lakes	128
▁prosecutions	128
▁earnest	128
▁Marshall	128
▁unilateralism	128
▁maternal	128
▁unborn	128
▁Toulouse	128
▁writer	128
WTO	128
▁Metten	128
▁backlog	128
▁rigidity	128
▁curriculum	128
▁spokesperson	128
▁pocket	128
▁occupations	128
▁strides	128
▁DAS	128
▁heightened	128
▁dock	128
▁utility	127
▁Tanzania	127
▁manipulate	127
▁fired	127
▁Sary	127
ins	127
▁brunt	127
▁DAPHNE	127
▁walking	127
▁Brian	127
▁Borg	127
res	127
▁parking	127
▁GATS	127
▁recruiting	127
▁husbandry	127
▁Reports	127
▁masters	127
▁Auto	127
▁Haitian	127
▁Pay	127
▁Marset	127
▁sequence	127
▁substitutes	127
establishing	127
▁cyclical	127
▁Kosovars	127
▁Skinner	127
▁survivors	127
Mathies	127
▁Priority	127
▁agro	127
▁Flautre	127
▁punishments	127
▁disquiet	127
▁rife	127
▁Bloch	127
▁hybrid	127
▁arduous	127
▁burned	127
▁founder	127
▁entertainment	127
▁Comprehensive	127
▁Albertini	127
▁nuisance	127
▁Mollar	127
▁managerial	127
▁organisers	127
▁Interpol	127
▁lent	127
▁scapegoat	127
▁embodied	127
▁Think	127
▁Stihler	127
▁unworkable	127
▁staunch	127
▁Jo	127
▁guest	127
▁athletes	127
▁Project	127
▁Fr	127
▁ruins	126
▁restaurants	126
▁barrel	126
▁afflicted	126
▁intransigence	126
Europeans	126
▁deleting	126
▁Move	126
▁Estrela	126
agricultural	126
▁daring	126
▁burdened	126
▁Fran	126
▁massively	126
shod	126
▁upstream	126
▁Protect	126
▁participant	126
▁anxieties	126
▁Basle	126
▁Harms	126
▁nerve	126
▁n	126
▁Cornillet	126
▁displays	126
▁unbearable	126
▁risking	126
▁pray	126
▁technologically	126
▁affirming	126
com	126
clock	126
▁compatriots	126
▁induce	126
▁commenced	126
▁droughts	126
▁lodge	126
▁coaches	126
▁poisoning	126
▁posing	126
▁jurisprudence	126
▁carriage	126
▁draconian	126
▁Half	126
▁translates	126
▁responsive	126
unauthorised	126
▁portray	126
▁flowing	126
▁spots	126
▁Cornelissen	126
▁illegitimate	125
▁pathetic	125
▁uncomfortable	125
▁cool	125
▁Fern	125
▁divert	125
▁Pittella	125
▁stabilised	125
▁innovate	125
▁longstanding	125
▁Isler	125
ily	125
▁directory	125
▁architects	125
ance	125
▁quotation	125
Rule	125
▁logo	125
▁Use	125
▁Ecolabel	125
▁diamonds	125
▁Audit	125
▁divergences	125
road	125
▁standardise	125
▁infant	125
▁realized	125
▁transplants	125
▁Networks	125
▁predominant	125
▁privately	125
▁eloquently	125
▁condone	125
▁disturb	125
▁exhaustion	125
▁shortest	125
better	125
▁Bontempi	124
▁SEPA	124
▁augur	124
▁flowers	124
Wolski	124
▁indefensible	124
▁seals	124
▁Messrs	124
▁Businesses	124
▁Direct	124
▁revisions	124
▁slowed	124
▁interlinked	124
▁Papoutsis	124
▁freer	124
▁Digital	124
▁Alegre	124
▁sewage	124
▁raison	124
▁Marine	124
▁senseless	124
ke	124
▁mindset	124
▁courageously	124
▁Ca	124
▁Intergroup	124
▁strictest	124
▁paperwork	124
▁Governance	124
▁enshrine	124
▁profiling	124
Claude	124
▁holes	124
▁Reinfeldt	124
▁conservatives	124
▁Biological	124
▁criticize	124
▁Fight	124
▁raging	124
▁sentencing	124
▁Millions	124
▁luggage	124
▁Worse	124
▁MAGP	124
▁internalisation	124
▁heartily	124
▁Scheme	124
▁harmed	124
▁commercially	124
▁Evaluation	124
▁discourse	124
▁absurdity	124
▁withhold	123
▁Rasmussen	123
▁Leav	123
▁install	123
▁humanist	123
▁Lienemann	123
controlled	123
▁Friedrich	123
▁ingredient	123
▁ethically	123
▁blasphemy	123
▁irreparable	123
fashioned	123
ie	123
▁overcapacity	123
▁hang	123
▁symptomatic	123
▁trucks	123
▁worship	123
▁uncompetitive	123
▁merging	123
▁reopened	123
▁praiseworthy	123
▁cartel	123
▁servant	123
▁Ruiz	123
▁inflict	123
▁remoteness	123
▁LTTE	123
li	123
▁ITS	123
illiers	123
▁mechanical	123
▁Matters	123
▁syndrome	123
▁evidenced	123
▁lessen	123
▁penny	123
grassroots	123
▁cages	123
▁militia	123
▁Different	123
▁pioneer	123
▁academics	123
▁Bologna	123
▁socioeconomic	123
▁copying	122
▁vineyards	122
▁thread	122
▁incompatibility	122
▁Cancun	122
▁seldom	122
▁expel	122
▁Pimenta	122
▁attraction	122
▁hits	122
▁fans	122
▁Eriksson	122
▁fuelled	122
▁Total	122
▁frightened	122
High	122
▁marker	122
▁traced	122
▁doubly	122
▁carrot	122
▁Few	122
▁Crime	122
▁Hern	122
▁innumerable	122
▁Jobs	122
▁nearer	122
▁strands	122
▁restaurant	122
▁distillation	122
▁touching	122
▁Stauner	122
▁fibres	122
Eastern	122
▁attaching	122
▁Reserve	122
▁visionary	122
LE	122
▁encompassing	122
▁spectre	122
▁storing	121
▁obstructed	121
▁Medvedev	121
▁shadows	121
▁tap	121
ampton	121
▁elephant	121
▁staggering	121
▁counsel	121
▁deplores	121
▁naval	121
▁Winkler	121
▁benzene	121
▁gigantic	121
▁privatization	121
▁Car	121
▁sweep	121
▁indictment	121
▁Ibrahim	121
▁privatised	121
▁stuff	121
▁recurrent	121
▁partition	121
▁magazine	121
▁SADC	121
▁Antwerp	121
▁Dybkj	121
▁soldier	121
▁flames	121
enezuelan	121
▁Bernard	121
▁CSR	121
▁counties	121
▁writes	121
▁School	121
▁compounded	121
▁colonialism	121
▁brains	121
▁fingers	121
▁descriptions	121
▁manifestations	121
▁Seveso	121
▁bargain	121
▁Dover	121
▁Exclusion	121
▁bright	120
▁trail	120
▁fostered	120
▁solvency	120
conflict	120
▁discharged	120
▁cents	120
▁Stalinist	120
establishment	120
▁tireless	120
▁sickness	120
▁herbal	120
▁normality	120
confidence	120
▁burn	120
▁belonged	120
▁Living	120
▁processors	120
▁Efficiency	120
▁Banking	120
lectronic	120
▁redeployment	120
▁Schierhuber	120
▁Statistics	120
▁nuts	120
▁Patients	120
▁unloading	120
▁infrastructural	120
▁Berger	120
▁debatable	120
▁bombers	120
▁insured	120
▁motorcycles	120
▁Kuhne	120
▁tracking	120
▁affords	120
hereby	120
▁Pat	120
▁contraception	120
▁Persons	120
▁lecture	120
▁Problems	120
▁Judicia	120
▁Preferences	120
▁underfoot	120
▁Angolan	120
▁upgraded	120
orientated	120
▁congress	120
▁slaughterhouses	120
▁spectacle	119
bone	119
▁cord	119
▁nineteenth	119
▁presiding	119
▁rubber	119
▁reconsidered	119
▁manageable	119
▁Numerous	119
ahead	119
▁passages	119
▁refute	119
▁discredited	119
▁des	119
▁plug	119
▁petroleum	119
▁Mari	119
▁insurmountable	119
▁theoretically	119
▁Thirty	119
▁misfortune	119
▁owed	119
▁Corbey	119
▁duplicate	119
▁trick	119
▁convening	119
erde	119
▁Rail	119
▁Nicola	119
▁disservice	119
▁substantiated	119
▁Manders	119
agreb	118
▁selfish	118
▁Ries	118
▁hotels	118
▁prospectus	118
▁contingent	118
asser	118
▁amnesty	118
modified	118
▁locate	118
▁deregulated	118
▁apportion	118
▁restart	118
▁beware	118
▁harms	118
▁teaches	118
▁signalling	118
▁whisky	118
▁revolutions	118
▁outlying	118
▁statistic	118
▁interact	118
▁Financing	118
▁container	118
▁obstruction	118
▁reunited	118
▁policemen	118
▁conglomerates	118
▁overturned	118
▁bow	118
▁Harrison	118
▁Real	118
▁rhetorical	118
▁coherently	118
▁laugh	118
▁pacts	118
▁virtuous	118
km	118
▁Card	118
▁prepares	118
▁powerlessness	118
▁francs	118
▁flooded	118
sa	118
▁incisive	118
▁paradoxically	118
▁beset	117
▁inshore	117
di	117
▁tiger	117
▁Spaniards	117
▁interior	117
▁electronically	117
▁Mauro	117
▁array	117
▁unleashed	117
▁Moreira	117
▁midday	117
▁herring	117
▁bluntly	117
▁Shalit	117
▁workshops	117
standard	117
▁directorates	117
fishing	117
▁sustainably	117
▁renowned	117
uecedo	117
▁answerable	117
▁foresees	117
▁Box	117
▁Moluccas	117
▁banner	117
▁drilling	117
▁ritual	117
▁manifesto	117
▁Politicians	117
▁horizons	117
▁reallocation	117
▁administrators	117
▁jurisdictions	117
▁experimentation	117
▁paedophile	117
▁thwart	117
▁Angela	117
▁evils	117
▁blindly	117
▁indent	117
▁featured	117
policy	117
▁popularity	117
▁distinctions	117
▁consciously	117
Harris	117
▁basins	117
mper	116
▁fence	116
▁scores	116
▁questioner	116
rhus	116
ko	116
▁tolerable	116
▁mirror	116
▁blueprint	116
▁Eurosceptics	116
▁constituting	116
▁Flemming	116
▁portability	116
▁turbulent	116
mplementing	116
Myanmar	116
▁thriving	116
▁applicability	116
▁Cushnahan	116
▁respectfully	116
▁Tr	116
▁foresight	116
▁Creating	116
president	116
▁sail	116
stage	116
▁reliance	116
▁buffer	116
▁Task	116
la	116
▁bonus	116
▁manual	116
▁Slovakian	116
▁Wortman	116
Kool	116
▁axes	116
▁Similar	116
▁merge	116
▁devaluation	116
▁disregards	116
▁methane	116
▁hopeless	116
▁unify	116
▁culprits	116
▁Knesset	116
▁linear	116
▁saga	116
▁demarcation	116
value	116
▁Am	116
▁unofficial	116
▁coastguard	116
▁pound	116
▁hysteria	116
▁paints	116
▁Opinion	115
▁Hu	115
▁takeovers	115
extraterritorial	115
▁Mark	115
▁trusted	115
▁disappearances	115
▁benches	115
▁litres	115
▁Sz	115
▁bureau	115
▁Adopt	115
▁Understanding	115
▁Dalli	115
▁bin	115
▁Empire	115
▁particles	115
wage	115
▁Kouchner	115
▁countrymen	115
▁Chris	115
▁cable	115
setting	115
▁scrupulously	115
▁logging	115
▁earnestly	115
▁Undoubtedly	115
▁monks	115
▁jargon	115
▁entrenched	115
seven	115
▁juvenile	115
▁burdensome	115
▁deceived	115
▁execute	115
▁discovering	115
▁disbursed	115
▁Heaton	115
▁litre	115
▁compiling	115
▁Risk	115
▁prejudge	115
▁Midlands	115
▁Pierre	115
▁Disabilities	115
▁Belarussian	115
▁Pyrenees	114
Committee	114
▁Territories	114
▁hollow	114
▁normalisation	114
▁downstream	114
▁Bullmann	114
ovi	114
▁boy	114
▁upholds	114
▁sketch	114
▁perceptions	114
▁accompli	114
▁lifestyles	114
▁repay	114
Fraud	114
▁FIFG	114
▁Laden	114
▁embassy	114
▁Swedes	114
▁Gahler	114
▁tomatoes	114
▁sounding	114
▁Initially	114
Ukraine	114
▁Mauritanian	114
fer	114
▁Ahmadinejad	114
rooted	114
▁Catherine	114
▁translating	114
eu	114
▁landmark	114
▁Lyon	114
India	114
▁Popular	114
▁mesh	114
▁Terr	114
▁Wiebenga	114
assuring	114
▁invariably	114
sensitive	114
▁legalisation	114
▁bore	114
▁Maintain	114
▁discouraged	114
▁prohibitions	114
▁strenuous	114
▁beans	114
▁curbing	114
▁Cot	114
▁Orlando	114
▁Kozloduy	114
▁buck	114
▁monopolistic	114
▁bottles	113
▁presided	113
▁cameras	113
ities	113
▁Ne	113
▁youngest	113
▁sorting	113
chieving	113
▁scientist	113
▁solemnly	113
▁shutting	113
▁hens	113
▁succumb	113
▁blunt	113
▁standardization	113
▁easiest	113
▁structurally	113
▁nominations	113
If	113
▁Danes	113
Tsagaropoulou	113
▁doses	113
rd	113
▁philosopher	113
▁Kuwait	113
▁hint	113
▁colleges	113
▁tricks	113
▁deploying	113
▁asserting	113
▁additive	113
▁Christodoulou	113
▁Lower	113
▁ETS	113
▁leg	113
▁winds	113
▁Novo	113
▁mount	113
▁Ferrer	112
▁Success	112
▁updates	112
▁pipe	112
▁Joseph	112
▁obstructing	112
▁appropriateness	112
▁thankfully	112
▁tracing	112
▁hosting	112
ure	112
▁lung	112
con	112
This	112
▁Arabs	112
▁Anastassopoulos	112
▁utopian	112
▁Coreper	112
examined	112
▁manifested	112
Toward	112
ack	112
▁drives	112
▁quantify	112
▁encroach	112
▁converge	112
▁harassed	112
▁Mobility	112
tan	112
▁seizure	112
▁indulgence	112
▁receipts	112
▁reviving	112
▁verifying	112
▁adviser	112
▁Sinn	112
▁divisive	112
▁iceberg	112
▁Deutsch	112
▁offend	112
▁richness	112
▁accomplices	112
▁emanating	112
▁Nogueira	112
▁Iranians	112
▁curtain	112
▁stubborn	112
▁nationalists	112
▁exponential	112
▁quietly	112
▁dawn	112
▁homeopathic	112
▁Marfil	111
credit	111
▁exorbitant	111
▁Buddhist	111
▁specification	111
sir	111
▁Pinheiro	111
▁cradle	111
▁Nairobi	111
▁vibrant	111
▁advising	111
▁Turco	111
▁unfamiliar	111
lo	111
▁sanctioned	111
this	111
kmark	111
▁visibly	111
▁instigated	111
▁erode	111
ors	111
▁plundering	111
▁habitat	111
▁Andreasen	111
rights	111
▁amateur	111
▁wound	111
▁Stenmarck	111
▁tear	111
Oil	111
▁shipment	111
▁switched	111
▁ARE	111
▁dropping	111
▁laughing	111
▁priori	111
▁desperation	111
ty	111
▁detergents	111
▁Lloyd	111
▁levelling	111
▁publicise	111
▁Fraud	111
▁impress	111
▁Guy	111
▁pyramid	111
▁bottle	111
▁Holy	111
▁opaque	111
▁dismay	111
▁diagnosed	111
laundering	111
▁Power	111
atar	111
▁KEDO	111
▁exploration	111
▁Provid	111
▁communiqu	111
▁conditioning	111
▁betray	111
▁Football	111
▁Desama	111
▁alleviation	111
▁archives	111
▁Klamt	111
▁tirelessly	110
▁Relat	110
▁escaping	110
▁approximate	110
▁magistrates	110
▁counterbalance	110
▁skilful	110
▁rampant	110
▁mandated	110
Nice	110
holders	110
ois	110
▁cancellations	110
▁stones	110
▁fiasco	110
▁worthless	110
territorial	110
most	110
▁Erdogan	110
▁Session	110
▁needy	110
▁sparked	110
▁matching	110
▁spontaneous	110
card	110
▁reintroduction	110
▁Cook	110
▁metre	110
▁Orb	110
▁dump	110
▁disbursement	110
▁irregularity	110
▁beekeepers	110
HG	110
▁penetrate	110
▁recycle	110
▁anchor	110
▁flower	110
iform	110
▁patchwork	110
▁simplifies	110
▁Clean	110
ter	110
▁imperfect	110
▁plantations	110
▁deficiency	110
▁reintroduced	110
▁specialisation	110
school	110
▁wayside	110
▁validation	110
▁photographs	110
▁sister	110
▁Mongolia	110
▁dwindling	110
▁inheritance	110
▁falsification	109
▁Pa	109
▁rainfall	109
▁button	109
▁remembrance	109
▁oppress	109
▁fuss	109
▁depths	109
▁grams	109
▁reaffirming	109
▁pen	109
▁pronounce	109
▁bolder	109
wheel	109
▁nonsensical	109
ni	109
▁breaching	109
▁boast	109
▁sludge	109
▁accreditation	109
▁renegotiation	109
▁EMI	109
▁Poor	109
▁hinders	109
▁relinquish	109
▁Klinz	109
▁Gordon	109
▁secretary	109
▁gloss	109
▁scrutinised	109
▁inhabited	109
▁Eight	109
▁tribunals	109
▁estate	109
▁subjective	109
▁circus	109
▁clandestine	109
▁ERTMS	109
im	109
▁Fourtou	109
▁Revision	109
▁invent	109
▁orally	109
▁Schleicher	109
visual	109
▁overproduction	109
▁replying	109
▁embraced	109
▁wool	109
▁Ages	109
▁grace	109
▁Airport	109
▁triple	109
▁emancipation	109
▁hurricane	109
▁firing	109
▁splitting	109
▁unspent	109
▁equipping	109
▁renders	109
▁scattered	108
▁Impact	108
▁periodically	108
▁anomalies	108
▁performers	108
▁flies	108
▁sanitary	108
▁knees	108
▁nutshell	108
▁Crisis	108
▁inactive	108
page	108
▁competitor	108
las	108
safe	108
▁undisputed	108
▁swallow	108
prepared	108
▁horrified	108
▁Item	108
▁hail	108
▁momentous	108
▁Manchester	108
▁Anne	108
▁observes	108
▁sportsmen	108
▁praises	108
▁earmark	108
▁protesters	108
▁Bern	108
▁passionately	108
▁Regulators	108
▁parks	108
▁amends	108
▁copper	108
▁Fine	108
ueen	108
▁lament	108
▁architectural	108
▁stranded	108
ish	108
▁prematurely	108
▁king	108
▁wastes	108
▁relocated	108
▁eCall	108
▁Nature	108
short	108
same	107
▁judicious	107
product	107
▁dies	107
▁classify	107
▁PR	107
▁hat	107
▁tachograph	107
▁embraces	107
SIS	107
▁spearhead	107
▁conserving	107
NATO	107
▁Prets	107
▁siege	107
▁peculiarities	107
▁Funding	107
▁embodies	107
em	107
▁mackerel	107
▁disparate	107
▁rationally	107
▁Kyprianou	107
▁Iberian	107
▁shelf	107
▁programs	107
▁grids	107
▁Presidential	107
▁slap	107
▁casual	107
▁contingency	107
▁pardon	107
▁Division	107
▁redirect	107
▁Davos	107
▁subordinated	107
▁impair	107
▁Per	107
▁Laperrouze	107
neutral	107
▁grotesque	107
ate	107
▁humour	107
▁strip	107
▁ivory	107
▁rendition	107
▁windows	107
▁formulas	107
▁stakeholder	107
▁Orange	107
▁isolating	107
▁eternal	107
▁pilotage	107
▁conceive	107
▁fashionable	107
▁ceases	107
▁wilderness	107
▁impotence	107
▁Trautmann	107
▁preserves	107
▁timescales	107
▁interlocutors	107
▁Liberalisation	106
▁static	106
▁Ashraf	106
▁Larrea	106
▁CIS	106
▁whistle	106
▁plague	106
▁Olsson	106
▁crushed	106
▁guardians	106
▁truce	106
▁validated	106
▁smugglers	106
▁spreads	106
▁insurers	106
▁briefing	106
▁incinerators	106
▁stars	106
▁eel	106
▁melting	106
▁Ni	106
▁envy	106
second	106
organised	106
▁simplest	106
▁Mauritius	106
▁infringes	106
▁plethora	106
▁JPA	106
▁Walter	106
▁league	106
▁Martinez	106
▁Garrido	106
▁Passenger	106
▁troubles	106
▁Niger	106
▁halved	106
per	106
profile	106
▁Riis	106
▁Gbagbo	106
▁unimaginable	106
▁discriminates	106
▁flout	106
▁lock	106
▁Semester	106
▁Contact	106
▁recurrence	106
ative	106
▁dividends	106
▁USSR	106
▁attainment	106
mile	106
▁song	106
eight	106
▁allied	106
▁nearby	106
▁newcomers	106
▁inflationary	106
▁Waddington	106
▁relentless	106
▁trilogue	105
▁Ki	105
▁yoke	105
▁belt	105
▁helpless	105
▁Ariel	105
▁Ho	105
▁electronics	105
▁EEC	105
▁Sam	105
▁Lady	105
▁embarrassment	105
▁shoot	105
▁Democracies	105
▁unleash	105
▁computerised	105
▁Havana	105
ra	105
▁county	105
▁Big	105
▁controller	105
▁Individual	105
▁Leader	105
▁quantifiable	105
▁tooth	105
▁legalise	105
three	105
let	105
West	105
▁Boogerd	105
▁promoters	105
▁Tempus	105
appal	105
ably	105
▁payable	105
▁solvents	105
▁pets	105
▁Tacis	105
▁looming	105
▁eleventh	105
▁leakage	105
tax	105
▁Extraordinar	105
▁tightly	105
▁prestigious	105
▁instigation	105
▁hasten	105
▁steam	105
▁Labelling	105
▁Finns	105
▁trademark	105
▁Michelin	105
▁forecasting	105
▁Srpska	105
▁UEFA	105
▁terrifying	105
▁Dijk	105
▁Secchi	105
▁Continu	105
▁Alan	105
▁Santa	105
▁Falconer	105
▁knocking	104
▁tempting	104
▁communists	104
▁instruct	104
democracy	104
▁nominate	104
▁respiratory	104
▁Proper	104
▁quarterly	104
▁embedded	104
▁Ignalina	104
▁deliberation	104
▁nepotism	104
▁relegated	104
▁framing	104
▁hastily	104
▁triggering	104
▁Hermange	104
▁Sanders	104
▁Afghans	104
▁Li	104
▁discontinued	104
▁ICES	104
▁wasteful	104
▁Nicole	104
soft	104
▁Indians	104
▁UNMIK	104
▁Jihad	104
what	104
▁repeats	104
ton	104
▁literary	104
▁Ceuta	104
▁begging	104
▁rival	104
ent	104
▁pour	104
▁dismayed	104
▁Musharraf	104
▁violently	104
▁Lipietz	104
▁COREPER	104
▁rendering	103
▁hair	103
▁greener	103
▁Tokyo	103
▁segments	103
▁thankful	103
▁surviving	103
▁Conservation	103
▁gates	103
▁recasting	103
▁holy	103
▁reliant	103
▁Wild	103
▁cardiovascular	103
▁volunteer	103
▁park	103
▁Europa	103
▁Speaker	103
▁embracing	103
elecommunication	103
▁Square	103
▁dissolved	103
uaak	103
▁Giv	103
▁Skopje	103
▁institutionally	103
▁barometers	103
▁Stockmann	103
▁vines	103
▁Fayot	103
▁criminalise	103
▁negligent	103
▁Attempt	103
▁surroundings	103
▁reassert	103
▁bush	103
▁spong	103
▁licensed	103
▁arranging	103
▁Carnero	103
▁objected	103
▁bluetongue	103
▁summon	103
▁affection	103
▁desk	103
▁Treasury	103
▁policeman	103
▁Father	103
▁Suanzes	103
Carpegna	103
▁mentally	103
▁Moratinos	103
▁Sanctions	103
▁Wathelet	103
▁Producers	103
▁cumulative	103
▁Conversely	103
its	103
▁erect	103
▁fake	103
▁Simon	103
▁Block	103
▁prejudicial	102
▁talents	102
▁presumed	102
▁cubic	102
▁Alvaro	102
▁Blanc	102
mad	102
▁Sandb	102
▁unimportant	102
▁auctions	102
▁Welsh	102
ntelligent	102
▁ambient	102
▁cynically	102
▁overlooks	102
▁voter	102
▁rent	102
▁Little	102
lu	102
▁sounded	102
▁radiological	102
▁polling	102
era	102
▁hire	102
▁Sommer	102
▁Discharge	102
▁rivalry	102
▁Domestic	102
▁sample	102
▁unfinished	102
▁monuments	102
▁herd	102
Bowman	102
▁homage	102
effects	102
▁mis	102
▁fiction	102
▁concert	102
▁graves	102
▁monster	102
▁Bible	102
▁persistently	102
▁gamble	102
▁carcinogens	102
▁confers	102
▁barbarism	102
▁Berthu	102
chairman	102
rk	102
▁underscore	102
▁harmonizing	102
▁Intercultural	102
▁Konrad	102
▁ineffectual	102
▁telephony	102
▁Thai	102
security	102
▁Transitional	102
▁heroic	102
matic	102
▁endowed	102
▁masse	102
▁Belfast	102
▁Policies	102
▁star	102
▁Bauer	102
▁Armenians	101
elk	101
▁inviolable	101
▁budgeted	101
▁informally	101
spot	101
▁empowerment	101
▁candidature	101
▁derisory	101
▁EUROPOL	101
ted	101
▁aquatic	101
▁colony	101
▁Prior	101
south	101
▁specificity	101
▁Tom	101
obilisation	101
▁Korhola	101
▁utilization	101
▁stimulation	101
▁deepened	101
▁Neyts	101
▁humankind	101
▁decisiveness	101
aligned	101
vory	101
▁HIPC	101
▁compilation	101
▁Pandora	101
▁slowness	101
▁Embassy	101
▁Mubarak	101
ED	101
▁horrible	101
▁agreeable	101
▁acidification	101
▁leaf	101
▁subtle	101
▁Henderson	101
▁remedying	101
▁accommodated	101
▁congratulates	101
▁disappears	101
▁variation	101
▁EUFOR	101
▁Commonwealth	101
▁hypothesis	101
▁sin	101
▁wildlife	101
▁Wine	101
▁professionally	101
▁unhelpful	100
▁Listen	100
▁sharks	100
▁zeal	100
violence	100
▁nanotechnology	100
▁Djibouti	100
treated	100
▁mounted	100
▁invalid	100
▁attributes	100
▁sexuality	100
▁revived	100
▁Bene	100
▁uncompromising	100
▁prone	100
allowable	100
▁characterized	100
▁unnoticed	100
▁espionage	100
▁Cork	100
▁sixteen	100
▁Kaufmann	100
op	100
▁grim	100
▁Holte	100
sk	100
transparent	100
▁reticence	100
▁Mahmoud	100
▁reluctantly	100
▁Consideration	100
▁truths	100
▁filter	100
Canada	100
▁bestow	100
▁insertion	100
▁discarded	100
▁smuggled	100
▁curricula	100
▁misplaced	100
▁Flexibility	100
▁Kittelmann	100
▁painted	100
▁w	100
▁Roo	100
▁GNSS	100
▁Politkovskaya	100
▁IUU	100
▁governors	100
▁Lage	100
▁seizing	100
▁Royo	100
▁collaborating	100
▁Plans	100
▁elaborated	100
▁diversifying	100
Ţ	100
▁heap	100
▁theories	100
▁prevalence	100
▁charitable	100
▁fluorin	100
▁excellently	100
▁deliveries	100
▁Melilla	100
▁squandered	100
▁governor	100
▁developmental	100
▁Adoption	100
▁r	100
funding	100
▁Proposals	100
▁Taiwanese	100
▁facets	100
▁Directors	100
▁bombed	100
▁pounds	99
▁expedite	99
▁rob	99
▁Franz	99
▁fraught	99
▁collusion	99
▁fertilisers	99
▁spelled	99
▁singled	99
XV	99
ueir	99
▁refined	99
▁illegality	99
▁terminate	99
ete	99
▁regionally	99
▁savers	99
▁Khadraoui	99
▁oxides	99
common	99
ilnius	99
...'	99
▁incite	99
▁submarine	99
▁semester	99
▁nitrate	99
▁dilute	99
teering	99
▁utilities	99
▁Mayer	99
▁Territorial	99
▁Seven	99
▁arouse	99
headed	99
▁shark	99
production	99
▁amply	99
▁shortened	99
▁feeble	99
▁informs	99
▁Mon	99
▁Tunis	99
▁homogeneous	99
▁predatory	99
▁interoperable	99
▁complainant	99
▁displacement	99
trained	99
▁Krehl	99
▁publishers	99
▁communal	99
▁instigate	99
▁Resources	99
▁concealing	99
▁Liu	99
▁enriching	99
bound	99
▁akin	99
▁consignments	99
▁Envoy	99
▁watchful	99
▁taxing	99
ë	99
▁sabotage	99
▁abattoirs	99
▁monetarist	99
▁hull	99
ER	99
▁indefinite	99
▁buyers	99
ied	99
▁CMO	99
▁corpus	99
▁valley	99
mm	99
▁Clegg	98
▁citing	98
▁fingerprinting	98
▁edition	98
▁ascertained	98
▁pernicious	98
▁mathematical	98
▁shareholder	98
▁shrink	98
▁weighty	98
▁warranted	98
▁winding	98
▁impossibility	98
tier	98
▁Mathieu	98
functionality	98
▁ICCAT	98
▁Commercial	98
rtschach	98
▁reinvent	98
▁contemplating	98
▁Opening	98
▁leftovers	98
▁Help	98
▁heeded	98
▁regression	98
▁Kellett	98
▁Prince	98
▁v	98
USA	98
▁footprint	98
▁Birdal	98
▁unwelcome	98
▁needlessly	98
▁slot	98
▁Modern	98
▁Confidence	98
negotiable	98
▁roundly	98
▁faithfully	98
▁initiation	98
▁maximis	98
▁Basic	98
▁elaboration	98
▁emphasizing	98
▁Somali	98
UAL	98
▁Organis	98
▁Sharm	98
ina	98
▁dearly	98
implementation	98
▁certify	98
▁Synergy	98
▁provincial	98
▁diagnostic	98
▁Kuneva	98
▁reforestation	98
▁identifiable	98
▁entrants	98
nek	98
▁staging	98
▁Pex	98
ever	98
▁ethnicity	98
▁mystery	98
▁detecting	98
▁grounded	97
▁Delhi	97
▁Perspectives	97
▁witch	97
▁extradited	97
▁confrontations	97
dependent	97
▁heroes	97
iola	97
▁helm	97
Women	97
▁creatures	97
▁KFOR	97
▁outward	97
▁chip	97
▁persisting	97
▁intake	97
▁Cancer	97
▁dried	97
upplementary	97
▁bosses	97
▁ombudsmen	97
▁Motion	97
▁attendant	97
▁Label	97
▁anthem	97
▁diluted	97
▁baggage	97
deus	97
strategic	97
▁plate	97
▁prescriptive	97
▁unparalleled	97
▁superiority	97
▁seated	97
▁forbid	97
▁humility	97
▁bag	97
range	97
rew	97
protection	97
▁deduct	97
▁unchecked	97
aid	97
▁beds	97
▁Nowhere	97
▁privatisations	97
▁stimulates	97
▁embody	97
▁contracted	97
▁painfully	97
▁sceptics	97
ran	97
▁multiplied	97
▁veil	97
▁leaks	97
▁ALTENER	97
smoking	97
▁Self	97
▁eaten	97
▁furthest	97
au	97
▁fantasy	97
▁havoc	97
▁Eisma	96
▁principled	96
▁commemorating	96
ud	96
▁codified	96
Do	96
light	96
▁mile	96
▁sponsored	96
▁guerrilla	96
▁Hall	96
▁cheating	96
▁reprisals	96
▁delude	96
▁disciplined	96
hi	96
▁unhindered	96
▁Putt	96
▁SEM	96
▁Chi	96
▁consecutive	96
▁leaked	96
▁enshrines	96
▁interlocutor	96
▁pollutant	96
▁civilization	96
▁entrepreneur	96
▁Ra	96
▁unreliable	96
▁narcotics	96
ordination	96
▁sealed	96
▁farmed	96
▁assassinations	96
▁Nordmann	96
▁Sacr	96
▁inception	96
dis	96
▁bands	96
▁dividend	96
proof	96
▁indebtedness	96
▁focussing	96
▁Minority	96
▁mysterious	96
▁DRC	96
▁pill	96
▁Daniel	96
▁portrayed	96
conventional	96
▁conceals	96
▁Organ	96
▁Collado	96
▁shellfish	96
▁fatigue	96
▁modal	96
▁basics	96
▁electing	96
▁outcry	96
▁resuming	96
▁Club	96
▁sweeteners	96
bi	96
▁Fifty	96
▁monstrous	96
▁documentary	96
United	96
▁aided	96
▁colossal	95
recast	95
yearly	95
ap	95
▁cancers	95
▁intimidated	95
▁IPCC	95
▁flaw	95
▁paramilitaries	95
▁restructurings	95
▁CARDS	95
▁uneasy	95
▁secrets	95
cyclical	95
sustainable	95
▁truck	95
▁Se	95
▁Harmonisation	95
▁plunge	95
▁testifies	95
▁anarchy	95
▁beside	95
▁Mombaur	95
▁straightaway	95
▁artist	95
▁Saakashvili	95
▁stalled	95
▁optical	95
▁Wi	95
▁fearful	95
▁UPE	95
▁springs	95
▁impulse	95
▁fosters	95
▁inflexibility	95
▁advertise	95
▁manoeuvres	95
▁Guidance	95
ondra	95
▁criminalisation	95
▁desirability	95
▁degenerate	95
▁autocratic	95
▁Teverson	95
▁upsurge	95
▁incoherent	95
▁anguish	95
da	95
▁contrasts	95
▁fond	95
EUR	95
▁Mo	95
▁muster	95
▁acquisitions	95
▁pitfalls	95
trading	95
▁intensely	95
ligning	95
▁renegotiate	95
▁trafficked	95
▁Press	95
▁merged	95
▁Rod	95
▁eels	95
ny	95
▁squeezed	95
▁bell	95
▁illusory	95
▁writers	95
anhanen	95
▁utilising	95
▁Status	95
▁standardising	95
genic	95
▁uncontrollable	95
▁revitalising	95
▁youngsters	94
▁insults	94
▁extermination	94
▁echoing	94
▁Romeva	94
▁outsourcing	94
▁extradite	94
▁warlords	94
▁relaxing	94
ut	94
ja	94
▁aiding	94
▁Ebner	94
▁Knowing	94
mindedness	94
▁Kenyan	94
▁frankness	94
▁crosses	94
▁cons	94
▁Fidel	94
▁Philip	94
six	94
▁ratifications	94
▁lunchtime	94
qualified	94
▁evacuation	94
▁reckless	94
▁fraudsters	94
▁coastlines	94
▁nurture	94
▁diametrically	94
▁reinvigorate	94
▁Newton	94
▁haunt	94
▁repaired	94
▁taboos	94
▁override	94
▁demagogy	94
▁Added	94
ILO	94
▁revoked	94
▁vine	94
▁divorced	94
▁volcano	94
▁vaccinations	94
▁positioning	94
▁ISO	94
▁Brie	94
▁waived	94
passing	94
NTE	94
▁conveying	94
anza	94
▁jams	94
▁Pittsburgh	94
▁liking	94
▁overrun	94
▁privatise	94
▁radioactivity	94
▁abundant	94
▁Pollution	94
▁flavourings	94
▁skilfully	94
▁NPT	94
▁bleak	94
▁nutrient	94
▁Families	94
▁Brittany	94
▁bells	94
▁liberated	93
▁Moraes	93
▁deportations	93
▁Trust	93
▁outraged	93
▁rushing	93
▁ski	93
▁undoubted	93
▁sheets	93
▁invoices	93
▁uncovered	93
▁infants	93
ultiplicity	93
▁visual	93
▁bureaucracies	93
▁aggregate	93
▁legs	93
xisting	93
examination	93
▁Journalists	93
▁trauma	93
▁MDGs	93
▁Put	93
▁interface	93
▁Stalinism	93
▁aggravating	93
▁disrespect	93
▁foodstuff	93
▁Churchill	93
▁thermal	93
▁reorganization	93
▁Antonio	93
▁ado	93
▁distinguishes	93
▁shining	93
▁revolt	93
▁expedient	93
▁trailers	93
rapporteurs	93
▁captured	93
plus	93
▁Case	93
▁overlooking	93
▁unreserved	93
▁Karzai	93
▁stores	93
▁penalises	93
▁fiercely	93
▁Enterprises	93
▁jails	93
▁steered	93
▁cats	93
▁Thatcher	93
▁domains	93
▁affiliation	93
▁containment	93
▁shout	93
▁debtor	93
▁Avil	93
▁Camis	92
▁attracts	92
▁ruminants	92
▁hospitality	92
▁Biodiversity	92
▁Thomsen	92
▁miserable	92
▁repaid	92
▁Ecuador	92
▁Taxation	92
po	92
▁snow	92
▁gloomy	92
▁eloquent	92
states	92
▁gang	92
▁untouched	92
▁diversion	92
▁upheavals	92
▁streams	92
▁nicotine	92
▁tenor	92
▁riding	92
▁Navigation	92
▁Uzbek	92
▁culminated	92
ictims	92
▁praising	92
defence	92
▁plagued	92
Peter	92
▁SESAR	92
▁Politically	92
▁di	92
▁Hul	92
▁effected	92
▁rabies	92
▁ros	92
▁Dunn	92
▁idle	92
dustrialisation	92
▁executives	92
▁washing	92
▁Membership	92
▁Columbia	92
▁fanatical	92
▁Check	92
▁proviso	92
▁stray	92
▁Knowledge	92
▁Subsidiarity	92
▁executing	92
▁crushing	92
▁Sixthly	92
▁Statistical	92
▁Santos	92
▁permeate	92
after	92
▁prominently	92
▁preside	92
▁rum	92
▁ravaged	92
regions	92
▁Guinean	92
hazardous	92
▁retabled	92
▁Harkin	92
▁flank	92
▁intermodality	92
▁Topol	92
▁escalate	92
▁nomenclature	92
▁Mary	92
▁parameter	92
▁detailing	92
▁clusters	92
▁queue	92
▁sunk	92
▁Lisi	91
▁restraints	91
fuelling	91
▁dam	91
▁Denktash	91
▁campaigners	91
▁Jospin	91
ladimir	91
▁preoccupation	91
▁Systems	91
â	91
▁Natural	91
▁situ	91
▁imperatives	91
▁consultancy	91
▁Events	91
▁Ask	91
▁pin	91
▁reticent	91
ehind	91
PE	91
▁redistribute	91
▁mafias	91
▁rear	91
▁foregone	91
motions	91
▁peninsula	91
volving	91
▁TAC	91
edical	91
?’	91
▁economist	91
▁tentative	91
▁apologize	91
▁mouths	91
▁Forces	91
▁childbirth	91
▁captain	91
▁waiv	91
▁constrained	91
Saxon	91
▁uncover	91
car	91
▁defiance	91
▁Request	91
▁firearms	91
▁inspires	91
from	91
world	91
▁Make	91
▁Satellite	91
▁deducted	91
there	91
▁overseeing	91
▁emigrate	91
▁myths	91
ex	91
▁toxicity	91
▁culminate	91
▁qualifying	91
▁dispersed	91
ence	91
▁Wibe	91
▁rings	91
▁shattered	91
▁Gaulle	91
▁unmarried	91
▁lighter	91
▁Andorra	90
▁Kostunica	90
▁heighten	90
NACE	90
▁covert	90
century	90
▁forthright	90
▁meticulous	90
▁fervent	90
▁voicing	90
▁Alstom	90
▁McCartney	90
ck	90
▁monoxide	90
▁el	90
▁traumatic	90
▁aggravate	90
▁Audy	90
▁asthma	90
▁colegislator	90
▁militant	90
▁denominations	90
▁Cartagena	90
▁Nelson	90
▁Death	90
▁cofinance	90
▁structuring	90
▁repairing	90
sightedness	90
▁subcontractors	90
▁Participation	90
▁disrepute	90
▁euthanasia	90
▁Doorn	90
▁auctioning	90
▁PEACE	90
optic	90
▁dares	90
▁publicised	90
▁unlock	90
ade	90
ren	90
▁Kivu	90
▁EASA	90
▁shrinking	90
▁variant	90
▁equates	90
▁Maystadt	90
▁Attwooll	90
eltsin	90
FRO	90
quarters	90
▁viewers	90
▁Khmer	90
▁Toubon	90
▁appetite	90
▁lenient	90
▁heavier	90
Russian	90
▁merchant	90
ler	90
▁assimilation	90
▁null	90
▁heterogeneous	90
ning	90
▁NOx	90
▁Test	90
▁retardants	90
▁industrialists	90
important	90
labour	90
▁patentable	90
erry	89
▁Starting	89
▁Dehaene	89
Semitic	89
▁authorises	89
implemented	89
▁Powell	89
▁Andrews	89
▁Busuttil	89
▁Lindqvist	89
▁disapprove	89
▁ensue	89
▁RE	89
▁formations	89
▁migrate	89
▁NEPAD	89
▁settlers	89
▁unlawfully	89
▁subsidiaries	89
▁colonisation	89
▁multiplying	89
▁feat	89
reserving	89
▁unsolved	89
▁bonuses	89
▁defuse	89
lived	89
▁Paraguay	89
▁equate	89
han	89
▁cannabis	89
▁Bowles	89
▁stretched	89
iz	89
▁conceded	89
▁fanatics	89
pro	89
▁aspiring	89
▁Peoples	89
▁clamp	89
▁categorical	89
offs	89
judicial	89
▁Altener	89
▁extensions	89
▁PROGRESS	89
▁ills	89
▁Ka	89
▁instituting	89
▁ramifications	89
▁Welfare	89
▁Export	89
▁spoil	89
▁implicated	89
▁ECHR	89
▁Icelandic	89
▁upturn	89
▁Neil	89
▁revitalisation	89
▁spark	89
▁invaded	89
▁Bradbourn	89
am	89
▁minus	89
▁unprofitable	89
▁happier	89
▁defences	89
▁alerted	89
capacity	89
▁opportunism	89
▁Cubans	89
▁Multilateral	89
▁Catholics	89
▁spouse	89
▁compliant	89
▁cushion	89
ac	88
cum	88
▁fishers	88
her	88
▁Normally	88
▁atrocious	88
▁provoking	88
▁defamation	88
▁convincingly	88
▁stripped	88
▁prostitutes	88
▁hegemony	88
▁sunset	88
evaluation	88
▁assaults	88
▁pork	88
▁inputs	88
▁persuasive	88
▁infancy	88
▁Reul	88
▁amid	88
▁imperialists	88
id	88
▁upsetting	88
▁Enterprise	88
atanen	88
▁hallmark	88
▁hijacked	88
▁Marseilles	88
▁forwarding	88
▁barred	88
▁accent	88
▁mixtures	88
▁Schaffner	88
▁unexpectedly	88
▁specificities	88
▁Info	88
efficiency	88
▁shelves	88
clear	88
▁complementing	88
▁expenditures	88
▁rescued	88
▁heels	88
oil	88
▁overwhelmed	88
▁discard	88
▁payers	88
▁Garot	88
▁promotions	88
legal	88
▁indulging	88
▁Toward	88
▁tranche	88
▁collapsing	88
▁articulated	88
▁loft	88
▁Liberation	88
olkswagen	88
▁uprooted	88
▁spirall	88
▁linkage	88
missile	88
▁Sicily	88
▁strives	88
▁lawlessness	88
▁drawback	88
▁boundary	88
▁microfinance	88
▁Adriatic	88
▁scourges	88
effectiveness	88
fired	88
▁assesses	88
▁miracles	88
▁traces	87
▁pragmatically	87
▁stricken	87
Kyoto	87
▁withheld	87
▁jeopardize	87
pproximately	87
▁sisters	87
▁artisan	87
▁Sarnez	87
▁beacon	87
▁conceptual	87
▁Schlyter	87
▁commemoration	87
▁TEC	87
▁tribal	87
▁unskilled	87
▁herald	87
▁mask	87
alle	87
▁Morris	87
▁viruses	87
▁overtime	87
▁Equitable	87
▁Fantuzzi	87
▁Madame	87
oh	87
▁intimate	87
▁prohibitive	87
▁voyage	87
▁Airways	87
▁paralyse	87
▁Senegalese	87
▁plunder	87
▁senses	87
▁appreciable	87
▁museum	87
▁Seoul	87
▁narrowly	87
Western	87
▁brands	87
▁symbolises	87
▁Frahm	87
changing	87
▁ODA	87
▁Cars	87
▁Early	87
▁straw	87
▁readable	87
▁Hallam	87
▁landings	87
▁Street	87
▁mild	87
▁reorganise	87
▁motivating	87
▁Carlotti	87
▁Hutchinson	87
▁commissions	87
▁cries	87
▁deduction	87
▁Giovanni	87
▁blowing	87
▁bitterly	87
▁Stop	87
alan	87
embracing	87
▁Koreans	87
▁spells	87
monetary	87
▁bud	87
▁stabilisers	87
▁bogus	87
▁resemble	87
▁dissuasive	86
▁Give	86
▁wheels	86
▁scare	86
▁Papastamkos	86
▁instil	86
▁abductions	86
▁lags	86
▁conspiracy	86
▁reorientation	86
▁Serious	86
▁excitement	86
▁searches	86
ig	86
▁belated	86
▁privatising	86
▁workshop	86
▁intrusion	86
▁smile	86
▁stifling	86
▁Europass	86
▁mainstay	86
▁Gabon	86
▁pros	86
borsk	86
▁homogenous	86
▁Extending	86
▁Funk	86
▁eastwards	86
▁Observation	86
work	86
▁followers	86
▁multiply	86
centred	86
▁superb	86
▁malpractice	86
▁avenue	86
▁Forty	86
▁Armed	86
▁Bilbao	86
▁schedules	86
▁leather	86
▁fertiliser	86
▁secretly	86
▁horrifying	86
▁Bin	86
▁appearances	86
▁unsolicited	86
io	86
▁implying	86
▁euphoria	86
▁Fjellner	86
▁chorus	86
▁surge	86
eo	86
▁hardware	86
▁decommissioned	86
edge	86
frontier	86
▁operandi	86
▁Nitrate	86
▁motorists	86
▁Mbeki	86
▁bite	86
▁disagrees	86
▁Rouge	86
seated	86
▁commitology	86
▁Hamburg	86
▁demography	86
▁exposes	86
▁slick	86
▁lips	86
▁collaborative	86
calls	85
▁Pompidou	85
▁burst	85
▁hemisphere	85
▁evenly	85
ur	85
▁lengths	85
▁Auschwitz	85
ham	85
▁Marinho	85
▁yellow	85
▁infinitely	85
▁restrain	85
▁Rambouillet	85
▁sands	85
▁ranges	85
▁audited	85
▁entrance	85
▁barbarous	85
▁boldly	85
▁trillion	85
area	85
ification	85
▁distinctly	85
Members	85
▁emotive	85
▁lucid	85
▁Scheele	85
Zá	85
▁pretence	85
faceted	85
▁Belarusians	85
▁strains	85
▁detentions	85
▁Colajanni	85
▁signifies	85
▁pirates	85
finance	85
advised	85
critical	85
▁illiterate	85
▁particulate	85
▁appropriated	85
refoulement	85
▁secretaria	85
▁allegation	85
▁Philippe	85
ompliance	85
▁investiture	85
▁SAB	85
▁mega	85
▁fertility	85
see	85
▁justifications	85
▁irresponsibly	85
▁enlighten	85
▁retaliation	85
▁Berenguer	85
▁Republika	85
▁kidnappings	85
▁impractical	85
▁Havel	85
▁immunities	85
▁cyclists	85
▁Sen	85
▁seeker	85
▁Eliminati	85
▁championed	85
▁perpetrator	85
▁caricature	85
missible	85
▁lobbied	85
▁CCCTB	85
▁Australian	85
▁riches	85
▁stringency	85
▁minimalist	85
▁statehood	84
▁Paradoxically	84
nanotechnologies	84
▁restrained	84
Muslim	84
▁trusts	84
▁medieval	84
▁humiliated	84
▁emitted	84
▁ministry	84
▁adjacen	84
▁amicable	84
▁fuller	84
▁poured	84
▁bankruptcies	84
▁unimpeded	84
▁decoupled	84
regulatory	84
ushchenko	84
▁misunderstand	84
▁microphone	84
▁Damascus	84
▁fa	84
▁travels	84
▁breeds	84
▁multiplier	84
▁injection	84
▁blown	84
▁Gilad	84
▁encryption	84
▁frustrations	84
▁inconvenient	84
▁Duhamel	84
▁selfishness	84
sounding	84
▁transpired	84
▁Alyssandrakis	84
▁vastly	84
pel	84
▁Chechens	84
▁projections	84
▁poisoned	84
▁edifice	84
▁Sarlis	84
▁blanche	84
▁inexplicable	84
atican	84
▁POSEI	84
▁Final	84
str	84
▁cholera	84
▁wives	84
▁rebuilt	84
▁Mostar	84
ha	84
▁recur	84
control	84
▁landfills	84
▁naked	84
▁sampling	84
▁annoyed	84
▁basket	84
▁abhorrent	84
▁subcontracting	84
▁Batzeli	84
▁ranking	84
▁invests	84
▁sclerosis	84
ard	84
▁geological	84
▁optimis	84
▁endlessly	84
▁goat	84
▁discord	84
ations	84
▁OCTs	83
▁Pastrana	83
▁unarmed	83
▁simplifications	83
▁routinely	83
▁accredited	83
▁sleeping	83
▁perceptible	83
▁Huhne	83
▁sympathies	83
▁Authorities	83
▁scales	83
▁con	83
▁usher	83
irgin	83
▁wins	83
▁liberate	83
▁persecute	83
▁Croats	83
▁pitiful	83
▁Eurosceptic	83
regulated	83
▁analogy	83
▁Mira	83
▁formulations	83
▁Euronews	83
▁driftnets	83
▁Application	83
▁ultraperipheral	83
▁nose	83
▁exclusions	83
▁Initiatives	83
▁Nazis	83
▁Sudre	83
colonial	83
▁irrigation	83
q	83
▁Corruption	83
▁Welcome	83
▁repressed	83
▁Advertising	83
▁spurious	83
▁eventuality	83
lectoral	83
▁Andor	83
▁impeded	83
▁boosted	83
▁bullying	83
ya	83
▁Lenz	83
▁Mera	83
▁Alle	83
▁kerosene	83
▁samples	83
▁Lambsdorff	83
▁viewing	83
ches	83
▁subscribed	83
▁Rainsy	83
▁orphans	83
▁Sainjon	83
ey	83
GDP	83
▁Fatah	83
▁Mavrommatis	83
▁forgiven	83
▁Hoff	83
▁betrayed	83
▁Senator	83
▁mediate	83
▁deviation	83
▁hosted	83
▁Blix	83
▁sponsors	83
▁rewrite	83
▁deregulate	83
▁overshadow	83
▁Procedures	83
▁Mention	83
▁Reformist	82
▁entitle	82
linked	82
▁loaded	82
▁frustrate	82
There	82
▁inhabitant	82
▁stupidity	82
change	82
▁contemplated	82
▁irritation	82
entities	82
▁ringing	82
▁assembled	82
▁proponents	82
▁watchword	82
▁distract	82
UN	82
▁span	82
▁wrongs	82
▁extractive	82
table	82
▁Lello	82
▁plot	82
▁murdering	82
▁spills	82
▁episodes	82
contributory	82
▁mistakenly	82
▁scrupulous	82
▁Coordinator	82
les	82
▁residency	82
▁stroke	82
▁refrained	82
processing	82
▁ca	82
▁demonstrabl	82
▁museums	82
▁Egyptians	82
▁resurgence	82
▁stretches	82
▁aspires	82
▁juice	82
running	82
▁blows	82
▁redefined	82
▁incompetent	82
▁Musotto	82
▁apt	82
▁creditor	82
▁proclaiming	82
▁authenticity	82
decentralization	82
▁disclosed	82
▁juveniles	82
▁Laschet	82
▁schoolchildren	82
▁Po	82
clav	82
▁singular	82
▁eruption	82
cy	82
▁lifts	82
▁erected	82
▁Chanterie	82
▁prescribes	82
▁Traffic	82
▁demagogic	82
▁organizational	82
▁differentials	82
▁intergroup	82
▁accumulate	82
▁OAU	82
▁upside	82
▁fare	82
▁objectionable	82
▁Wuori	82
ho	82
▁accentuate	81
▁Holm	81
▁soils	81
▁painstaking	81
▁Basin	81
▁Helmer	81
▁thoroughness	81
written	81
▁sinister	81
▁modesty	81
read	81
▁exacting	81
▁electorates	81
▁planted	81
▁carcasses	81
▁dilution	81
label	81
▁progresses	81
▁Regulator	81
▁listens	81
tra	81
▁sluggish	81
▁reassessment	81
▁interpreter	81
▁Evidence	81
▁trademarks	81
▁legalised	81
▁Kurdistan	81
▁comparatively	81
▁Scots	81
mmunitarisation	81
▁intolerant	81
▁Returning	81
▁relentlessly	81
▁Trojan	81
▁similarities	81
▁hydro	81
▁Cus	81
▁emigrants	81
▁gateway	81
price	81
▁thoughtful	81
▁overbooking	81
▁confinement	81
family	81
▁powered	81
▁Strong	81
▁embarrassed	81
▁sore	81
▁halv	81
▁histories	81
▁Meijer	81
▁coercive	81
▁mourning	81
▁Junker	81
MS	81
ears	81
▁Corporat	81
iaobo	81
▁Slovene	81
▁meddling	81
▁supra	81
▁laughable	81
▁Matsakis	81
▁redistributing	81
uisthoudt	81
Vá	81
▁revoke	81
▁eEurope	81
▁Battisti	81
▁bothered	81
▁heal	81
▁diamond	81
▁hurdle	81
▁ugly	81
▁Pass	81
▁EGNOS	81
▁friction	81
▁idly	81
▁goats	81
▁polite	81
▁sank	81
ize	81
▁nursery	81
▁Perea	81
▁disagreed	80
meaning	80
▁warns	80
▁vacancies	80
▁CFR	80
▁Asensio	80
▁disdain	80
▁backwardness	80
▁lawfully	80
▁Belet	80
PF	80
▁wastage	80
▁hooliganism	80
▁Grybauskait	80
▁oxide	80
▁Podest	80
▁biocides	80
▁Patrie	80
▁Bohunice	80
▁incidental	80
liberalism	80
high	80
▁Onesta	80
▁Papadimoulis	80
▁goodbye	80
▁shipwreck	80
▁inviolability	80
▁cart	80
▁DCI	80
▁clouds	80
▁notifications	80
▁suppressing	80
▁impinge	80
▁salien	80
▁paedophiles	80
pproval	80
▁initialled	80
▁inmates	80
▁Pro	80
▁slice	80
▁deplored	80
▁mapped	80
▁Tell	80
▁brick	80
▁diverge	80
▁kilo	80
▁Ainardi	80
▁omit	80
▁modelled	80
▁Ariane	80
▁methodological	80
Commissioner	80
▁Khodorkovsky	80
▁Da	80
corruption	80
▁dance	80
▁Plenary	80
▁necessities	80
▁footsteps	80
▁TSE	80
▁Microsoft	80
▁dissolution	80
▁Parkinson	80
▁Biscay	80
▁Reading	80
▁annoying	80
▁distancing	80
▁wireless	80
▁titles	80
education	80
▁forthwith	80
criticism	80
▁intentionally	80
▁twinning	80
Öç	80
▁circular	80
▁fax	80
▁technicians	80
▁sweet	80
▁Opposition	80
▁mooted	80
▁packed	79
▁Claude	79
renewable	79
▁dogmas	79
▁numerical	79
▁greening	79
▁rectifying	79
▁hangs	79
▁crunch	79
▁communitisation	79
▁Airlines	79
▁enjoyment	79
hulled	79
▁Sixty	79
▁familiarise	79
pi	79
▁glory	79
mi	79
ib	79
▁angles	79
▁Family	79
communist	79
▁Abdullah	79
▁endow	79
▁clich	79
can	79
▁Fruteau	79
religious	79
▁passivity	79
▁insensitive	79
▁methodologies	79
▁forgets	79
▁disturbance	79
▁harbours	79
▁explosives	79
▁inaccessible	79
rei	79
▁Blue	79
▁capitalise	79
trasanta	79
onsultative	79
▁irradiation	79
cu	79
▁interventionist	79
▁Significant	79
▁grade	79
▁selectively	79
▁discharging	79
▁Century	79
▁crackdown	79
catches	79
Sheikh	79
▁le	79
▁pit	79
▁reliev	79
▁boils	79
▁deputising	79
▁Appeal	79
▁Dary	79
▁peril	79
produced	79
▁additionally	79
▁mapping	79
▁pelagic	79
▁Herczog	79
▁performs	79
▁trustworthy	79
jer	79
▁anticipates	79
▁Park	79
▁Conferences	79
▁secretive	79
qu	79
▁demise	79
▁Provided	79
▁ignorant	79
▁disruptions	79
▁retaliat	79
▁inescapable	79
▁rivals	79
▁torment	79
▁resembles	78
▁progression	78
hard	78
▁complicit	78
▁victories	78
ala	78
▁sword	78
▁Marinucci	78
▁apathy	78
ttention	78
▁bubble	78
ept	78
imposed	78
▁echoes	78
▁undervalued	78
▁founders	78
▁awards	78
▁stipulation	78
▁folly	78
ΝΑΤΟ	78
▁Grech	78
▁mediators	78
▁Counter	78
▁blindness	78
▁cordial	78
▁straits	78
▁Soon	78
▁programmed	78
▁Oddy	78
▁Actions	78
▁louder	78
▁Rodr	78
▁remunerated	78
▁draftsperson	78
▁avoidable	78
ster	78
▁Larive	78
▁indisputably	78
▁professor	78
▁seabed	78
▁murderer	78
▁scrutinising	78
▁trainees	78
▁repudiate	78
▁Name	78
▁elephants	78
▁acceptability	78
▁Consider	78
enlargement	78
▁criminalising	78
▁correspondingly	78
ical	78
▁Georgians	78
▁regularisation	78
▁urgencies	78
▁Developments	78
▁filters	78
▁MP	78
▁OPEC	78
may	78
▁chairperson	78
▁hunters	78
▁mortgages	78
▁abject	78
▁accrue	78
▁California	78
technical	78
▁Colonel	78
▁cared	78
▁culling	78
▁issuance	78
part	78
▁hall	78
Jakob	78
▁completes	78
▁homophobic	78
▁pouring	78
Israeli	78
▁pack	78
▁squeeze	78
codified	78
uk	78
▁Bundestag	78
▁tying	78
▁Casini	78
▁Roche	78
om	78
ating	78
▁morals	78
▁leak	78
▁imperial	78
▁funeral	78
▁relaunched	78
▁Mu	78
alencian	78
▁inspectorate	78
▁Broad	78
▁floating	78
▁cloak	78
credits	78
▁debtors	78
language	78
▁depressed	77
▁Rueda	77
▁chasm	77
▁Corrie	77
▁vile	77
▁Elections	77
▁ostensibly	77
▁bulbs	77
▁instant	77
▁dreamt	77
▁Cercas	77
▁strings	77
▁paradise	77
▁interviews	77
▁noisy	77
▁inactivity	77
▁Add	77
▁resentment	77
▁Net	77
▁Protestant	77
▁tack	77
▁conveys	77
▁terrain	77
▁fervently	77
▁milestones	77
▁Resolutions	77
▁Mali	77
▁Doris	77
▁sons	77
opening	77
▁unwieldy	77
Uyttebroeck	77
▁apple	77
▁contradicted	77
▁unproductive	77
▁Farm	77
black	77
▁dolphins	77
▁slide	77
▁councillor	77
▁Minorities	77
▁faulty	77
▁apprentices	77
▁Judge	77
ilvoorde	77
▁devalued	77
▁seller	77
▁Majesty	77
▁affirms	77
▁puzzle	77
▁hydrologic	77
▁attainable	77
▁preoccupied	77
▁priest	77
▁breastfeeding	77
▁Consultation	77
▁averted	77
▁stirred	77
▁Penal	77
▁Bring	77
▁rogue	77
▁purposeful	77
▁Hahn	77
▁Altiero	77
▁signify	77
▁GSM	77
▁protectorate	77
▁inclination	77
▁impediment	77
▁Dan	77
▁unprotected	77
▁Bouwman	77
▁Addis	77
▁expediency	77
▁newer	77
misappropriation	77
▁Demand	77
group	77
▁Language	77
▁ideologically	77
▁End	77
▁pregnancies	77
ys	77
▁Must	77
▁liberalized	77
▁Buitenen	77
stricken	77
▁Infrastructure	77
DEC	77
▁specialized	76
▁Clarke	76
▁slim	76
▁Czechoslovakia	76
▁affirmative	76
▁fluid	76
▁ransom	76
▁knee	76
▁magazines	76
▁professors	76
▁taxi	76
British	76
▁suchlike	76
▁paraphrase	76
▁revelations	76
▁plausible	76
▁cooperates	76
sen	76
▁harvests	76
fair	76
▁abnormal	76
▁empowering	76
too	76
▁conversely	76
▁cruelly	76
▁manoeuvring	76
▁furniture	76
▁advertised	76
CON	76
▁Slovaks	76
▁MO	76
▁landowners	76
▁Animals	76
▁rolled	76
▁displeasure	76
▁directories	76
▁historians	76
▁wetlands	76
sponsored	76
▁recognisable	76
waste	76
▁regretting	76
▁slander	76
▁assassinated	76
▁Probably	76
▁ha	76
▁associates	76
▁entailing	76
▁numbering	76
▁misinformation	76
▁symptom	76
▁Hitherto	76
▁Busk	76
▁pedestrian	76
▁laurels	76
▁Laval	76
ugoslavian	76
’;	76
▁saves	76
▁Rangoon	76
▁ultraliberal	76
▁sing	76
▁Lambrinidis	76
▁Low	76
▁climb	76
▁KGB	76
▁articulate	76
▁Guatemalan	76
western	76
Ő	76
▁landscapes	76
▁fishmeal	76
ila	76
▁withdrawals	76
site	76
▁Politics	76
learning	76
▁Mantovani	76
▁Nagoya	76
▁quickest	76
▁Intervention	76
▁greetings	76
▁counterweight	76
cooperation	76
▁Bavarian	76
▁shameless	76
▁antiquated	76
▁sins	76
▁devolved	76
▁regressive	76
▁belatedly	76
▁Stenzel	76
▁fruitless	76
▁markings	76
▁Coalition	76
lessly	76
▁collegiate	75
▁glimmer	75
▁packet	75
▁unison	75
▁accountancy	75
▁FMD	75
ah	75
▁Mohammed	75
▁catalytic	75
▁Murphy	75
▁phytosanit	75
▁wield	75
▁nights	75
▁loser	75
▁stationed	75
▁tapping	75
▁appended	75
▁camera	75
▁annulled	75
isinterpretation	75
guez	75
▁descendants	75
week	75
▁demolition	75
▁stubbornly	75
▁Karadzic	75
▁refine	75
▁smell	75
▁preaching	75
▁manure	75
▁Fellow	75
▁Chatzimarkakis	75
▁downgrading	75
▁pie	75
▁stipulations	75
▁STOA	75
▁intelligible	75
▁Ljubljana	75
signed	75
▁unfettered	75
▁cowardice	75
▁Mass	75
▁spectators	75
door	75
▁cream	75
▁Kinshasa	75
▁Intellectual	75
▁fisherman	75
CFSP	75
▁Nazionale	75
community	75
▁complexities	75
▁Whoever	75
▁transboundary	75
▁interrelated	75
▁adventitious	75
▁hindsight	75
▁trialogues	75
▁stabilization	75
▁fined	75
ECB	75
▁timeliness	75
▁harvesting	75
▁remnants	75
▁obsessed	75
▁ruining	75
▁Famagusta	75
eligious	75
▁Creutzfeldt	75
▁hooligans	75
▁thick	75
▁grab	75
▁uprisings	75
▁abominable	75
▁EURO	75
▁consortium	75
▁GCC	75
▁ecopoints	75
▁Bulgarians	75
▁asymmetry	75
▁collision	75
▁cherish	75
▁enacting	75
▁tower	75
▁necessitates	75
▁UNITA	75
▁resilience	74
▁realization	74
action	74
▁talented	74
▁odious	74
▁Papandreou	74
▁lately	74
▁rejoicing	74
▁Carl	74
▁overlaps	74
▁alteration	74
▁mediocre	74
▁CEECs	74
▁shortfalls	74
▁Beazley	74
pays	74
▁bang	74
Chairman	74
▁Caspary	74
▁poly	74
ň	74
▁Interest	74
▁sinks	74
▁patiently	74
assiliou	74
▁FARC	74
▁harshly	74
▁frontloading	74
▁Eighty	74
▁deceptive	74
▁enactment	74
▁Lords	74
▁threefold	74
▁Passengers	74
▁inserting	74
▁PCBs	74
▁advocacy	74
▁shouting	74
▁Terni	74
▁spontaneously	74
▁Cities	74
▁sterile	74
▁rotten	74
where	74
▁Scoreboard	74
▁deed	74
▁Fuel	74
▁mould	74
▁pioneers	74
▁circumvented	74
▁Mouskouri	74
▁advertisement	74
▁Gda	74
▁donated	74
▁IFRS	74
▁slump	74
▁heinous	74
▁handbook	74
▁seasons	74
respect	74
▁Thankfully	74
▁Omar	74
▁Tigers	74
▁utopia	74
▁auxiliary	74
▁Jacob	74
▁watertight	74
▁Korakas	74
▁hinges	74
herently	74
sectoral	74
▁Exports	74
▁whip	74
▁alarmingly	74
▁Belgians	74
rian	74
Brazil	74
▁automated	74
▁nut	74
▁anachronistic	74
▁Dini	74
▁populous	74
▁Telecom	74
▁UNDP	74
ero	74
▁census	74
▁researching	74
▁Enhanc	74
equal	74
▁reckon	74
Loud	74
▁exploitative	74
▁reportedly	74
▁Eurocrats	74
Cortines	74
▁complains	74
alta	74
▁unintended	74
▁entertain	74
▁antisocial	74
head	74
▁assignment	74
▁irradiated	74
▁spawning	74
▁Koch	73
▁Ba	73
creation	73
▁dis	73
▁separates	73
▁intransigent	73
▁Ugandan	73
▁Simplification	73
skilled	73
▁Rehder	73
▁Try	73
▁straitjacket	73
▁Line	73
▁Sun	73
▁bioethics	73
▁eroding	73
▁squarely	73
▁treasury	73
▁overload	73
▁anonymity	73
▁grievances	73
▁string	73
▁passively	73
▁overloaded	73
▁strata	73
▁dissident	73
▁festival	73
▁promoter	73
▁prudently	73
▁secession	73
▁flavour	73
▁ushers	73
▁loop	73
▁maxim	73
atory	73
▁corrigendum	73
▁Clercq	73
▁phosphates	73
▁subordination	73
don	73
▁du	73
▁departing	73
▁technocrats	73
▁expands	73
▁Casa	73
▁Sexual	73
region	73
▁compares	73
▁bits	73
▁liquids	73
▁neighbourliness	73
▁pile	73
▁unjustly	73
▁politely	73
▁pandemics	73
▁decommission	73
▁diligent	73
▁slaughtering	73
▁solves	73
▁Wuermeling	73
▁PDB	73
▁shaky	73
▁exaggerate	73
▁intangible	73
▁Adamou	73
▁fattening	73
▁smacks	73
▁Bratislava	73
▁Greenpeace	73
▁strangely	73
▁rediscover	73
▁PCA	73
constitutional	73
▁propagation	73
breast	73
▁unforeseeable	73
▁canned	73
consumer	73
▁enlist	73
▁ponder	73
▁yards	73
parent	73
▁inciting	73
▁hydroelectric	73
[...]
