,	3432994
.	1982480
▁die	1798179
▁der	1651705
▁und	1328312
▁	927226
▁in	736292
▁zu	638322
▁den	576785
▁für	469949
▁von	462374
▁ist	455523
▁dass	381512
▁das	380941
▁wir	368583
▁nicht	366253
▁des	364209
▁auf	349879
▁eine	331009
▁werden	315594
0	289602
▁es	286549
▁mit	281164
▁im	279086
▁ich	272824
-	267455
▁auch	258023
▁dem	240364
▁ein	219256
▁sich	215302
▁wird	212592
▁Ich	210080
▁haben	198882
▁sind	195196
▁Die	188627
en	182075
▁hat	176410
▁Kommission	172747
▁um	170818
2	166579
▁-	163783
▁über	161292
▁wie	156529
▁an	156036
1	155532
▁sie	153596
▁als	153403
▁daß	152308
▁zur	149111
n	145369
▁Herr	143778
▁Wir	135529
▁einer	133839
▁diese	127729
▁Sie	125048
▁Union	124788
s	124466
▁uns	121601
Europäischen	121043
▁bei	120672
▁müssen	116892
▁einen	116493
▁dieser	112360
▁möchte	109374
▁Bericht	101611
▁Es	98761
▁noch	98222
▁können	97086
9	96320
▁vor	95815
▁Präsident	95419
▁diesem	94739
▁Das	93589
▁nur	92454
▁kann	92376
▁nach	90489
▁aus	90241
▁Parlament	89691
▁so	89459
▁aber	89298
▁wenn	88095
▁zum	87898
▁oder	85857
▁sein	85360
▁EU	85169
▁sehr	85084
:	84151
▁durch	83605
▁Mitgliedstaaten	82537
!	78074
▁(	74658
▁einem	72154
)	71324
5	69667
▁muss	69617
▁dieses	69119
▁Der	68038
▁was	67621
▁Frau	67583
▁Europa	66980
▁Europäische	66321
▁wurde	65728
▁Rat	61416
▁mehr	59956
?	59711
▁In	59292
▁alle	59168
e	58638
3	58389
▁ihre	57876
▁Entwicklung	56303
▁hier	55556
▁dies	54055
▁zwischen	53928
▁diesen	53820
▁eines	53661
▁man	53300
▁habe	53154
▁europäischen	52865
▁er	51860
4	50401
▁gibt	50135
▁damit	49362
▁unsere	49183
▁keine	49089
▁mich	48823
▁Frage	48320
▁gegen	48128
er	47078
▁jedoch	46524
▁sondern	46356
▁Herrn	45240
▁war	45182
▁"	44902
▁Menschen	44782
▁am	44428
▁anderen	44371
▁Maßnahmen	44181
▁unter	43984
7	43834
▁heute	43574
▁sollte	43422
▁sollten	43379
6	42582
▁dann	42311
8	42305
▁sowie	41710
▁Recht	40993
▁bereits	40772
▁da	40324
▁Parlaments	39287
▁immer	39242
▁weil	38617
▁denn	38615
▁wurden	37529
▁bin	37403
▁Bürger	37175
▁Arbeit	36971
▁denen	36885
▁darauf	36808
▁Vorschlag	36718
▁unserer	36578
vom	36507
▁meine	36354
▁ganz	35869
/	35847
▁–	35786
▁dafür	35634
▁sagen	35483
▁geht	35276
▁jetzt	34636
▁Sicherheit	34067
▁Wenn	33975
▁dazu	33909
▁ihrer	33354
▁Kollegen	32989
▁mir	32794
;	32423
r	32384
▁Gemeinschaft	32157
▁neuen	32016
▁insbesondere	31683
▁würde	31208
▁selbst	30750
▁Zusammenarbeit	30289
▁Länder	30218
▁doch	30162
▁Kommissar	30060
▁Diese	29991
▁Zeit	29915
▁Ihnen	29809
▁allem	29630
▁muß	29623
%	29619
▁wichtig	29544
▁wollen	29446
▁Unterstützung	29320
▁Bereich	29300
▁Rahmen	28841
▁machen	28835
▁Jahr	28812
▁Richtlinie	28763
▁einige	28418
▁allen	28388
▁bis	28359
▁ohne	28272
▁ob	28092
▁Regierung	27996
▁neue	27943
▁seine	27771
▁andere	27610
▁Jahren	27244
▁wissen	26921
▁Land	26778
▁wäre	26569
▁Dies	26376
▁tun	25722
▁Unternehmen	25687
▁meiner	25641
▁Problem	25628
▁Im	25604
▁schon	25391
▁Ländern	25213
▁zwei	24819
▁Wie	24797
▁einmal	24785
m	24752
▁Namen	24665
"	24616
▁Fall	24478
▁Meinung	24382
▁Thema	24216
▁soll	24202
▁europäische	23948
▁also	23917
▁politischen	23869
▁darüber	23786
▁Bedeutung	23720
▁Fragen	23610
▁etwas	23600
▁Ziel	23599
▁Präsidentin	23587
▁viele	23561
▁Wirtschaft	23490
▁Mittel	23487
▁Fraktion	23376
▁worden	23353
▁Lage	23201
▁ihren	23077
▁Rates	23009
▁nun	22997
▁wieder	22895
▁geben	22895
▁besteht	22890
▁Politik	22890
▁unterstützen	22823
▁Frauen	22750
▁viel	22747
▁Zukunft	22707
▁Entschließung	22456
▁Staaten	22348
▁Probleme	22258
▁Was	22197
▁daher	22171
▁Welt	21752
▁wirklich	21741
▁Situation	21676
▁natürlich	21511
▁Zusammenhang	21265
▁Rolle	20999
▁gesagt	20988
▁zwar	20851
▁möglich	20692
▁Deshalb	20672
Änderungsanträge	20635
▁nämlich	20521
▁glaube	20410
Ö	20070
Q	20058
▁letzten	20006
es	19900
▁unseren	19680
▁seiner	19662
▁Euro	19490
▁große	19356
▁Wettbewerb	19080
▁Schutz	19066
spolitik	19066
▁Verbraucher	19009
▁davon	18958
▁betrifft	18906
▁ihr	18593
▁Weise	18574
▁könnte	18571
▁Teil	18378
▁Europas	18341
▁gegenüber	18326
▁daran	18302
▁Menschenrechte	18296
▁Aber	18045
▁hoffe	17906
ung	17875
▁Punkt	17774
▁ja	17734
▁stellen	17723
▁drei	17562
▁darf	17560
▁während	17528
Berichterstatter	17526
▁Grund	17483
▁Weg	17432
▁Und	17409
▁dabei	17357
▁weiter	17325
▁Jahre	17298
▁deren	17294
▁Ein	17272
▁nationalen	17270
▁kein	17245
▁Vorschläge	17191
▁waren	17164
▁politische	17034
▁Herren	16994
▁Ansicht	16984
▁Lösung	16982
▁stehen	16955
▁Änderungsantrag	16926
▁Entscheidung	16923
▁sowohl	16801
▁Rechte	16796
▁gut	16793
▁Haushalt	16771
▁Umsetzung	16727
▁Möglichkeit	16726
▁darin	16692
▁lassen	16676
▁Debatte	16615
▁kommen	16588
▁Abstimmung	16584
▁Artikel	16567
▁wo	16562
▁Beschäftigung	16550
▁führen	16546
▁Art	16530
▁Ebene	16501
▁seit	16444
▁besonders	16428
▁bringen	16419
▁brauchen	16349
▁ihnen	16298
▁Umwelt	16234
▁internationalen	16228
▁Bezug	16168
▁Demokratie	16146
▁Beispiel	16145
▁steht	16125
▁Abgeordneten	16099
▁Kolleginnen	16062
▁Damen	15967
▁gemeinsamen	15928
▁Auch	15856
▁dürfen	15782
▁liegt	15768
▁klar	15751
▁Aus	15718
▁Aussprache	15655
▁großen	15650
wirtschaftlichen	15645
▁Verantwortung	15605
▁danken	15515
▁erhalten	15498
▁Gesundheit	15452
▁Eine	15330
▁sozialen	15316
▁Hinblick	15238
▁aller	15230
▁Millionen	15201
▁weiterhin	15112
▁deshalb	14945
▁Verordnung	14937
▁welche	14884
▁innerhalb	14851
▁Ausschuss	14818
▁Verfahren	14774
▁ab	14729
▁Ausschusses	14721
▁Hilfe	14716
▁Verhandlungen	14686
▁denke	14670
▁Ziele	14632
▁Daher	14552
▁einigen	14539
▁sollen	14517
▁ersten	14447
▁erreichen	14433
▁gerade	14407
▁Vertrag	14384
'	14368
▁Mit	14349
▁Forschung	14347
▁handelt	14334
▁Grundlage	14323
▁deutlich	14211
▁wichtige	14203
▁Ende	14169
▁Er	14168
▁alles	14156
▁Ihre	14155
▁Abkommen	14153
▁finden	13974
▁gestimmt	13903
▁gemeinsame	13831
▁Regionen	13809
▁schaffen	13800
▁Erweiterung	13799
▁solche	13798
▁Institutionen	13769
▁Vereinigte	13741
▁werde	13735
▁notwendig	13702
▁sprechen	13677
▁beiden	13610
▁beim	13588
▁weitere	13582
▁Tatsache	13524
▁Auf	13505
▁Strategie	13468
▁gilt	13466
▁gemacht	13452
▁will	13452
▁Auswirkungen	13434
▁würden	13403
▁Nach	13268
▁Bevölkerung	13266
▁Ausdruck	13191
▁indem	13130
▁nichts	13081
▁Energie	13052
▁kommt	12986
▁stellt	12964
▁unterstützt	12907
▁unser	12863
▁Informationen	12856
▁ebenfalls	12835
▁Anwendung	12832
▁Lissabon	12788
▁darum	12785
t	12761
▁keinen	12740
▁weniger	12692
▁vielen	12628
▁beispielsweise	12616
▁Förderung	12603
▁Türkei	12552
▁hinaus	12550
▁Interesse	12546
▁eigenen	12518
▁dessen	12438
▁Da	12414
▁verschiedenen	12395
▁seinen	12392
▁Meine	12388
▁sehen	12365
▁hatte	12326
▁Behörden	12320
▁Beziehungen	12290
▁vielleicht	12283
▁Bei	12204
▁bedeutet	12188
▁Erachtens	12099
▁genau	12081
▁besser	12021
▁Als	12005
▁Schaffung	11993
▁Gebiet	11948
▁nehmen	11939
▁Antwort	11900
▁erforderlich	11898
▁Region	11897
▁Zugang	11890
▁öffentlichen	11779
▁einfach	11709
▁Kosten	11698
▁sogar	11678
▁sei	11635
▁Kommissarin	11623
▁hätte	11622
▁aufgrund	11595
▁dort	11542
▁Notwendigkeit	11491
▁Bedingungen	11418
▁Markt	11352
▁Bekämpfung	11336
▁B	11330
▁sicher	11298
▁Interessen	11271
▁könnten	11268
▁nächsten	11200
▁meinen	11197
▁So	11168
▁Schritt	11168
▁angenommen	11144
▁Dieser	11127
▁Aufgabe	11123
Fraktion	11123
▁Verbesserung	11097
▁Beitrag	11057
▁System	11045
▁Landwirtschaft	10995
▁all	10963
▁weiß	10905
▁hinsichtlich	10876
▁meines	10849
▁gehen	10825
▁ihrem	10817
▁Reihe	10786
▁Programm	10778
▁heißt	10775
▁Leben	10764
▁soziale	10742
▁Fortschritte	10729
▁erreicht	10713
▁gute	10702
▁Mehrheit	10655
svorschriften	10648
▁wichtigen	10642
▁Gesellschaft	10633
▁Fischerei	10622
▁Finanzierung	10598
▁Haus	10565
▁Verfassung	10553
▁Krise	10547
▁allerdings	10537
▁Standpunkt	10515
▁Präsidentschaft	10385
▁USA	10378
▁ihm	10340
▁Kontrolle	10240
▁Herausforderung	10240
▁Handel	10238
▁schriftlich	10224
▁begrüße	10213
▁Berichts	10211
▁gehört	10207
▁Für	10201
▁halte	10199
▁Form	10167
▁Bereichen	10155
▁Richtung	10135
▁Dank	10131
den	10105
▁halten	10078
▁Kinder	10074
▁Ergebnis	10052
▁Gelegenheit	10047
▁ihn	10024
▁fördern	9975
▁Arbeitnehmer	9954
▁dar	9919
▁Auffassung	9914
▁äußerst	9864
▁erste	9858
▁jeder	9848
▁Tagesordnung	9833
▁einzelnen	9808
▁gemeinsam	9806
▁Initiative	9763
▁meinem	9751
▁Jahres	9744
▁gegeben	9731
▁völlig	9705
▁Industrie	9649
▁Änderung	9645
▁Diskussion	9639
▁europäischer	9615
▁erst	9600
▁Mitglieder	9562
▁Vor	9532
▁Wort	9532
▁Regierungen	9520
▁Bürgerinnen	9505
▁Transparenz	9499
▁bleiben	9471
▁wirtschaftliche	9466
▁gestellt	9461
▁richtig	9401
▁gesamten	9395
erstatterin	9393
▁Solidarität	9380
▁tatsächlich	9378
▁Dialog	9377
▁Erklärung	9374
▁weit	9351
▁Einführung	9336
▁ebenso	9328
▁gewährleisten	9323
▁bereit	9293
▁Verwaltung	9277
▁Reform	9238
▁Verfügung	9200
▁Möglichkeiten	9185
▁derzeit	9171
„	9133
▁Vorschriften	9116
sfähigkeit	9101
▁Bürgern	9077
▁Integration	9024
“	9018
▁Folgen	9001
▁Seite	8930
▁Entscheidungen	8921
▁gebracht	8911
▁Binnenmarkt	8862
▁gleichzeitig	8848
▁verbessern	8838
▁Geld	8821
▁Beitritt	8815
▁Gewalt	8811
▁geführt	8748
▁Text	8748
▁zunächst	8719
▁angesichts	8715
▁Kampf	8711
▁nutzen	8680
▁unserem	8665
▁wenig	8652
▁hatten	8651
▁bestehen	8650
▁Erfolg	8636
▁setzen	8584
▁Hinsicht	8580
▁Bildung	8575
▁Zweitens	8556
▁wohl	8544
▁Außerdem	8539
▁jeden	8526
verständlich	8482
▁Angelegenheit	8459
▁stimmen	8444
▁fordern	8435
bzw	8398
▁Information	8376
▁Personen	8362
▁wobei	8355
▁etwa	8324
▁seinem	8306
▁Nationen	8303
sverfahren	8302
▁Ergebnisse	8298
▁macht	8271
▁Hier	8256
▁Gefahr	8250
▁beitragen	8245
▁Themen	8238
▁Terrorismus	8224
▁Bestimmungen	8223
▁Bemühungen	8220
▁Punkte	8220
▁Lebensmittel	8184
▁C	8178
▁sagte	8151
▁Ausschuß	8149
▁Zeitpunkt	8128
▁Angelegenheiten	8094
▁Freiheit	8089
▁getan	8077
▁Man	8076
▁arbeiten	8072
▁großer	8070
▁Zu	8054
▁Russland	8044
▁solchen	8033
▁Dinge	8026
▁leisten	7999
▁unseres	7996
▁Um	7969
ualität	7952
▁bisher	7947
▁lediglich	7944
▁vorgeschlagen	7940
▁Frieden	7895
▁Dieses	7886
▁ermöglichen	7883
▁bitte	7876
▁Doch	7871
▁vergangenen	7868
▁obwohl	7856
▁berücksichtigt	7847
▁leider	7844
▁internationale	7838
▁Aufmerksamkeit	7838
▁d	7838
▁vorgelegt	7807
▁sorgen	7771
▁Daten	7724
▁Präsidenten	7694
▁bleibt	7694
▁Erstens	7674
▁zusammen	7664
▁eigentlich	7664
▁Ansatz	7662
▁erster	7660
▁hin	7657
▁Gründen	7657
▁meisten	7644
▁Tat	7626
▁oft	7576
▁Wachstum	7556
▁Arbeitsplätze	7545
▁bezüglich	7539
▁wichtiger	7539
▁begrüßen	7514
▁Investitionen	7512
▁hinweisen	7492
▁Aspekte	7488
▁Sache	7488
▁lange	7484
sicherheit	7456
▁weiteren	7452
▁Anstrengungen	7427
▁bestimmte	7422
▁China	7415
▁helfen	7415
▁Annahme	7413
▁voll	7402
▁hätten	7398
▁genommen	7382
▁zweite	7376
▁tragen	7367
▁Landes	7365
▁Zahl	7351
▁zeigt	7334
▁fest	7306
▁Staat	7305
ffentlichkeit	7303
▁Verpflichtungen	7301
A	7283
▁Damit	7247
▁Grenzen	7224
▁Mal	7208
▁danke	7178
▁Darüber	7155
▁Mitteilung	7121
▁führt	7120
▁Abschließend	7113
▁enthalten	7107
▁Zum	7101
▁Schwierigkeiten	7089
de	7087
▁Nr	7085
▁schnell	7082
▁möchten	7079
▁Änderungen	7074
▁erinnern	7061
▁Regeln	7055
▁eindeutig	7039
▁ergreifen	7030
▁darstellt	7024
▁berücksichtigen	7021
▁wegen	7017
▁demokratischen	7010
▁Armut	7006
▁Woche	6988
▁Durchführung	6984
▁morgen	6978
Dienstleistungen	6954
▁schließlich	6946
▁versuchen	6940
▁Opfer	6912
▁dringend	6911
▁Lassen	6877
▁Prozess	6857
▁stimme	6852
▁Abgeordnete	6839
▁ins	6833
▁Mitgliedstaat	6827
▁Vertrauen	6814
▁unterschiedlich	6814
▁zeigen	6811
▁behandelt	6798
▁verhindern	6780
▁Anerkennung	6774
▁bekannt	6765
▁vier	6745
▁Tag	6737
▁erneut	6730
▁Kompromiss	6729
▁Sinne	6729
▁mein	6723
▁Kultur	6715
▁kurz	6667
▁Minister	6663
▁Kriterien	6662
▁Instrument	6655
▁scheint	6639
▁gar	6635
▁Stabilität	6634
▁Zunächst	6633
▁vertreten	6632
▁gesamte	6621
▁Sicht	6620
▁aufgenommen	6617
▁betonen	6617
▁Position	6613
▁geschaffen	6589
▁vergessen	6579
▁kleinen	6578
▁endlich	6571
▁gleichen	6567
▁Stellungnahme	6563
▁spielen	6543
▁Mitglied	6540
▁Haltung	6535
▁öffentliche	6533
▁liegen	6528
▁fünf	6521
▁leben	6520
▁Parteien	6517
▁diejenigen	6515
▁Vertrags	6514
▁Monaten	6513
▁Vertreter	6495
▁Kraft	6494
▁zumindest	6493
▁Produktion	6485
▁Wahlen	6475
▁weder	6475
▁Unsere	6468
▁gab	6467
▁Lesung	6463
▁bessere	6459
▁Druck	6458
▁dadurch	6451
▁wichtigsten	6433
▁Forderung	6414
▁gemäß	6383
▁Gemeinsamen	6379
▁Einigung	6376
▁guten	6368
▁überhaupt	6365
▁Gesetzgebung	6358
▁allein	6358
▁ziehen	6356
EN	6348
▁gefordert	6341
▁Konferenz	6340
▁anderer	6336
▁Regelung	6325
▁Vereinbarung	6319
▁bekommen	6307
▁Dezember	6300
▁freue	6291
▁Republik	6285
▁einschließlich	6276
▁Sektor	6273
lichen	6265
▁Stelle	6263
▁gesprochen	6258
▁Programme	6255
▁recht	6252
▁bestimmten	6245
é	6227
▁finanziellen	6212
santrag	6206
▁erzielt	6197
▁sicherzustellen	6179
▁umgesetzt	6171
▁Verteidigung	6170
(	6154
▁eben	6153
▁entwickeln	6153
▁Reformen	6145
▁enthält	6135
▁Prioritäten	6132
▁erwähnt	6124
▁festgelegt	6118
▁Nicht	6110
▁akzeptieren	6110
▁Währung	6108
▁Vereinte	6108
▁Anfrage	6104
▁konkrete	6089
▁gewesen	6083
▁Wirtschafts	6078
▁einzige	6055
▁außerdem	6052
▁Verwendung	6051
▁Ihrer	6046
▁Initiativen	6042
▁ermöglicht	6038
▁Zustimmung	6038
▁treffen	6037
▁Ressourcen	6036
▁Natürlich	6035
Geschäftsordnung	6031
▁schützen	6030
▁bitten	6027
▁unterstütze	6027
▁Sitzung	6027
▁fast	6008
▁Seiten	5998
▁überzeugt	5990
a	5986
▁erwarten	5984
▁folgt	5979
▁Meiner	5973
▁konnte	5961
▁Diskriminierung	5955
▁Finanz	5949
▁eingehen	5934
▁statt	5930
▁Fällen	5926
▁größere	5903
▁Frankreich	5901
▁versucht	5898
▁zweiten	5895
▁Überwachung	5893
▁genannten	5877
▁getroffen	5866
▁Werte	5864
▁angesprochen	5864
▁geleistet	5860
▁beschlossen	5856
▁prüfen	5855
▁bewusst	5853
▁jedem	5853
▁Antrag	5851
▁Koordinierung	5849
▁Achtung	5822
▁unbedingt	5802
▁stärker	5799
▁Verkehr	5794
▁vorgesehen	5791
▁Dabei	5779
▁sieht	5771
▁Grundsatz	5768
▁hoffen	5761
▁insgesamt	5729
▁Schließlich	5724
▁Berichte	5714
▁hingewiesen	5708
▁verstehen	5699
▁Allerdings	5696
▁neuer	5686
▁Bereiche	5676
▁richtige	5671
▁warum	5662
▁Beihilfen	5650
▁bestehenden	5649
▁WTO	5649
▁Nutzung	5644
▁Stärkung	5636
▁Kenntnis	5634
▁diskutieren	5633
▁sicherlich	5631
▁gelten	5627
▁Rede	5617
▁heutigen	5608
▁z	5600
▁stark	5598
▁Liberalisierung	5594
▁erfüllen	5592
▁jedes	5591
▁Selbst	5585
gesellschaft	5567
l	5559
▁geworden	5554
▁nationale	5545
▁Instrumente	5544
▁durchgeführt	5541
▁Linie	5537
▁allgemeinen	5537
▁somit	5520
▁klare	5516
▁A	5508
d	5506
▁Einsatz	5495
▁Kosovo	5478
▁Verpflichtung	5475
▁Organisationen	5470
▁Partnerschaft	5459
▁Behandlung	5456
▁Lösungen	5453
▁Partei	5452
▁Sorge	5441
▁Macht	5432
▁konnten	5417
▁Fraktionen	5417
▁feststellen	5411
▁Brüssel	5396
▁Praxis	5381
▁Anfang	5369
▁entscheiden	5368
▁Ratspräsident	5363
▁Fortschritt	5353
▁trotz	5344
▁vorliegenden	5332
▁lösen	5330
▁findet	5328
▁entsprechenden	5325
▁Gipfel	5323
▁besondere	5323
▁erzielen	5318
▁gegenwärtig	5313
▁Juni	5310
▁Vergangenheit	5306
▁ändern	5305
▁Ausgaben	5298
▁Zweifel	5297
▁Geschichte	5295
in	5287
▁Aspekt	5283
▁notwendigen	5275
▁Aufgaben	5262
▁jede	5259
schutz	5254
▁Durch	5251
▁gezeigt	5244
▁gehören	5243
▁stärken	5239
▁vorgeschlagenen	5233
▁erklärt	5230
▁Hand	5228
▁verpflichtet	5227
▁finanzielle	5221
▁bietet	5220
▁Grundrechte	5217
▁ihres	5206
▁befinden	5194
▁handeln	5169
▁Produkte	5164
▁eher	5150
liche	5134
▁h	5124
▁Einwanderung	5115
▁positive	5106
▁Einhaltung	5104
▁Priorität	5097
▁Denn	5092
▁Volk	5092
▁Heute	5091
sten	5085
▁Fonds	5081
▁zehn	5076
▁Projekt	5072
▁darstellen	5071
Arbeitslosigkeit	5070
▁offensichtlich	5059
▁eingesetzt	5058
▁Beginn	5056
▁wesentlich	5055
▁übernehmen	5050
▁Gebieten	5049
▁Deutschland	5045
▁Abschluss	5039
▁ganze	5038
▁Bewertung	5028
▁gesehen	5027
▁Absatz	5026
▁Beteiligung	5022
▁kommenden	5016
▁Wochen	4999
▁Strukturfonds	4986
▁Aktivitäten	4984
▁durchaus	4981
▁Regelungen	4974
▁geschehen	4970
▁Projekte	4965
▁Entwurf	4963
▁Nun	4960
▁Folge	4956
▁bieten	4956
▁verfügen	4955
▁stets	4953
▁Ver	4942
▁Tätigkeit	4937
▁Schritte	4931
▁Aufnahme	4930
▁Irland	4916
▁liebe	4915
▁entschieden	4914
▁schwer	4913
▁Stimme	4913
▁dagegen	4907
▁Einrichtung	4906
▁aufmerksam	4898
▁Minderheiten	4898
▁Ausbildung	4898
▁Milliarden	4890
▁letzte	4888
▁gerne	4887
▁positiv	4873
▁Kollege	4871
h	4868
▁Januar	4868
▁glauben	4866
▁Von	4863
▁konzentrieren	4855
▁Dennoch	4854
smaßnahmen	4845
▁fragen	4840
▁unternehmen	4831
▁Chance	4828
▁gemeinschaft	4821
▁genug	4820
▁Angesicht	4818
▁Worte	4817
▁besten	4817
▁grenzüberschrei	4812
▁Familien	4809
▁wären	4805
▁gegenwärtigen	4804
▁verantwortlich	4802
▁sechs	4787
▁Forderungen	4780
▁Dazu	4775
▁Engagement	4773
▁Falle	4765
▁Globalisierung	4749
▁Verbindung	4739
▁Maße	4735
▁bringt	4729
▁Ort	4719
▁gleiche	4714
▁gekommen	4691
▁verbessert	4686
▁Medien	4684
▁erfüllt	4678
▁außerhalb	4675
▁Mai	4674
skonferenz	4672
▁Augen	4670
▁ganzen	4669
▁entsprechend	4668
▁Irak	4660
▁verfolgen	4640
▁zustimmen	4635
▁gesetzt	4635
▁Innovation	4622
▁offen	4618
▁gewisse	4610
B	4608
▁hinter	4595
▁Leitlinien	4594
▁nie	4588
▁bevor	4583
▁gefunden	4583
▁Europäer	4576
▁Wahl	4572
▁März	4569
▁Leider	4568
▁Raum	4557
▁Empfehlungen	4556
▁Rechts	4550
▁beginnen	4549
▁Grunde	4544
▁übrigen	4543
▁verfolgt	4539
▁lässt	4534
▁häufig	4531
▁vermeiden	4529
▁Gleichzeitig	4528
▁gleich	4522
▁ergriffen	4516
▁freien	4515
sabkommen	4508
▁Völker	4505
▁Agenda	4505
▁betroffenen	4497
▁Agrarpolitik	4494
▁zahlreiche	4493
▁anderem	4485
▁An	4484
▁Harmonisierung	4484
▁Mitteln	4483
▁hohen	4483
▁gern	4482
▁gerecht	4482
▁verschiedene	4479
▁gewährleistet	4476
▁Landwirte	4473
▁Worten	4466
▁festgestellt	4459
▁befassen	4452
▁möglicherweise	4434
▁erforderlichen	4433
▁entsprechende	4424
▁sage	4422
▁Sprache	4421
▁Ratsvorsitz	4419
▁schwierig	4418
▁demokratische	4417
▁Überprüfung	4417
▁politischer	4412
▁wesentlichen	4412
▁Grundsätze	4403
▁einsetzen	4398
industrie	4397
▁weltweit	4393
▁direkt	4371
▁Internet	4365
▁Zeitraum	4362
▁nationaler	4360
▁angeht	4359
▁entspricht	4359
▁derzeitigen	4353
▁unternommen	4348
▁betont	4345
▁einiger	4343
▁Königreich	4343
Schlussfolgerung	4338
▁September	4337
▁Natur	4330
▁pro	4327
▁Ihr	4326
▁Uhr	4324
▁Richtlinien	4323
▁Israel	4322
▁Unter	4319
▁bald	4319
▁ausdrücklich	4313
▁größten	4302
▁Untersuchung	4299
▁betroffen	4295
▁diskutiert	4294
▁eigene	4293
▁Griechenland	4291
▁Willen	4281
▁entwickelt	4280
▁wünschen	4280
▁Problemen	4277
▁UN	4271
spräsidentschaft	4264
▁Erfahrungen	4262
institutionellen	4262
▁jene	4256
▁Bedenken	4255
▁ländlichen	4249
▁beglückwünschen	4245
▁Krieg	4243
▁G	4240
▁Charta	4233
▁fordere	4233
FR	4225
▁nochmals	4225
▁zurück	4224
▁möglichst	4223
▁hoch	4222
▁absolut	4218
▁Sanktionen	4216
▁regionalen	4216
▁sicherstellen	4209
▁Drittländern	4206
▁dienen	4202
▁verbunden	4200
▁Nur	4200
▁Organisation	4195
▁Empfehlung	4193
▁Osten	4190
▁Prinzip	4189
▁Maßnahme	4184
▁gratulieren	4182
▁Vielfalt	4180
▁kleine	4179
organisationen	4178
▁mehrere	4173
▁Dokument	4166
▁Fehler	4166
▁erhöhen	4165
▁Hauses	4158
▁Kooperation	4158
▁Gegenteil	4157
▁nachhaltige	4154
▁Rechnung	4140
▁wollte	4140
▁Italien	4139
▁Flexibilität	4136
▁gestern	4130
▁betrachtet	4129
▁Botschaft	4127
▁konkreten	4127
▁Partner	4126
▁finde	4125
▁erklären	4123
▁de	4122
▁Justiz	4115
▁Anpassung	4107
▁außer	4106
erweise	4103
▁Gebiete	4102
▁jüngsten	4096
▁Handels	4093
▁Verbrechen	4092
▁braucht	4091
▁Wert	4090
▁November	4089
▁Dimension	4082
▁nennen	4081
▁beide	4080
▁hervorheben	4079
▁neu	4071
▁beteiligt	4069
▁Agentur	4066
▁Aktionen	4066
▁Gründe	4064
▁Veränderungen	4059
▁künftig	4058
▁fordert	4057
▁Höhe	4052
▁andererseits	4051
▁S	4045
▁Menschenrecht	4043
▁verwendet	4043
▁Absicht	4033
▁Gesetze	4032
▁Plenum	4029
▁Sozial	4029
▁Wunsch	4028
▁Am	4028
▁eingeführt	4025
▁Delegation	4023
▁Liste	4017
▁Rechtsgrundlage	4009
▁Vorschlägen	4009
▁Wege	4008
▁Überzeugung	4002
▁geändert	3997
▁einverstanden	3996
▁erkennen	3993
▁Idee	3990
▁britischen	3983
▁Festlegung	3982
sausschusses	3981
▁positiven	3981
▁Preis	3976
▁Hoffnung	3970
▁Zuständigkeit	3970
▁Pflicht	3965
▁stattfinden	3965
▁später	3962
▁nimmt	3957
▁Unabhängigkeit	3954
▁Erhöhung	3952
der	3949
politik	3942
▁Protokoll	3939
▁Übereinkommen	3938
▁Verhandlung	3932
▁zusätzliche	3930
▁sagt	3928
▁Erklärungen	3927
▁Oktober	3925
▁globalen	3925
▁zudem	3923
▁betreffen	3923
▁Entlastung	3920
▁Entwicklungen	3913
▁größte	3911
▁Ist	3908
▁Basis	3908
▁Wasser	3907
▁erfolgreich	3900
▁Vorbereitung	3898
▁Jetzt	3895
▁Spanien	3885
▁un	3884
▁Nutzen	3884
▁Vorschlags	3880
▁geschieht	3878
▁KMU	3877
▁technischen	3871
▁Realität	3870
▁Inhalt	3870
▁persönlich	3870
▁Subsidiarität	3864
▁Drittens	3861
▁außerordentlich	3858
▁Anforderungen	3856
▁Anliegen	3855
▁künftigen	3855
▁Ferner	3853
▁Ukraine	3853
▁Einige	3852
▁Ja	3847
▁seitens	3846
▁verehrte	3846
▁Verträge	3836
▁erfolgen	3834
▁je	3829
▁Diskussionen	3828
▁abgelehnt	3827
▁Anzahl	3826
▁kaum	3819
▁Eindruck	3817
▁ausreichend	3817
▁Klimawandel	3814
Berücksichtigung	3807
▁Arbeitsmarkt	3805
unternehmen	3805
▁Tagung	3805
▁zweifellos	3798
▁anderes	3795
▁Vorteile	3794
▁besseren	3788
▁vollständig	3787
▁Konzept	3786
▁Steuer	3782
▁Anspruch	3781
▁Prüfung	3779
▁Seit	3776
▁wichtiges	3773
▁hohe	3765
▁benötigen	3754
▁Haushalts	3752
▁Politiken	3747
sbereich	3746
▁Hause	3745
▁Einklang	3740
▁Verbot	3739
▁bezug	3735
▁Kommunikation	3729
▁Iran	3728
▁diesbezüglich	3728
▁genutzt	3727
▁Tagen	3724
▁Gleichstellung	3723
▁Afrika	3723
sländern	3722
▁allgemeine	3720
á	3717
▁verabschiedet	3716
▁Informations	3713
▁wahrscheinlich	3709
▁Hintergrund	3709
▁denken	3709
▁ernst	3701
▁dennoch	3701
▁Mio	3696
▁Alle	3696
▁Fälle	3689
▁folgen	3687
▁Gruppen	3687
▁schwierigen	3686
▁Ausführungen	3685
▁vorlegen	3681
▁Gruppe	3679
▁Einbeziehung	3679
▁solcher	3679
▁sehe	3678
▁Programms	3676
▁weshalb	3675
▁Kindern	3674
▁Arbeitsplätzen	3671
▁weiterer	3671
▁Bemerkungen	3657
▁vielmehr	3655
o	3651
▁bekämpfen	3651
▁EUR	3650
▁Sinn	3647
▁Freiheiten	3645
▁Voraussetzungen	3644
▁Obwohl	3635
▁Dann	3624
▁Monate	3622
▁Kritik	3614
▁aktiv	3612
▁zufrieden	3612
▁gelungen	3611
▁Reaktion	3604
▁Risiko	3604
▁betrachten	3598
em	3597
sländer	3592
▁Ihren	3587
▁aufgefordert	3587
▁aussprechen	3585
▁Umfang	3579
▁trägt	3575
▁behandeln	3573
▁umfassende	3572
▁vollkommen	3571
▁Vermittlung	3568
▁ausschließlich	3566
▁reagieren	3566
▁hören	3563
▁Standards	3559
gunsten	3558
▁Beschluss	3544
▁anders	3544
▁anerkannt	3542
▁Zweck	3537
▁Juli	3536
▁reden	3531
▁Welche	3529
te	3526
▁gefördert	3523
▁Zudem	3517
▁Schluss	3512
▁besonderen	3512
▁bestätigt	3509
▁Den	3507
▁politisch	3502
▁legen	3502
▁internationaler	3501
▁keinerlei	3497
▁umzusetzen	3497
▁usw	3494
▁Besorgnis	3481
▁Unterschiede	3480
▁Zivil	3479
▁Stellung	3474
▁Gerichtshof	3472
▁grundlegenden	3465
▁Abkommens	3464
▁Ereignisse	3462
▁Kollegin	3453
▁bilden	3449
▁Effizienz	3448
▁Hohen	3444
▁miteinander	3443
▁Konflikt	3440
▁Während	3436
▁Bemerkung	3436
▁Vielen	3434
k	3427
▁sämtliche	3419
▁zahlreichen	3418
▁wesentliche	3418
▁erfordert	3416
▁Konsens	3409
sprozess	3404
▁zuständigen	3404
▁stimmt	3401
sausschuss	3399
▁annehmen	3398
▁Viele	3396
▁daraus	3394
▁äußern	3393
▁AKP	3391
▁Ziffer	3391
▁nächste	3389
▁Verständnis	3387
▁abgeschlossen	3387
▁akzeptiert	3386
▁Rumänien	3377
▁größeren	3374
▁Blick	3370
▁Mitgliedern	3368
▁Warum	3367
sbedingungen	3367
▁Dienste	3366
▁Einfluss	3363
▁Nahrungsmittel	3362
politischen	3361
▁verstärkt	3359
▁Polen	3359
▁einerseits	3356
ge	3355
▁Verringerung	3351
▁Treffen	3351
▁Märkte	3348
▁echte	3347
▁wer	3346
▁gelangen	3343
▁bedarf	3343
▁jeweiligen	3342
▁Vorgehen	3332
▁anbelangt	3328
▁Übereinstimmung	3323
▁Voraussetzung	3318
Strategie	3317
▁gelöst	3312
▁französischen	3305
▁Systems	3304
▁Technologien	3302
▁Erfahrung	3301
▁Mobilität	3297
▁zuletzt	3294
▁Waffen	3294
▁Deswegen	3293
▁Struktur	3293
▁nachhaltigen	3291
▁bezieht	3289
▁unabhängig	3286
▁technische	3280
unterschiedliche	3277
▁Infrastruktur	3272
▁Anteil	3271
▁Phase	3269
▁Beschlüsse	3267
▁einig	3263
▁betreffenden	3262
▁bedeuten	3262
▁Definition	3261
▁begrüßt	3260
ste	3259
▁Über	3256
▁Vorsitz	3252
▁einheitlichen	3250
▁ständig	3249
organisation	3248
▁ver	3248
ssystem	3246
▁Kontrollen	3245
▁angemessen	3241
▁Vergleich	3239
▁Volksgesundheit	3238
▁Zahlen	3238
▁ferner	3236
▁Regulierung	3236
▁Portugal	3236
▁Punkten	3231
▁aktuellen	3227
▁nachdem	3220
▁Normen	3215
▁Moment	3213
PL	3211
▁herzlich	3207
▁Vorausschau	3205
▁entscheidend	3205
▁Haushaltsplan	3204
lich	3204
▁regionale	3201
▁möglichen	3198
▁frei	3197
▁aufzunehmen	3197
▁Außenpolitik	3191
▁sinnvoll	3191
▁vorzulegen	3186
▁kulturellen	3184
▁Nah	3183
▁Signal	3182
▁Problems	3182
▁Analyse	3181
▁ausgesprochen	3169
▁Freizügigkeit	3169
▁Gleichgewicht	3165
▁darunter	3164
▁Vereinbarungen	3160
▁Internationalen	3159
▁zufolge	3158
▁tätig	3155
▁neben	3153
▁April	3151
▁genannt	3151
▁teile	3148
▁angemessene	3144
▁erfahren	3143
▁treten	3136
▁gestalten	3134
▁erhebliche	3133
▁nunmehr	3133
▁hält	3128
▁eingereicht	3125
▁Gesetz	3122
▁alten	3118
▁keiner	3112
▁kürzlich	3112
▁grundlegende	3110
▁Be	3108
▁Roma	3107
▁lautet	3107
▁länger	3106
▁Versuch	3106
▁verurteilt	3105
▁starke	3104
▁Mein	3103
▁vorgeschlagene	3102
▁betreffend	3101
▁Gedanken	3099
▁Elemente	3098
▁nachdrücklich	3098
▁Strategien	3095
▁Schweden	3094
▁rasch	3093
▁spielt	3093
▁wiederholen	3092
▁Risiken	3091
▁fallen	3090
▁übrigens	3090
▁Beweis	3085
▁setzt	3083
▁NATO	3078
▁Vielleicht	3075
▁Ebenso	3071
▁lang	3070
▁Amsterdam	3069
▁Politiker	3063
▁Aufbau	3062
▁notwendige	3060
wirtschaftlicher	3059
▁Binnenmarktes	3055
▁Institution	3054
▁niemand	3053
▁Zur	3053
▁tut	3052
▁abstimmen	3051
▁freie	3051
zusammenarbeiten	3048
▁Glaubwürdigkeit	3045
▁beziehen	3043
▁funktioniert	3043
▁komme	3040
▁Sektoren	3039
▁Ordnung	3034
▁E	3033
▁entsprechen	3033
▁Status	3032
▁Unser	3030
▁neues	3029
▁richtigen	3027
▁leiden	3026
▁Zentralbank	3025
▁achten	3019
▁bemüht	3019
▁Umständen	3016
▁geehrte	3013
erstatters	3007
▁Gemeinsame	3007
▁unterstreichen	3006
▁eingehalten	3006
▁fällt	3005
▁wichtigste	3004
H	3003
▁lokalen	3001
▁Stellen	2996
▁Bestandteil	2993
▁Überlegungen	2989
▁anwesend	2985
▁näher	2984
▁Kriminalität	2984
▁Zeichen	2984
▁Familie	2983
▁Übergang	2976
▁Befugnisse	2975
▁Wirklichkeit	2974
▁seines	2973
▁mündliche	2973
▁Verbesserungen	2971
▁teilweise	2970
▁richten	2969
▁warten	2967
▁UNO	2965
▁ergeben	2962
lichkeit	2955
▁Staats	2951
▁ausgezeichneten	2951
▁hervorgehoben	2950
▁Sorgen	2950
▁verlieren	2949
▁Tiere	2949
▁Mut	2948
▁geltenden	2948
▁mehreren	2943
▁Gericht	2942
▁verloren	2942
▁Abschaffung	2942
▁Wer	2941
▁Angriff	2941
▁Formen	2941
▁Außen	2941
▁mindestens	2939
Mitgliedstaaten	2937
▁beste	2937
▁geschlossen	2930
▁Zielen	2929
▁Aktionsplan	2929
▁verstärken	2927
▁verlangen	2927
▁erfolgt	2925
▁einbezogen	2919
▁Antworten	2919
svorschlag	2913
▁suchen	2913
▁kennen	2909
▁geprüft	2906
▁spricht	2900
▁bedauerlich	2899
▁Ratifizierung	2897
▁Kopenhagen	2896
▁Barroso	2895
▁großes	2893
▁Prinzipien	2891
▁Vorhaben	2884
▁entscheidender	2882
▁verdient	2880
▁verfügt	2880
▁allgemein	2879
▁entstehen	2877
▁Erzeugnisse	2874
▁informiert	2874
wettbewerbsfähig	2870
▁umfassenden	2869
▁durchzuführen	2868
▁ausgesetzt	2863
▁Großbritannien	2863
▁bemühen	2862
▁illegalen	2859
▁erscheint	2858
▁einzigen	2852
▁versichern	2850
richtlinie	2846
▁Todesstrafe	2846
▁Verhältnis	2845
▁anstatt	2842
▁Krankheiten	2840
▁vorliegende	2838
▁Waren	2836
▁Handeln	2833
▁Finanzielle	2832
▁künftige	2832
shilfe	2831
▁ging	2831
▁schließen	2830
▁amtierende	2830
▁seien	2830
▁US	2827
▁derartige	2825
▁Dienst	2822
▁weiteres	2820
▁befindet	2813
▁a	2809
▁letztendlich	2807
▁Vereinfachung	2806
▁Parlamente	2804
▁Ablehnung	2804
▁Männern	2802
▁be	2800
▁anschließen	2800
▁bestimmter	2800
▁Regierungschefs	2798
▁Abend	2797
PT	2794
▁verantwortungs	2792
▁dritten	2790
▁Erwartungen	2788
▁geäußert	2788
▁rechtlichen	2788
▁entscheidende	2786
▁bestimmt	2785
▁Verkehrs	2784
▁verleihen	2783
beauftragten	2782
▁Begriff	2778
▁Umweltfragen	2778
▁jetzigen	2777
▁Gespräche	2777
▁Dienstleistungs	2775
▁gezogen	2773
▁beteiligen	2773
▁PPE	2773
st	2770
▁Sport	2764
▁Afghanistan	2764
▁sichern	2761
▁profitieren	2760
▁Dem	2757
▁Einrichtungen	2756
▁Katastrophe	2753
▁Straßburg	2752
▁humanitäre	2752
▁bereitgestellt	2751
▁Nizza	2750
▁Gefahren	2750
▁überein	2750
▁wenigen	2748
▁leicht	2747
▁heutige	2746
Kohäsionspolitik	2745
sfreiheit	2739
▁Zeiten	2737
▁CO	2736
▁Männer	2735
▁abgestimmt	2732
▁Mitentscheidung	2730
▁F	2727
▁Flüchtlinge	2726
▁hoffentlich	2720
▁Umweltschutz	2719
▁vorgesehenen	2719
▁dankbar	2719
▁wirksam	2718
▁Polizei	2718
▁praktisch	2716
▁festzulegen	2714
▁Technologie	2713
▁Widerspruch	2709
▁Regime	2706
▁falsch	2706
▁Praktiken	2704
▁übernommen	2703
▁spanischen	2701
▁Ausnahme	2701
▁informieren	2698
▁verlangt	2698
▁auffordern	2697
▁welcher	2695
▁kam	2694
▁Modell	2692
▁Korruption	2691
▁mag	2688
▁Konsequenzen	2687
▁Platz	2684
▁klaren	2682
ten	2682
sstrategie	2677
▁jegliche	2675
▁speziell	2673
▁sozialer	2671
▁bestehende	2665
▁Mittelpunkt	2665
▁bewegen	2660
▁Opposition	2659
▁Organe	2659
▁verteidigen	2659
▁Des	2659
▁verstanden	2658
▁wodurch	2657
▁Ihrem	2656
▁vorgenommen	2655
▁hauptsächlich	2653
Staaten	2653
▁welchen	2650
▁Berichten	2649
▁Wohlstand	2648
▁Reduzierung	2648
▁kämpfen	2647
re	2646
▁Leute	2646
▁Belarus	2644
sstaatlichkeit	2642
EG	2641
▁Katastrophen	2639
▁Konvent	2638
▁beschäftigen	2638
▁garantieren	2634
▁erhöht	2634
▁Klima	2634
▁Gesamt	2632
▁Arbeiten	2631
▁Systeme	2630
▁frage	2629
▁schlägt	2628
▁letztlich	2628
▁Stand	2628
be	2628
▁Gewährleistung	2627
▁gutes	2627
▁Marktes	2626
schaftlichen	2624
▁zweitens	2624
▁Februar	2622
▁niemals	2621
▁land	2620
▁überall	2615
▁wünsche	2610
▁Wiederaufbau	2609
▁spreche	2608
▁Drogen	2603
▁Zusammenhalt	2603
▁zugleich	2602
▁Herzen	2601
▁Trotz	2601
▁Spiel	2597
spräsident	2595
▁T	2595
sterreich	2593
▁genauso	2590
erstattern	2588
▁Dialogs	2588
▁ernsthaft	2585
▁wenige	2585
▁Niveau	2583
▁gezwungen	2575
▁beigetragen	2575
▁Prodi	2571
▁solches	2571
▁gewährt	2569
▁einheitliche	2565
▁stehenden	2556
▁Währungsunion	2556
▁gelegt	2552
▁beschäftigt	2550
▁besorgt	2550
▁einzuführen	2550
▁Schengen	2549
▁Schwerpunkt	2548
▁amerikanischen	2546
▁Teilen	2546
▁Plan	2543
▁konkret	2543
▁ländliche	2540
▁begonnen	2539
▁Wirkung	2538
▁damals	2538
▁jungen	2538
▁Jugend	2537
▁Angaben	2537
▁erheblich	2536
▁jenen	2534
▁erleichtern	2534
▁entschlossen	2533
▁britische	2533
▁Schaden	2531
▁Mir	2526
▁geschützt	2525
▁Ohne	2524
▁Fischer	2523
▁Grünen	2522
▁erwartet	2522
▁Gegensatz	2522
▁folgende	2521
▁Strukturen	2520
▁Debatten	2520
▁erwähnen	2519
▁finanziert	2519
maßnahmen	2518
▁gewählt	2516
▁vorschlagen	2514
▁GAP	2513
▁verringern	2513
▁ursprünglichen	2512
▁wirksame	2511
▁Element	2509
▁Mandat	2508
▁Charakter	2507
▁sofort	2506
▁öffentlich	2505
▁Zypern	2504
▁Patienten	2500
▁ECU	2499
▁All	2499
▁mögliche	2498
▁vorgelegten	2497
▁wollten	2497
▁gestärkt	2497
▁echten	2496
smöglichkeiten	2495
▁teilnehmen	2494
▁übertragen	2491
▁Volkspartei	2488
▁Bulgarien	2484
▁Maß	2483
▁schafft	2481
▁Darum	2481
▁parlamentarisch	2481
▁Banken	2481
▁gesellschaft	2477
▁zunehmend	2473
▁Beispiele	2471
▁Bereitschaft	2471
▁einzusetzen	2466
▁unmittelbar	2465
▁verhindert	2463
IT	2461
Energieeffizienz	2458
▁dank	2457
▁guter	2453
▁Wahrheit	2453
b	2452
▁Arbeitsplatz	2451
▁paar	2450
▁Arten	2449
▁Führung	2448
▁unterzeichnet	2447
▁folgenden	2445
▁Bedarf	2444
▁ziemlich	2443
▁allzu	2442
▁mittleren	2439
▁Paket	2438
▁Haupt	2436
▁derzeitige	2434
▁Ansichten	2434
▁soeben	2433
▁Freude	2432
▁staatlichen	2432
▁Beteiligten	2432
▁zuvor	2432
▁bestätigen	2432
▁Preise	2431
▁eingegangen	2429
▁froh	2427
▁Austausch	2426
▁Versammlung	2425
▁volle	2422
▁Gesundheits	2421
▁dritte	2421
".	2420
▁Fremdenverkehr	2420
▁danach	2420
▁gerichtet	2420
▁trifft	2420
▁globale	2417
▁Einkommen	2413
▁relativ	2413
▁überprüfen	2410
▁uneingeschränkt	2409
▁nötig	2405
▁wiederum	2400
▁Produkt	2400
▁starken	2400
▁spezifischen	2397
▁solange	2397
srecht	2396
▁humanitären	2395
▁erleben	2392
▁wiederholt	2391
▁Bedürfnisse	2390
▁abhängig	2387
▁Tage	2386
▁menschlichen	2386
▁Gegenstand	2386
▁Arbeitnehmern	2385
▁Würde	2383
▁Übrigen	2382
▁kurzem	2379
ffnung	2379
▁sonst	2378
▁privaten	2378
▁Stoffe	2378
▁teilen	2376
▁konfrontiert	2375
Bericht	2373
▁fehlt	2372
▁Vorteil	2371
▁stärkere	2370
▁europäisches	2369
▁junge	2368
▁gehalten	2368
▁Gerechtigkeit	2366
▁beinhaltet	2364
▁herrscht	2364
▁Einstellung	2362
▁Gelder	2359
▁manchmal	2359
▁eng	2359
▁illegale	2359
▁beruht	2357
▁bedanken	2357
▁zusätzlichen	2356
▁Indien	2353
▁bislang	2353
S	2352
▁umsetzen	2351
▁erfreut	2350
▁erinnert	2348
▁durchführen	2347
▁Studie	2345
▁Bereitstellung	2344
an	2343
tenden	2342
▁Verhalten	2341
▁deutschen	2339
▁Energien	2338
▁Lebens	2337
▁Untersuchungen	2336
▁verlassen	2336
▁BSE	2335
▁irischen	2334
▁gebeten	2333
▁Verwirklichung	2333
▁italienischen	2333
▁unmöglich	2332
▁Andererseits	2331
▁verwenden	2329
▁Straßen	2326
▁ansprechen	2325
▁Person	2325
▁H	2324
▁vorhanden	2321
▁festgelegten	2319
▁Investition	2318
▁früher	2318
sch	2316
▁Insbesondere	2316
▁zulassen	2315
▁Redner	2314
▁Methode	2313
▁veröffentlicht	2311
▁Teilnahme	2306
▁wonach	2306
▁zuständig	2306
▁Ausarbeitung	2303
▁Personal	2303
▁Kräfte	2300
▁Steuern	2296
▁verurteilen	2294
▁Aktion	2293
▁Wissen	2291
▁deswegen	2290
▁Hälfte	2289
ver	2286
▁effektiv	2284
▁unverzüglich	2282
▁Sprachen	2282
▁beschränken	2277
▁Religion	2276
▁Beseitigung	2275
▁u	2275
▁verstehe	2275
▁Methoden	2274
ä	2272
▁her	2271
▁eingebracht	2271
▁dürfte	2271
▁Konsultation	2271
sfonds	2271
▁Anfragen	2270
▁mitteilen	2269
▁einstimmig	2265
sektor	2265
entwicklung	2259
▁gewissen	2258
y	2254
▁Chancen	2253
▁hinzufügen	2252
▁Kontroll	2252
▁Bedrohung	2249
▁sieben	2248
▁höhere	2248
▁Erhaltung	2248
DE	2246
hancengleichheit	2246
▁verursacht	2245
▁befürworten	2244
▁Staates	2242
▁geregelt	2242
▁Fähigkeit	2241
▁Monat	2241
▁Unterschied	2240
▁stelle	2239
▁jährlich	2237
▁erstens	2233
Wirtschaftskrise	2233
▁überzeugen	2232
▁Anbetracht	2232
▁Nein	2231
▁Ausgrenzung	2231
▁Transport	2230
▁II	2229
▁Prozeß	2229
▁welches	2229
▁Rechten	2228
▁Volkes	2228
Y	2227
▁Faktoren	2226
▁groß	2226
▁acht	2225
▁inzwischen	2224
▁Hindernisse	2222
▁dient	2219
▁Erzeuger	2217
▁erhält	2216
▁ausgezeichnete	2214
▁I	2214
▁Dringlichkeit	2213
▁Schiffe	2211
▁Mechanismen	2211
▁Rechnungshof	2211
▁Senkung	2210
▁anzunehmen	2209
▁gewinnen	2209
▁früheren	2208
▁weitgehend	2205
▁entweder	2204
sausschuß	2204
abkommen	2203
▁sichergestellt	2203
▁einzelstaatlich	2199
Entschlossenheit	2198
▁speziellen	2198
▁sodass	2197
▁entfernt	2196
▁Durchsetzung	2195
▁inter	2195
tschaftswachstum	2192
▁strategischen	2191
▁Laufe	2190
▁Kennzeichnung	2190
zu	2190
▁türkischen	2189
▁Mangel	2188
▁gegenwärtige	2187
▁offenen	2187
▁Demokraten	2182
▁Weiteren	2182
▁Mrd	2181
▁investieren	2180
▁Betrifft	2178
▁Beiträge	2177
▁Liberalen	2173
▁gewähren	2173
▁Menge	2169
▁Verletzung	2168
▁Revision	2162
▁festzustellen	2162
▁Tisch	2159
Die	2158
▁Grenze	2156
▁beschränkt	2155
▁Ideen	2155
▁denjenigen	2154
▁Gerade	2152
▁politisches	2152
▁gefährdet	2151
▁Sektors	2150
▁Geist	2150
▁reicht	2148
▁palästinensisch	2148
NL	2147
sverletzungen	2147
▁ehemaligen	2146
▁Versorgung	2146
▁wirkliche	2144
▁eingeleitet	2143
▁Ursachen	2143
▁aufnehmen	2141
▁Allgemeinen	2141
▁angebracht	2139
▁Vorrang	2139
▁Nachbarschaft	2139
▁M	2138
▁Anlass	2138
▁Sollte	2138
▁Kontinent	2138
▁verweisen	2136
▁Nachdruck	2136
▁Hinweis	2133
▁Verbrauchern	2132
▁Premierminister	2132
▁erlebt	2131
▁überwinden	2129
ü	2127
▁grundsätzlich	2126
▁Mann	2125
▁zurückzuführen	2125
Umstrukturierung	2125
▁bezeichnet	2124
▁NRO	2123
▁genügend	2123
▁Vertretern	2123
▁Herstellung	2121
▁rechtliche	2120
▁Bitte	2120
KOM	2120
▁Kapital	2120
▁mangelnde	2118
▁läßt	2118
▁antworten	2116
▁Bild	2116
▁Teile	2114
▁benötigt	2111
▁Kyoto	2111
▁Kontext	2111
▁Souveränität	2110
▁schwierige	2109
Fischereipolitik	2108
▁bewältigen	2108
▁V	2106
▁Wettbewerbs	2099
▁Serbien	2099
▁Dingen	2099
▁Respekt	2098
▁angenommenen	2097
▁heraus	2097
▁Kroatien	2092
▁Konflikte	2090
▁Drittstaaten	2089
▁Wesentlichen	2089
▁Kern	2088
▁Erfüllung	2086
▁garantiert	2080
▁Gefühl	2080
▁Funktion	2080
▁Situationen	2079
▁Schlüssel	2079
▁kulturelle	2078
▁Betracht	2077
▁weltweiten	2075
▁hervor	2073
▁vieler	2073
▁Prozesses	2073
▁schlecht	2070
▁Perspektive	2068
▁Zielsetzungen	2067
▁zahlen	2066
▁Beschluß	2066
▁bewußt	2066
▁höchste	2065
▁zentrale	2064
▁interessiert	2063
▁rein	2063
▁befürwortet	2063
▁militärischen	2062
▁gestatten	2062
▁behaupten	2061
▁umfassend	2061
▁jemand	2059
▁passiert	2059
▁Errichtung	2058
▁funktionieren	2057
▁verabschieden	2057
▁Nachhaltigkeit	2057
▁Nachbarn	2052
▁van	2052
▁Bürokratie	2051
▁angewandt	2051
▁Ausmaß	2050
▁Leistungen	2049
▁befasst	2047
▁gearbeitet	2047
▁Tätigkeiten	2047
▁zukünftigen	2046
▁überaus	2043
ungen	2043
▁Stadt	2042
▁vorsieht	2042
▁jedenfalls	2041
▁negativen	2041
▁zählen	2040
▁legt	2039
▁vorliegen	2039
▁Gas	2038
▁Abgeordneter	2038
▁geraten	2035
▁Ausweitung	2035
▁Erreichung	2034
▁Positionen	2034
▁Modernisierung	2034
▁vorbereitet	2033
▁sofern	2031
▁Wissenschaft	2030
▁auswärtige	2030
▁freuen	2030
▁spezifische	2028
▁Programmen	2027
▁Friedens	2022
▁Sicherung	2022
▁Balkan	2021
▁Aufhebung	2021
▁wesentlicher	2020
▁besonderer	2019
▁Un	2017
▁Mittelmeer	2017
▁langfristig	2017
sbehörden	2016
politische	2016
▁entstanden	2015
▁Wahrung	2011
▁Studien	2011
▁Allianz	2010
▁müsste	2009
▁Verabschiedung	2009
▁Ungarn	2008
▁Angst	2008
▁Mechanismus	2008
▁spezielle	2007
▁Garantien	2006
sverhandlungen	2005
▁Minuten	2003
▁vorstellen	2003
▁falls	2003
▁verbundenen	2000
▁EZB	2000
▁Regionalpolitik	1999
▁französische	1998
▁Mitgliedschaft	1998
▁beabsichtigt	1996
▁Zeitplan	1995
▁Pläne	1995
▁Verbreitung	1993
▁finanzieren	1993
▁Leistung	1992
▁Vorsitzenden	1991
Programm	1990
▁Grünbuch	1990
ieren	1990
grund	1989
▁einzelne	1989
▁K	1988
▁Geschlechter	1987
▁Beachtung	1985
▁Hohe	1984
▁vollständige	1984
▁ausüben	1983
▁ausgeschlossen	1983
▁lernen	1983
▁trotzdem	1983
▁Gemeinschaften	1982
▁Mehrwertsteuer	1980
▁beantworten	1979
▁Urteil	1979
▁Konvergenz	1977
▁Stunden	1977
▁Betrieb	1976
▁ausgerichtet	1976
▁Klarheit	1975
▁wann	1974
▁entscheidenden	1973
▁breite	1973
▁erlaubt	1972
▁zugrunde	1971
▁Jeder	1971
▁Besteuerung	1968
▁angemessenen	1967
▁Auge	1967
▁Emissionen	1966
▁genannte	1966
▁Umgang	1964
▁Barcelona	1964
▁Krisen	1964
▁Erarbeitung	1964
▁letzter	1962
▁keineswegs	1961
▁bedeutende	1959
▁müssten	1958
▁Gesellschaften	1958
▁Migration	1958
▁Nachfrage	1957
▁Identität	1957
▁militärische	1957
▁Eisenbahn	1956
▁getragen	1954
▁Gang	1954
▁geboten	1951
▁langen	1949
▁Stimmen	1949
▁Prävention	1949
▁Europol	1949
▁Problematik	1948
▁aktive	1948
▁fassen	1948
ó	1947
C	1947
▁Vorstellung	1944
▁gegenseitige	1944
▁angesehen	1944
schaftliche	1943
▁Asyl	1943
▁Anhörung	1941
▁gelingt	1941
▁kontrollieren	1940
▁Dokumente	1939
í	1939
▁hierbei	1938
▁gemeinsames	1938
▁dargelegt	1938
▁bedauere	1938
▁sorgfältig	1936
▁auswirken	1935
▁Vertrages	1935
▁Finnland	1931
▁Anmerkungen	1930
▁langfristige	1930
▁entwickelten	1930
▁vorrangig	1929
▁Amt	1929
▁anerkennen	1927
▁Dadurch	1926
versorgung	1926
▁Verordnungen	1925
▁überlassen	1925
▁zugestimmt	1924
und	1923
ssysteme	1922
):	1922
u	1922
▁De	1922
▁Verteilung	1920
▁Menschenrechten	1919
▁Noch	1919
▁betreiben	1917
▁verletzt	1917
▁schwedischen	1917
▁Mitarbeiter	1916
▁stattfindet	1915
▁Behörde	1914
▁lenken	1913
▁Abhängigkeit	1912
▁Presse	1912
▁Luxemburg	1911
▁erteilen	1910
f	1908
▁Zahlungen	1908
▁Welthandels	1907
▁menschliche	1905
▁Vorlage	1903
▁Bau	1903
▁hängt	1901
▁Regel	1901
sprinzip	1898
▁vertritt	1898
▁Partnern	1897
▁Schäden	1897
▁Genehmigung	1894
sverfahrens	1894
▁Akteure	1894
▁bildet	1893
▁Arzneimittel	1892
▁jüngste	1892
▁Betriebe	1890
▁besitzt	1890
▁infolge	1890
dienstleistungen	1890
innen	1890
▁Einheit	1889
▁Dafür	1888
▁Formulierung	1888
▁staatliche	1887
▁gerechtfertigt	1881
▁institutionelle	1880
▁beraten	1880
▁Argumente	1878
▁reduzieren	1876
▁Trotzdem	1876
▁rechtzeitig	1876
▁angewendet	1876
▁BIP	1875
▁Aspekten	1874
▁jener	1873
▁sobald	1873
▁wirtschaftlich	1873
▁Agenturen	1873
▁zuerst	1871
▁Minderheit	1871
▁Wähler	1871
▁Kapitel	1869
▁sozial	1868
▁Ausbeutung	1868
ern	1868
▁Funktionieren	1867
▁reichen	1867
▁umfasst	1866
▁untersuchen	1865
▁Faktor	1865
▁Kann	1864
▁Augenblick	1861
▁Inkrafttreten	1861
▁Garantie	1861
▁entgegen	1860
▁vorhin	1859
▁offenbar	1858
▁Frist	1857
▁Krankheit	1856
▁Ergebnissen	1855
▁eindeutige	1855
▁Erwägung	1853
▁inakzeptabel	1853
▁Verfahrens	1850
▁stolz	1850
▁wirklichen	1849
▁verboten	1849
i	1848
▁Beratungen	1848
▁mehrfach	1847
▁Zuständigkeiten	1847
▁respektieren	1846
▁EG	1846
▁Wichtigkeit	1844
▁unabhängigen	1844
▁beseitigen	1843
▁Donnerstag	1842
▁eingeräumt	1841
▁Mindest	1841
▁Wo	1840
▁gemeinsamer	1840
▁strategische	1839
▁Boden	1838
▁mittlere	1837
▁Belgien	1836
▁Ausführung	1831
▁Weiter	1831
▁D	1831
▁Wird	1830
▁Anstieg	1830
▁Schutzes	1829
▁Petition	1829
▁hervorragende	1829
et	1828
▁westlichen	1828
▁Assoziierung	1825
▁direkte	1824
▁Dauer	1822
▁Offenheit	1819
▁Häfen	1817
▁verdienen	1817
▁schlagen	1815
▁verstärkte	1814
▁Gestatte	1814
▁erörtert	1813
▁anzuwenden	1811
▁stattgefunden	1811
▁Referendum	1809
▁Randlage	1809
svorschläge	1809
sprozesses	1808
▁Intervention	1807
hilfe	1807
▁wenden	1807
▁internen	1806
▁schneller	1806
▁anwenden	1806
▁Uns	1806
▁gegenseitigen	1804
▁Japan	1803
▁wahren	1801
▁festlegen	1801
▁beschließen	1801
▁Netze	1801
RO	1801
▁unterbreitet	1800
▁welchem	1800
▁enthaltenen	1799
▁Beamten	1799
tende	1799
▁erlauben	1797
▁ablehnen	1796
demokratischen	1795
▁Abbau	1794
▁vorzunehmen	1793
▁beibehalten	1793
▁Ministerrat	1793
system	1793
uoten	1793
▁enorme	1791
▁Niederlanden	1790
▁fortsetzen	1790
▁Aussage	1790
▁Anträge	1789
▁Jahrhundert	1787
▁Georgien	1787
▁aktuelle	1787
▁effektive	1786
▁Rußland	1786
▁Verfasser	1786
▁überwachen	1786
▁erörtern	1786
ES	1786
szusammenarbeit	1786
▁Jugendlichen	1785
▁endgültige	1785
▁Energiequellen	1785
▁Finanzkrise	1783
▁Wirksamkeit	1783
▁praktische	1783
▁reagiert	1783
▁bewerten	1782
▁russischen	1781
▁historischen	1780
▁vorgehen	1779
▁geeignete	1779
▁Bosnien	1778
▁erlassen	1777
▁weist	1776
sbeziehungen	1776
▁konzentriert	1775
▁griechischen	1775
▁verändert	1775
▁Zustand	1774
▁Gewicht	1773
▁ratifiziert	1773
z	1772
▁läuft	1770
▁Sicherheits	1769
▁Vielzahl	1767
▁Existenz	1767
▁Begründung	1766
▁abschließend	1766
▁Taten	1765
▁erwiesen	1764
▁vereinbart	1763
▁Schattenbericht	1763
▁höchst	1760
▁generell	1760
▁Energiepolitik	1760
▁Ab	1759
▁formuliert	1759
▁Gestaltung	1758
▁Steuerzahler	1754
▁höheren	1754
▁Morgen	1754
Ebene	1753
▁mussten	1753
▁Grundsätzen	1753
▁definiert	1753
w	1753
SV	1753
▁durchzusetzen	1752
▁ergibt	1751
▁Tourismus	1750
▁Fassung	1744
▁zukünftige	1742
▁erarbeitet	1741
▁bedroht	1741
▁Raums	1739
▁besitzen	1739
▁Journalisten	1739
▁gelingen	1738
▁äußerster	1738
▁Hersteller	1735
▁Beziehung	1733
▁laufenden	1733
▁sagten	1733
▁ge	1731
▁Mängel	1731
▁keinem	1731
▁Bank	1731
▁erneuerbaren	1731
▁Rassismus	1730
▁basiert	1728
▁Produkten	1728
EL	1728
▁Netz	1728
ing	1725
▁bekräftigt	1725
▁schließe	1725
▁Bestimmung	1725
▁schweren	1724
▁Abschluß	1724
▁PSE	1722
▁Außenminister	1719
g	1719
▁Vorgehensweise	1718
▁Gerichtshofs	1718
▁Maastricht	1717
▁ersetzen	1716
▁konstruktive	1716
▁Einwanderer	1715
▁Ratsvorsitzes	1714
▁Alternative	1714
▁bereitet	1713
▁Rückkehr	1713
▁Betrug	1712
▁laufen	1711
▁vorhandenen	1710
▁eingerichtet	1710
▁Zahlung	1710
▁Volkswirtschaft	1709
transatlantische	1707
parlamentarische	1707
▁Auftrag	1706
▁...	1706
▁See	1705
▁Konvention	1705
▁spät	1704
▁zusätzlich	1704
▁größer	1704
­	1704
▁regelmäßig	1703
▁Feststellung	1703
▁rund	1702
▁persönlichen	1702
▁effizient	1700
▁Gipfeltreffen	1700
▁fördert	1700
▁erwähnten	1699
▁demokratischer	1699
▁ausgehen	1698
sprogramme	1697
▁Betrag	1696
▁Kontakt	1695
▁endgültigen	1694
))	1693
▁zweiter	1689
▁untersucht	1688
▁negative	1687
▁laut	1685
▁respektiert	1685
▁Bis	1684
▁Pakistan	1683
▁unterbreiten	1682
▁erscheinen	1682
▁auftreten	1681
▁Experten	1681
programm	1681
▁Mittelmeerraum	1680
▁Kohärenz	1680
▁Haushaltsplans	1680
▁nächster	1679
▁Tieren	1678
▁vornehmen	1678
▁nehme	1678
▁Gründung	1677
▁Luft	1677
▁Neben	1677
▁Geschäft	1675
▁vernünftig	1675
▁Klimawandels	1674
▁erfordern	1673
▁oben	1672
▁Schlußfolgerung	1672
santräge	1672
▁regionaler	1671
▁vorliegt	1670
▁Bewegung	1668
▁lieber	1668
▁bilateralen	1668
▁offene	1666
▁ökologischen	1666
die	1665
▁einführen	1662
▁Tod	1661
▁Kompetenzen	1660
▁Kuba	1659
▁erteilt	1656
Gleichbehandlung	1656
▁Besuch	1655
▁soweit	1653
▁erheblichen	1652
Richtlinie	1651
▁Amerika	1650
▁verwiesen	1649
▁bisherigen	1649
▁Renten	1649
▁Potenzial	1644
▁Äußerungen	1643
▁nachdenken	1643
▁Umfeld	1642
▁sogenannten	1642
▁Ebenen	1641
verfahren	1641
▁erarbeiten	1640
▁beobachten	1639
▁befürworte	1639
▁erinnere	1638
▁Mehr	1638
▁Planung	1637
▁Ganz	1637
▁senken	1637
▁Aufsicht	1637
▁Generation	1636
▁insofern	1635
▁Ausland	1635
▁Fleisch	1633
▁hergestellt	1633
▁Ausgleich	1632
▁Ausnahmen	1631
▁Also	1630
▁überprüft	1630
▁Weißbuch	1630
▁Argument	1629
▁Sonder	1629
▁hingegen	1627
▁Slowakei	1627
▁Mazedonien	1627
▁Kompromiß	1626
▁Ausschüsse	1621
▁erwähnte	1621
▁zustande	1621
▁Wissenschaftler	1621
▁irische	1620
Sozialdemokraten	1620
▁Dokumenten	1620
▁Terroristen	1617
sentwurf	1617
▁Zwar	1615
▁Marokko	1615
▁zunehmende	1615
▁manche	1614
▁Projekten	1612
▁natürlichen	1612
▁vernünftige	1612
▁Verlust	1611
▁beizutragen	1607
▁Ehre	1607
▁verehrten	1606
Christdemokraten	1606
▁zugute	1606
▁Stabilitäts	1605
ierung	1603
▁Herkunft	1603
▁Kommissare	1603
▁werte	1602
▁Titel	1601
▁Kandidaten	1600
▁General	1599
▁grundlegender	1599
▁Sehr	1599
▁Dänemark	1599
Demokratisierung	1599
▁konsequent	1598
präsident	1598
▁verzeichnen	1597
▁bestand	1597
skontrolle	1594
▁dieselben	1594
▁Auseinandersetz	1592
gleich	1592
▁Verlauf	1592
▁Tonnen	1592
▁Überarbeitung	1591
▁Verlängerung	1587
▁direkten	1585
▁Grundfreiheiten	1584
▁deutliche	1584
▁abgeben	1584
▁Ausbau	1584
▁bestimmen	1582
▁oftmals	1582
▁Werbung	1582
produktion	1582
▁tatsächlichen	1581
Fluggesellschaft	1580
▁extrem	1579
▁Vorredner	1579
▁ärmsten	1579
▁praktischen	1578
▁Gebrauch	1577
▁Binnenmarkts	1576
▁Datenschutz	1576
▁demokratisch	1576
▁ehrlich	1576
▁Finanzmittel	1575
▁Unterzeichnung	1574
▁Schuld	1574
▁Verfolgung	1573
▁begrenzt	1570
▁musste	1569
▁Zunahme	1568
▁Rindfleisch	1567
▁stärksten	1567
▁Generationen	1567
▁Erst	1566
▁voller	1566
▁hervorragenden	1566
▁unabhängige	1566
Vertrag	1565
▁kleiner	1564
▁einzubeziehen	1562
▁vermitteln	1558
▁Entschließungen	1558
▁ernsthafte	1556
▁Bewältigung	1555
▁gegebenenfalls	1554
▁Veränderung	1554
▁ähnliche	1554
▁existiert	1553
▁Einschätzung	1551
▁gleichermaßen	1550
▁Kulturen	1550
▁Prozent	1550
▁ständigen	1549
▁beantwortet	1549
▁umgehen	1549
▁erforderliche	1549
▁schwere	1549
▁einhalten	1548
srechts	1548
▁erläutern	1547
▁unzureichend	1547
▁kontrolliert	1547
▁unerlässlich	1546
▁persönliche	1545
▁Wandel	1545
▁Kompetenz	1544
▁gefragt	1544
ischen	1543
▁Drittel	1543
▁übermitteln	1543
▁eintreten	1543
▁Heimatland	1543
▁Menschenhandel	1543
▁Besonders	1543
▁EVP	1543
▁Ratspräsidenten	1542
▁bedauern	1542
▁Märkten	1542
▁vorher	1541
▁schrittweise	1541
▁entsteht	1539
▁Mehrwert	1538
▁Beschäftigten	1538
▁solch	1537
katastrophen	1536
▁schlage	1534
▁abgegeben	1534
▁Inneres	1533
▁ausreichende	1533
▁Fortsetzung	1532
▁leistet	1531
▁bedeutenden	1529
▁öffentlicher	1529
ner	1527
weitaus	1527
▁Tausende	1526
▁derjenigen	1526
▁außen	1524
▁Präsidium	1524
▁Kohäsion	1522
▁Beurteilung	1522
▁Haushaltsjahr	1521
EWG	1520
vorschriften	1520
▁Zwei	1520
▁bezahlen	1518
▁Licht	1517
▁Rahmenprogramm	1517
▁Militär	1515
▁langfristigen	1513
▁regeln	1513
▁Papier	1513
sprogramm	1513
▁Werten	1512
▁Übereinkommens	1511
▁Zwecke	1511
▁Vertretung	1510
▁Parlamenten	1510
▁Grundlagen	1509
▁Genau	1509
▁fand	1508
▁beteiligten	1508
▁Arbeitsgruppe	1507
▁wirtschafts	1507
▁Vision	1505
▁unterliegen	1504
▁Re	1504
▁Ausrichtung	1504
▁scheinen	1503
▁Schulen	1502
▁enttäuscht	1502
▁voraus	1501
▁gefährden	1501
▁Export	1498
▁abgesehen	1498
▁tritt	1497
▁bevorstehenden	1497
▁Verträgen	1497
▁Abstimmungen	1495
▁einfache	1494
▁beweisen	1494
▁beiträgt	1494
▁arbeitet	1493
▁Erzeugung	1490
▁Anreize	1490
▁Suche	1490
▁Zuge	1489
▁ursprünglich	1488
▁Beschränkungen	1487
▁ersetzt	1486
▁sprach	1486
▁alte	1486
▁genauer	1486
▁elektronischen	1486
▁zugänglich	1485
▁erweisen	1485
▁Schluß	1484
▁stand	1484
▁Luftfahrt	1484
▁ausgegeben	1482
▁Finanzen	1482
▁fortgesetzt	1481
▁willkommen	1481
▁hinweg	1481
ische	1481
▁freut	1479
▁gebilligt	1479
▁gewisser	1479
▁behalten	1479
▁wählen	1478
Abkommen	1478
▁erzielten	1478
▁Inseln	1476
▁müßte	1476
▁Widerstand	1475
▁P	1475
sebene	1475
▁vermieden	1475
▁fairen	1474
▁umso	1474
▁Legislativ	1474
▁eingereichten	1473
saustausch	1472
▁abzielen	1472
▁folglich	1471
▁Flughäfen	1471
▁Dafürhalten	1471
▁bewiesen	1471
▁ausgewogenen	1471
▁Kürze	1471
ab	1471
▁behauptet	1470
▁effiziente	1470
▁nahe	1470
▁ordnungsgemäß	1469
▁verändern	1469
▁aufbauen	1469
▁öffnen	1468
▁ernste	1468
▁nützlich	1468
▁Jahresbericht	1468
▁Kernenergie	1468
▁Statistiken	1468
rechte	1467
▁Erinnerung	1466
▁Wille	1465
▁akzeptabel	1464
▁Tragödie	1463
▁gewählten	1463
▁kurze	1463
▁konstruktiven	1463
▁Schulden	1462
▁unterscheiden	1462
▁deutsche	1461
▁widmen	1460
▁Rechtsetzung	1460
▁erneuerbare	1456
▁gekennzeichnet	1456
▁Entschädigung	1455
▁hart	1454
▁beträchtliche	1454
▁Standpunkte	1454
▁leiten	1453
▁innere	1453
▁Inter	1452
▁Albanien	1452
▁organisierten	1452
▁Friedensprozess	1451
▁rechtfertigen	1451
▁Redezeit	1450
▁vorschlägt	1449
▁Mensch	1449
▁externen	1448
▁gegangen	1448
▁zentralen	1448
▁hoher	1447
▁Rechenschaft	1445
▁Vorwand	1443
▁beschleunigen	1443
▁Armee	1442
▁gestaltet	1440
▁mittels	1440
▁Schreiben	1439
iert	1438
▁Agrar	1438
▁gefährlich	1437
gemeinschaft	1436
skosten	1435
▁langem	1435
▁Nichtregierungs	1435
▁Zulassung	1434
▁mögen	1434
▁angehen	1434
X	1434
▁verschiedener	1434
▁angekündigt	1434
Länder	1434
▁Freihandel	1433
▁Visa	1433
▁beenden	1431
▁Schicksal	1430
▁Aussagen	1430
▁kritisiert	1430
▁GVO	1430
▁Opfern	1428
▁Organen	1428
▁Alternativen	1428
▁hierfür	1427
▁ausgeführt	1427
▁erfolgreichen	1427
▁Kräften	1426
▁ermutigen	1426
▁gestattet	1426
▁Unterdrückung	1425
▁Dass	1423
▁zurzeit	1423
M	1422
▁Fähigkeiten	1422
▁breiten	1421
▁Eltern	1421
▁Versprechen	1419
▁enger	1418
▁falsche	1418
▁organisierte	1417
▁gehe	1417
▁erheben	1416
spolitiken	1416
▁Jugoslawien	1414
▁Darin	1414
▁verringert	1414
Ländern	1413
▁beglückwünsche	1413
▁Großteil	1412
▁portugiesischen	1412
▁eigentliche	1411
▁Meinungen	1411
▁Präsenz	1411
▁fehlende	1411
▁bekräftigen	1411
▁beitreten	1410
▁einzugehen	1408
▁einzuhalten	1407
▁Eurozone	1407
▁historische	1407
▁Betroffenen	1406
▁Pflichten	1405
▁gewonnen	1404
▁klären	1404
▁Verantwort	1403
▁hohem	1403
▁Angebot	1403
▁fühlen	1403
▁Gebäude	1403
▁aufzubauen	1403
▁effizienter	1403
▁Güter	1402
▁Fakten	1401
▁spanische	1401
▁Arbeitgeber	1401
▁Subventionen	1401
▁Straße	1400
▁davor	1400
▁Ausübung	1400
▁rufen	1399
▁erfolgreiche	1399
▁enormen	1398
▁L	1398
▁verfügbaren	1397
bereich	1397
▁verhandeln	1396
▁Übertragung	1395
▁Lateinamerika	1395
▁ausführlich	1394
▁zielt	1394
▁Mitwirkung	1394
▁nahezu	1393
▁wirksamen	1392
▁langsam	1391
▁Tschetschenien	1391
▁Marktwirtschaft	1390
▁bewirken	1390
▁gebe	1390
▁zukommen	1390
▁erklärte	1389
Rechtssicherheit	1389
▁Handlung	1388
▁interessant	1387
▁liefern	1387
▁mal	1387
▁Jedoch	1386
▁Konvents	1385
▁eventuell	1383
▁Anwesenheit	1383
▁zählt	1382
▁hierzu	1381
▁Abfall	1379
▁Zugangs	1379
▁Van	1377
▁Glück	1377
▁bedenken	1376
▁wiederhole	1375
ko	1375
▁angeblich	1375
▁dasselbe	1375
▁hohes	1374
▁bezeichnen	1374
größter	1374
Verantwortlichen	1374
▁vorn	1373
▁Wichtig	1373
▁strenge	1372
▁eröffnet	1370
▁stützen	1370
▁eigenes	1370
▁Resolution	1369
▁Statut	1369
sammenzuarbeiten	1369
▁lokale	1368
▁Versicherungs	1368
▁Beschwerden	1367
▁festen	1367
▁Verstärkung	1366
▁Glauben	1366
▁geeignet	1366
▁Somit	1366
▁Sozialpolitik	1365
▁Abänderung	1365
▁beruhen	1365
▁Umstände	1364
ssystems	1363
▁wünschenswert	1363
sfragen	1363
▁leichter	1363
▁gelassen	1362
▁Vizepräsident	1361
▁Außengrenzen	1361
▁Beratung	1360
ig	1359
▁Asien	1359
▁bewahren	1359
▁Palästinenser	1358
▁Absichten	1358
▁Unsicherheit	1357
K	1357
▁einzig	1356
▁Studenten	1356
▁Bauern	1355
▁erweitert	1354
▁teilt	1354
markt	1352
▁traditionellen	1352
▁Steigerung	1352
▁Städte	1351
▁geplant	1351
smitglied	1351
▁Erfolge	1351
▁verwirklichen	1351
▁Verletzungen	1350
▁Rahmenbedingung	1349
sgruppen	1349
▁heißen	1348
▁lesen	1348
▁modernen	1348
▁Litauen	1347
▁beginnt	1347
▁Gesprächen	1345
▁ergänzen	1345
igen	1345
▁Lasten	1344
▁ehemalige	1343
gleichberechtigt	1343
▁Vorbehalte	1343
um	1342
▁gehandelt	1341
▁Bilanz	1341
▁Ostsee	1340
▁Unserer	1340
▁enge	1339
Rechtsvorschrift	1339
▁Folglich	1339
▁Sommer	1338
▁gehabt	1338
land	1338
▁Automobil	1337
▁private	1337
sbericht	1336
▁verständlich	1336
▁begangen	1335
▁hinzuweisen	1335
▁Vorstellungen	1334
▁Unternehmens	1334
▁afrikanischen	1334
▁reduziert	1334
▁Acht	1333
▁zutiefst	1333
▁genießen	1333
▁schnelle	1330
▁Wiederherstell	1329
▁Immunität	1329
▁integrierten	1328
▁Süden	1328
▁Sind	1328
▁Anlagen	1328
Kandidatenländer	1327
▁Rahmens	1326
▁Haushaltsmittel	1325
▁Klein	1325
▁armen	1325
isch	1324
▁Kategorie	1324
▁begegnen	1323
▁zerstört	1322
▁Freunde	1322
▁Jahrhunderts	1322
▁Wein	1321
▁Tabak	1321
▁Tschechische	1321
▁vorgebracht	1321
▁derart	1321
▁Fehlen	1320
▁Wachstums	1320
▁Patten	1320
▁Kanada	1320
▁Kontakte	1319
vollem	1319
▁kümmern	1319
▁Belastung	1319
▁geklärt	1318
▁erleichtert	1318
▁Luftverkehr	1317
▁Meer	1316
▁einfacher	1316
▁Stabilitätspakt	1316
▁intensiv	1316
▁ersuchen	1316
▁bereiten	1316
▁lokaler	1316
▁Fragestunde	1315
▁Nachdem	1314
smitglieder	1314
al	1313
▁mittel	1312
▁hilfreich	1311
▁zumal	1310
▁Übernahme	1309
▁Dienststellen	1309
▁israelischen	1309
▁Simbabwe	1309
▁zugelassen	1308
Gipfel	1308
▁verankert	1307
▁amtierenden	1307
▁auszuüben	1307
▁schwieriger	1306
▁korrekt	1306
▁Einnahmen	1305
▁wahr	1304
aufrechterhalten	1304
▁italienische	1304
▁einnehmen	1304
▁Sitz	1303
▁keinesfalls	1303
▁Stück	1303
Industriepolitik	1302
▁erstellt	1302
▁Sozialpartner	1302
▁Gipfels	1301
▁Fahrzeuge	1300
▁chinesischen	1300
▁Gewerkschaften	1300
▁ansehen	1300
▁stärkeren	1299
▁ethnischen	1299
▁gratuliere	1296
▁Aufforderung	1296
▁Eines	1296
▁Arbeitsweise	1296
▁geringe	1295
▁vorzuschlagen	1295
▁Stellungnahmen	1295
▁höher	1295
▁Tages	1294
▁Ernennung	1294
▁abzielt	1294
▁kritisch	1294
▁führte	1293
▁international	1293
▁beurteilen	1291
▁Nachmittag	1291
▁Insel	1289
▁Anhang	1289
▁gefährlichen	1289
ausschusses	1288
▁gefährliche	1287
▁erhoben	1287
▁Reise	1285
stätigkeit	1282
▁benutzt	1282
▁ohnehin	1282
▁verstoßen	1282
▁Steuerung	1280
▁schenken	1280
▁gefasst	1280
▁einfachen	1279
▁Verzögerungen	1279
▁Landwirten	1279
se	1279
Politik	1277
▁Vordergrund	1276
▁Handlungen	1276
▁Bedürfnissen	1275
▁vereinfachen	1275
▁Phänomen	1274
▁Palästina	1274
▁Abfälle	1274
▁durchgesetzt	1274
▁Tatsachen	1274
▁Ko	1274
▁Hilfen	1273
▁beeinflussen	1273
▁klarstellen	1273
▁Lebensmitteln	1272
▁Konzentration	1271
▁technologische	1270
▁Beim	1270
▁definieren	1270
▁Auslegung	1269
▁dieselbe	1268
▁angeboten	1266
▁eingeschränkt	1263
▁verschaffen	1262
ein	1262
sabkommens	1262
▁könne	1261
▁Alles	1260
▁gewünscht	1260
▁Tatsächlich	1258
▁dahingehend	1258
▁transparent	1257
▁wozu	1257
▁beinhalten	1257
▁einzurichten	1256
▁wofür	1256
▁OLAF	1256
▁verstärkten	1256
▁Bewirtschaftung	1255
▁Alter	1254
Bürger	1253
▁beendet	1253
▁Doha	1253
▁Evaluierung	1253
▁anstreben	1252
▁verteilt	1252
▁Tradition	1249
▁Rechtsrahmen	1249
▁drängen	1249
▁ungeachtet	1248
▁organisieren	1247
▁klarer	1247
▁empfehlen	1247
verkehr	1246
▁jeweils	1246
Meinungsäußerung	1245
keit	1245
▁verursachen	1244
▁momentan	1244
▁Stunde	1243
▁ausgearbeitet	1243
▁transeuropäisch	1242
▁Beihilfe	1242
▁ignoriert	1241
▁geprägt	1241
▁durchsetzen	1240
▁Rest	1240
▁Bürgerrechte	1239
▁höchsten	1239
▁Ost	1239
▁Gleichwohl	1238
▁Missbrauch	1238
▁Einstimmigkeit	1238
ch	1237
▁gering	1237
wieweit	1236
▁negativ	1233
Veröffentlichung	1233
ö	1233
wirtschaft	1233
▁Dollar	1233
▁sichere	1232
▁Dort	1232
▁Vorfeld	1232
▁südlichen	1232
▁Zuwanderung	1232
▁Einschränkung	1231
sprozeß	1231
▁begründet	1230
▁eigentlichen	1230
▁Arbeitsprogramm	1230
▁gelangt	1230
▁umfassen	1229
▁Infrastrukturen	1229
▁verbieten	1228
▁Behinderungen	1228
▁Folgendes	1227
▁angehören	1227
▁rechnen	1226
▁reisen	1225
▁Sitzungen	1224
▁bewertet	1224
▁landwirtschaft	1224
▁sozusagen	1224
▁verpflichten	1224
▁schwedische	1223
▁Fristen	1223
▁gäbe	1222
▁friedliche	1222
▁Malta	1222
▁Gewährung	1222
▁Birma	1221
▁manchen	1221
▁Vorsitzende	1221
▁anzupassen	1220
▁Einfuhr	1220
▁zieht	1219
▁Spannungen	1219
▁überrascht	1218
▁Ägypten	1218
▁berichten	1218
▁rasche	1218
▁Wissens	1217
▁Zielsetzung	1217
▁Innovationen	1217
▁Arbeitszeit	1216
Strafgerichtshof	1216
▁stellte	1216
▁erstellen	1216
▁unterstrichen	1216
▁Ursache	1216
▁Annäherung	1215
▁bedaure	1215
▁dahin	1215
▁Mitte	1215
▁Europäisches	1214
▁Können	1214
▁drittens	1214
▁Dublin	1214
▁National	1213
aus	1212
▁Zwischen	1212
▁Verbindungen	1212
▁Saal	1211
sbestimmungen	1211
▁GUE	1210
▁Derzeit	1209
▁einzuleiten	1209
▁abend	1208
▁London	1206
▁Anti	1206
▁Logik	1206
▁Einzelheiten	1205
▁neun	1205
▁gesichert	1204
▁ausgewogene	1204
▁Folter	1204
▁Kommissars	1204
▁Auswahl	1204
▁Einzelnen	1203
▁erweitern	1203
▁Gleichheit	1203
▁dänischen	1203
▁Dienstleistung	1202
D	1202
▁Organ	1201
▁bekanntlich	1201
▁gespielt	1201
▁Konflikts	1201
Emissionen	1201
▁Beobachter	1200
▁Tür	1200
▁weisen	1200
▁erweiterten	1199
▁auseinander	1199
▁Unternehmer	1199
▁Leid	1199
▁Instrumenten	1199
▁Bewusstsein	1198
▁Demokratische	1197
▁Sozialisten	1196
▁herzustellen	1194
▁Appell	1194
▁Textes	1194
▁Insofern	1193
▁Nord	1193
▁fünfzehn	1192
▁Tunesien	1192
▁geringer	1192
▁weltweite	1191
▁Zerstörung	1191
▁August	1190
▁effektiver	1190
▁Einfluß	1190
▁friedlichen	1190
▁vernünftigen	1190
▁Kohäsionsfonds	1189
▁Kluft	1189
▁Dynamik	1189
▁Brasilien	1188
▁appelliere	1188
spflicht	1187
▁Zusammenhalts	1187
sstandards	1186
▁bekämpft	1186
▁Gemäß	1185
▁Ganzes	1185
▁Ausschüssen	1184
▁eröffnen	1183
▁müsse	1183
▁anbieten	1182
▁besagt	1182
F	1181
▁Montag	1181
▁Management	1181
▁Libanon	1180
▁sitzen	1179
svertrag	1179
▁Terror	1179
▁erwarte	1179
▁Verhaltenskodex	1179
▁Völkern	1178
▁amerikanische	1177
▁Aufstockung	1177
NGL	1177
▁realistisch	1177
Unregelmäßigkeit	1176
▁Niemand	1176
▁zwingen	1175
▁Kampagne	1175
▁ökologische	1175
▁deutlicher	1174
▁voran	1174
▁offiziellen	1174
▁durchgeführten	1173
▁Internationale	1173
▁abzulehnen	1173
▁bereitzustellen	1172
▁Scheitern	1172
▁Effektivität	1172
▁geblieben	1171
▁Gebühren	1171
▁betrieben	1170
▁Norden	1170
▁überwacht	1169
▁Zentrum	1169
▁Lehren	1168
▁Säule	1168
▁Sachen	1168
▁Mitbürger	1167
▁abgeschafft	1167
▁Mission	1167
▁kamen	1166
▁Ergänzung	1166
▁festhalten	1166
▁Fisch	1166
gesellschaften	1165
▁geplanten	1165
▁organisiert	1164
▁Branche	1164
▁Verheugen	1164
▁gedenkt	1164
▁anzugehen	1164
▁fortzusetzen	1163
▁Protokolls	1163
▁Erstellung	1162
▁finanzieller	1162
▁Rückgang	1162
▁belgischen	1162
▁überlegen	1162
▁Strom	1162
▁Minute	1162
▁ergänzt	1161
▁womit	1161
▁Brok	1160
▁Weiterbildung	1160
▁Ungleichheiten	1159
▁Post	1159
▁Werden	1158
▁wenigsten	1158
ALE	1158
▁Aufklärung	1157
▁untergraben	1157
▁Bevor	1157
▁Stärke	1157
niederländischen	1156
▁Ausgangspunkt	1156
▁Städten	1156
▁Budget	1156
▁tief	1156
▁zurückkommen	1155
▁sterben	1155
▁Lebensqualität	1155
▁Aufrechterhalt	1155
▁Satz	1155
▁Beruf	1154
▁Parlamentarier	1154
▁Flüchtlingen	1154
auf	1153
▁Menschheit	1153
▁koordinieren	1153
▁beunruhigt	1152
è	1152
▁Kapazitäten	1152
▁Solana	1151
smechanismus	1151
▁beantragt	1151
▁ca	1150
▁Koordination	1150
▁streng	1150
rum	1150
▁Gefangenen	1150
▁zwölf	1149
▁Gefängnis	1149
▁Verzögerung	1148
▁investiert	1148
anhand	1148
▁genetisch	1148
▁vollständigen	1148
▁Königreichs	1148
▁sicheren	1147
Aussprache	1147
▁interne	1147
▁Vorbereitungen	1146
▁Regional	1145
▁Privatisierung	1145
▁nachzudenken	1144
▁Grad	1144
▁wenngleich	1143
▁Freitag	1143
)).	1142
▁ALDE	1142
▁Nähe	1142
ige	1141
▁hilft	1141
spräsidenten	1140
▁wirksamer	1140
▁Berlin	1140
▁wider	1140
▁Rück	1139
▁beeinträchtigt	1139
▁größerer	1139
▁klares	1138
▁Liebe	1138
▁Leitung	1138
▁einiges	1138
▁Pfeiler	1137
▁verzichten	1137
▁wenigstens	1137
▁Ernährungs	1137
▁kaufen	1136
▁Treibhausgase	1135
▁Aufenthalt	1135
▁genaue	1134
▁Weil	1134
▁Luftverkehrs	1134
▁Ziels	1134
HU	1132
▁langer	1131
▁sexuellen	1131
▁begreifen	1130
▁Kompromisse	1130
▁derartigen	1130
▁Reden	1130
▁Flüchtlings	1129
▁finanziell	1129
▁Vorsitzender	1129
▁geeinigt	1128
▁führende	1128
▁verhandelt	1127
▁Aussicht	1127
programme	1127
▁Moldau	1127
▁multilateralen	1127
▁Bananen	1127
▁schlechte	1126
▁qualitativ	1126
▁Konflikten	1126
▁aktiven	1126
▁interessante	1126
▁Geltungsbereich	1126
▁Zusammensetzung	1125
▁Fischler	1125
▁lehnen	1124
▁existieren	1124
▁Osteuropa	1124
▁Viertens	1123
▁türkische	1123
sbürgerschaft	1123
▁Eigentum	1123
▁beruflichen	1123
▁Arbeitskräfte	1122
trittskandidaten	1122
▁sämtlichen	1121
▁jährlichen	1121
▁legislativen	1121
▁gewiss	1120
▁Kopf	1119
▁wachsenden	1119
▁Schweiz	1119
▁globaler	1119
▁Versuche	1118
▁Arbeits	1118
▁Spielraum	1117
▁Einer	1117
▁wachsende	1117
Generaldirektion	1116
▁wahrnehmen	1116
▁Truppen	1115
▁beachten	1115
▁getreten	1115
▁Führer	1115
▁Rubrik	1114
▁vorzugehen	1114
▁täglich	1113
▁Not	1112
▁Inflation	1112
▁Ashton	1112
▁Bedauern	1111
▁Forum	1111
▁Größe	1110
▁Jahrzehnten	1110
▁versteht	1110
▁verwirklicht	1109
▁anmerken	1109
▁geachtet	1109
▁Jugendliche	1109
▁anschließend	1108
▁automatisch	1108
▁Amerikaner	1108
▁Nordirland	1107
▁Niederlande	1107
▁zunehmenden	1107
▁Inanspruchnahme	1106
▁ungefähr	1106
▁Kurs	1106
Mittelmeer	1106
▁Option	1105
schutzes	1105
▁derselben	1104
▁gedacht	1104
▁Legitimität	1103
▁Indikatoren	1103
▁schlimmer	1103
▁geehrter	1101
▁solide	1101
▁Erdöl	1100
▁OSZE	1100
▁richtet	1099
▁bilaterale	1099
System	1098
T	1097
▁Libyen	1097
▁ungarischen	1096
▁Alkohol	1096
▁erkannt	1096
▁teilgenommen	1096
▁Verkauf	1095
Abstimmung	1095
▁vereinbar	1095
▁Syrien	1095
▁Solche	1094
▁dauerhafte	1094
▁Klaren	1093
▁gewahrt	1092
ul	1092
▁Traditionen	1092
▁Verts	1092
ne	1091
▁religiösen	1091
EU	1090
▁rechtlich	1090
▁übermittelt	1088
▁gestrichen	1087
▁verhalten	1087
▁starkes	1087
bekämpfung	1087
▁umfangreiche	1087
▁Helsinki	1086
▁unterbrochen	1086
▁of	1086
▁vorgesehene	1085
▁kritischen	1085
▁geistigen	1084
bar	1084
▁irgendeine	1084
▁Beibehaltung	1084
▁beseitigt	1084
▁Linken	1083
▁technischer	1083
▁zwangsläufig	1083
▁gefallen	1082
▁normalen	1082
▁einbringen	1082
▁Drittländer	1082
▁Hinweise	1082
▁fürchte	1081
▁aufgegriffen	1080
▁Defizit	1080
▁denselben	1079
▁Konsolidierung	1078
▁Bush	1077
▁unterstreicht	1077
▁droht	1077
▁Fernsehen	1077
▁eingestellt	1076
▁Auto	1075
▁Stellenwert	1075
▁Mitgliedstaates	1074
▁selber	1074
▁ignorieren	1074
▁Tendenz	1074
p	1074
▁Einschränkungen	1074
▁angewiesen	1073
▁vieles	1073
▁aussehen	1073
▁Angriffe	1073
▁Schließung	1073
▁Weiterhin	1073
▁Texte	1072
▁Summe	1072
P	1072
▁getroffenen	1071
▁territorialen	1071
▁effektiven	1070
▁Migranten	1070
▁geringen	1069
▁Projekts	1069
▁kurzen	1068
▁Auswärtige	1068
▁Gewinne	1066
▁Zoll	1066
▁Stabilisierung	1065
▁Herbst	1065
▁Lernen	1064
▁kompliziert	1064
▁ausgewogen	1063
E	1063
österreichischen	1062
▁Million	1062
▁O	1062
▁voranzubringen	1061
▁Haushalte	1061
▁Gaza	1060
▁Amtszeit	1060
▁aufgebaut	1060
▁mitgeteilt	1060
institutionelle	1059
▁sogenannte	1059
schnellstmöglich	1059
▁Haftung	1058
▁berechtigt	1058
▁ausgeübt	1058
zeit	1057
▁Einwände	1057
▁Verhinderung	1057
▁dauerhaften	1057
▁Ge	1056
▁dargestellt	1056
▁kritisieren	1056
▁Kind	1055
▁stammen	1055
▁immerhin	1055
▁schließt	1055
sinstrument	1054
▁Tampere	1054
▁einziges	1054
▁Südafrika	1054
▁Anreiz	1053
▁gewidmet	1053
▁absolute	1052
▁Rechtsprechung	1052
▁beträgt	1051
▁Beweise	1051
▁Rom	1050
▁Defizite	1050
▁Ausgewogenheit	1050
▁präzise	1050
▁gestiegen	1050
▁Gelegenheiten	1049
▁geeigneten	1049
▁Le	1047
▁beeinträchtigen	1046
▁fertig	1046
▁Massen	1046
▁einbeziehen	1046
▁Schengener	1046
▁problematisch	1045
▁Aktionsprogramm	1045
chen	1045
▁Mengen	1045
▁Hoffnungen	1044
▁Schulz	1044
▁gebraucht	1043
▁ausgestattet	1043
▁Gegenwärtig	1043
preise	1043
▁behindert	1042
▁umgehend	1042
▁fahren	1042
▁illegal	1041
▁einräumen	1041
▁Konjunktur	1041
▁Vermeidung	1040
▁ständige	1039
▁endgültig	1039
▁Freilassung	1038
▁zitiere	1038
▁Soldaten	1038
▁Überwindung	1038
▁voranzutreiben	1038
▁Gesamtheit	1037
sarbeit	1037
▁ähnlich	1037
▁Vermarktung	1037
▁beziehe	1037
▁eingebunden	1037
▁Anschluss	1036
▁Kürzungen	1036
▁falschen	1036
▁Straftaten	1036
▁aufgehoben	1035
diskriminierung	1035
▁jeglicher	1035
▁fort	1035
▁bewegt	1034
▁Zusagen	1034
smittel	1034
▁teilzunehmen	1033
▁Gremien	1033
▁angesprochenen	1033
▁Z	1033
▁Zugleich	1032
▁Konkurrenz	1032
▁einsetzt	1032
▁bürgerliche	1031
▁ehrgeizige	1031
▁Hafen	1031
▁erläutert	1031
▁anzuerkennen	1030
▁festgehalten	1030
▁Wortlaut	1029
▁Erwägungen	1029
▁Darlehen	1028
▁New	1028
▁per	1028
▁fehlen	1028
▁stattdessen	1027
▁Detail	1027
▁abzuschließen	1027
▁bestraft	1026
▁Straßenverkehr	1026
▁verschärft	1025
▁hinnehmbar	1025
▁Produktivität	1025
▁müßten	1025
▁Firmen	1025
▁Tempo	1024
▁EIB	1024
▁gründlich	1024
▁angemessener	1024
▁WWU	1023
▁Kunden	1023
▁abzustimmen	1023
▁Privat	1023
▁Bisher	1022
▁Ereignissen	1022
▁Bedingung	1022
▁steigen	1022
▁Stockholm	1022
▁externe	1021
▁konkreter	1021
▁ehrgeizigen	1021
▁Zucker	1021
▁besonderes	1020
▁Kongo	1020
▁Verurteilung	1020
▁Rats	1019
ur	1019
▁vertrete	1019
▁systematisch	1019
▁schätzen	1019
▁Ablauf	1018
▁Schiffen	1017
c	1017
▁Könnte	1017
▁Partnerschaften	1017
▁ändert	1017
▁namentlich	1017
▁Privatsphäre	1017
▁Vormittag	1017
▁versprochen	1016
▁passieren	1016
▁Aussprachen	1015
▁errichten	1015
▁beweist	1015
▁knapp	1015
▁appellieren	1015
▁zuständige	1015
▁benutzen	1015
▁Stehende	1014
▁Termin	1014
▁wertvolle	1014
▁liegenden	1014
uneingeschränkte	1013
▁weg	1013
▁Richter	1013
▁Bemühen	1013
▁Nachteil	1012
▁wirken	1012
▁Reaktionen	1012
▁Anmerkung	1012
▁Westen	1011
▁gleicher	1011
▁Diktatur	1010
▁ursprüngliche	1010
▁Schon	1009
▁Integrität	1009
▁geschafft	1009
shaushalt	1008
▁Regimes	1008
amerikanischen	1008
▁Umweltpolitik	1008
▁Slowenien	1008
▁basieren	1007
▁gelesen	1007
▁befaßt	1007
▁Umstellung	1006
licher	1006
▁Kürzung	1006
▁lag	1005
▁Optionen	1005
sregeln	1004
▁Sowohl	1004
▁berufliche	1004
▁Kohle	1004
ter	1003
verschmutzung	1003
▁Diesen	1003
▁beschrieben	1002
▁Nation	1002
▁vereinbarten	1002
▁verbindliche	1002
▁mittlerweile	1002
▁Christen	1002
▁billigen	1002
ismus	1001
bgesehen	1001
▁seinerzeit	1001
▁Verstöße	1001
G	1000
▁aufgestellt	1000
▁Ratspräsidentin	1000
▁verliehen	1000
▁Kriterium	1000
▁kritische	999
▁offiziell	999
Prozess	999
▁Mittwoch	999
▁verbinden	998
Rahmenrichtlinie	998
▁Gesichtspunkt	998
▁Futtermittel	998
▁Santer	997
▁N	997
uelle	997
▁Solange	997
▁vorgetragen	997
▁angepasst	997
▁Heimat	996
▁lebenden	996
▁Meeres	996
▁sorgt	996
Investitionsbank	996
▁korrigieren	996
▁Erbe	995
▁Milch	995
▁Küsten	995
▁zurückkehren	995
▁Chemikalien	994
▁Beide	994
▁früh	993
▁strengen	993
▁Wieder	993
▁bezahlt	992
▁Emission	992
▁hinnehmen	992
▁älteren	992
▁bereitstellen	992
▁abzugeben	991
▁Perspektiven	991
▁zukünftig	991
▁osteuropäischen	991
▁Ihres	991
▁abschließen	990
▁überdenken	990
▁biologischen	989
▁Delegationen	988
▁gezahlt	988
le	988
▁erstmals	988
▁Wien	988
▁Russlands	988
▁Autonomie	988
▁Komitologie	987
erzeugnissen	986
ation	986
▁Übersetzung	986
missionen	986
▁Vertreterin	986
▁Kofinanzierung	985
▁Betreuung	984
COD	984
▁Ob	984
▁Produzenten	984
▁Toleranz	983
elekommunikation	983
CS	983
▁beantragen	983
Krise	982
▁ausgelöst	982
uellen	982
▁gesetzlichen	981
▁strengere	980
▁gegenseitig	980
▁offenkundig	980
▁Konservativen	980
▁Sicherstellung	980
▁Kurz	979
▁fair	979
▁Substanzen	979
▁Verschmutzung	979
▁Beträge	978
▁Rechnungshofs	977
▁Orientierung	977
▁Einwohner	977
▁Eingliederung	977
▁Mitgliedsländer	976
▁Denken	976
▁unabdingbar	976
▁Tibet	976
▁Hamas	976
▁Einmischung	976
▁Erreichen	975
▁tatsächliche	975
▁Etikettierung	974
▁Krieges	974
▁indirekt	974
▁verteidigt	974
▁Saddam	973
▁außergewöhnlich	973
▁integrieren	973
▁positives	973
▁Finanzrahmen	972
▁behindern	972
▁Erhalt	972
▁Wünsche	972
▁steigern	972
▁J	971
▁Sch	971
▁Erzeugnissen	971
▁Nachrichten	970
▁Blut	970
▁Klärung	969
Meinungsfreiheit	969
▁griechische	969
▁faire	969
▁stehende	969
sermächtigungen	969
▁Übereinkunft	969
▁Augenmerk	968
▁abhängen	968
▁Gesetzgeber	968
▁Seine	968
▁Tierschutz	967
Vertrags	967
▁ausreichen	967
▁Erkenntnisse	966
▁Israels	966
sniveau	966
smechanismen	966
▁Überleben	966
▁Vizepräsidentin	965
▁Endes	965
▁möge	965
▁geholfen	964
▁schlechten	963
▁Wälder	962
▁genehmigt	961
▁anführen	961
un	961
▁Wahlkreis	960
▁Pakt	960
mittel	960
▁Konsultationen	960
▁schön	960
▁Vorsicht	960
▁ansonsten	959
frage	959
▁Darauf	959
▁Algerien	959
▁Unfall	958
▁hinzu	958
▁Hauptziel	958
▁Mexiko	957
▁Händen	957
▁bezogen	957
▁medizinische	956
▁Ent	956
lichkeiten	956
▁Ursprung	955
▁Vertrauens	954
▁beider	954
▁Inhalte	954
+	954
▁ernsten	953
SK	953
▁schlechter	953
▁polnischen	953
▁Weltbank	953
▁Freund	953
▁Preisen	952
▁schuldig	952
▁Vorgaben	952
▁engagiert	952
▁vorsehen	952
▁Haushaltslinie	952
▁Bestände	952
▁Textil	952
▁technologischen	952
▁benachteiligten	952
▁R	951
▁Sozialfonds	951
▁veranlassen	950
▁schrecklichen	949
▁führenden	949
▁nachhaltig	949
▁produzieren	948
▁kurzfristig	948
▁geleistete	947
ressourcen	947
▁allmählich	947
▁ausmachen	947
▁Reserve	947
▁inneren	947
▁geschrieben	946
Das	946
▁ähnlichen	946
▁Insgesamt	946
▁weise	945
▁Finanzmärkte	945
▁vorgestellt	944
▁Anlaß	944
▁nachkommen	944
▁Zweiten	944
▁Teilnehmer	943
serklärung	943
▁Gedanke	943
▁Technik	943
▁voneinander	943
▁Stufe	942
▁Einleitung	942
▁diplomatischen	941
▁angenommene	940
▁ersucht	940
▁getötet	940
▁aufrichtig	939
▁Besonderheiten	939
präsidenten	939
▁Hindernis	938
▁vorangegangenen	938
▁Lebensbedingung	938
▁Funktionsweise	938
▁oberste	938
▁retten	937
▁gesunden	937
▁schwerer	937
▁Protektionismus	937
el	937
▁Handelspolitik	937
▁Befürchtungen	937
▁Beförderung	937
▁Bedauerlich	936
▁zuzustimmen	936
▁innovative	936
▁Begrenzung	936
▁Andere	935
▁vorsichtig	935
▁gesorgt	935
konstitutionelle	933
▁moderne	933
▁Einigkeit	933
sdienste	933
▁Fischereisektor	932
▁selten	932
▁obliegt	932
▁geschenkt	932
▁vermittelt	932
▁worauf	931
▁Kontinents	931
palästinensische	931
▁Je	931
▁Sudan	931
▁Dritten	930
▁Chinas	930
▁vollen	930
▁verfahren	930
▁gerechte	930
▁vorgelegte	930
▁Tier	929
▁Unfälle	929
▁verkauft	928
Verschlechterung	928
▁arabischen	928
▁Großen	928
▁gewählte	928
lässlich	927
▁stützt	927
▁unternimmt	927
sversorgung	927
▁Mädchen	927
▁Trennung	926
▁hervorzuheben	926
▁multinationalen	926
▁gestellten	926
▁begleitet	925
▁Erneuerung	925
Programms	924
▁grundlegend	924
▁auszuarbeiten	924
▁transparenter	923
▁formulieren	923
▁Bar	923
▁Material	923
▁Enttäuschung	923
▁Auffassungen	922
▁positiver	922
▁ausgehend	922
▁Generalsekretär	922
▁würdigen	922
▁seiten	921
▁übernimmt	920
us	920
▁erneuerbarer	920
▁Revolution	919
▁Investoren	919
▁moralische	919
Überschwemmungen	918
▁Streichung	918
▁Bestrebungen	917
▁sensiblen	917
gen	917
▁widerspiegeln	917
▁Rahmenbeschluss	916
▁Einsparungen	916
▁Kinnock	916
▁Erde	916
▁Themas	915
santrags	915
▁ausgedrückt	915
seinrichtungen	915
▁gefährlicher	915
▁angehört	914
N	914
▁Grundsatzes	914
▁GASP	914
▁zwanzig	913
▁absurd	913
Verordnung	913
▁Seeverkehr	912
at	912
▁Beitrittsländer	912
▁Gemeinden	911
R	911
versammlung	910
▁allgemeinem	909
▁Zusage	909
▁ordnungsgemäße	909
▁Monti	908
▁vorzubereiten	908
▁herum	908
▁qualifizierte	908
▁Gewässern	907
▁nahm	907
▁einander	907
O	907
▁gutem	906
▁alternative	906
▁verbreitet	906
▁Wäre	905
is	905
▁Universitäten	905
▁gelernt	905
rechtzuerhalten	905
▁vorankommen	904
▁erreichten	904
▁besseres	904
▁aufhören	904
Initiativbericht	904
▁Schule	904
▁Dienstes	903
sinstrumente	903
▁Vergabe	903
▁streichen	903
▁aufgerufen	903
▁Hunger	902
▁Flug	902
▁berichtet	901
▁Danke	901
▁Amsterdamer	901
FI	901
▁vertraut	901
▁integriert	901
▁Auflagen	901
▁Mitgliedstaats	900
▁Unionsbürger	900
▁befürchten	900
▁Oder	900
▁Falls	900
▁Beendigung	900
▁kennt	900
▁Bezeichnung	900
ssektor	900
▁Einerseits	899
▁Sieg	899
ar	899
▁Impulse	899
technologie	899
▁Aufteilung	898
▁Verhütung	898
▁blockiert	898
▁engagieren	897
▁wahre	897
▁zivilen	897
▁gebunden	897
▁debattieren	896
vorschlag	896
▁Gewinn	895
ork	895
Rat	893
▁verkaufen	893
▁schauen	893
▁aufgreifen	892
▁beachtet	892
▁sexuelle	892
beauftragte	891
▁flexibel	891
▁irgendeiner	890
▁festgeschrieben	890
▁aufgezeigt	889
▁beschäftigungs	889
▁Lohn	889
▁Schottland	889
▁vorbereiten	888
▁informellen	887
recht	887
▁Grenz	887
▁bekommt	887
it	887
▁weitergehen	887
▁Bezüglich	886
▁verfügbar	886
▁Governance	886
▁gewaltige	886
▁tätigen	886
▁angeführt	885
▁eingebrachten	885
▁einschlägigen	885
▁Büro	884
▁empfohlen	884
▁entziehen	884
▁Registrierung	884
▁koordiniert	883
▁Rückführung	883
▁russische	883
▁technisch	883
des	883
▁EP	882
▁spüren	882
▁heutzutage	882
▁Akteuren	882
▁kontinuierlich	881
▁Gleiche	881
▁einzuräumen	881
▁komplizierten	881
V	881
▁Estland	881
▁effizienten	880
Mitgliedsländern	880
▁hinein	880
▁Politikbereiche	880
▁Territorium	880
▁Kindes	879
▁Zusatz	879
▁Gehör	879
▁Strafen	879
▁bisweilen	879
▁längst	878
smethode	878
▁verweigert	878
im	878
▁unannehmbar	877
▁Arzneimitteln	876
▁illegaler	876
▁natürliche	876
sprobleme	875
▁erkennt	875
rechtlichen	875
▁Hände	875
▁Grenzwerte	874
▁Unrecht	874
▁verknüpft	873
▁diesbezügliche	873
▁zukommt	873
▁Ereignis	873
▁Hoheitsgebiet	873
▁Pressefreiheit	872
▁vermutlich	872
▁Vorbild	872
▁konstruktiv	872
▁Ganzen	872
▁Schwerpunkte	872
▁irgendwelche	872
▁Mitarbeitern	872
▁Artikels	872
ster	871
abschätzung	871
▁Galileo	871
▁Fischbestände	870
igkeit	870
LT	870
▁Demokratien	870
▁Aktionsplans	870
CNS	869
▁Vertiefung	869
▁kleineren	869
▁Nutzer	869
▁Föderation	869
▁Neu	868
▁schweigen	868
▁verschärfen	868
▁Erziehung	867
▁Daß	867
▁beizubehalten	867
▁demnächst	867
▁Jahrestag	866
▁Obergrenze	866
▁funktionierende	866
▁Erleichterung	866
▁messen	866
▁vorausgesetzt	865
▁gefällt	865
▁bedürfen	865
▁Bestreben	865
▁Gleichberechtig	865
erstattung	865
▁widerspiegelt	864
▁Kauf	864
sfindung	864
Außenbeziehungen	863
▁Arbeiter	863
▁hinausgehen	863
▁Handelsabkommen	863
▁Lettland	863
▁Blair	862
▁erzeugt	862
▁jemals	862
ausstattung	862
▁territoriale	862
▁Labour	862
Regierung	862
▁Freiwilligen	862
as	861
▁Hat	861
▁bauen	861
▁bemerken	861
▁Fremdenfeind	861
▁Angehörigen	859
▁letztes	859
Gesundheitswesen	859
▁engen	859
▁Betreiber	858
▁vielfach	858
▁Gesetzes	857
friedenstellend	857
▁Beitritts	857
▁reale	856
nvorschlag	856
Nein	856
▁portugiesische	856
▁glücklich	855
▁Glückwunsch	855
▁Europäern	854
▁Geschwindigkeit	854
▁Wohlergehen	854
▁geltend	853
▁Genugtuung	852
▁integrierte	852
▁unterzeichnen	852
▁Verluste	851
▁vorlegt	851
▁realen	851
systems	851
Haushalt	851
▁ratifizieren	851
▁Schiff	850
▁Ruf	849
▁geteilt	849
▁Gegebenheiten	849
smodell	849
▁freiwillige	849
▁Außenhandel	849
▁Beschlusses	848
▁Flughafen	847
▁Ad	847
▁niederländische	847
▁harte	846
▁Spitze	846
angehörigen	846
bedingungen	846
▁Nachricht	846
▁Autos	845
▁vertrauen	845
▁versetzt	845
▁allgemeiner	845
▁greifen	844
▁gemeint	844
▁Akzeptanz	844
▁Runde	843
▁Finanzminister	843
▁tragischen	843
▁Plenarsaal	843
▁plötzlich	843
▁stärkt	842
sammengearbeitet	842
ol	842
▁übrig	842
▁offizielle	842
▁elektronische	841
▁Florenz	841
▁ältere	841
▁junger	841
▁versetzen	841
▁begrenzen	841
▁verabschiedeten	841
▁niedrigen	841
▁Standard	841
▁wirft	840
▁auferlegt	840
▁aufgeführt	840
▁Haben	839
▁Streit	839
▁ermutigt	839
▁ent	839
▁Allein	839
▁Getreide	839
▁Verbrauch	839
▁Fundament	839
▁Rednern	839
▁zerstören	838
▁schlimmsten	838
▁Wachstumspakt	838
▁verschieben	838
▁strukturellen	837
▁Weltwirtschaft	837
▁Pro	836
▁wirkt	836
▁Bestätigung	836
▁dringende	836
▁einleiten	836
▁Gestern	836
▁transparente	835
▁eingetreten	835
▁Vollendung	835
▁aufgeworfen	835
▁abgehalten	835
▁erlangen	835
▁beurteilt	835
W	835
▁Einzel	835
▁Zivilisation	834
möglichkeiten	834
▁Mühe	833
▁empfehle	833
▁zügig	833
▁üblich	833
▁Nachteile	832
▁sichtbar	832
▁facto	831
▁Anzeichen	831
▁analysieren	831
▁Datum	831
▁Diensten	831
▁Aufstellung	831
▁festlegt	831
ad	830
▁parallel	830
▁Vielmehr	830
wissenschaftlich	829
▁eingehend	829
▁Völkerrecht	829
▁dürften	829
▁Europarat	829
▁b	829
▁Arbeitslosen	829
gesetzgebung	829
▁zuversichtlich	828
sausgaben	828
▁zahlreicher	828
▁geltende	828
▁verbindlich	827
▁Hoch	827
obachtungsstelle	827
schaft	826
ausschuss	826
os	826
▁Reisen	825
▁werfen	825
▁Frühjahr	824
▁betrachte	824
▁Genfer	824
▁Fortschritten	824
▁entschuldigen	823
▁Geldwäsche	823
erzeugnisse	823
▁Gespräch	823
▁Ausgang	823
▁Gerichte	823
▁intensive	823
▁veränderten	822
▁lebt	822
▁brachte	822
▁Einbindung	822
▁üblichen	822
▁Bord	821
▁Eröffnung	821
▁unmittelbare	821
▁folgendes	821
▁Dossier	820
▁Martin	820
är	820
▁OECD	820
▁beträchtlichen	820
▁unterhalten	820
▁Groß	819
▁enorm	818
▁ermitteln	818
▁getrennt	818
▁Eigenmittel	818
▁Beantwortung	818
▁sicherer	817
▁kenne	817
▁Verstoß	817
▁weitem	817
▁Beschlüssen	817
▁umgekehrt	816
▁riesige	816
▁eigener	816
▁betone	816
▁wächst	816
▁Indonesien	815
▁vorbei	815
▁erstes	815
▁Biotechnologie	815
▁Laut	815
▁Brief	814
▁herrschen	814
skriterien	814
▁gesundheits	814
▁Krebs	813
▁grundsätzliche	813
▁zulässig	813
ka	813
etrugsbekämpfung	812
▁unterscheidet	811
on	811
▁Griechenlands	811
▁egal	811
heit	811
▁Vorsitzes	810
▁Weltmarkt	810
▁Verarbeitung	810
▁Madrid	810
▁stoppen	809
▁aufhalten	809
▁maximal	809
▁Mutter	809
▁Davon	809
▁Sozialversicher	809
▁teuer	809
▁Soweit	809
▁Konsequenz	808
▁verdanken	808
▁Beispielsweise	808
▁schnellen	807
srichtlinie	806
▁bewirkt	806
▁Straßenverkehrs	806
▁gekürzt	806
▁El	806
▁legislative	805
▁gesunde	805
▁Strafverfolgung	805
▁Bolkestein	805
▁unmittelbaren	805
▁qualifizierter	805
▁Erfordernisse	805
▁Anlage	805
▁ihrerseits	804
▁mangelt	804
▁Wiederaufnahme	804
▁interessieren	804
▁finnischen	803
▁wert	803
▁genügt	803
▁Ansätze	802
Zivilbevölkerung	802
▁Prozesse	802
▁Gut	802
▁kommerziellen	802
▁bekannten	802
▁verschlechtert	801
▁Diejenigen	801
steuer	801
▁freiwilligen	801
▁verbesserte	801
Beschlussfassung	800
▁begrenzten	800
systeme	800
Errungenschaften	800
▁standen	800
▁Angleichung	800
▁Gegner	799
▁eingegangenen	799
▁eindeutigen	799
stellen	799
▁Nacht	799
▁österreichische	798
j	797
▁Einreise	797
▁örtlichen	797
▁übereinstimmen	797
▁Türen	797
▁konsultiert	797
▁einzustellen	797
▁HIV	797
desto	796
▁Wesen	796
▁vereinbaren	796
los	796
▁faktisch	796
▁Barnier	795
▁Zuverlässigkeit	795
Haushaltsbehörde	795
▁Lob	795
il	794
▁Erhebung	794
▁ungarische	794
▁Tests	794
▁verschwinden	794
▁erschwert	794
▁überwunden	794
ent	793
▁Menschenleben	793
▁Frattini	793
▁vereinfacht	793
plan	792
▁Schätzungen	792
▁schwerwiegende	792
▁verursachten	792
▁Start	791
▁leidet	791
ren	791
▁Verfasserin	791
▁abzuschaffen	791
▁Laeken	791
Haushaltsordnung	791
▁engere	791
▁ehe	790
▁bemerkt	790
▁Auswirkung	789
▁ausgenommen	789
▁Peking	789
▁Ernährung	789
▁Hongkong	789
▁geleitet	789
▁veränderte	789
▁herbeizuführen	789
▁entscheidet	788
▁berührt	788
▁ausländische	788
▁Pflanzen	788
▁zugeben	788
▁Wann	788
▁Signale	787
▁gestrigen	787
staatlichen	787
▁begrüßenswert	786
▁imstande	786
▁Schande	786
missverständlich	785
▁bisschen	785
▁häufiger	785
▁abhängt	785
▁biologische	785
ú	785
▁Diesbezüglich	784
▁Daraus	784
▁liefert	783
▁verhängt	783
▁dauern	783
▁wünscht	783
▁Palacio	783
▁anerkennt	783
▁Obst	782
▁Montenegro	782
▁Mandats	782
▁demzufolge	782
▁anderswo	782
sprinzips	782
▁vorgeschrieben	781
▁kostet	781
▁komplexen	780
▁schaden	780
▁Stattdessen	780
▁Beschränkung	780
▁worüber	780
infrastruktur	780
▁verschoben	779
▁aufweist	779
▁Interpretation	779
▁Gute	779
▁sämtlicher	779
▁Versorgungs	778
▁anstelle	778
▁angegangen	778
▁produziert	778
▁Instabilität	778
▁industriellen	778
▁herausgestellt	777
▁Kategorien	777
▁Aussetzung	777
▁befürchte	777
▁Atmosphäre	777
▁Gegen	775
▁nötigen	775
▁ausgeht	775
Palästinensische	775
▁Eigenschaft	774
▁Votum	774
▁diesmal	774
▁täglichen	774
▁ausführliche	774
▁erfolgte	774
▁senden	773
▁Jede	773
nahmeregelungen	773
▁glaubwürdig	772
▁Verwirrung	772
▁aufzufordern	772
▁veröffentlichen	772
▁verstößt	772
▁gründliche	772
▁widerspricht	771
pf	771
▁Ermittlung	770
▁Erholung	770
▁islamischen	770
▁beschlossenen	770
▁Ausdehnung	769
Entwicklungsziel	769
regelung	769
▁Erdbeben	769
▁jährliche	769
▁Begriffe	768
außenpolitischen	768
▁Gemeinschafts	768
▁Ausfuhr	768
▁grenz	768
▁israelische	768
▁anpassen	768
▁Konsumenten	768
▁bestanden	768
▁juristischen	767
▁gesenkt	767
▁spätestens	767
▁Autorität	767
▁haushalts	767
▁Griff	766
▁Computer	766
▁normalerweise	766
▁Kenntnisse	766
▁zentraler	766
▁hinreichend	766
▁untereinander	766
▁geöffnet	766
▁Analysen	765
sprogrammen	765
▁gerechten	765
▁Eurostat	765
▁hindern	765
▁Darfur	765
Herangehensweise	765
▁Kolumbien	764
▁veranlasst	764
▁strikt	764
▁einseitig	764
▁Verhältnisse	763
ländern	763
▁streben	763
▁Konzepte	763
▁begehen	763
▁spiegelt	763
▁gescheitert	763
▁Sicherheitsrat	762
▁agieren	762
▁höchster	762
▁Redebeitrag	762
▁Göteborg	762
▁verweist	761
▁Einen	761
▁nachzukommen	760
▁IWF	760
▁Meinungsv	760
▁gesetzliche	760
Ausnahmeregelung	759
erschiedenheiten	759
arischen	759
▁Jedes	759
or	759
ien	759
▁Umstand	758
▁ausreichenden	758
▁vorherigen	758
▁Ursprungs	758
▁anscheinend	757
—	757
▁niedrig	756
▁Details	756
▁anstehenden	756
fragen	756
▁errichtet	756
▁gemessen	755
▁Jean	755
▁Rechtsakte	755
▁Sitzungsperiode	755
▁sah	754
konferenz	754
arbeit	754
▁Milosevic	754
▁zuteil	754
Übereinkommen	754
▁hervorgeht	754
▁Einsetzung	753
▁medizinischen	753
▁steckt	753
▁Auslieferung	753
▁Forschungs	753
▁benachteiligt	753
▁Wahrscheinlich	753
▁the	753
uecksilber	753
▁einzelner	752
▁Swoboda	752
smethoden	752
▁Verlagerung	752
▁verdeutlicht	752
▁ECHO	752
▁gründen	751
▁Unterscheidung	751
▁Zuerst	751
▁aufweisen	751
▁Olympische	751
preis	751
demokratische	750
▁Vorbeugung	750
▁Merkmale	750
▁geführten	750
▁verlängert	750
instrumente	750
▁erfreulich	750
▁terroristischen	750
srunde	750
▁Rentner	750
▁hiermit	750
▁Last	749
Sachverständigen	749
▁ausgedehnt	749
▁Lärm	749
▁herstellen	749
▁Legislaturperio	749
▁Aufruf	749
▁gründet	748
sinitiative	748
eren	748
Institutionen	748
▁Geber	748
▁Kampfes	747
▁Berg	747
ualifikationen	747
▁Nigeria	746
▁betreffende	746
▁Gib	746
▁energisch	746
▁Wahlperiode	745
Kommission	745
▁Symbol	745
▁zivile	745
▁nachteilig	745
▁Kredit	744
▁fehlenden	744
▁bekunden	744
▁lebenslange	744
▁Kapazität	744
spartnerschaft	744
▁stabile	744
▁Fußball	744
▁gewaltigen	743
▁Eigentums	743
▁mache	743
▁zunichte	743
▁Beschwerde	743
▁zugesagt	743
▁glaubt	743
▁Deregulierung	743
▁Thematik	743
sorganisation	743
▁Nahrungsmitteln	742
▁Sozialistische	742
▁Wegen	742
▁Hilfs	742
▁Al	742
▁bewährt	742
▁Telekommuni	742
▁zunehmen	742
▁f	742
▁späteren	741
▁Flächen	741
Diversifizierung	741
▁schriftliche	740
▁Anpassungen	740
▁ernsthaften	739
▁Stadium	738
▁Einvernehmen	738
▁digitalen	738
▁Organismen	738
▁abgedeckt	738
Beitrittsländern	738
über	737
▁darlegen	737
▁Emissionshandel	737
▁Hinzu	737
▁besucht	737
▁umfassender	737
▁angefangen	737
▁Beobachtung	737
▁Gewissen	737
▁anfangen	736
▁Medikamente	736
▁Hussein	736
Ja	736
▁verlängern	736
▁ausgeweitet	736
volle	735
▁Drittstaats	735
▁steigt	735
▁Nationalstaaten	735
▁Schwächen	735
▁Rezession	734
ke	734
▁Einfuhren	734
▁hochrangige	734
▁überschritten	734
▁Fahrzeug	733
▁San	733
▁Daran	733
▁Vereinbarkeit	733
▁Lücken	733
▁Asylpolitik	732
▁Menschenhandels	732
▁ELDR	732
▁Behinderung	732
▁REACH	732
▁einheitliches	732
▁Gegenseitigkeit	732
seiten	732
▁zweifelsohne	732
▁Willens	732
▁Linke	732
▁gegebenen	731
▁Skandal	731
▁geäußerten	731
▁belegt	731
▁höre	730
▁Gremium	730
▁Menschenrechts	729
rat	729
▁Ersatz	729
▁kommende	728
▁erzeugen	728
▁zugenommen	728
▁rufe	728
L	728
▁angestrebt	726
▁gerufen	726
▁Flotte	726
teroperabilität	726
▁internationales	726
sbereiche	726
▁belegen	726
▁Mitgefühl	725
▁Sowjetunion	725
▁gesammelt	725
▁unterliegt	725
ut	725
▁sprachen	725
▁alt	725
▁begrenzte	724
▁Fahrer	724
▁geografischen	724
▁Viertel	724
▁Anhebung	724
▁Wochenende	724
▁Verschiebung	724
▁nein	724
▁vorne	724
produkte	723
▁Michel	723
▁Milliarde	723
▁Washington	723
▁stoßen	723
▁Grundprinzipien	722
stand	722
▁stehe	722
end	722
▁MEDA	722
▁Euroraum	722
▁Ruhe	721
ed	721
▁personenbezogen	721
▁birgt	721
▁gegründet	720
▁nutzt	720
▁Verweis	720
▁Armen	720
Verhandlungen	720
derherzustellen	720
▁potenziellen	720
▁kommunistischen	719
▁abzubauen	719
▁mußte	719
▁administrativen	719
▁Anschein	719
&	719
▁Berufs	719
▁einstellen	719
▁Haftbefehl	718
▁vertretenen	718
▁freier	718
▁jetzige	718
go	718
▁Instruments	718
▁vorantreiben	718
▁kosten	718
▁Afrikas	717
▁Tragweite	717
▁demnach	717
▁Seeverkehrs	717
▁Einhalt	717
▁Sozialmodell	717
▁erbringen	717
Abkommens	716
ro	716
▁ausreicht	716
▁Drei	716
Europa	716
▁Protest	716
▁ethnische	716
▁Systemen	716
gruppen	716
▁Erdgas	716
▁Beamte	716
▁Verwaltungen	716
▁Zwischenzeit	716
▁Mauer	715
▁annimmt	715
▁Streitkräfte	715
▁Gott	715
▁entlassen	715
▁vorrangige	715
▁nationales	715
▁Plenarsitzung	714
▁traditionelle	714
▁Fang	714
▁Entschuldigung	714
isierung	714
▁Herz	714
▁übergehen	714
▁widersprechen	713
▁Menschenwürde	713
kosten	713
▁schlicht	712
▁Anbau	712
glücklicherweise	712
▁berufen	712
▁anzubieten	712
ist	711
▁Cotonou	711
▁Impuls	711
▁bürokratischen	711
▁makroökonomisch	710
Konferenz	710
▁verlaufen	710
▁gebildet	710
▁definitiv	710
▁sofortige	710
unverantwortlich	710
▁Holz	710
▁ausgeben	709
sstrukturen	709
▁Energieträger	709
▁Wirtschaften	709
▁aufeinander	709
▁Lager	708
▁religiöse	708
▁Erfordernissen	707
▁zugehört	707
bestimmungen	707
▁Maßstab	707
verfolgbarkeit	707
isten	707
▁Taiwan	706
▁Wohl	706
▁Belastungen	706
▁strategischer	705
▁Rücksicht	705
▁geschah	705
▁erzielte	705
▁tschechischen	705
▁eindringlich	704
▁wesentliches	704
▁schützt	704
▁Umweltschutzes	704
▁ausdrücken	704
▁dramatischen	703
▁Kombination	703
▁ausländischen	703
▁Freihandelszone	703
▁Wählern	703
▁Friedensprozeß	703
▁Lande	703
▁Durchschnitt	703
▁Zyperns	702
▁zurückgezogen	702
▁detaillierte	702
▁übersehen	702
sphase	702
▁schwerwiegenden	701
▁Flugzeug	701
▁Patent	701
rechtskonvention	701
▁inhaltlich	701
▁Hunderte	700
Runde	700
▁Bereits	700
▁Gewässer	700
to	700
▁Volksabstimmung	699
sträger	699
▁Indem	699
▁staatlicher	699
▁ethischen	699
▁ersuche	699
▁Löhne	698
▁korrekte	698
▁größeres	698
▁Haushaltslinien	697
funktionierenden	697
▁zuweilen	697
▁Front	697
▁Satelliten	696
▁korrigiert	696
▁zuzulassen	696
▁Strukturpolitik	696
Beitritt	696
▁Import	696
▁Betrügereien	695
▁vergeben	695
▁Obgleich	695
strategie	695
▁erhielt	695
▁Vereinigung	695
▁hervorragend	694
▁wahrgenommen	694
▁Währungspolitik	694
▁Verschärfung	694
▁iranischen	694
▁unterrichtet	693
▁Streben	693
▁analysiert	692
▁Wald	692
▁legitimen	692
▁individuellen	692
▁Zivilisten	691
▁verdeutlichen	691
behörde	691
▁Nordkorea	691
▁erfasst	691
▁deutlichen	691
▁meint	690
▁Aussichten	690
ri	690
▁Rumäniens	690
▁decken	690
▁nuklearen	690
▁Entwurfs	690
ssituation	690
▁Interventionen	690
▁Ansatzes	689
▁harmonisieren	689
▁Besetzung	689
fern	689
▁handelte	689
▁größtenteils	689
▁mehrjährigen	689
Sicherheitsrates	689
▁massive	689
▁Besitz	689
▁Abfällen	688
▁Mar	688
▁stabilen	688
▁vorgegangen	688
▁ermordet	688
▁vergleichen	687
▁Gesetzen	687
▁derartiger	687
▁zugewiesen	687
▁belastet	687
▁wertvollen	687
▁Ansehen	686
▁Rechtfertigung	686
▁leid	686
▁Planeten	686
▁Gefährdung	686
▁Neue	686
▁unten	686
▁Befreiung	686
svorschlags	686
▁besuchen	686
▁Grüne	686
▁Massenver	685
▁Asylbewerber	685
▁reformieren	685
▁Überlegung	685
▁vonnöten	685
▁bedauert	685
▁anzusprechen	685
▁Genf	684
▁aktuell	684
▁Abschnitt	684
handel	684
▁unnötig	684
▁La	684
▁Süd	684
▁soziales	683
▁vertiefen	683
▁Anders	683
▁größtmögliche	683
sdisziplin	683
sgrundlage	683
fähigkeit	683
▁demonstrieren	683
▁Mord	683
abgeordneten	682
▁Su	682
▁ausgebaut	682
▁ausmacht	682
▁mehrmals	682
▁angegeben	682
▁Überblick	681
▁Frontex	681
▁irakischen	681
▁Leuten	680
▁Mobilisierung	680
▁stammt	680
▁Pflege	680
▁diskriminiert	680
▁Sichtweise	679
▁selben	679
▁Berechnung	679
▁morgigen	679
▁Hierbei	679
▁neuesten	679
▁sinnvolle	679
▁objektiv	679
▁frühere	679
▁lehnt	679
stellung	679
▁verwaltet	679
▁Zufriedenheit	678
▁Bewohner	678
▁erstaunt	678
krise	678
▁fließen	678
▁Visum	678
▁geplante	677
▁unverzichtbar	677
▁belgische	677
▁treiben	676
▁zweierlei	676
▁Korrektur	676
▁Operation	676
▁bedanke	676
Gruppe	675
▁schwach	675
▁Kein	675
▁Wahrnehmung	675
▁Korea	675
Unzulänglichkeit	675
▁Paris	674
▁Botschaften	674
▁Strafe	674
▁Verkehrspolitik	674
problem	674
▁klargestellt	674
▁Sozialpartnern	674
▁Politikern	674
▁PHARE	673
▁nachhaltiges	673
▁Behinderten	673
▁Betrieben	673
▁ausschlaggebend	672
▁beitrittswillig	672
▁Substanz	672
▁verbindlichen	672
▁Versöhnung	672
▁breit	672
▁herausstellen	672
▁erkennbar	671
▁empfiehlt	671
bewirtschaftung	671
▁Wirtschaftsraum	671
▁ausgegangen	671
▁Teils	670
▁We	670
▁stattfand	670
▁Akt	670
▁vierte	670
▁Befürworter	670
▁Hoffentlich	670
▁auszusprechen	670
▁Belange	669
▁nützliche	669
▁kubanische	669
Frage	669
▁eingeladen	669
tätigkeit	669
▁Ausgehend	668
▁Ambitionen	668
stechnologien	668
▁intensivieren	668
▁Zeitung	668
▁unverständlich	668
▁kleinere	668
▁Kontinuität	668
▁Ganze	668
▁raschen	668
Der	667
ungerechtfertigt	667
▁stecken	667
▁aufgeben	667
▁UEN	667
interessen	667
▁Rahmenprogramms	667
▁Tschernobyl	667
▁bedenkt	666
▁auszubauen	666
▁mitunter	666
▁Haiti	666
forschung	665
▁Reichtum	665
ität	665
▁alternativen	665
▁Schutzmaßnahmen	664
▁Vietnam	664
gesundheitlichen	664
▁beträchtlich	664
▁unnötige	664
▁Küste	664
▁einzubringen	664
▁irgendwann	664
▁vollzogen	664
▁GMO	663
ic	663
▁Passagiere	662
▁Hierzu	662
▁sozioökonomisch	662
▁Tode	662
verkehrs	662
▁Zollunion	661
▁mitberatend	661
▁liberalen	661
▁Register	661
▁klein	661
▁wettbewerbs	661
▁niedriger	661
▁verhaftet	660
▁Werk	660
▁Zigaretten	660
ia	660
▁überflüssig	660
▁normal	660
▁nachhaltiger	660
▁niedrige	660
▁eingreifen	659
▁Demonstration	659
▁Eingreifen	659
▁Präzedenzfall	659
▁geistige	659
▁bewaffneten	659
au	658
▁III	658
▁reine	658
▁unlängst	658
▁Rechtsstaat	658
▁Beschleunigung	658
▁Test	657
▁alleine	657
▁baltischen	657
▁sch	657
▁Gesicht	657
istischen	657
▁elf	657
sinitiativen	657
▁gewissermaßen	657
▁profitiert	657
▁normale	657
▁Zielvorgaben	656
mechanismen	656
▁Freunden	655
▁audiovisuellen	655
▁Atomwaffen	655
▁gedrängt	655
▁exportieren	655
▁Millenniums	655
▁zwingend	655
▁Personenverkehr	655
▁begann	655
▁bedeutsam	655
ualifikation	655
▁welch	654
▁eingangs	654
▁Besitzstand	654
ti	654
▁gefaßt	654
▁gemeldet	654
▁beklagen	654
anforderungen	654
▁ECOFIN	654
▁umfangreichen	654
▁Klarstellung	654
▁Europawahlen	653
▁Stilllegung	653
sbefugnisse	653
▁Fluggäste	653
▁forderte	653
▁Ungleichheit	653
nichtungswaffen	652
▁Philosophie	652
▁Schiene	652
▁Klausel	652
Krisenmanagement	652
▁Erlass	652
▁aufgetreten	652
▁geliefert	652
▁gefolgt	651
▁planen	651
▁unterworfen	651
▁ökonomischen	651
▁Forscher	651
▁Kambodscha	650
▁versichert	650
DA	650
▁innovativen	650
▁flexibler	650
▁beachtliche	650
▁Bedrohungen	650
▁Stoffen	650
▁Vorkehrungen	650
▁Ersuchen	650
▁Petitionen	650
▁legalen	649
▁aufzustellen	649
▁einschränken	649
▁Mercosur	649
▁Koalition	649
▁städtischen	648
▁Zweifellos	648
▁Haushaltskon	648
▁Posselt	648
▁Entsorgung	648
sregelung	648
ry	648
▁demokratisches	647
▁Behauptung	647
▁Geiste	647
▁einseitige	647
▁Summen	647
▁genauen	646
▁Ungerechtigkeit	646
▁gänzlich	646
▁handels	646
▁Flugzeuge	645
▁vielerlei	645
▁Einsatzes	644
▁auseinandersetz	644
ie	644
▁diplomatische	644
up	644
ir	644
▁Wiederbelebung	643
▁Unterrichtung	643
▁Vernunft	643
▁Akteur	643
▁Motor	643
▁üben	643
▁abgebaut	643
▁Bekanntlich	643
▁legale	642
▁Völkermord	642
▁auszuschließen	642
▁Anregungen	642
ere	642
▁zweckmäßig	642
▁Befugnis	642
▁vorzusehen	642
▁Berufung	642
▁feste	642
sführung	641
▁Ermittlungen	641
▁dauerhaft	641
▁Ungleichgewicht	641
▁regelmäßigen	641
▁Online	641
▁Etappe	641
▁sozialistischen	640
▁Erfordernis	640
▁Realisierung	640
▁erbracht	640
▁Null	640
▁Bühne	640
▁hochwertige	640
▁Fach	640
Strukturreformen	639
▁interessanten	639
▁kurzer	639
▁Entstehung	639
▁Frankreichs	638
▁Taliban	638
schaftlicher	638
▁Völkerrechts	638
▁Referenden	637
finanzierung	637
▁SIS	637
▁Mehrzahl	637
▁mußten	637
▁unverändert	636
▁ausschließen	636
▁Unterlagen	636
kriterien	636
▁großartige	636
▁Spiele	636
▁fortfahren	636
bau	636
▁Gebäuden	636
▁zeugt	636
▁Anhörungen	636
▁Gestalt	635
▁Konsum	635
Verfahren	635
▁erweist	634
▁Zeitungen	634
ndez	634
▁ließ	634
▁begünstigt	634
▁sucht	634
▁Ministerin	634
▁bestrebt	633
▁fanden	633
▁U	633
▁freiwillig	633
▁humanitärer	633
spunkt	633
Zone	633
▁aufzuheben	633
ei	633
▁Erika	633
▁wachsam	632
▁deutliches	632
▁i	632
▁Differenzen	632
▁Kernkraftwerke	632
▁geradezu	632
▁Erstes	632
▁Geschäfte	632
▁geschickt	632
▁europaweit	632
▁Nachbarländern	631
▁auszuweiten	631
▁nennt	631
▁Moskau	631
▁vernachlässigt	631
▁obligatorische	631
▁umfassendes	631
▁Effekt	631
▁juristische	631
▁einhergehen	631
▁Zufall	630
▁Gültigkeit	630
▁Stahl	630
▁Übermittlung	630
▁jahrelang	630
▁eingenommen	630
▁einzuschränken	630
▁geringere	629
▁wende	629
▁Steuerpolitik	629
▁solle	628
▁dorthin	628
▁schreiben	628
▁gewachsen	627
▁Sri	627
▁Moratorium	627
▁hervorgerufen	627
▁mobilisieren	627
▁entsprechender	627
▁Sacharow	627
▁Formulierungen	626
▁empfangen	626
▁Kredite	626
▁verfasst	626
▁Canc	626
management	626
hersteller	626
Recht	626
▁denkt	626
weit	625
▁koordinierte	625
▁sonstigen	625
▁auswirkt	625
Autonomiebehörde	625
▁fähig	625
dienste	625
▁Klimaschutz	625
▁Leiden	624
▁Trinkwasser	624
▁Glückwünsche	624
▁demselben	624
▁verletzen	624
▁Füßen	624
▁digitale	624
▁zwingt	623
▁Fernseh	623
▁Verdacht	623
▁Verwertung	623
▁Monats	623
▁gebührt	623
▁machte	623
erstatter	623
▁Komplexität	622
▁Preisstabilität	622
▁herzlichen	622
▁Islam	622
▁breiter	622
bald	622
▁bedeutender	622
staaten	622
▁Büros	622
▁Aufwand	622
▁Ärzte	621
▁obligatorischen	621
▁doppelte	621
▁hierher	621
▁Verbrechens	621
investitionen	621
▁zweimal	621
▁Schwangerschaft	621
▁Verfügbarkeit	620
▁zusätzlicher	620
▁Abstand	620
lo	620
mal	620
▁jederzeit	620
▁bisherige	620
▁geforderten	620
▁greift	619
▁echter	619
▁chinesische	619
▁Vorfälle	619
▁orientieren	619
▁befreien	619
▁Demonstrationen	619
▁Vorsorgeprinzip	618
▁beschleunigt	618
▁verweise	618
▁verweigern	618
▁Monopol	618
▁besserer	617
namo	617
▁prüft	617
übergreifenden	617
sprozesse	617
▁ermutigend	617
▁tiefe	616
▁Poettering	616
▁mehrheitlich	616
abstimmung	616
▁strikte	615
▁Lehre	615
sbeihilfen	615
skampagnen	615
▁Bahn	615
▁ehrgeizig	615
▁Wallström	614
▁Kompromisses	614
svertrags	614
▁Guant	614
erzeugung	614
her	613
Ver	613
rechtslage	613
▁vorangetrieben	613
▁Buch	613
▁Statuts	613
▁rücken	613
▁strukturelle	613
▁systematische	613
▁massiv	613
hältnismäßigkeit	613
▁Funktionen	613
▁gegenüberstehen	612
▁Abrüstung	612
▁Hunderttausende	612
co	612
▁beinahe	611
▁voranzukommen	611
▁bloße	611
▁ausgelegt	611
▁massiven	611
▁Haft	611
▁östlichen	611
▁dramatisch	611
▁aufrufen	611
▁verliert	611
▁Diplomatie	610
▁verwendeten	610
▁Minimum	610
▁eventuelle	610
▁nachgewiesen	609
▁transparenten	609
▁Neues	609
▁chemischen	609
▁Klasse	609
▁voraussichtlich	609
▁Standpunkts	609
▁komplizierte	609
▁einheitlich	609
▁Anstatt	609
▁Mich	609
▁geschlechts	609
hin	609
▁begründen	608
▁hinzugefügt	608
liches	608
▁Fortschritts	608
▁bedacht	607
da	607
▁Osteuropas	607
▁Sein	607
▁Luftraum	607
sbekämpfung	607
▁generelle	607
Mittel	607
▁ausgezeichnet	607
▁unerläßlich	606
per	606
äu	606
▁Aktionspläne	606
▁Anbieter	606
▁Zug	605
▁Flotten	605
▁rechtmäßig	605
▁steigenden	605
▁gekämpft	605
▁Kohlendioxid	605
kontrolle	605
▁Agrarsektor	604
übergreifende	604
▁Zugeständnisse	604
▁Potential	604
▁zitieren	604
Waffenstillstand	604
▁TACIS	604
▁hofft	604
▁überschreiten	603
▁Traum	603
▁Aquakultur	603
▁geschlossenen	603
▁potenzielle	603
▁Geräte	602
▁Andernfalls	602
▁versäumt	602
▁mehrerer	602
▁regelmäßige	602
▁Damals	602
▁ergreift	602
▁Dienstag	601
▁Norwegen	601
▁rechten	601
lez	601
bericht	601
▁Wind	601
▁vorbehaltlos	601
▁Propaganda	601
▁eintritt	601
▁Kommentare	601
▁Lücke	600
▁ausgewogenes	600
▁verbesserten	600
▁Statt	600
▁Immer	600
▁Rande	600
▁Schlag	600
▁and	600
Selbstbestimmung	600
sbehörde	600
▁Angabe	600
la	599
sregelungen	599
nationalisierung	599
ler	599
▁West	599
▁begriffen	599
▁Fischfang	598
ja	598
▁Artenvielfalt	598
▁vormittag	598
▁kohärente	598
▁nördlichen	598
iv	598
▁erachtet	598
▁lehne	598
▁harten	597
▁Irlands	597
▁Inzwischen	597
▁gedenken	596
skörperschaften	596
▁zielen	596
▁Führungsrolle	596
srahmen	596
▁gleichwohl	595
▁Ex	595
Raum	595
▁Lom	595
▁präsent	595
vereinbarung	595
ak	595
▁national	594
▁völlige	594
voll	594
▁multilaterale	594
▁GD	594
▁Ausweg	594
▁Grundzüge	594
▁Durchbruch	594
▁längere	594
▁GFP	594
▁Unglück	594
▁schicken	594
▁Nehmen	594
▁Natura	594
▁polnische	594
▁Na	594
▁Missverständnis	594
▁Du	594
▁Rettung	593
▁Aserbaidschan	593
▁innenpolitische	593
▁abhalten	593
etzungsverfahren	593
▁Zusammen	593
vorschläge	593
▁ließen	592
▁Gemüse	592
▁Begeisterung	592
▁prinzipiell	592
▁erlitten	592
▁Mugabe	592
▁Vertragsverl	592
▁Spielzeug	592
▁Herzegowina	591
▁Modalitäten	591
▁missbraucht	591
▁Sports	591
▁Schlüsselrolle	591
▁gehöre	591
▁industrielle	591
Sensibilisierung	591
ta	591
sverzerrungen	591
▁ASEAN	591
▁erschweren	590
▁gebaut	590
▁Intensivierung	590
▁gewinnt	590
▁Sicherlich	590
▁verleiht	590
▁qualifizierten	590
▁strenger	590
▁erkläre	590
▁Abwesenheit	590
▁Menschlichkeit	589
▁Finanzhilfe	589
▁gebührend	589
▁andernfalls	589
▁Wortmeldung	589
▁Weshalb	589
splan	589
▁beabsichtigen	588
▁Rückzug	588
▁bevorstehende	588
▁schönen	588
▁Aktualisierung	588
▁stattfindenden	588
kommen	588
ualitäts	588
▁Berliner	587
▁verbundene	587
sorgniserregend	587
▁kurzfristige	587
out	587
I	587
▁beobachtet	587
mechanismus	587
istische	587
▁Watson	587
▁Beifall	587
▁Erfassung	587
▁Bestand	586
▁heiklen	586
▁St	586
weiterentwickelt	586
emissionen	586
▁rechtlicher	586
▁Israelis	586
▁vergangen	586
▁logisch	586
▁dramatische	586
▁verschließen	585
ell	585
▁Umgebung	585
▁hielt	585
▁W	585
▁Instanz	585
gruppe	585
▁Gerichten	585
▁terroristische	585
▁rechts	584
sorgane	584
▁objektive	584
▁Erlaub	584
▁Betonung	584
▁ankommt	584
▁Ankündigung	583
▁g	583
▁geboren	583
▁Arbeitsmarktes	583
▁gingen	583
▁Island	583
▁Marktzugang	583
▁beauftragt	583
Be	583
▁International	583
▁geschätzt	582
▁angeregt	582
▁kriminellen	582
▁anzusehen	582
schaftswahlen	581
▁bürokratische	581
▁legal	581
produkt	581
▁relevanten	581
▁re	581
▁Pluralismus	581
art	581
▁nächstes	581
▁überwiegend	580
▁Entlassungen	580
▁Darstellung	580
▁Jarzembowski	580
▁schreckliche	580
▁Lichte	580
▁Dr	580
arten	580
▁lauten	580
Allgemeine	580
▁blockieren	579
lei	579
▁präsentiert	579
▁beeinflusst	579
ra	579
Protokoll	579
▁Besatzung	579
▁Sekretariat	579
ssystemen	579
sformen	579
▁Aktivität	579
▁Handelns	579
▁beigetreten	579
▁bürgerlichen	578
▁Dokuments	578
▁Operationen	578
▁gentechnisch	578
▁Corbett	578
▁vergleichbar	578
▁Weltkrieg	578
▁trennen	577
▁Version	577
▁Posten	577
▁besetzt	577
▁Vernichtung	577
▁Postdienste	577
▁Branchen	577
▁vertraue	577
▁abwarten	577
▁Software	577
▁lächerlich	577
▁debattiert	576
▁kleines	576
▁voranbringen	576
▁dänische	576
▁verbreiten	576
▁Konzerne	576
sminister	576
▁Auftreten	576
dienst	576
▁Johannesburg	575
▁gelegen	575
▁auszudehnen	575
regionen	575
▁Einwanderern	575
▁Kurden	575
▁komplexe	575
▁Direkt	575
▁Feld	574
▁zuwenden	574
how	574
▁statistische	574
▁Zusammenbruch	574
▁Putin	574
arbeitslosigkeit	573
▁Verdienst	573
▁Reding	573
▁Standort	573
länder	573
▁legte	572
▁Rechnungshofes	572
▁warnen	572
▁Nichts	572
▁ruft	572
▁Weitere	572
▁gemachten	572
▁aufkommen	572
▁gelegentlich	571
▁Engagements	571
▁Netzes	571
▁Fischern	571
▁Stimmabgabe	571
▁riesigen	571
▁Liikanen	571
▁befindlichen	571
▁Schwäche	571
▁halbe	571
▁vorbehalten	571
▁bloß	570
U	570
▁Industrien	570
▁Assoziation	570
▁Fahrplan	570
sektors	570
▁eingestuft	570
▁steuerlichen	570
ill	570
halben	570
▁Implementierung	569
▁beigemessen	569
▁Motto	569
▁Bruttoinlands	569
weltfreundlicher	569
▁Verbündeten	569
▁gravierende	569
seits	569
▁Urteile	569
▁Armenien	568
ze	568
äh	568
▁statistischen	568
▁Atomenergie	568
▁Blockade	567
▁nukleare	567
▁Missachtung	567
sstruktur	567
▁Geburt	567
▁präsentieren	567
▁verschwunden	567
▁unzureichende	567
▁Zwecken	567
▁Adresse	566
▁besprochen	566
▁überarbeitet	566
▁ausgehandelt	566
▁irgendwo	566
▁Gleichgewichts	566
▁vorhandene	566
▁äußert	565
▁gesteckt	565
▁Strafrecht	565
▁Schatten	565
▁hinausgeht	565
gesch	565
sverhältnisse	565
sproblem	564
▁Pflanzenschutz	564
▁Team	564
▁genießt	564
regulierung	564
▁Transaktionen	564
▁Ausbruch	564
ollbeschäftigung	564
Projekt	564
▁Gutachten	564
▁Rinder	564
▁aufgegeben	563
▁Lebensstandard	563
▁aussieht	563
▁wachsen	563
▁Währungsfonds	563
▁belaufen	563
me	563
▁wahrzunehmen	563
▁entsenden	562
▁zurückgegangen	562
▁Danach	562
▁Paritätische	562
Wir	562
teressengruppen	562
oder	562
▁Prinzips	562
nerhalb	562
▁moralischen	562
▁Universaldienst	562
▁ablehnt	562
▁plant	562
▁erweiterte	562
▁Roth	561
sstrategien	561
▁unabhängiger	561
ierten	561
▁verbleibenden	561
▁Grenzkontrollen	561
▁Klonen	561
▁potenziell	561
▁Ermordung	561
▁einziger	560
▁kommerzielle	560
▁unklar	560
▁Prozentsatz	560
▁administrative	560
▁kürzen	560
▁gesetzlich	560
▁Gütern	560
▁darzulegen	560
sdebatte	560
▁ausgeschöpft	560
▁irgendwie	559
ger	559
▁Jos	559
▁steuerliche	559
▁Grundrecht	559
▁Name	559
▁Sicher	559
▁hinzuzufügen	559
▁bestrafen	558
Mitgliedschaft	558
▁Prüfungen	558
▁Vorgänger	558
▁einrichten	558
▁Erwähnung	558
▁einschließt	558
▁maßgeblich	558
siehe	558
am	558
▁kultureller	558
▁getrennte	558
▁Offensichtlich	557
▁realistische	557
▁führten	557
fonds	557
▁Entsendung	557
▁Touristen	557
▁aktiver	557
anlagen	557
▁zeitlich	557
▁dreißig	557
▁grundsätzlichen	557
▁protestieren	557
▁Recycling	557
▁gezielte	557
sätze	556
▁Aufschwung	556
▁Vizepräsidenten	556
▁hängen	556
▁Sozialschutz	556
▁intensiven	556
▁Professor	556
▁Anschläge	556
▁Konzepts	555
▁vernommen	555
▁Abtreibung	555
▁Humanressourcen	555
▁geschwächt	555
▁serbischen	554
ce	554
▁schädlich	554
▁Welthandel	554
▁gespannt	554
▁schwächen	554
▁Vorschrift	554
sanforderungen	553
Parlamentswahlen	553
▁Oomen	553
▁Hektar	553
▁Schwierigkeit	553
produkts	553
▁wirksames	552
vollen	552
▁Pakets	552
▁gefangen	552
▁vorwärts	552
▁Stabilisierungs	552
▁vereint	552
▁etliche	552
▁Baroness	552
▁Zusätzlich	552
▁EEF	552
▁Erste	552
▁Visumpflicht	552
▁einzutreten	552
▁Wünschen	552
▁Wohlstands	551
▁zustimmt	551
▁hört	551
Geschäftsverkehr	551
▁flexible	551
▁Widersprüche	550
▁Ton	550
▁gesucht	550
▁Tendenzen	550
▁Halbjahr	550
▁Tagungen	550
▁übergeben	550
▁Wollen	550
▁AIDS	550
▁optimistisch	550
verwaltung	550
▁Handelspartner	550
▁ungerecht	549
▁Trend	549
▁Streitigkeiten	549
▁jemanden	549
▁Zwangs	549
▁Euratom	549
ma	549
▁ausfallen	549
▁Thunfisch	549
▁Statistik	548
▁Tuberkulose	548
▁niemanden	548
▁gestützt	548
▁Westsahara	548
▁Balkans	548
▁enttäuschend	548
▁niemandem	547
▁schädlichen	547
▁versagt	547
▁Vorsorge	547
▁Jahrzehnte	547
swachstums	547
▁Genuss	547
▁individuelle	547
▁leichte	547
▁Vitorino	546
Prozesses	546
sfürsorge	546
▁Chaos	546
sklausel	546
▁sparen	546
▁Chile	545
hoc	545
▁Guinea	545
▁rumänischen	545
▁grundlegendes	545
fahrzeuge	545
▁gewünschten	544
▁tschechische	544
▁komplizierter	544
Initiative	544
▁wovon	544
▁drastisch	543
▁geleisteten	543
li	543
▁verabschiedete	543
▁starker	543
▁verhängen	543
J	543
▁Behauptungen	543
▁Geduld	542
▁Äußerung	542
▁Energiebereich	542
▁zunimmt	542
ph	542
▁Kollegium	542
▁Jacques	542
▁Balance	542
▁Begriffs	542
▁Monopole	542
▁Ängste	542
▁Pack	542
▁zeigte	542
▁intensiver	542
▁Verwaltungs	541
▁zurückzuziehen	541
▁Erwärmung	541
Migrationsströme	541
Ruijten	541
ik	541
▁Erkenntnis	541
▁Schiffs	540
▁verhelfen	540
sleistungen	540
▁Ziffern	540
vertreter	540
Politikbereichen	540
▁naher	540
▁Vorfall	540
▁befreit	539
▁Trilog	539
▁Wurzeln	539
▁beruhigen	539
▁dringenden	539
▁Heuchelei	539
▁Tor	539
▁anwendbar	539
▁Kraftstoff	539
▁steigende	539
▁Franzosen	539
▁tagtäglich	539
▁Befriedigung	539
▁teil	539
▁Gefängnissen	539
▁kontraproduktiv	538
▁Spaniens	538
▁übermäßige	538
▁Zölle	538
programms	538
▁willen	538
▁widersprüchlich	538
▁festigen	537
▁Ansonsten	537
▁ethische	537
vor	536
▁Bundesrepublik	536
▁Darf	536
▁inhaftiert	536
▁Lehne	536
▁Rücktritt	536
▁aufbringen	536
▁Europarates	536
▁Erteilung	536
▁Elend	536
▁Beschaffung	536
▁Sackgasse	536
▁lohnt	536
verhältnismäßig	535
mitteln	535
▁angeschlossen	535
▁Rohstoffe	535
▁Vorgänge	535
▁Transit	535
lose	535
▁Ehrgeiz	535
gebiet	535
sarbeiten	535
▁Geldern	535
▁Körper	534
▁Ideologie	534
▁bestmögliche	534
▁Beilegung	534
▁Lamy	534
▁Alltag	534
ou	534
▁Wichtigste	534
▁perfekt	534
▁Früchte	534
▁beimessen	534
▁Meere	533
▁praktiziert	533
▁gebieten	533
damaligen	533
▁Lehrer	533
▁Schul	533
▁Umverteilung	532
schen	532
di	532
▁europäisch	532
▁unangemessen	532
▁Palästinensern	532
▁Bulgariens	532
sprogramms	532
▁verwehrt	532
branche	532
▁betragen	531
▁Manche	531
▁Nachweis	531
▁legitim	530
▁stellvertretend	530
▁schätze	530
▁Künstler	530
sa	530
▁Sanierung	530
▁Mütter	530
▁Kodex	530
▁Verehrte	530
▁Definitionen	530
▁schadet	529
▁enden	529
▁zurückziehen	529
▁Bestrafung	529
▁Aussöhnung	529
▁Verknüpfung	529
▁Demonstranten	529
▁Bearbeitung	529
▁registriert	529
▁überleben	529
man	529
▁Unfällen	529
▁reformiert	529
▁Energiesektor	529
▁Blickwinkel	529
▁geographischen	529
▁einnimmt	528
▁Hauptstadt	528
▁Lanka	528
▁unterzogen	528
losen	528
▁Keine	528
srechte	528
▁Geschehnisse	528
▁Verbrauchers	528
▁Einladung	527
▁Zeitraums	527
▁angemerkt	527
▁Rechtsausschuss	527
▁sensible	527
id	527
▁konsequente	526
▁Verbrennung	526
▁Schulung	526
▁k	526
▁angelegt	526
▁Zusatzfrage	526
▁Universität	526
▁Exporte	526
▁Sei	525
▁Prostitution	525
▁Akte	525
▁direkter	525
Mitgliedsstaaten	525
▁besprechen	525
▁umweltpolitisch	525
▁Harbour	524
▁Verfechter	524
▁Erwartung	524
▁erneute	524
č	524
Ungleichgewichte	524
▁Listen	524
▁Luftverschmutz	523
▁vorhergehenden	523
▁Spielregeln	523
▁Niederlassung	523
für	523
▁ökologisch	523
Nichtsdestotrotz	523
▁besetzten	523
▁Serben	523
durchschnittlich	522
▁partnerschaft	522
▁Kernwaffen	522
▁Wahlkampf	522
▁Eurojust	522
▁dauert	522
▁Ferrero	522
▁Mitarbeit	522
▁Erziel	522
▁Eindämmung	522
sprachen	522
▁Finanzmitteln	521
▁Geschlechts	521
▁ernannt	521
▁doppelten	521
▁Fahrzeugen	521
▁finnische	521
▁offener	521
▁harmonisiert	521
strafrechtlichen	520
▁auffordert	520
vi	520
▁verteilen	520
▁existierenden	520
▁Volksrepublik	520
▁Mißbrauch	520
▁unglaublich	520
qualität	520
informationen	520
▁seitdem	520
▁sonstige	520
▁Ethik	520
▁Antibiotika	520
▁christlichen	520
▁Rundfunk	519
pa	519
▁Kreativität	519
ton	519
v	519
▁Zeugen	519
▁genügen	519
Ein	519
regelungen	519
▁Gange	519
▁auslösen	519
▁zurückgreifen	519
▁kurzfristigen	518
▁benennen	518
▁anerkannten	518
sförderung	518
▁käme	518
▁Profit	518
▁militärischer	518
▁schade	518
▁hundert	518
▁scheinbar	517
▁Einreichung	517
▁begleiten	517
▁anschauen	517
▁Beste	517
▁intelligente	517
▁vernünftiger	517
▁Plattform	517
▁beläuft	517
sentscheidungen	517
▁kriminelle	517
▁Klage	517
▁Zurückhaltung	516
▁nachvollziehen	516
▁Anhänger	516
▁vornherein	516
▁Hochschulen	516
▁Doppel	516
▁Optimismus	516
▁Jahresende	516
▁angesetzt	516
▁Beiträgen	516
[	516
▁geantwortet	516
▁Befugnissen	516
▁festzuhalten	516
▁Wechselkurs	516
sziele	515
▁Teilung	515
▁EGF	515
▁ganzes	515
▁Golf	515
▁Rechtsakt	515
▁Mehrere	515
▁Wertschätzung	515
▁Übel	515
▁absoluten	515
spläne	514
▁Kirche	514
▁Bildungs	514
▁belasten	514
▁Tragen	514
▁Straf	514
▁erklärten	514
▁Komponente	514
▁Herangehen	514
▁Böge	513
freulicherweise	513
▁gewöhnlich	513
▁Gemeinsam	512
▁fortgeschritten	512
▁unvereinbar	512
▁Rückschritt	512
▁Elektro	512
▁Spektrum	512
▁Grundwasser	512
▁festgelegte	512
▁Drogenhandel	512
▁gerät	512
ô	511
▁fairer	511
▁Erbes	511
▁übertrieben	511
▁Werke	511
Waldner	511
situation	510
▁Elektrizitäts	510
mit	510
▁Madeira	510
▁Wunder	510
kontrollen	510
▁Toten	510
▁drohen	510
▁Gedächtnis	510
▁Interesses	510
▁Rückstand	510
▁Kommunismus	509
▁Dagegen	509
▁Misstrauen	509
▁halb	509
▁Importe	509
▁Herkunftsland	509
▁zweites	509
▁ökonomische	509
▁Wirkungen	509
▁Medikamenten	509
spraktiken	509
▁sinnvoller	509
▁aufgestockt	508
▁Aids	508
▁echtes	508
▁Hass	508
svorschlägen	508
▁billiger	508
▁mitzuteilen	508
▁ließe	508
mo	507
▁soliden	507
▁diskutierten	507
▁erstatten	507
▁verlagern	507
▁Telefon	507
▁konkurrieren	507
sergebnisse	507
▁niedrigeren	507
▁historischer	506
▁Sensibilität	506
▁dementsprechend	506
Vertragsparteien	506
▁übermäßigen	506
▁c	506
▁verheerenden	506
▁erreichte	506
▁Robert	505
▁verhält	505
▁umfaßt	505
▁Ausmaßes	505
bezogenen	505
▁Di	505
▁Male	504
▁umhin	504
▁erleiden	504
▁gravierenden	504
▁demografischen	504
wirtschaftlichem	504
▁Schritten	504
▁Zugehörigkeit	504
▁vorherige	504
▁sexueller	504
▁unterdrückt	503
▁Kunst	503
institutionen	503
▁Ausstattung	503
▁einräumt	503
▁prioritäre	503
▁Abgaben	503
▁Rüstungs	503
shaushalts	502
▁doppelt	502
▁herausragende	502
▁quasi	502
ierte	502
▁Netzwerk	502
▁Referendums	502
▁globalisierten	502
ausschuß	502
region	502
▁Empfänger	501
▁Thessaloniki	501
▁kollektive	501
▁verglichen	501
▁Ausbreitung	501
rechtliche	501
satz	501
enden	500
skampagne	500
▁Orten	500
▁IV	500
bezogene	500
▁Eigen	500
▁Erörterung	500
Glücklicherweise	500
▁Hemmnisse	500
▁Botschafter	500
politischer	500
]	500
Armutsbekämpfung	500
Bendit	499
▁unterhalb	499
▁Medizin	499
▁global	499
▁gesunken	499
▁verübt	499
▁Kinderarbeit	499
▁extremen	499
szeitraum	499
▁Fortführung	499
▁meist	498
▁geeigneter	498
▁angesiedelt	498
▁Realitäten	498
▁spürbar	498
▁Costa	498
▁chemische	498
bereitschaft	498
▁Einsicht	498
▁kollektiven	498
▁Spekulation	498
snormen	498
sregierung	498
▁Italiens	498
▁nenne	498
▁Byrne	497
▁Cohn	497
▁drängt	497
▁Roten	497
▁Schweigen	497
▁Charakters	497
▁Jahrzehnt	497
▁bekundet	497
▁Staatsbürger	497
nd	497
▁Täter	497
II	497
▁beheben	496
sinstruments	496
▁hochwertigen	496
▁Rand	496
▁vage	496
technischen	496
▁Sonntag	496
▁Vom	496
▁Vermögen	496
▁begeben	496
Fundamentalismus	496
▁erheblicher	496
▁Vereinheitlich	495
sstellen	495
▁Maul	495
▁Stillstand	495
▁Gegenwart	495
▁tragische	495
ken	495
▁erhielten	495
à	495
▁Gruppierungen	495
▁Erwerb	495
ach	495
▁Know	495
▁km	494
Menschenverstand	494
▁weitreichende	494
▁Ressource	494
▁Erzeugern	494
▁Eingang	494
▁begünstigen	494
▁Stammzellen	493
▁scheitern	493
wie	493
▁heimgesucht	493
▁Förder	493
▁objektiven	493
▁zurückzukehren	493
tion	493
▁regelt	492
▁Zentralbanken	492
Steuer	492
▁Staatsführung	492
▁Resolutionen	492
▁realisieren	492
▁mittelfristig	492
▁Stiftung	492
fischerei	492
▁Wechsel	491
▁entzogen	491
▁Nationalismus	491
▁Belgrad	491
▁nachmittag	491
▁Afrikanischen	491
▁anti	491
▁Inhalts	491
▁effizientere	491
▁zufällig	491
▁Nachbarländer	491
▁Dezentralisier	491
▁Crespo	490
”	490
lai	490
▁Russischen	490
▁laufende	490
einrichtungen	490
▁gerichteten	490
▁realisiert	490
Freie	490
▁Länge	490
▁Auskunft	490
▁Modelle	490
▁umfassenderen	489
▁Geltung	489
na	489
▁anhaltenden	489
▁Nachbarstaaten	489
▁Bangemann	488
▁Eigenschaften	488
uote	488
▁radikale	488
▁Bezahlung	488
▁Rauchen	488
▁jedermann	488
▁großzügig	488
▁zuhören	488
▁ergebenden	488
▁Bewahrung	488
▁hervorrufen	488
▁afghanischen	488
▁Rentensysteme	488
▁Soforthilfe	488
▁beraubt	487
▁Rücken	487
▁anhaltende	487
▁umfassendere	487
▁irakische	487
▁förderlich	487
▁Ausstellung	487
skräfte	487
▁Bürgers	486
squellen	486
▁belarussische	486
▁Äthiopien	486
▁aufstellen	486
▁Zertifizierung	486
▁strafrechtliche	485
▁löst	485
▁Zugriff	485
▁einzugreifen	485
▁soviel	485
▁Biokraftstoffe	485
▁WHO	485
▁Binnengrenzen	485
haushaltsplans	485
▁Atlantik	485
ion	485
sprojekte	485
▁abzuhalten	485
▁Dimensionen	485
▁Pfund	484
▁Luftraums	484
▁gewiß	484
▁Beitrags	484
▁abgeändert	484
▁klug	484
▁Kraftfahrzeug	484
▁Kroatiens	484
▁APS	484
▁sicherheits	484
▁Tausenden	484
▁angestrebten	484
▁ausführlichen	484
In	484
▁Uran	484
▁Sprecher	484
versicherung	484
rechtssituation	483
▁erschüttert	483
▁annehmbar	483
▁unternommenen	483
▁Jedenfalls	483
▁solidarisch	483
▁regulieren	483
▁Abänderungen	483
▁Kinderbetreuung	483
▁Deutschen	483
▁optimal	482
▁Volks	482
projekte	482
▁sicherstellt	482
▁Bewertungen	482
▁Lukaschenko	482
institutioneller	482
▁zollen	482
▁anwesenden	481
svorsitzenden	481
▁Karte	481
▁jugoslawischen	481
▁blicken	481
▁verbindet	481
▁Werbe	481
▁Häuser	481
▁Wohle	481
▁Resultat	481
▁Tschad	480
läßlich	480
▁Entwicklungs	480
▁beunruhigend	480
sgruppe	480
▁Antrags	480
ebene	480
▁vermag	480
▁ausarbeiten	480
▁Währungen	480
▁Geldpolitik	480
▁Alters	479
▁zentrales	479
▁Einzelpersonen	479
▁bedingt	479
▁Besorgnisse	479
▁rechtfertigt	479
▁Bilder	479
▁Abhilfe	478
▁Verkehrsträger	478
Persönlichkeiten	478
▁Phasen	478
▁Absicherung	478
▁aufzugeben	478
Plan	478
▁Kranken	478
▁Wor	477
▁loben	477
▁Australien	477
▁Ehe	477
fall	477
▁Nummer	477
▁fortgeführt	477
isiert	477
▁Berichtigungs	477
▁machbar	477
▁isoliert	477
▁zeichnet	476
spotenzial	476
▁Kriege	476
SL	476
▁herauszufinden	476
▁bilateraler	476
▁gleichgültig	476
▁nachvollziehbar	476
▁vorangekommen	475
▁Lobbyisten	475
▁unlauteren	475
struktur	475
▁Anstrengung	475
▁weitermachen	475
▁Liga	475
▁Verlaufe	474
▁Berlusconi	474
▁kohärenten	474
▁Patente	474
▁Konferenzen	474
▁erwerben	474
▁Klauenseuche	474
▁detaillierten	474
▁einschlagen	474
▁Rehn	474
▁Übrigens	474
▁Muttersprache	474
▁verzichtet	474
▁Eigentlich	474
▁Umweltbereich	474
▁Zeitalter	473
▁entfallen	473
▁Fische	473
▁sammeln	473
▁Alzheimer	473
▁Netzen	473
▁Elementen	473
▁Weltgesundheits	472
▁skeptisch	472
▁Biomasse	472
▁Portugals	472
▁Zusammenfassung	472
▁erstreckt	472
▁Pfeilers	472
▁Ebenfalls	472
▁dortigen	472
gebiete	472
sreform	472
▁Massaker	472
Dollar	471
▁Störungen	471
▁vollziehen	471
smitteln	471
Sch	471
▁Datenbank	471
▁Mittelbetriebe	471
▁Ansprüche	471
▁Aktien	471
▁achtet	471
▁historisch	471
▁geringeren	470
▁Inspektionen	470
Systems	470
▁Haag	470
▁erfassen	470
▁Oberste	470
▁Profite	470
▁aufrecht	470
▁Ernst	470
ür	470
▁unterbreiteten	470
▁worin	470
▁markt	470
gebieten	469
▁pflegen	469
▁brauche	469
außerordentliche	469
▁gefährdeten	469
rechtecharta	469
▁Deutlichkeit	469
▁Grundrechten	469
Delegation	469
▁vorigen	469
sentwurfs	469
▁unterbinden	469
▁beizutreten	469
▁jenes	468
▁Persönlichkeit	468
▁bedeutend	468
wert	468
eine	468
ben	468
▁Manchmal	468
▁benötigten	468
barkeit	468
▁Unterschriften	467
▁Englisch	467
▁Anträgen	467
▁Anschuldigungen	467
▁ereignet	467
▁unterrichten	467
angehörige	467
ft	467
▁Forstwirtschaft	467
kt	467
▁alleinige	466
▁Mitteilungen	466
Programme	466
▁Festigung	466
▁erstaunlich	466
▁bekennen	466
sanwaltschaft	466
▁verzögert	466
▁Bekleidungs	466
▁Embryonen	466
▁vorangehen	466
▁komplex	465
▁Vorgang	465
▁schwachen	465
▁herangezogen	465
▁geknüpft	465
▁überarbeiten	465
▁verschlimmert	465
▁England	465
▁TEN	465
▁wahrhaft	464
aktivitäten	464
▁Bio	464
▁Religionen	464
▁Bürgerkrieg	464
▁Größenordnung	464
▁Heranführung	464
▁gesetzten	464
▁irgend	463
▁zutreffend	463
▁Verbots	463
▁Ausgabe	463
▁wiederholten	463
▁Arbeitskräften	463
▁Rohstoff	463
märkte	463
▁Provinz	463
▁erneuten	463
COS	462
▁wartet	462
verbindungen	462
▁Schwung	462
iz	462
▁Fest	462
▁abschaffen	462
sinstitutionen	462
▁vierten	462
▁gelitten	462
ber	462
▁Vorwurf	462
▁Meeresumwelt	461
▁heikle	461
▁Erbringung	461
▁Aufträge	461
▁spezifischer	461
▁fühle	461
▁Verkehrssektor	461
▁veranlaßt	461
▁Wogau	461
▁Vorzüge	461
▁Überzeugungen	461
▁Versuchung	460
▁vernichtet	460
▁Angola	460
▁angegriffen	460
▁frühzeitig	460
ow	460
weltfreundliche	460
▁belassen	460
▁gezielt	460
);	460
▁Unfähigkeit	459
▁identifizieren	459
▁Wiederholung	459
▁Großunternehmen	459
▁Rating	459
saufwand	459
ug	459
▁souveränen	459
▁Vollstreckung	458
▁Gutes	458
▁Besonderen	458
▁ausübt	458
▁Bewegungen	458
▁ermittelt	458
▁verbietet	458
▁untersagt	458
▁Kirchen	458
INI	458
▁denkbar	458
▁umzugehen	458
lage	458
▁Anregung	458
Mindeststandards	457
▁stimmte	457
▁David	457
▁Film	457
▁ausgewogener	457
▁gehindert	457
▁mutig	457
▁Handlungsbedarf	456
▁Verschuldung	456
▁Generaldirektor	456
op	456
▁Sorgfalt	456
▁Zuweisung	456
problematik	456
▁einseitigen	456
▁Flagge	456
▁Delors	456
▁gerückt	456
wissensbasierten	456
▁enthaltene	456
▁sinnlos	456
▁Straftat	456
▁Verständigung	456
Altersversorgung	456
▁Intoleranz	456
eh	456
▁englischen	455
▁hebt	455
Š	455
zahl	455
staat	455
▁Flüge	455
▁endet	455
▁sichert	455
▁beschließt	455
▁optimale	455
▁essen	455
▁Allgemeine	454
▁außenpolitische	454
gehen	454
▁entnehmen	454
▁eingeleiteten	454
verteilung	454
▁Säulen	454
▁diskriminierend	454
▁einheitlicher	454
▁Argumentation	454
▁berechtigten	454
ß	454
▁ausbauen	454
macht	454
▁Benachteiligung	453
▁mitten	453
▁dritter	453
▁Azoren	453
▁verlagert	453
▁fürchten	453
▁Gegenden	453
▁melden	453
▁unweigerlich	453
▁gestartet	453
förderung	453
▁frühen	453
▁Rechtsordnung	452
▁Gesichtspunkten	452
▁anzuschließen	452
staatliche	452
▁traurig	452
▁Güterverkehr	452
▁Bonino	451
▁dringender	451
▁Se	451
▁vornehmlich	451
▁Dossiers	451
▁Fehlern	451
▁schreibt	451
▁zuallererst	451
▁Geste	451
▁zustimme	451
▁entdeckt	451
▁Ausrüstung	451
▁vorläufigen	451
▁Risikokapital	451
▁weitestgehend	451
bi	450
ert	450
igt	450
▁Fuß	450
ski	450
zeitlichen	450
▁Berichtes	450
▁John	450
▁exportiert	450
▁erledigt	450
▁friedlich	450
srahmenprogramm	450
▁niedrigere	450
haushaltsplan	450
▁schien	450
so	449
▁ausführen	449
he	449
notwendigerweise	449
▁liberale	449
▁anzustreben	449
▁getätigt	449
▁Exekutive	449
▁übermäßig	449
▁schöne	449
▁politischem	449
▁Gonz	448
▁Argumenten	448
▁Feststellungen	448
squote	448
▁LIFE	448
▁Reihenfolge	448
▁verbleiben	448
▁legitime	448
Wirtschaft	448
▁Materialien	448
▁angestellt	448
▁meistern	448
▁Entweder	448
▁Saatgut	447
▁Viel	447
▁Verschwendung	447
▁Tote	447
▁Krisensituation	447
▁Bestandteile	447
▁explizit	447
orientierten	447
▁ausgewiesen	447
▁Bediensteten	447
▁Kernkraft	447
▁Ratstagung	447
▁freigelassen	447
▁sozialem	447
▁menschenwürdige	447
▁zusammenfassen	447
▁angepaßt	447
srate	446
▁Feuer	446
kultur	446
▁hinterlassen	446
▁Nahost	446
▁Warnung	446
▁Inhaftierung	446
▁Innenminister	446
ier	446
▁Fracht	446
▁verwandeln	446
▁Vorteilen	446
▁Rente	446
do	446
sergebnis	446
status	446
▁geringsten	446
▁Krankenhaus	445
▁Fahrgäste	445
▁Herrschaft	445
deraufgenommen	445
▁horizontale	445
▁asiatischen	445
▁problemlos	445
programmen	445
nentwurf	444
▁vergangene	444
dervereinigung	444
▁Schwelle	444
▁Berufe	444
▁Osttimor	444
▁Image	444
legen	444
ot	444
▁Oostlander	444
▁polizeiliche	444
▁gehörte	444
▁Rückübernahme	444
▁Plänen	444
Ivoire	443
▁verwalten	443
▁Legitimation	443
▁verheerende	443
▁Schiffbau	443
▁Beschäftigungs	443
spezifische	443
▁Parallel	443
▁jenem	443
▁Ausschreibung	443
▁wendet	443
▁ernstes	443
▁Ungeachtet	442
▁Billigung	442
▁Veranstaltung	442
▁Arafat	442
▁menschlicher	442
▁Arktis	442
▁Ra	442
▁nützt	442
▁gewerbliche	442
▁berechtigte	442
▁vorbringen	442
▁Bekenntnis	442
▁entsprochen	442
▁Meilenstein	442
▁unbefriedigend	442
dereingliederung	441
▁gefreut	441
▁Letztendlich	441
▁Möglicherweise	441
▁Weigerung	441
▁Erscheinung	441
▁erlangt	441
▁Rio	441
▁Cox	441
weiterentwickeln	440
▁Hygiene	440
▁Assistenten	440
▁Formel	440
▁jeweilige	440
mon	440
▁nachgedacht	440
▁unterzeichneten	440
▁wohin	440
▁Sanktion	440
▁anstrebt	440
▁anregen	440
▁auszusetzen	439
▁Flucht	439
außergewöhnliche	439
▁Chinesen	439
▁Übergangs	439
▁Euroraums	439
technische	439
▁Kilometer	439
▁verzögern	438
▁Rentabilität	438
▁extreme	438
▁höherer	438
▁angekündigten	438
▁meinerseits	438
▁Zone	438
▁gestoßen	438
▁orientiert	438
agentur	438
▁Kreis	438
▁betonte	438
▁generellen	437
▁for	437
▁Nordafrika	437
▁Kyi	437
▁unterziehen	437
▁Direktzahlungen	437
th	437
▁Händler	437
▁wem	437
▁Wesentliche	437
▁hieß	436
▁aufzeigen	436
▁Luftqualität	436
▁ruhig	436
▁einzunehmen	436
▁hinarbeiten	436
▁beides	436
▁Erkrankungen	436
▁unvermeidlich	436
▁unbestreitbar	436
▁Stützung	436
▁Vorbehalt	435
durch	435
▁walten	435
Ich	435
▁Pestiziden	435
▁abgelaufen	435
▁unterschätzt	435
▁Dasselbe	435
▁Fontaine	435
▁relevant	435
▁energie	435
▁Erforschung	435
▁demonstriert	435
▁Fülle	435
▁durchführt	434
▁Vergnügen	434
sp	434
▁bewahrt	434
▁fühlt	434
verordnung	434
vier	434
▁anstellen	434
▁Plenartagung	434
tan	434
sniveaus	433
▁abschließende	433
we	433
▁Bestes	433
▁wagen	433
▁angedeutet	433
▁Nuklear	433
▁überwältigende	433
ete	433
ers	433
▁Herstellern	433
▁schwächsten	433
▁vorgezogen	432
▁Evans	432
▁vernachlässigen	432
▁Moral	432
▁Athen	432
▁Waffe	432
▁feierlich	432
kennzeichnung	432
▁Diagnose	432
▁Schreyer	432
▁geschätzten	432
smitgliedern	432
▁Basel	432
▁Dach	432
▁polizeilichen	432
▁la	432
▁empfinden	431
▁betraf	431
▁einfließen	431
▁Einzelfall	431
gang	431
▁tue	431
▁Gleiches	431
▁Schüler	431
▁Kapitals	431
▁mancher	431
▁Ausschluss	431
▁beschreiben	430
▁hingenommen	430
▁Nielson	430
▁Maschinen	430
▁Embargo	430
▁hindert	430
▁Periode	430
za	430
▁schlichtweg	430
▁großartigen	430
defizit	430
▁Vermittler	430
▁Barrieren	430
Erweiterung	430
▁konform	430
▁einschließen	429
ale	429
▁Malmström	429
▁tot	429
▁zweier	429
zuentwickeln	429
▁Dritte	429
verbrauchs	429
▁Zivilluftfahrt	429
▁möglicher	429
Mitglieder	429
▁eingehender	429
▁feiern	429
▁widersetzen	429
▁engeren	429
▁Ware	428
verbände	428
▁Veterinär	428
▁entfernen	428
▁Annan	428
▁ökologischer	428
sbedarf	428
▁Münzen	428
▁Troika	428
ment	428
▁Herzlich	428
▁angemessenes	428
▁Adoption	428
bereiche	428
▁Zuteilung	428
▁Kleinst	427
▁Fern	427
ay	427
▁ordnungsgemäßen	427
▁eindeutiger	427
anz	427
▁Somalia	427
▁tägliche	427
▁Tragödien	427
az	427
▁Amerikanern	427
▁Rothley	427
▁Sevilla	427
▁koordinierten	427
▁Mehrjahres	427
▁gültig	426
▁Bewerberländer	426
▁Sozialdumping	426
▁IAO	426
▁hegen	426
▁zweieinhalb	426
▁Essen	426
▁Mulder	426
▁Höchst	426
szeit	426
▁Versagen	426
Herzegowina	426
▁Anwendungen	426
▁Schein	426
▁Vorhandensein	426
▁finanzierten	426
▁notwendiger	426
▁Olivenöl	426
▁Barrot	425
behörden	425
▁mithin	425
▁UCLAF	425
▁bedienen	425
▁getrieben	425
▁Kanarische	425
▁vertrieben	425
▁Todesfälle	425
mer	425
▁Linien	424
▁Chirac	424
ich	424
Protokolls	424
▁Eigentumsrechte	424
▁Häftlinge	424
prävention	424
▁Plans	424
▁bekannte	424
▁Umlauf	424
▁Textilindustrie	424
▁Donau	424
▁ideologischen	424
▁Sarkozy	424
res	424
▁Rechtsrahmens	423
isieren	423
▁bittet	423
▁Lagerung	423
harmonisierung	423
▁Festsetzung	423
▁flexiblen	423
▁weigert	423
▁fragt	423
statut	423
que	423
pe	423
▁auszugleichen	423
▁Finger	423
▁Übergangszeit	423
Gesprächspartner	423
▁Lange	423
▁übereinstimmt	423
▁Russen	423
▁Prognosen	422
▁wirksamere	422
▁Beschlußfassung	422
▁Anschluß	422
▁angesprochene	422
▁Nordsee	422
▁systematischen	422
rei	422
▁Proteste	421
▁komplett	421
▁gestanden	421
▁Anklage	421
druck	421
▁stößt	421
▁größtmöglichen	421
jährigen	421
▁missachtet	421
Ge	421
Z	421
▁Hüterin	421
▁Institut	421
▁versehen	421
▁abzu	421
▁Konföderale	421
▁restliche	421
▁Angehörige	421
▁auszudrücken	421
▁Einkommens	420
▁Extremisten	420
▁Sa	420
▁öffnet	420
▁Einverständnis	420
▁hinfällig	420
▁verläuft	420
zi	420
▁IND	420
▁Kongress	420
Bestandsaufnahme	420
▁angestrebte	420
▁vorkommen	420
▁Hinrichtungen	420
kriminalität	420
▁Bewußtsein	420
▁Reserven	420
ziel	420
▁Sekunden	419
marktes	419
▁abzuwarten	419
▁Zuschüsse	419
sbereichen	419
Vorschriften	419
▁Geißel	419
▁Anstoß	419
▁Zusicherung	419
▁horizontalen	419
▁ähnlicher	419
information	419
▁zusammengefasst	419
Agenda	419
▁überzeugend	419
▁End	419
▁auszustatten	419
▁benannt	419
▁Verbringung	419
▁regiert	419
technik	419
▁weiten	418
▁entschlossene	418
▁Malaria	418
▁Mandelson	418
probleme	418
▁zutrifft	418
▁verfolgten	418
▁mitgewirkt	418
Regelung	418
▁Cardiff	418
pre	418
Entwicklung	418
operationellen	418
sposition	418
▁Beileid	418
▁Versicherung	418
▁Verstößen	417
form	417
▁Kampagnen	417
▁Bestehen	417
▁deckt	417
▁sozialistische	417
sbereichs	417
DEM	417
▁Cashman	417
▁Zahlreiche	417
▁verkündet	417
▁iranische	417
▁Rechtmäßigkeit	417
▁zusammenhängend	417
▁benachbarte	416
mangel	416
▁eingeschlagen	416
▁ärmeren	416
▁unterstützten	416
▁Buchstabe	416
▁zurückgehen	416
skommission	416
▁beziehungsweise	416
sgemeinschaft	416
▁erwachsen	416
▁Fangmöglichkeit	416
▁zahlt	416
nahme	416
▁umstritten	415
▁vorbeugende	415
▁Strecke	415
▁Spitzen	415
Mißtrauensantrag	415
▁Dumping	415
▁galt	415
▁zentral	415
▁jen	415
▁Iren	415
▁gesundheitliche	414
▁unterschätzen	414
▁nötige	414
▁Sklaverei	414
▁CIA	414
▁zuverlässige	414
▁Arm	414
▁Standpunktes	414
▁starten	414
▁Konzertierung	414
▁geografische	414
ex	414
▁Einwohnern	414
▁abschließenden	414
ED	414
▁Bürgermeister	414
▁gelenkt	413
einzelstaatliche	413
▁Seitdem	413
▁geredet	413
▁gemein	413
▁Gefangene	413
▁Hauptproblem	413
ç	413
▁strebt	413
▁erachten	413
▁Umweltschäden	413
▁Vater	413
▁indes	413
▁vergleichbare	413
▁fungieren	413
▁Resultate	412
▁herrschenden	412
▁Zinsen	412
▁wecken	412
▁Fünftens	412
▁bewältigt	412
▁Kabeljau	412
▁gewünschte	412
▁Lama	412
technologien	412
▁Initiativrecht	412
▁kooperieren	412
▁Zentren	412
▁religiöser	412
▁genehmigen	412
▁Obama	412
▁t	411
▁Flugverkehr	411
▁erwägen	411
▁bewährte	411
▁Repression	411
▁vertieft	411
▁Erasmus	411
▁Schadstoffe	411
▁fünfzig	411
▁Mauretanien	411
▁einsehen	411
▁unterstützte	411
▁Konventionen	411
▁verwickelt	411
▁Fortbildung	411
▁Daseinsvorsorge	411
fang	411
▁Entfernung	411
▁dahinter	411
▁Biokraftstoffen	410
▁entstehenden	410
▁behandelten	410
▁Partnerschafts	410
▁Ber	410
▁Einspruch	410
▁verzeichnet	410
ekt	410
▁beschreiten	410
▁Hätte	410
▁Halbzeit	410
▁Umweltverträg	410
bestände	410
ling	410
▁Fast	410
reform	409
▁Vorreiterrolle	409
Haushaltsführung	409
▁Einschüchterung	409
▁saubere	409
bewegung	409
▁konkretes	409
▁Europarats	409
▁breiteren	409
▁unterbrechen	409
▁verursachte	409
▁unsererseits	409
▁Nichteinhaltung	409
▁Vorzug	409
▁ausgewählt	409
▁effektivere	408
▁Osterweiterung	408
▁Velzen	408
▁höchstens	408
▁erhebt	408
produkten	408
▁bedeutsamen	408
▁Abgabe	408
sdiensten	408
Mitteln	407
▁Umgestaltung	407
▁versorgen	407
▁sinken	407
▁aussenden	407
▁intern	407
▁McCreevy	407
▁Finanzrahmens	407
▁sitzt	407
▁Schienen	407
Nutzen	407
▁Serbiens	407
▁unzulässig	407
▁Unzufriedenheit	407
▁Grundprinzip	407
▁grünen	407
▁festgenommen	407
▁Beschreibung	407
▁erworben	407
voraussetzung	407
▁Haushalten	407
▁Strecken	406
▁beschuldigt	406
leistungen	406
▁unumgänglich	406
▁Behinderte	406
▁jedwede	406
▁beschämend	406
rechtsaktivisten	406
▁kontinuierliche	406
▁feststellt	406
▁Transfer	406
▁mutige	406
wa	405
▁Instrumentarium	405
ip	405
▁Laufzeit	405
▁bestünde	405
Kriegsverbrechen	405
▁katastrophale	405
▁günstig	405
Maßnahmen	405
▁exakt	405
▁Norm	405
erzeuger	405
▁ordentlich	405
▁Bevölkerungen	405
▁Hürden	405
▁vorzubeugen	405
▁Versprechungen	405
Tagung	404
▁Dell	404
▁Rohstoffen	404
▁Vertrieb	404
▁freiwilliger	404
▁gebotenen	404
ha	404
▁Verzicht	404
▁auftritt	404
bildung	404
▁resultierenden	404
▁vergrößern	404
▁ehrgeiziges	404
▁gedauert	404
▁verbergen	404
▁mitwirken	404
Schlüsselelement	404
▁Merkel	404
▁eingeht	404
sbemühungen	404
überwachung	404
▁vorteilhaft	403
▁Erfindungen	403
▁Foren	403
▁beherrscht	403
▁Verlierer	403
▁gewandt	403
▁Vertriebenen	403
▁gestoppt	403
▁eingeschlossen	403
▁Führerschein	403
▁gründlichen	403
▁Betrachtung	402
▁verfrüht	402
▁Neufassung	402
▁deutet	402
ca	402
▁wolle	402
▁privater	402
▁verwaltungs	402
▁intensiviert	402
▁Futtermitteln	402
ick	402
▁Südkorea	402
serklärungen	402
▁gewillt	402
▁überraschend	402
▁formell	402
tend	401
Behrendt	401
▁überholt	401
▁enthielt	401
▁bißchen	401
▁Voraus	401
▁Unruhen	401
▁erhöhte	401
▁erteile	401
▁Staatsangehörig	401
Bürgerinitiative	401
▁Lulling	400
▁Verspätung	400
▁Bourlanges	400
▁Handhabung	400
▁Richtungen	400
▁Sierra	400
▁Kaukasus	400
▁erledigen	400
▁to	400
weg	400
▁Lebensunterhalt	400
▁Südens	399
▁Medina	399
▁eingeführten	399
▁drastische	399
▁Wachstumspakts	399
ungs	399
▁Ministern	399
Stabilitätspakts	399
▁Opt	399
kette	399
▁öffentliches	399
▁Randzio	399
Plath	399
▁Modells	399
▁Nenner	399
▁schwache	399
’	399
skraft	399
▁Amtes	399
sangehörigkeit	398
▁Befürchtung	398
▁Personals	398
▁indonesische	398
▁imperialistisch	398
▁Vertreters	398
Euro	398
tag	398
▁Gehalt	398
erleichterungen	398
▁Flugsicherheit	398
▁geforderte	397
▁Ausgestaltung	397
▁westliche	397
Agenturen	397
▁audiovisuelle	397
▁Eskalation	397
ag	397
▁informelle	397
▁einzigartige	397
▁Langen	397
swert	397
▁Agrarausgaben	397
no	397
▁Rücküberweisung	397
▁Grundsätzlich	397
▁ausrichten	396
▁Venezuela	396
▁Verhäng	396
▁Freizeit	396
▁nachgekommen	396
▁Produktions	396
▁Nationalität	396
▁Bedürfnis	396
▁Atom	396
ven	396
gesetz	396
▁Kraftfahrzeugen	396
▁latein	396
Kleinunternehmen	396
▁Gegenleistung	396
▁Li	395
▁ausführlicher	395
▁Programmplanung	395
▁Derartige	395
▁verständigen	395
▁Kontakten	395
gleichszahlungen	395
sel	395
▁Mais	395
▁Kriegs	394
tender	394
▁aufzuzeigen	394
mm	394
▁erwarteten	394
▁intervenieren	394
▁gebilligten	394
▁entschiedene	394
▁materiellen	394
▁durchgeführte	394
▁Industrieländer	394
▁befugt	394
▁algerische	394
▁Gefühle	394
urchschnittliche	394
▁Deutschlands	394
▁Sachverhalt	393
▁Ankara	393
▁alternativer	393
▁Winter	393
▁Schau	393
unter	393
▁Reformprozess	393
losigkeit	393
▁Block	393
▁Bezugnahme	393
▁Genauso	393
mi	393
▁Ständige	393
▁Koexistenz	393
Krankheit	393
▁Finanzhilfen	393
derhergestellt	393
▁Hauptziele	393
▁arme	393
▁Regelwerk	393
▁bestimmtes	392
▁dynamischen	392
▁streiten	392
▁Lebenserwartung	392
▁Unabhängig	392
▁Gebot	392
▁transportiert	392
▁Transporte	392
▁Warenverkehr	392
Beeinträchtigung	392
▁Normung	392
▁Rechtssystem	392
▁unterschrieben	392
▁Extremismus	392
▁Drittland	392
▁justiziellen	392
▁Identifizierung	392
▁Ruanda	392
▁erfolgreicher	392
▁Binnen	391
▁Erläuterungen	391
all	391
▁Auftragsvergabe	391
▁Siedlungen	391
▁konzipiert	391
▁Leiter	391
svorhaben	391
▁entwickelte	391
▁Synergien	391
▁zumeist	391
▁Empörung	391
▁schlimm	391
▁repräsentiert	391
▁schriftlichen	390
▁Kasachstan	390
▁Arbeitslose	390
▁ausgeglichen	390
sche	390
▁innovativer	390
▁Usbekistan	390
▁Inhaber	390
▁Römische	390
▁Brennstoffe	390
Generalsekretärs	390
▁Wahlrecht	390
▁Zinssätze	390
buch	390
▁Materie	390
▁praktischer	390
▁Diktator	390
▁Ausschreibungen	389
sführer	389
▁vorübergehend	389
europäischen	389
▁Spaltung	389
▁Hochwasser	389
fahren	389
▁Entsprechend	389
▁Inspektion	389
▁eigen	389
netz	389
▁Klimaänderung	389
▁grünes	389
▁ergänzende	389
paket	389
▁indirekten	388
▁Rasse	388
▁sprachliche	388
zen	388
▁ernster	388
ly	388
▁Besondere	388
swesens	388
▁Pi	388
▁Garc	387
Energieverbrauch	387
▁Titley	387
▁gewährten	387
▁eventuellen	387
▁ansteigen	387
auswirkungen	387
▁stärkeres	387
ci	387
▁Palette	387
▁Briten	387
▁Stolz	387
▁Freundschaft	387
▁eingesetzten	386
operativen	386
▁Polens	386
spaket	386
▁Gewalttaten	386
▁Tr	386
entgegenzuwirken	386
▁Nepal	386
▁begegnet	386
▁Drucks	386
▁teurer	386
abhängigkeit	386
▁tausend	386
haft	386
▁arbeitslos	386
ho	386
Übereinkommens	386
▁versprechen	386
▁Wortes	386
▁Gen	385
▁Selbstverständ	385
Mission	385
ek	385
▁Erweiterungen	385
▁klarzustellen	385
sänderungen	385
lichkeitsprüfung	385
▁betreibt	385
▁Wandels	385
▁Ch	385
▁ermäßigte	385
▁SOKRATES	385
▁tiefen	385
▁Auswertung	385
▁Artikeln	385
▁verdoppeln	385
▁empfunden	385
▁ethnischer	385
▁Grundwerte	385
▁bestmöglichen	385
hand	384
raum	384
▁Zusammenfassend	384
saktivitäten	384
▁behinderten	384
▁Stein	384
szentren	384
standards	384
▁ersichtlich	384
▁Schwachstellen	383
▁bedeutsame	383
om	383
tal	383
▁Deckung	383
▁gewartet	383
▁festgesetzt	383
▁strategisch	383
▁Vorrechte	383
▁erachte	383
▁gerichtete	383
▁Sammlung	383
▁Köln	383
▁Kommissaren	383
▁Isolation	383
sgrad	382
▁steuern	382
▁erhöhten	382
kon	382
zusammenführung	382
▁Schlacht	382
▁einzudämmen	382
▁höheres	382
▁Sir	382
▁abdecken	382
ñ	382
Energieerzeugung	382
▁zögern	382
▁Schutzniveau	382
▁gekauft	382
spraxis	382
beihilfen	381
▁vehement	381
▁Vergütung	381
▁brutale	381
▁Vorgehens	381
▁Finanzmarkt	381
▁getroffene	381
▁Budgets	381
▁Castro	381
▁designierte	381
pol	381
▁konstitutionell	380
Nordische	380
Süd	380
▁entfalten	380
▁verschlossenen	380
▁Schweine	380
▁Soll	380
▁brechen	380
▁stabilisieren	380
transaktionen	380
▁zulässigen	380
▁Dolmetscher	380
▁trat	380
▁Muster	380
▁indirekte	380
grenzen	379
▁inhaltliche	379
alisierung	379
▁Vertraulichkeit	379
▁modernisieren	379
union	379
▁konservativen	379
▁Bösch	379
▁weitesten	379
▁aufzeigt	379
▁erstrecken	379
▁fünfte	379
▁dynamische	379
tra	379
▁katastrophalen	379
▁Korrekturen	379
▁Geldes	378
▁vielfältigen	378
▁Energieversorg	378
▁empfinde	378
▁Mart	378
▁lieben	378
▁leichten	378
▁Seuche	378
▁Sozialausschuss	378
▁Wahlbeobachtung	378
slosigkeit	378
▁Demzufolge	378
▁draußen	378
▁Anschlag	378
▁kümmert	378
▁Kohlenstoff	378
▁Wortmeldungen	378
▁Bangladesch	378
Haushalts	378
▁geschaffenen	378
▁Gebiets	378
▁gedient	378
▁Vergehen	378
▁Aufschub	378
▁konsultieren	377
▁irgendein	377
▁schlechtes	377
▁Wachsamkeit	377
▁Maßnahmenpaket	377
▁Verbände	377
▁sprachlichen	377
besteuerung	377
▁Unterfangen	377
▁Karas	377
Preis	377
▁künftiger	377
▁liegende	376
▁Konfrontation	376
▁traditionell	376
▁albanischen	376
rechtsfragen	376
▁Erzeugnis	376
▁verschiedenste	376
▁Morde	376
▁Finanzmärkten	376
▁Texten	376
▁blieb	376
▁CE	376
zeiten	376
▁detailliert	376
sfrage	376
▁Werften	375
▁Risikobewertung	375
geld	375
▁fortschrittlich	375
▁maritime	375
▁günstigen	375
▁bemerkenswerte	375
▁gerettet	375
▁schrittweisen	375
▁Flugzeugen	375
▁Weisen	375
▁Bereichs	375
▁bestellt	375
▁tibetische	375
▁Ermessen	374
▁Mittelmeerraums	374
gl	374
▁Ausfuhren	374
▁SWIFT	374
makroökonomische	374
▁multinationale	374
▁immense	374
▁biometrische	374
▁willkürlich	374
▁Sprichwort	374
▁Futter	374
▁dargelegten	374
▁passt	374
▁Drohungen	374
▁Juncker	374
▁anderthalb	374
▁akzeptiere	373
▁bedrohen	373
▁Geflügel	373
▁Grenzregionen	373
Reform	373
▁aufgedeckt	373
Haushaltsentwurf	373
▁überdies	373
▁untergräbt	373
▁einzubinden	373
▁Kreuz	373
▁obligatorisch	373
▁Schienenverkehr	373
▁Reformierung	373
▁Aufbauwerk	373
Aktionsprogramms	373
▁Netzwerke	373
elt	373
▁gehandhabt	373
▁Unsinn	372
▁Nachfolger	372
Berichts	372
Timor	372
▁widmet	372
▁Gazastreifen	372
Fonds	372
▁Diktaturen	372
Artikel	372
▁Zuwanderer	372
▁Eingriff	372
▁Verfahrensweise	372
▁Bescheid	372
sordnung	372
▁Reduktion	372
▁dachte	372
▁Ford	372
Nichtverbreitung	371
▁Website	371
▁untrennbar	371
▁Landwirt	371
▁Wynn	371
setzung	371
ium	371
▁Antragsteller	371
▁Betriebs	371
werte	371
▁Militärs	371
▁einreichen	371
▁Raumes	370
▁Spekulationen	370
rechts	370
▁Eis	370
▁aufzugreifen	370
▁Bundeskanzler	370
▁Berufsbildung	370
produzenten	370
▁Minen	370
Problem	370
▁Brände	370
▁hinterher	370
▁Niederlage	370
▁erwecken	370
▁hielten	370
▁Burundi	370
▁Schokolade	370
▁Direktor	370
▁Raumordnung	370
▁bulgarischen	369
▁luxemburgischen	369
▁bewährten	369
▁Kraftstoffe	369
▁Grenzwert	369
▁älterer	369
▁Raumfahrt	369
▁ebnen	369
▁bedenklich	369
▁realistischen	369
▁leere	369
▁Disziplin	369
▁Mitbestimmung	369
wasser	369
steuern	369
▁unrealistisch	369
▁Lernens	369
▁Wales	369
▁eingehende	369
Er	369
▁befolgen	368
▁stellten	368
woher	368
sentscheidung	368
▁Einzelplan	368
▁EGKS	368
abkommens	368
sdienst	368
gi	368
▁anerkannte	368
Rates	368
▁Marktöffnung	368
▁ausgezahlt	368
▁Sitze	368
▁verbracht	368
gu	368
▁beiseite	368
▁Träger	367
▁Bislang	367
▁erfolgten	367
▁mutigen	367
▁jüngst	367
▁zuviel	367
▁wen	367
BG	367
▁Innenpolitik	367
▁Coelho	367
▁wertvoll	367
das	367
▁weiterleiten	367
▁Bündnis	367
▁betroffene	367
▁quo	367
▁Verzweiflung	367
▁befolgt	367
▁Letztlich	367
terschaftsurlaub	367
▁wachen	367
▁gemeinschafts	367
▁Act	367
▁Bali	367
▁Nabucco	367
wir	367
▁Westeuropa	367
▁Musik	367
▁Landschaft	367
▁Veranstaltungen	367
▁Ratsvorsitzende	367
▁vorläufige	367
▁Herman	366
▁Furcht	366
▁Rocard	366
▁leugnen	366
▁Arbeitszeiten	366
▁afrikanische	366
slosenquote	366
▁Burma	366
tim	366
▁Verbrecher	366
▁Rechnungslegung	366
Region	366
▁öfter	366
▁Präsidiums	366
▁unzureichenden	366
▁Elite	365
▁aufnimmt	365
▁Seeleute	365
Russland	365
▁Vorabend	365
▁Privileg	365
▁Kapitalismus	365
▁aufgeworfenen	365
▁Jerusalem	365
▁geschlagen	365
▁gewarnt	365
▁Saudi	365
▁Abwicklung	365
▁plädiert	365
▁feststellte	365
▁globales	365
▁Zugänglichkeit	365
▁slowenischen	365
▁Allgemeinheit	365
▁Gehälter	365
▁Zentral	365
▁Fünfzehn	365
▁Bowis	364
▁Kon	364
▁Ratingagenturen	364
▁verzerrt	364
▁Außenwirtschaft	364
▁Angebote	364
▁vorzustellen	364
▁Genehmigungen	364
▁Gegenzug	364
▁Erlaubnis	364
▁Treffens	364
▁schwieriges	364
Gipfels	364
▁radikalen	363
berichterstatter	363
Markt	363
▁teilhaben	363
▁behilflich	363
▁Auflösung	363
▁komplexer	363
▁Doping	363
▁Seattle	363
sverordnung	363
▁Marktteilnehmer	363
ili	363
▁aktualisiert	363
▁Einheitswährung	363
▁Sprach	363
handlungstisch	363
▁Bereicherung	363
▁Grünbuchs	363
▁auszugeben	362
Regime	362
▁Hof	362
▁Dilemma	362
▁Etikett	362
Verhaltensweisen	362
▁behinderte	362
▁Inspektoren	362
▁Teilhabe	362
▁Bergbau	362
▁Nahrung	362
▁Arabische	362
verfassungsmäßig	362
▁traurige	362
▁verschafft	362
▁einmalige	362
▁ETA	362
▁Strafsachen	362
▁pakistanische	362
▁Jagd	361
▁Fachleute	361
binnenmarkt	361
▁herbeiführen	361
▁neoliberalen	361
▁Fragesteller	361
▁Sozialmodells	361
▁Argentinien	361
▁gespalten	361
Beifall	361
▁ähnliches	361
▁Würden	361
▁einigermaßen	361
▁geschlossene	361
▁Verweigerung	361
▁Ausmaße	361
▁ehrliche	361
▁plädiere	361
▁WPA	361
▁nordischen	360
▁logische	360
▁Konkret	360
▁Werkzeug	360
▁Theorie	360
▁Mindestnormen	360
mengen	360
▁p	360
▁unlautere	360
▁Übergriffe	360
len	360
▁Ohren	360
▁Ostseeraum	360
▁Letzte	360
▁attraktiv	359
▁Letztere	359
▁Pensionsfonds	359
▁schottischen	359
▁zugestanden	359
bo	359
our	359
▁vorab	359
ende	359
▁Prestige	359
▁Arbeitsgruppen	359
▁Gewähr	358
▁gestellte	358
▁angelangt	358
▁unangebracht	358
▁Vorrednern	358
wirtschaftliche	358
▁jeher	358
kapitalistischen	358
▁kurdischen	358
sparteien	358
▁Weihnachten	358
▁Green	358
▁merkwürdig	358
▁Verhofstadt	358
▁ausspricht	358
zug	358
▁entlang	358
transport	358
▁Großbritanniens	358
▁Tsunami	357
▁Verhaftung	357
▁Waldbrände	357
ru	357
▁ausgestellt	357
▁konsolidieren	357
▁Rücknahme	357
▁zulässt	357
▁einmischen	357
▁Börsen	357
strukturen	357
tisch	357
▁Repräsentanten	357
▁mittelständisch	357
▁klingt	357
ischer	357
kosysteme	357
▁Gerichtshofes	357
▁nieder	357
▁Illusion	356
▁Redebeiträge	356
▁alltägliche	356
▁Bürgerschaft	356
▁reibungslose	356
▁gebührende	356
▁USD	356
▁einst	356
▁kleinsten	356
▁freundlich	356
meisterschaft	356
srisiken	356
skapazitäten	356
▁enormer	356
ziele	356
▁maximale	356
▁geführte	356
sstunde	356
▁Balkanstaaten	355
▁bezog	355
▁Vigo	355
▁unfähig	355
Inverkehrbringen	355
▁Neutralität	355
tieren	355
▁Geschlecht	355
stoff	355
▁Bewerber	355
Europäische	355
▁Zentralasien	355
▁formulierten	355
▁einleitend	355
basis	355
Ziele	355
▁reif	355
▁materielle	355
▁Stoff	355
gebühren	355
funktion	355
▁beschlossene	355
▁Müll	355
▁Arbeitsmärkte	355
▁beispielhaft	355
▁Drama	355
ET	355
▁Umweltprobleme	355
▁stetig	354
▁persönlicher	354
▁lobenswert	354
berg	354
▁Verkehrsmittel	354
▁Singapur	354
▁abge	354
▁Minderjährigen	354
▁befördert	354
ino	354
▁Ecofin	354
▁sudanesische	354
▁Zweite	354
▁Differenzierung	354
Partei	354
▁strengeren	354
▁ASEM	353
▁alter	353
aktionssteuer	353
sozioökonomische	353
▁voranschreiten	353
log	353
▁formal	353
▁Inhalten	353
▁beipflichten	353
▁Arbeitgebern	353
▁Bedarfs	353
▁Arzt	353
▁klassischen	353
▁Kandidat	353
▁Schwächung	353
slage	353
▁Tiermehl	352
▁Mindestmaß	352
hen	352
▁einheimischen	352
▁Erpressung	352
sverträge	352
▁begeistert	352
▁Prag	352
▁weigern	352
▁Weltbevölkerung	352
akt	352
▁berühmten	352
weise	352
▁Stich	352
cken	352
sanlagen	352
▁weswegen	352
▁Klagen	352
▁gültigen	352
▁Gibraltar	351
▁du	351
▁vorenthalten	351
▁plädieren	351
▁dringliche	351
▁vorschreiben	351
▁rückt	351
▁offenbart	351
▁Feind	351
▁fällen	351
▁Ärmsten	351
▁nützen	351
abschätzungen	351
▁seinerseits	351
sprozessen	351
▁Weiterführung	351
▁Brustkrebs	351
▁ansieht	351
▁Jemen	351
▁Spender	351
▁verankerten	351
▁Höhepunkt	351
regeln	351
▁unterwerfen	351
▁radikal	351
▁billige	350
Finanzinstrument	350
▁Beleg	350
▁Referenz	350
▁ausschließliche	350
▁durchlaufen	350
▁Gerichts	350
▁Umwandlung	350
▁erkenne	350
ursacherprinzip	350
▁Instanzen	350
▁aufgeführten	350
▁Ta	350
▁weitergeführt	350
▁Ca	350
▁Eckpfeiler	350
▁regional	350
▁aufgeteilt	350
▁aufgewendet	350
▁Umweltausschuss	350
betriebe	350
▁fortzuführen	350
▁Lannoye	350
▁zusichern	350
▁Gemeinde	350
punkt	350
▁glaubwürdige	350
▁Beunruhigung	350
▁umwelt	350
▁Amnesty	350
▁Ausländer	349
▁bevorzugt	349
▁Strafrechts	349
▁sinnvollen	349
▁Militarisierung	349
▁ginge	349
▁Reisekosten	349
▁Einmal	349
▁lebenslanges	349
smaßnahme	349
hi	349
▁repräsentieren	349
nez	349
▁Benennung	349
▁zurückzukommen	349
▁Präventiv	348
▁Finanzsektor	348
▁vereinbarte	348
projekt	348
änderungsanträge	348
▁Klar	348
▁unterstellt	348
▁plus	348
▁Gewinner	348
▁gewürdigt	348
▁real	348
alität	348
skultur	348
▁herrschte	348
▁sofortigen	348
▁Ausweisung	348
situationen	348
gr	348
▁harmonisierten	347
▁theoretisch	347
▁Spannung	347
▁Standpunkten	347
▁bestreiten	347
▁verfolgte	347
ron	347
▁Sand	347
▁Justizbehörden	347
▁Prämien	347
▁Hisbollah	347
▁wundern	347
Arabien	347
▁Hauptanliegen	347
▁Ersten	347
▁Pestizide	347
▁Kommentar	347
▁Ausstieg	347
▁Global	347
▁auszu	347
▁Business	347
▁Blokland	347
▁Konkurs	347
▁Langzeit	346
▁Begleitung	346
▁sorgfältige	346
last	346
Wasserversorgung	346
▁Verschwinden	346
▁zusehen	346
▁demografische	346
▁Szenario	346
▁Brücken	346
▁Meinungs	346
lösung	346
▁stabil	346
▁fester	346
▁professionelle	346
▁geopfert	346
▁basierend	346
▁erweckt	346
▁Brand	346
verhandlungen	346
▁verschlechtern	345
▁Kalten	345
▁vereinen	345
▁berühren	345
ari	345
spartner	345
▁interpretiert	345
▁Gunsten	345
▁operative	345
▁Währungs	345
▁Gewissheit	345
▁Versuchen	345
▁Veto	344
kraft	344
▁Protokolle	344
▁Reich	344
▁zwecks	344
▁kehren	344
▁Weltraum	344
▁importiert	344
▁aufzu	344
▁grüne	344
▁Vertagung	344
▁Unklarheiten	344
▁räumen	344
▁Aufbaus	344
▁tiefer	343
▁fundamental	343
konvention	343
▁zutage	343
mann	343
▁günstige	343
▁erarbeiteten	343
▁fiel	343
▁Klauseln	343
werk	343
▁hege	343
▁ausländischer	343
▁Mittelmeers	343
netze	343
Konvention	343
▁Welle	343
halten	343
▁ausweiten	343
ob	343
sproblemen	342
▁restriktive	342
▁natürlicher	342
prozess	342
▁Unterschieden	342
▁veränderter	342
▁Vorwürfe	342
einsparungen	342
▁reichlich	342
▁ordnungs	342
▁verantworten	342
sk	342
bild	342
▁erreichbar	342
▁Verhaftungen	342
sunterschiede	342
▁Elektrizität	342
katastrophe	341
▁kohärent	341
▁daraufhin	341
▁breitere	341
sbefugnis	341
▁Mitteleuropa	341
▁harmonisierte	341
▁hervorhebt	341
▁angeklagt	341
▁Kurzum	341
▁ad	341
▁traf	341
▁unerträglich	341
▁Kaschmir	341
▁verhältnismäßig	341
▁sahen	341
liste	341
▁spezieller	341
▁verfassungs	341
▁Zwang	341
skapazität	341
▁moralisch	340
arbeiten	340
Kopf	340
▁Hautala	340
▁Strafverfahren	340
▁Hintertür	340
▁beimisst	340
▁Alexander	340
▁Wende	340
ez	340
▁Nördliche	340
Paket	340
les	340
▁betriebliche	340
wei	340
▁Wertpapier	340
Mehrsprachigkeit	340
▁Umweltausschuß	340
▁vereinten	340
▁Feira	340
▁umgegangen	340
▁beeindruckt	340
St	340
▁Angriffen	340
▁Asbest	340
▁fortführen	340
▁einführt	340
▁Kernkraftwerken	340
▁Haager	339
▁Vernetzung	339
lungsspielraum	339
ssitzung	339
and	339
▁tunesische	339
▁bewilligt	339
▁Verteidigungs	339
tet	339
mut	339
▁Jordanien	339
▁einberufen	339
▁Tun	339
▁europaweite	339
▁Termine	339
▁ausführte	339
▁Produkts	339
▁Oslo	339
▁durfte	338
austausch	338
▁Moldawien	338
▁praktizieren	338
überprüfung	338
▁Asylbewerbern	338
▁Ni	338
▁Breitband	338
gestaltung	338
▁Graefe	338
▁Theato	338
▁Neuerungen	338
▁herausgegeben	338
▁bezweifle	338
▁schädliche	338
▁Morillon	338
▁geübt	338
▁Reaktoren	338
▁gewollt	338
▁präzisieren	338
▁Reis	338
▁Ära	338
schnittlichen	338
▁Vereinigungen	338
▁Reihen	338
▁Urlaub	338
sbewusstsein	338
▁übersetzt	337
▁gerechter	337
▁vonstatten	337
▁rechtsstaatlich	337
▁Parlamentariern	337
wesen	337
▁verfallen	337
sgeschichte	337
▁stellend	337
mission	337
amerikanische	337
▁stürzen	337
▁ganzer	337
verfahrens	337
▁Berufsleben	337
schancen	337
Re	337
▁werdenden	337
▁äußerte	337
▁König	337
▁Firma	337
▁Berechnungen	337
▁Vergessen	336
▁Glas	336
Jugend	336
▁Komponenten	336
▁inhaltlichen	336
▁nachweisen	336
▁Baringdorf	336
▁gestorben	336
ã	336
▁baldige	336
▁gefassten	336
▁Gewerkschafts	336
▁Brücke	336
▁Maßstäbe	336
▁Konkurrenten	336
▁Leone	336
▁Mafia	336
▁Internets	336
▁Baskenland	336
GA	336
▁Verspätungen	335
ultilateralismus	335
▁brachten	335
▁kommentieren	335
▁Stimmung	335
▁Schwedens	335
▁lagen	335
vo	335
sunsicherheit	335
▁Gold	335
rt	335
▁vergrößert	335
▁Misserfolg	335
▁verständigt	335
▁Human	335
▁los	335
▁Bewerberländern	335
richtlinien	335
▁ausreichender	335
▁totalitären	335
▁Inselregionen	335
▁Kaliningrad	335
vorsitzenden	335
▁Zwangsarbeit	335
Rationalisierung	334
wechsel	334
▁Gottes	334
fi	334
▁brutalen	334
Regeln	334
▁Guatemala	334
trollausschusses	334
▁Mitgesetzgeber	334
▁Broek	334
▁einzureichen	334
▁Eingriffe	334
▁Sterckx	334
▁weitergehende	333
▁Karten	333
gesellschaftlich	333
▁Tochter	333
▁anwendet	333
▁zusammenhängen	333
▁Bus	333
▁Lektion	333
▁Elles	333
▁unsicheren	333
ine	333
sbildung	333
Aus	333
sstand	333
▁Luxemburger	333
▁Kammer	333
▁Versicherungen	333
▁ankommen	333
▁Wirken	332
▁Pen	332
▁Leinen	332
▁treibende	332
▁zugeteilt	332
▁nützlichen	332
sagenda	332
▁Alpen	332
ges	332
▁zitiert	332
▁bearbeitet	332
platz	332
▁Sonderbericht	332
▁Diplomaten	332
▁heiße	332
▁wunderbare	332
▁Entstehen	332
Regionen	331
geb	331
stelle	331
▁auferlegen	331
▁Virus	331
▁einfordern	331
vertrag	331
▁Grundstein	331
▁geraume	331
frei	331
zahlen	331
▁korrekten	331
▁Kenia	331
▁Aushandlung	331
▁Hauptverantwort	331
schlagen	331
personal	331
▁Hilfsmaßnahmen	330
▁naiv	330
▁Liquidität	330
ib	330
▁Kairo	330
▁Entscheidend	330
smöglichkeit	330
▁erstattet	330
▁geringste	330
▁Aznar	330
▁namentliche	330
▁ausdrückliche	330
▁tolerieren	330
▁angeführten	330
▁Hochschul	330
▁reproduktiven	330
▁hinweist	330
sgarantien	330
▁mitzuwirken	330
▁unabdingbare	330
▁Erläuterung	330
▁zurückgewiesen	330
▁Zusammenleben	329
▁Mitgliedsland	329
▁allemal	329
▁Jan	329
▁Wohnsitz	329
▁Letzten	329
Handelshemmnisse	329
▁verdoppelt	329
▁geworfen	329
AIDS	329
▁Unterbrechung	329
weite	329
▁herausgreifen	329
▁überzeugende	329
▁Fünf	329
betrieb	329
▁Skepsis	329
▁Her	329
nt	329
▁Parameter	329
si	329
▁Thailand	329
▁Kreise	329
▁mobilisiert	329
▁riskieren	329
▁betrug	329
haltung	328
▁Piraterie	328
▁geweckt	328
▁maßgebliche	328
▁moderner	328
▁zurückgekehrt	328
lau	328
▁Notfall	328
▁Ferber	328
▁christliche	328
▁billig	328
rahmenrichtlinie	328
▁ansetzen	328
daten	328
▁Überdies	328
▁signalisiert	328
▁Nachdenken	328
▁zer	328
▁gehofft	328
▁Bruch	328
▁reguliert	328
▁hervorgegangen	327
▁auszutauschen	327
▁Europäerinnen	327
▁Ozean	327
▁erneuern	327
▁Juniliste	327
liberalisierung	327
▁dreimal	327
▁einhält	327
van	327
▁marokkanischen	327
▁niedrigsten	327
▁McKenna	327
▁Lampedusa	327
spezifischen	327
▁unterschieden	327
▁fossilen	327
material	326
unwahrscheinlich	326
▁nachfolgenden	326
▁Invasion	326
▁Generell	326
▁unzählige	326
▁vorwiegend	326
methoden	326
▁aufgebracht	326
lü	326
▁Kommunen	326
▁darzustellen	326
▁Urheber	326
▁formelle	326
▁unnötigen	326
▁gefoltert	326
▁identifiziert	326
▁fragte	325
▁unverzügliche	325
▁Abwanderung	325
▁klarere	325
▁Immobilien	325
▁Eigentümer	325
▁rascher	325
▁Fluss	325
▁Rübig	325
▁Sechs	325
▁aufgezwungen	325
▁resultiert	325
▁Kompromissen	325
▁angehoben	325
▁machten	325
▁Weitergabe	325
▁Juristische	325
▁wohnen	325
▁Modulation	325
▁zuverlässig	325
▁Fremdenverkehrs	325
▁angestiegen	324
skonzept	324
▁Dimas	324
übertragung	324
▁reich	324
▁etwaige	324
▁zugefügt	324
▁Tony	324
Rechts	324
▁vollzieht	324
▁gewissenhaft	324
▁weitergegeben	324
▁Zusatzstoffe	324
radioaktiven	323
▁Peter	323
min	323
seite	323
Sozialleistungen	323
og	323
▁stärkerem	323
▁Hin	323
▁gereicht	323
stätigkeiten	323
▁zugesichert	323
▁fachliche	323
▁bes	323
▁fischen	322
▁serbische	322
▁umsetzt	322
▁Unterschrift	322
▁Spar	322
▁kommunistische	322
▁gerichtlichen	322
▁Amtssprachen	322
▁Radio	322
▁fünften	322
▁subventioniert	322
▁ausgeliefert	322
▁slowakischen	322
gut	322
▁Beschäftigte	321
▁Ideal	321
▁schlug	321
▁Verhaltens	321
▁keines	321
▁Erscheinungen	321
fahrzeugen	321
▁Juden	321
▁vortragen	321
▁GATT	321
▁nachgehen	321
▁importieren	321
▁ergreife	321
▁ungewöhnlich	321
pass	321
▁interessierten	321
▁zurückhaltend	321
phase	321
▁Marken	321
▁Orientierungen	321
▁Himmel	321
▁Stillegung	321
▁Kofi	321
▁kostenlos	321
baren	321
▁Klimapolitik	321
spiel	320
▁reinen	320
▁einhergeht	320
pidla	320
▁abweichen	320
▁zeitliche	320
▁Tiergesundheit	320
nis	320
▁reibungslos	320
▁angezeigt	320
srichtlinien	320
▁europaweiten	320
▁Hausaufgaben	320
rie	320
▁PNR	320
▁ordentliche	320
▁verknüpfen	320
▁MwSt	320
▁behoben	320
▁entsandt	319
▁formalen	319
sinteressen	319
▁engagierte	319
▁Haug	319
▁schwerwiegend	319
▁ideologische	319
ör	319
pi	319
▁Transplantation	319
▁reproduktive	319
▁Karibik	319
▁Klassen	319
▁medizinischer	319
▁Klimas	319
▁überlegt	319
uß	318
ika	318
▁sozialpolitisch	318
▁drücken	318
Prestige	318
▁Sehen	318
▁vielfältige	318
▁Netto	318
orientierte	318
▁universellen	318
▁verstecken	318
▁Grundpfeiler	318
▁Fahr	318
▁zusätzliches	318
▁schwierigsten	318
▁womöglich	318
stehen	318
▁Fehl	318
▁Textilien	318
▁Kurzem	318
▁Umweltbelastung	318
▁Mitspracherecht	318
▁Missionen	318
▁einzu	318
▁Pass	317
Staatsangehörige	317
▁Dürre	317
▁Finanztrans	317
▁appelliert	317
▁Mitbürgern	317
▁wünschte	317
szeitrichtlinie	317
▁Begünstigten	317
▁studieren	317
▁Tierhaltung	317
▁Bücher	317
▁strikten	317
▁Vorgehensweisen	317
Komplementarität	317
setzen	317
▁Sogar	317
pan	317
▁Polizisten	317
▁verfassen	317
▁Vorhabens	317
▁unschuldige	317
▁unmittelbarer	316
▁vorläufig	316
▁setze	316
bare	316
▁Unternehmern	316
▁Laufenden	316
▁Krisenbewältig	316
▁Realismus	316
▁Entschädigungen	316
heim	316
ort	316
▁forderten	316
▁Lu	316
▁paradox	316
Gesetz	316
Sicherheitsrat	315
▁Unterzeichner	315
▁Verwaltungsrat	315
▁Angestellten	315
ungssicherheit	315
tierischen	315
Agentur	315
▁aufheben	315
▁seltsam	315
▁dringendsten	315
▁gewöhnt	315
▁Kontrollsystem	315
▁Galicien	315
▁präzisiert	315
▁angerichtet	315
▁innehat	315
fe	315
ria	315
▁kritischer	314
maßnahme	314
▁gebrochen	314
▁veröffentlichte	314
▁einzeln	314
▁erfaßt	314
▁Flugverkehrs	314
preisen	314
▁Besonderheit	314
▁infolgedessen	314
sfaktor	314
▁Jackson	314
▁menschliches	314
tar	314
▁Hinter	314
▁ukrainischen	314
▁tat	314
▁zügige	314
bahn	314
▁anzuregen	314
▁geographische	314
▁knappen	313
▁gelang	313
▁Zeuge	313
▁Forschungen	313
ef	313
▁Treibhausgasen	313
elung	313
nischen	313
▁Persönlich	313
▁entworfen	313
▁Sachlage	313
▁identisch	313
▁gesteigert	313
instrument	313
▁Verbrauchs	313
▁gesonderte	313
gt	313
▁gedeckt	313
▁nachher	313
▁Frühjahrsgipfel	313
▁vorziehen	313
▁einbezieht	313
the	313
▁schwarze	313
Fischereisektors	312
▁skandalös	312
▁Asylverfahren	312
▁gegeneinander	312
▁terroristischer	312
ori	312
▁akzeptable	312
▁derjenige	312
▁Immerhin	312
▁Zeitrahmen	312
▁gerichtliche	312
▁Fachwissen	312
▁übrige	312
▁anzuheben	312
Bürgern	312
▁Inflationsrate	312
▁Erwachsenen	312
▁befördern	312
▁Lieferanten	312
▁Strenge	311
cht	311
▁Geiseln	311
▁Parlamentes	311
▁Agrarbereich	311
▁vorgegeben	311
▁überarbeiteten	311
▁vorübergehenden	311
▁zuzuhören	311
▁Fünften	311
▁formellen	311
▁vermehrt	311
▁Einblick	311
▁Schuldigen	311
▁Kraftfahrzeuge	311
▁Errungenschaft	311
▁ausgenutzt	310
geschwindigkeits	310
▁Besucher	310
angelegenheiten	310
▁überfällig	310
sberichte	310
▁vorangebracht	310
▁verarbeitet	310
▁formale	310
▁wehren	310
▁Respektierung	310
▁Bomben	310
▁Koordinator	310
▁fundierte	310
▁untergeordnet	310
▁Profil	310
▁Schröder	309
ordnung	309
▁billigt	309
▁harmonische	309
▁Duisenberg	309
▁Volumen	309
▁Lateinamerikas	309
▁Absätze	309
▁Flut	309
▁IKT	309
▁entscheidendes	309
▁Mitglieds	309
▁Benutzer	309
▁Endergebnis	309
▁Missstände	309
▁hervorgehen	309
▁späten	309
stein	309
▁w	309
▁effizientes	309
Kriterien	309
▁erschreckend	309
▁verbreitete	309
▁Architektur	309
▁angekommen	309
▁Zersplitterung	308
enfalls	308
▁Finanzpolitik	308
▁unterminieren	308
▁bescheidenen	308
▁gleichzeitiger	308
▁involviert	308
▁fern	308
▁Ludford	308
▁liberalisiert	308
Währungsgebiet	308
ina	308
▁Schifffahrt	308
▁Steuerzahlern	308
▁heran	308
▁eingeschränkter	308
fälle	308
ruf	308
che	308
reise	308
▁Benutzung	308
▁Hindernissen	308
▁übertragenen	308
▁Techniken	308
▁Erlaß	308
▁anzukurbeln	308
▁Karl	308
▁militärisch	307
▁leeren	307
▁Daul	307
trollausschuss	307
bereichen	307
▁künstliche	307
▁interpretieren	307
▁Krediten	307
▁geschätzte	307
▁bemerkenswert	307
rechten	307
▁weitgehende	307
▁blieben	307
▁Fluggastdaten	307
▁schockiert	307
▁Straffreiheit	307
▁nachweislich	307
▁Berater	307
schaften	307
▁Lesen	306
▁Rebellen	306
ial	306
▁Salafranca	306
▁angelegte	306
▁Machen	306
▁innen	306
▁beschreibt	306
▁Lamfalussy	306
▁Klassifizierung	306
▁allgemeines	306
▁rumänische	306
ă	306
▁Familienleben	306
▁Rechtssysteme	306
▁Dioxin	306
▁georgische	306
diskriminierende	306
▁Rechtshilfe	306
sform	306
cher	306
smarkt	306
▁Beharrlichkeit	306
▁Überprüfungen	306
▁bedient	306
▁Territoriums	305
▁versichere	305
▁Zehntausende	305
▁Task	305
▁Ro	305
▁Dessen	305
▁Streitbeilegung	305
welt	305
▁Isolierung	305
alen	305
▁reiche	305
▁Seen	305
▁inakzeptable	305
managements	305
▁ungehindert	305
▁Wallis	305
▁untragbar	305
▁Ostens	305
▁woran	305
▁Reisenden	305
▁fraglichen	305
▁Fairness	305
▁Stil	305
▁tiefgreifende	305
▁früherer	305
▁Einheiten	305
▁absichtlich	305
▁euro	305
▁arbeitenden	305
▁erschien	305
▁zusammenkommen	304
▁beruhende	304
▁herkömmlichen	304
ud	304
▁Infolgedessen	304
▁Nunmehr	304
▁Klaus	304
▁Immigration	304
mitten	304
▁abbauen	304
▁umgewandelt	304
▁Infektion	304
▁Reifen	304
▁Fahrt	304
▁Berechtigung	304
▁befürchtet	304
▁psychischen	304
▁Zonen	304
▁zuerkannt	304
Zusammenarbeit	304
Es	304
▁Zumindest	304
▁bestätigte	304
▁Fälschung	304
▁Fusion	304
▁sensibel	304
▁Zellen	304
▁auszuhandeln	303
▁Pa	303
▁Betrugs	303
▁Hilfestellung	303
santrägen	303
▁Obergrenzen	303
▁bemerkte	303
smission	303
tritt	303
▁Honig	303
š	303
▁Konfliktverhüt	303
▁Radikalen	303
▁Weisheit	303
minister	303
▁Va	303
▁Präsentation	303
▁ausgerichteten	303
▁sowieso	303
▁langfristiger	303
▁Arme	303
belastung	303
▁andauernden	303
▁Siebten	302
▁Abgrenzung	302
▁attraktiver	302
▁anhören	302
▁SOLVIT	302
▁Koordinatoren	302
▁Zustandekommen	302
▁Gipfeltreffens	302
▁Gil	302
▁Vier	302
leben	302
▁Berichtsentwurf	302
ana	302
▁erregend	302
wahl	302
▁schätzt	302
Charta	302
▁Verfassungen	302
▁Demnach	302
▁abdeckt	302
▁se	302
▁Liberale	302
erklärung	301
jo	301
▁lege	301
▁Urteils	301
▁Stresstests	301
uch	301
sam	301
▁bescheiden	301
▁unternehmerisch	301
▁unsinnig	301
▁vorgeben	301
▁landen	301
ve	301
▁Kodifizierung	301
▁Ruhezeiten	301
▁Versäumnisse	301
ard	301
gas	301
rechtskommission	301
▁dergleichen	301
▁Anwesenden	301
fa	301
▁Sympathie	301
Aufsichtsbehörde	300
Mail	300
▁Garant	300
▁Sonst	300
▁Nassauer	300
▁Westjordanland	300
beschäftigung	300
▁Südkaukasus	300
amt	300
Klimaveränderung	300
▁Positiv	300
▁englische	300
von	300
zusammenarbeitet	300
▁Anteils	300
Menschenrecht	300
▁Rechtsschutz	300
zusammenzufassen	300
▁bevorzugen	300
▁japanischen	300
▁weitergeleitet	300
geben	300
▁Ri	300
▁übliche	300
ide	300
ziehen	300
▁Service	300
▁schwarzen	299
▁Ka	299
▁Gebhardt	299
▁Auszahlung	299
▁Sender	299
▁Immigranten	299
sgesellschaften	299
▁auszurichten	299
▁dicht	299
pläne	299
▁vertretbar	299
▁kontrollierten	299
zugegebenermaßen	299
▁Abweichungen	299
du	299
▁restriktiven	299
▁indigene	299
▁Rompuy	299
▁Mitchell	298
modell	298
▁jemandem	298
▁ablaufen	298
▁linken	298
▁Grönland	298
ah	298
tik	298
▁gesund	298
▁Züge	298
▁beklagt	298
kor	298
▁effizienteren	298
▁gefestigt	298
▁älter	298
▁ausgeräumt	298
▁Ermutigung	298
▁tragisch	298
▁INTERREG	298
▁verwässert	298
sicht	298
▁Reformvertrag	297
▁Sturm	297
▁Kette	297
Alba	297
▁beherrschen	297
▁etablieren	297
▁Jahrhunderten	297
▁künstlich	297
▁volles	297
▁Mißtrauen	297
▁UNHCR	297
▁fangen	297
▁rechtmäßigen	297
Ausschuss	297
▁begründete	297
▁beleben	297
▁ausgebildet	297
▁gemischten	297
▁Georgiens	297
▁Abchasien	297
▁Rollen	297
▁ideal	297
▁Getränke	296
▁Lobby	296
iger	296
▁Hoffen	296
▁treffend	296
▁spezielles	296
schreiben	296
▁binden	296
▁austauschen	296
▁durchführbar	296
▁Lkw	296
▁vierzig	296
▁Rhetorik	296
▁pragmatische	296
▁Zitat	296
▁Eisenbahnen	296
▁bezeichnend	296
▁Schwarzarbeit	296
▁vorzeitig	296
▁gekostet	296
unberücksichtigt	296
▁Sätze	296
▁Kommunistischen	295
▁hochwertiger	295
▁wieso	295
▁Logistik	295
haus	295
▁Durchschnitts	295
▁Pirker	295
ng	295
▁Benzin	295
▁Wendepunkt	295
▁ausnutzen	295
▁abgewickelt	295
▁höchstmögliche	295
▁zeitweilig	295
▁EuGH	295
▁reichende	295
▁letztere	295
▁Verzehr	295
übereinkommen	295
▁Konstruktion	295
▁Schwarzen	295
▁Napolitano	295
▁Hans	295
▁Zustrom	295
▁Nachbar	295
▁Zustände	295
▁vorgegebenen	294
▁anzustellen	294
▁Vorurteile	294
▁Verbote	294
▁Freisetzung	294
▁aufgeklärt	294
▁aufzuhalten	294
▁Finanzkontrolle	294
▁European	294
▁Erkenntnissen	294
▁lebende	294
▁aufgeschlossen	294
▁Nationale	294
▁ehrgeiziger	294
▁Unruhe	294
▁Vorschub	294
▁Präferenz	294
▁angeben	294
▁Auftragswesen	294
▁erlaube	294
▁anzuhören	294
▁Unternehmertum	294
kapazität	294
▁Party	294
stehenden	294
▁Verzerrungen	293
▁Millennium	293
▁gerechnet	293
pr	293
hundertprozentig	293
▁Philippinen	293
Unternehmen	293
sprojekt	293
mitglieder	293
pornographie	293
▁verurteile	293
▁vermute	293
▁Einfrieren	293
▁Besitzstandes	293
▁Europe	293
▁Geschäfts	293
▁unbestritten	293
▁Glaubens	293
▁Räume	293
▁willkürliche	293
▁vorgeworfen	293
▁Elektronik	293
▁schwerlich	293
▁verbringen	293
▁eklatante	293
▁äußere	293
▁gleichbedeutend	293
▁genauere	293
spersönlichkeit	293
▁Vergewaltigung	293
▁verantwortliche	293
▁Ortega	293
Herr	293
Parlamentarische	293
▁irgendetwas	292
▁Do	292
▁Helms	292
▁Schranken	292
▁Vergemeinschaft	292
▁verschlimmern	292
weiten	292
sverhalten	292
▁fliehen	292
▁aufpassen	292
▁Festung	292
▁maßgeblichen	292
▁Erstattung	292
▁wussten	292
▁bestärkt	292
▁jugoslawische	292
▁Fördermittel	292
▁wirkungsvoll	292
nde	292
▁Datenbanken	292
▁Schweizer	292
▁weiterführen	292
▁vernichten	292
▁beruhenden	291
▁ausge	291
kel	291
▁Schwere	291
▁Weißrussland	291
▁allesamt	291
fach	291
einkommen	291
▁schnellere	291
▁pflichte	291
▁Armutsgrenze	291
▁Hilfsmittel	291
▁Besuchs	291
gehalt	291
▁ordentlichen	291
▁Laufbahn	291
▁Wurzel	291
▁Kanäle	291
▁ermuntern	291
bei	291
▁Anwalt	291
▁weitergeben	291
▁gekoppelt	291
▁begangenen	291
▁gesondert	291
sinstrumenten	291
▁schuld	291
▁Beweislast	291
▁ausnahmslos	290
▁Letzt	290
▁betraut	290
▁Collins	290
sverzerrung	290
▁erfährt	290
▁greifbare	290
▁Geheimnis	290
▁EWU	290
▁Einwand	290
erei	290
▁Kaufkraft	290
▁konstruktiver	290
▁Mikro	290
klausel	290
▁vorderste	290
▁Meerespolitik	290
▁kluge	290
▁Tierversuche	290
▁räumt	290
▁Eile	290
▁entwicklungs	290
▁aktivere	290
▁Schrecken	290
▁Auslaufen	290
▁privat	290
systemen	290
▁Illusionen	290
▁Eintritt	290
▁lese	289
sgründen	289
▁berühmte	289
ê	289
▁rückgängig	289
▁Frühjahrstagung	289
eu	289
▁Tunnel	289
▁gehörten	289
▁annähernd	289
▁Schlimmste	289
▁bestmöglich	289
▁vollständiger	289
▁wirklicher	289
ht	289
▁ständiger	289
▁leer	289
dem	289
▁unzulänglich	289
▁Lebensweise	288
▁Rahmenabkommen	288
eil	288
▁Reichweite	288
kommission	288
▁Erforderlich	288
▁Beleidigung	288
▁fossile	288
▁willens	288
▁fliegen	288
▁MdEP	288
▁Almunia	288
wo	288
▁Unterricht	288
▁Maghreb	288
▁Bienen	288
▁Karriere	288
▁Verursacher	288
▁Rechtsakten	288
▁städtische	288
▁nationalistisch	288
sgefühl	288
▁Per	288
▁Politische	288
▁Marketing	288
▁Nahrungskette	287
▁offenes	287
▁signifikante	287
▁toleriert	287
▁Italiener	287
Erwerbstätigkeit	287
▁Herausbildung	287
▁kommunizieren	287
▁Glückwünschen	287
▁angewandten	287
▁Innen	287
▁Fläche	287
▁gegenübersteht	287
Schirmherrschaft	287
▁extremer	287
▁Gewiss	287
▁längeren	287
▁südlich	287
zahlungen	287
▁aktualisieren	287
▁wechseln	287
▁unbegründet	287
▁Zusammenkunft	287
▁verspätet	287
sterreichs	287
▁Redefreiheit	287
▁Energieeinspar	287
▁Offen	287
▁Unsicherheiten	286
▁Weine	286
kapital	286
▁Beispielen	286
▁opfern	286
▁überraschen	286
▁Bürgernähe	286
▁quer	286
führung	286
▁Milchquoten	286
▁einladen	286
▁Aggression	286
▁Pensions	286
zone	286
▁Clinton	286
▁Todesopfer	286
sverschuldung	286
?"	286
abgeordnete	286
▁Gewerkschaft	286
▁intelligenten	286
▁viertens	286
ali	286
▁erschöpft	286
▁Meldungen	286
tel	286
▁meistens	285
▁vergleichbaren	285
▁unterlaufen	285
▁radioaktiver	285
stlichen	285
▁Buitenweg	285
▁Wirtschaftslage	285
▁justitielle	285
▁aufzustocken	285
ssicherung	285
▁anbetrifft	285
zer	285
▁teilnimmt	285
▁substanzielle	285
▁Eurodac	285
▁Kreisen	285
▁gestört	285
▁Tierfutter	285
verbot	285
▁drastischen	285
▁Konzeption	285
▁vermerkt	285
üh	285
▁islamische	285
▁Lachs	285
▁lindern	285
▁kämpft	285
▁zurückgeht	285
sprache	285
▁diversen	284
▁argumentiert	284
▁Kämpfe	284
▁Eintreten	284
▁unterhält	284
▁Strahlung	284
▁unverzichtbare	284
▁aufwerfen	284
Information	284
▁Privilegien	284
märkten	284
sbeamten	284
europäische	284
▁libanesische	284
▁Effekte	284
▁Indikator	284
▁unhaltbar	284
▁LKW	284
▁Lügen	284
reich	284
▁ehrenwerte	284
▁Dorf	284
▁schlimmste	284
▁Jahrtausend	283
po	283
▁Savary	283
▁Bier	283
▁vierzehn	283
▁dringlich	283
▁Romano	283
transfer	283
▁unterbrochene	283
▁Eigenkapital	283
▁Sicherheiten	283
▁Garantiefonds	283
▁Zensur	283
▁arm	283
▁Lastkraftwagen	283
▁wieviel	283
▁lautete	283
har	283
▁Erfindung	283
ntipersonenminen	283
tin	283
▁Reeder	283
▁eingefügt	283
▁Vetorecht	283
▁ex	283
▁voraussetzt	282
halt	282
▁Howitt	282
▁undenkbar	282
▁anbringen	282
▁setzte	282
▁justizielle	282
▁beträchtlicher	282
ingegen	282
▁bündeln	282
▁ausstatten	282
▁Diktatoren	282
▁Anforderung	282
▁vorgenommenen	282
▁Lieferung	282
▁Zuschauer	282
▁Abzug	282
wiederherstellen	282
ku	282
bu	282
ack	282
▁unterwegs	282
▁Buchstaben	282
istisch	282
▁lebenswichtig	281
schlag	281
▁dulden	281
▁sinkende	281
Destabilisierung	281
▁permanent	281
▁einstimmige	281
▁Angebots	281
▁internationalem	281
ò	281
▁befunden	281
▁Umweltstandards	281
▁Sämtliche	281
▁Alternativ	281
▁Whitehead	281
▁Raketen	281
menge	281
port	281
▁Tarif	281
▁Zeitplans	281
▁Lamassoure	281
rate	281
▁beigefügt	281
▁gravierend	281
ff	281
fuhrerstattungen	280
▁arabische	280
▁beunruhigende	280
▁abträglich	280
▁Valencia	280
▁Spanier	280
▁verschwendet	280
eln	280
▁großzügige	280
▁Staatspräsident	280
▁Einstufung	280
▁Mund	280
▁Kriminelle	280
▁Zwischenbericht	280
▁vorzuziehen	280
▁weitergeht	280
▁Niederschlag	280
▁Brittan	280
▁Kernkraftwerk	280
▁Orte	280
pez	279
unternehmer	279
ank	279
▁definierten	279
▁autonomen	279
▁Krisenzeiten	279
▁qualitative	279
▁ausgebeutet	279
x	279
▁Paul	279
▁Niedergang	279
▁weiblichen	279
▁Gradin	279
normen	279
▁langwierigen	279
▁aufgestellten	279
▁gesetzgeberisch	279
▁Sach	279
▁Sagen	279
▁selbständig	279
stoffe	279
▁untermauert	279
▁slowenische	279
bewusst	279
▁Schichten	278
▁potentiellen	278
▁Zentrums	278
▁Martens	278
Steuerwettbewerb	278
▁Mittelzuweisung	278
▁Weißbuchs	278
▁eingehenden	278
▁ausdehnen	278
▁Einwanderungs	278
▁ausgerechnet	278
▁juristisch	278
▁Haftbefehls	278
krieg	278
▁erstmalig	278
▁Katalog	278
▁entschlossenen	278
▁vermissen	278
▁Umfangs	278
▁Motivation	278
bedarf	278
▁entsprechendes	278
▁gleichsam	278
▁benachteiligte	278
▁Prozessen	278
handlungsmandat	278
▁körperliche	278
▁demographischen	278
Partnerschaft	278
Herkunftsländern	278
▁vereinfachte	278
hl	278
▁entführt	278
off	277
▁Frassoni	277
▁Härte	277
age	277
▁Selbstzweck	277
▁verbreiteten	277
Unternehmergeist	277
▁exzellente	277
▁regelrechte	277
▁Enthusiasmus	277
▁l	277
teil	277
▁erzählen	277
▁schwersten	277
▁Untätigkeit	277
▁Hauptgrund	277
▁beschloss	277
Afrika	277
▁beschaffen	277
▁Regierungs	277
▁diskutierte	277
▁schwerwiegender	277
▁sendet	277
uästoren	277
▁Wegfall	277
geschäft	277
kategorien	277
▁aufrichtigen	276
▁bloßen	276
▁Wetter	276
▁angeschnitten	276
▁Hut	276
sstelle	276
▁Haarder	276
▁verfahrens	276
sgipfel	276
▁verfaßt	276
▁Sachverständige	276
pro	276
▁täuschen	276
▁Leidenschaft	276
▁aussetzen	276
▁Malaysia	276
▁innerge	276
▁verkörpert	276
▁Überalterung	276
▁Mainstreaming	276
▁just	276
▁zusammenhängt	276
Stimmen	276
▁entwerfen	276
Progressiven	276
▁Beistand	276
▁verkünden	276
▁scharf	275
▁grobe	275
▁Deckmantel	275
▁Dementsprechend	275
▁angeprangert	275
Mitgliedstaat	275
▁etc	275
▁verankern	275
▁DAPHNE	275
▁Rad	275
▁bedeutendes	275
▁Br	275
richtung	275
▁erwogen	275
svereinbarungen	275
Berufsausbildung	275
▁Momentan	275
▁Reife	275
▁Gemischte	275
▁Mischung	275
▁Offenbar	275
▁vertretene	275
▁IT	275
lasten	275
sverhältnissen	275
▁unerwünschte	275
▁Zuallererst	275
reisen	275
▁holen	275
▁Jahrhunderte	275
öl	275
▁gegenübersehen	275
ros	275
▁links	275
tum	275
▁mittelfristigen	275
▁Südosteuropa	275
▁primär	275
▁Ar	275
fördernde	275
▁veranschlagt	275
▁britischer	274
▁Doyle	274
Gesetzgebung	274
▁gestehen	274
▁Einzige	274
▁eigenständige	274
▁zivil	274
▁Airbus	274
▁befragt	274
▁versorgt	274
▁Frauenrechte	274
▁Jungen	274
▁beschriebenen	274
▁Entschiedenheit	274
▁Industriezweig	274
▁resultieren	274
▁typisch	274
▁basierende	274
▁heftig	274
▁getestet	274
▁Wohnung	274
▁abgibt	274
▁wahrlich	274
▁Energiemarkt	273
gegen	273
▁Exposition	273
Flüchtlingslager	273
▁Flüchtling	273
▁elementare	273
ator	273
▁Ehren	273
▁schutzbedürftig	273
beteiligung	273
▁Samstag	273
ante	273
verbänden	273
machen	273
▁indischen	273
▁Bindungen	273
Rechtsinstrument	273
▁Aufbauwerks	273
▁effektives	273
▁luxemburgische	273
▁Trakatellis	273
▁ausgewirkt	273
▁Wohn	273
amp	273
▁Urheberrecht	273
sleitlinien	273
▁Reflexion	273
▁Spenden	272
▁Minsk	272
▁Positives	272
wer	272
▁ausschöpfen	272
▁missbrauchen	272
▁Überraschung	272
Klausel	272
▁vorübergehende	272
▁Übung	272
▁ernsthafter	272
▁Dayton	272
▁Pharma	272
Ziel	272
▁Daneben	272
interkulturellen	272
▁Besitzstands	272
▁fließt	272
▁herein	272
▁eingereichte	272
▁liest	272
▁Terroranschläge	272
▁bestehe	272
▁Merkmal	272
▁schenkt	272
▁Embargos	272
▁Ausrüstungen	271
Wiederverwendung	271
▁Satzung	271
▁aufbaut	271
▁Turkmenistan	271
▁Schock	271
▁alternde	271
▁Verankerung	271
▁Gender	271
▁bat	271
▁Neuerung	271
▁Hochachtung	271
▁Vorkommnisse	271
▁Diskrepanz	271
ani	271
▁bergen	271
▁motiviert	271
▁Fälschungen	270
▁präzisen	270
▁persönliches	270
▁Pat	270
sverbot	270
Transatlantische	270
szeitraums	270
einkommens	270
▁Festlegungen	270
▁ESF	270
▁Eben	270
▁Teufelskreis	270
▁Alibi	270
▁nähern	270
arbeiter	270
▁Wahlbeteiligung	270
▁Bildungssystem	270
▁Emotionen	270
▁Luxus	270
entscheidungen	270
▁ausgerichtete	270
▁grausame	270
Verfassung	270
▁stören	270
▁Vollmitglied	270
▁birmanische	270
▁funktionsfähig	270
▁baldmöglichst	270
▁Anschlägen	270
▁geweigert	270
smodells	270
▁Oft	270
▁Staatsstreich	270
▁Gast	270
▁Kommunalwahlen	269
▁Wiederaufbaus	269
▁Asylrecht	269
▁Investitions	269
▁Rehabilitation	269
▁Methodik	269
haltsvorentwurf	269
▁knüpfen	269
▁Erwägungsgrund	269
▁breites	269
jährige	269
▁herunter	269
▁unfair	269
▁bedeutete	269
Kraft	269
▁radioaktive	269
▁Fluggästen	269
▁sichtbare	269
▁Übersicht	269
▁faires	269
▁Gewerbe	269
▁zugegeben	268
▁heben	268
beschränkungen	268
▁stimmten	268
anteil	268
▁akzeptablen	268
▁werten	268
bel	268
▁optimalen	268
▁Große	268
aktionen	268
▁Rechtsmittel	268
▁befriedigen	268
▁einher	268
▁kombinierten	268
Führungsposition	268
▁Pilotprojekte	268
▁vorkommt	268
▁Wohlbefinden	268
▁Freigabe	268
▁Fachleuten	268
▁Kandidatur	267
▁Minderjährige	267
▁Ste	267
▁ECR	267
▁Eritrea	267
▁Sharon	267
▁einschlägige	267
▁organisatorisch	267
▁füllen	267
▁töten	267
Gleichgültigkeit	267
▁ungeeignet	267
▁Transnistrien	267
▁Arbeitsrecht	267
▁eigenem	267
▁Wohnungen	267
ts	267
▁auslaufen	267
▁Aufgabenbereich	267
▁EUROPOL	267
▁Hatzidakis	267
▁realistischer	267
▁PVC	267
▁Peru	267
▁Lizenzen	267
▁Mosambik	267
▁Frei	267
▁Afrikanische	267
▁Bildungswesen	267
▁IMO	267
▁hüten	267
itt	267
▁Lehr	267
▁Dührkop	267
▁Teilzeit	266
▁treibt	266
▁Niederländer	266
▁Präambel	266
▁Kommunisten	266
Verbrauchsteuern	266
▁Gedenken	266
▁absehbarer	266
▁Marktordnung	266
erstatterinnen	266
▁desselben	266
▁geopolitischen	266
albzeitbewertung	266
▁Geldgeber	266
▁stillgelegt	266
▁Überschuss	266
▁fundamentale	266
▁Weges	266
Land	266
▁gelobt	266
▁operieren	266
eid	266
behandlung	266
▁Privatsektor	266
▁nahmen	266
▁wichtigere	266
▁Katalysator	266
▁drin	266
▁gemeinsamem	266
▁George	266
tes	266
▁Mörder	266
▁Heutzutage	266
▁unsichere	266
▁freundlichen	265
▁Nichtständige	265
▁unabhängiges	265
▁Monitoring	265
▁völliger	265
debatte	265
▁Zehn	265
▁geglaubt	265
▁al	265
sbereitschaft	265
▁Anna	265
!"	265
▁sicheres	265
vereinbarungen	265
▁klarmachen	265
▁hartnäckig	265
▁umgeht	265
▁bewerkstelligen	265
▁Ernsthaftigkeit	265
▁Klimaänderungen	265
▁Zuversicht	265
USA	265
▁angelegten	265
▁vorzuschreiben	265
▁Verkaufs	265
▁verlässliche	265
sgericht	265
▁schockierend	265
▁Kraftfahrer	265
▁Schroedter	265
▁Intensität	265
▁handlungsfähig	265
▁Genuß	264
Auf	264
▁häusliche	264
▁Buchführung	264
▁Mu	264
▁Lancker	264
▁Sollen	264
▁fortzufahren	264
▁strittige	264
▁unterlassen	264
verband	264
▁Alarm	264
▁Subvention	264
raten	264
▁bewaffnete	264
▁vorstellbar	264
▁Entwürfe	264
zentren	264
▁wage	264
▁Zuflucht	264
▁aufzutreten	264
▁schnellstens	264
▁Prüf	264
▁Stahlindustrie	264
▁Hauptaufgabe	264
▁Nutzfahrzeuge	264
▁Monnet	264
▁Hughes	264
▁Waldbränden	263
▁Ideale	263
Kopplung	263
▁namens	263
ap	263
wahrscheinlich	263
▁Mögliche	263
▁eindeutiges	263
▁präventive	263
▁wörtlich	263
cto	263
Naturkatastrophe	263
friedenstellende	263
▁el	263
▁folgender	263
ant	263
▁Heim	263
▁Trauer	263
▁Kulturerbe	263
▁Entführung	263
bevölkerung	263
▁WEU	263
▁Lauf	263
▁Gebilde	263
▁automatische	263
▁verwunderlich	263
pon	263
▁Soziales	263
▁auszuschöpfen	263
▁Bibliotheken	263
vez	263
▁Drogensucht	263
gekommen	263
▁Bas	263
▁qualitativen	262
▁Force	262
szustand	262
▁Bergregionen	262
▁legitimiert	262
sgemeinschaften	262
▁Tobin	262
▁einschätzen	262
▁Arbeitsmarkts	262
▁Neuansiedlung	262
▁würdig	262
▁anhängig	262
▁Wohnungsbau	262
planung	262
▁angebaut	262
Flexibilisierung	262
▁Tribüne	262
▁infrage	262
gleichen	262
kol	262
sbetriebe	262
legung	262
fla	262
▁hinauslaufen	262
▁Sparmaßnahmen	262
▁Irrtum	262
▁beschädigt	262
▁Anleger	262
▁Konsenses	261
▁abgegebenen	261
▁nannte	261
▁volks	261
▁anfangs	261
▁vollendet	261
sbewegungen	261
▁Handwerk	261
vorschlägen	261
streit	261
▁Dutzende	261
▁anzu	261
schau	261
▁Abteilung	261
▁weitreichenden	261
▁Ben	261
mar	261
▁psychische	261
▁Wahlmöglichkeit	261
▁ungestraft	261
▁mittelfristige	261
▁ausreichendem	261
▁versuche	261
▁dienlich	261
▁präziser	261
▁fehl	261
Resolutionen	260
Weggen	260
▁einzumischen	260
▁gesonderten	260
▁absoluter	260
▁nützliches	260
▁anspruchsvollen	260
tischen	260
▁transnationalen	260
▁Schwächsten	260
▁zurückweisen	260
▁vornimmt	260
▁Uneinigkeit	260
▁neuerliche	260
▁Slowakische	260
Streifen	260
▁beschneiden	260
▁Kaffee	260
bt	260
nehmen	260
Friedensabkommen	260
▁Mo	260
▁Crowley	260
kommt	260
Konfliktparteien	260
▁Festhalten	260
pflicht	260
transeuropäische	260
übergreifend	259
▁abgesichert	259
▁zunutze	259
▁strafrechtlich	259
▁Ma	259
Eisenbahnverkehr	259
ty	259
▁geschweige	259
▁morgige	259
▁geäußerte	259
▁ausgefallen	259
fremdenfeindlich	259
▁verwundert	259
▁elementaren	259
▁folgendermaßen	259
ckt	259
▁vorerst	259
sehen	259
▁Betreibern	259
▁physische	259
▁gelebt	259
▁verbirgt	259
▁Seele	259
▁hervorragender	259
▁ungenügend	259
▁Anwälte	259
▁slowakische	259
▁günstiger	259
führer	259
▁Nachbarland	258
▁fährt	258
▁unbe	258
▁erschienen	258
▁dokumentiert	258
▁Austauschs	258
Burton	258
leistung	258
▁befand	258
▁Alt	258
▁Beobachtern	258
▁Pressekonferenz	258
▁Frauenhandel	258
mäßig	258
▁Genitalverstümm	258
ans	258
äre	258
▁Waffenhandel	258
SA	258
▁respektiere	258
▁Po	258
str	258
▁gravierender	258
▁Lizenz	258
▁zueinander	258
▁Stagnation	258
gemacht	258
▁ausgegrenzt	258
▁Erstaunen	258
▁Breyer	258
▁Zwänge	258
▁Relevanz	258
Bereich	258
▁exzellenten	258
▁argumentieren	258
▁veranstaltet	257
▁zusteht	257
▁Gra	257
ck	257
▁Ne	257
▁Panik	257
▁fruchtbare	257
staatlichkeit	257
▁Arbeitsleben	257
▁belohnt	257
▁Defizits	257
▁behält	257
▁konsequenten	257
tri	257
▁Sahara	257
▁liberalisieren	257
▁blind	257
▁Transports	257
▁Kriegen	257
ice	257
▁vorbereitenden	257
▁Gebühr	257
reichen	257
▁automatischen	257
rez	257
niveau	257
▁geprägten	257
▁Impfstoffe	257
▁Kompromisspaket	257
▁Legalisierung	257
▁erhobenen	257
▁Haushaltspläne	257
▁bindend	257
▁bürokratisch	257
▁mittragen	256
▁Laos	256
▁auszugehen	256
lieferungen	256
▁Fortbestand	256
▁beschnitten	256
▁Krankenhäuser	256
züge	256
▁geringfügige	256
▁Steuereinnahmen	256
▁bereitstellt	256
folge	256
▁UNESCO	256
herstellung	256
▁überzugehen	256
▁vorrangiges	256
▁Cunha	256
▁geheimen	256
sgrundsatz	256
▁Nahrungs	256
▁zurecht	256
▁unterminiert	256
▁Ratschläge	256
▁Forst	256
sjährigen	256
▁Mini	256
prostitution	256
▁Einberufung	255
▁klassische	255
wein	255
▁acquis	255
ian	255
▁Institutionelle	255
▁festgestellten	255
▁abgestimmte	255
▁Kompliment	255
▁Festland	255
▁kombiniert	255
▁verkürzt	255
▁Tabakanbau	255
▁katastrophal	255
betreiber	255
▁befristete	255
▁Steuersätze	255
▁gaben	255
strecken	255
od	255
▁brutal	255
▁Lagern	255
▁Antisemitismus	255
gesetze	255
▁elektronischer	255
▁abgeschlossenen	255
slandprinzip	255
▁Edinburgh	255
▁begründeten	255
sperspektive	255
tro	255
▁Habsburg	255
▁Seuchen	255
▁Volksvertreter	255
▁Maij	254
▁beruhigt	254
▁Adam	254
▁Zusicherungen	254
▁hinzukommen	254
quellen	254
▁Lenkung	254
▁Hinrichtung	254
▁Grosset	254
▁Gleich	254
▁anspruchsvolle	254
sdefizite	254
unterstützung	254
▁begünstigten	254
ya	254
▁gültige	254
verbrauch	254
▁länder	254
nchez	254
▁Sachkenntnis	254
qui	254
▁treu	254
▁on	254
jahr	254
weltfreundlichen	254
▁Bestimmte	254
▁aufwirft	254
▁ausschließt	254
▁unzufrieden	254
▁ägyptischen	254
▁FAO	254
▁peinlich	254
▁unsicher	254
sgesetz	254
▁Schwellenwerte	254
▁Izquierdo	254
▁aufzwingen	254
▁kategorisch	254
politisch	253
▁Sofortmaßnahmen	253
La	253
▁Küstenfischerei	253
▁Dutzend	253
▁Untergang	253
schl	253
▁Vieles	253
prüfung	253
▁reichsten	253
▁Guten	253
▁enormes	253
Haushaltsdefizit	253
▁Disziplinar	253
Agrarerzeugnisse	253
▁Kontinenten	253
tre	253
▁Bundes	253
▁Tschechien	253
▁Amts	253
▁Redebeiträgen	253
▁Rußlands	253
▁Gesichtspunkte	253
zuziehen	253
ø	253
▁Erinnern	253
▁Geben	253
▁Liese	253
▁symbolische	253
▁auftretenden	253
leg	253
▁Ausnutzung	253
▁Munition	253
▁Geschehen	253
▁Trichet	253
sverhältnis	253
▁GO	253
▁geeignetes	253
▁ergänzenden	253
reden	252
skompetenz	252
sverlagerungen	252
▁Verkürzung	252
▁Phänomens	252
▁föderalen	252
▁hierüber	252
▁mitgearbeitet	252
▁EAD	252
▁Kallas	252
▁häufigsten	252
szwecken	252
▁Väter	252
las	252
▁erwähne	252
▁weite	252
nutzung	252
▁herbeigeführt	252
▁Vorbedingung	252
▁Aktivisten	252
▁passen	252
▁Tenor	252
mat	252
▁hervorragendes	252
▁irgendjemand	252
▁Solbes	252
▁quantitative	252
tschaftsreformen	252
▁Willkür	252
hinterziehung	251
▁Ha	251
schutzniveau	251
▁Hu	251
▁Wahlbeobachter	251
▁bereichern	251
▁erfolgreiches	251
fer	251
▁Uganda	251
▁Schärfste	251
▁Ungewissheit	251
▁Busquin	251
▁Konten	251
▁Drogenhandels	251
▁Rindern	251
▁GALILEO	251
ju	251
▁ungeheure	251
▁EFRE	251
initiativen	251
▁freigegeben	251
▁ungeheuer	251
▁übereinstimme	251
Organe	251
vertretern	251
▁stünde	251
▁Co	251
itu	251
▁Bruttosozial	251
anten	251
▁Tajani	251
▁Mißachtung	251
▁Weber	251
▁gelehrt	251
▁Landminen	251
▁meinte	251
▁fortsetzt	251
pl	251
▁pragmatischen	251
▁bezeichnete	251
dokument	251
▁Meldung	251
▁ESVP	251
▁bearbeiten	251
app	251
▁spürbare	250
▁Überfischung	250
▁Ausrottung	250
▁Kernstück	250
▁Spezial	250
▁Duff	250
▁versuchte	250
anbieter	250
▁gesamt	250
spakt	250
▁Flynn	250
▁zuwiderlaufen	250
▁krank	250
▁Stufen	250
▁Volksgruppen	250
▁pflanzliche	250
▁Superstaat	250
ş	250
▁örtliche	250
▁Mächte	250
▁sechsten	250
▁verständlicher	250
sorganen	250
tektionistische	250
▁reibungslosen	250
rö	250
▁Verkehrsnetze	250
▁Geheimhaltung	250
oni	250
▁Risikos	250
▁Eurobonds	250
▁wusste	250
▁Südsudan	250
▁pragmatisch	250
▁Totalitarismus	250
▁Vogelgrippe	250
▁Paktes	250
▁entnommen	250
▁Übersetzungen	249
lpreise	249
▁Anreizen	249
Treffen	249
▁versäumen	249
▁Türken	249
▁beiderseitige	249
▁beabsichtige	249
▁Motoren	249
▁Zollbehörden	249
▁Biogas	249
▁Schaf	249
▁einzuschlagen	249
▁Halb	249
▁Verhältnisses	249
▁zweifeln	249
▁Infolge	249
▁Steueroasen	249
▁Importen	249
▁benötigte	249
▁sachlich	249
▁hinzuarbeiten	249
▁TRIPS	249
ungssysteme	249
kauf	249
▁Kürzlich	249
▁entzieht	249
steilnehmer	249
▁beantrage	249
▁Ankurbelung	249
▁Steuergeldern	248
▁Inkrafttretens	248
tische	248
▁Hierarchie	248
▁Einstellungen	248
▁Mark	248
▁vorhersehbar	248
▁Lambert	248
vorhaben	248
▁Steuersysteme	248
▁Typ	248
wort	248
▁umsonst	248
ras	248
▁auftauchen	248
▁dünn	248
▁Teilnehmern	248
Richtlinien	248
▁zufügen	248
srisiko	248
▁Wild	248
▁einzulegen	248
▁auszuräumen	248
ord	248
▁abgereicherte	248
nicht	248
▁vereinfachten	248
▁alkoholische	248
▁neuartige	248
▁seither	248
▁protestiert	248
▁Bundesregierung	248
Ab	247
▁Dörfer	247
▁agiert	247
▁abgeschwächt	247
▁konventionellen	247
▁damalige	247
führen	247
▁Schmerz	247
squoten	247
▁Simpson	247
▁Fusionen	247
▁Manuel	247
nik	247
gemeinschaften	247
▁Goebbels	247
▁nirgendwo	247
▁Südeuropa	247
▁entstand	247
aktion	247
zent	247
▁Partnerländer	247
▁nachlassen	247
▁Territorien	247
snetze	247
▁mitgetragen	247
NTE	247
▁ausfällt	247
▁alarmierend	247
▁Bagdad	247
▁personellen	247
Standardisierung	247
▁Wärme	247
▁Absprache	247
son	247
▁Weißrußland	246
▁Missbrauchs	246
▁schief	246
bringen	246
▁Standorte	246
Ausschusses	246
▁Sicherheitsrats	246
scht	246
▁rasant	246
▁Maaten	246
▁Entlassung	246
▁Raucher	246
▁aufzuerlegen	246
▁Landsleute	246
diensten	246
▁Überwachungs	246
▁Boot	246
▁Rückgrat	246
▁Manipulation	246
Rechnungsführung	246
▁Eigenverantwort	246
▁dran	246
institut	246
▁MEDIA	246
▁Steuergelder	246
▁LEADER	246
▁Will	245
▁einhellig	245
▁Schweigeminute	245
▁logistische	245
▁Vorjahr	245
▁kommunalen	245
uartetts	245
▁pun	245
innerstaatlichen	245
▁Dissidenten	245
▁Exil	245
▁offensichtliche	245
▁allererst	245
▁gestürzt	245
▁anhalten	245
▁VI	245
sbeschränkungen	245
handels	245
▁Entlohnung	245
▁furchtbaren	245
▁geeint	245
Hochschulbildung	245
▁Schlüsse	245
quoten	245
fen	245
▁Etwa	245
ity	245
Industrieländern	245
▁Banknoten	245
▁misst	245
▁Teheran	245
oren	245
Verfahrensweisen	245
▁unfairen	244
▁Großzügigkeit	244
▁dreht	244
▁isolieren	244
▁stillschweigend	244
▁Rückhalt	244
▁Seppänen	244
▁Thun	244
▁operationelle	244
▁vertagen	244
▁verspricht	244
▁geheim	244
▁Warnungen	244
▁Allgemein	244
▁stattfanden	244
chi	244
▁Zentralisierung	244
Mindesteinkommen	244
▁fundamentalen	244
ausgaben	244
▁Realwirtschaft	244
▁hinzunehmen	244
▁weiterzuführen	244
▁gerechtere	244
shilfen	244
▁anbietet	244
▁Leitfaden	244
unternehmerische	244
▁lasse	244
▁Französisch	244
▁Besuche	244
▁Wasserstoff	244
▁unterzeichnete	244
▁vorschreibt	243
▁Herkunfts	243
▁flexiblere	243
▁Ernte	243
▁interessanter	243
▁sinkt	243
firmen	243
▁gegenseitiger	243
▁differenzierte	243
zonen	243
▁Fava	243
aufsichtsbehörde	243
▁hingerichtet	243
▁Bekräftigung	243
▁inne	243
fin	243
▁hervorgebracht	243
▁deutscher	243
svorteil	243
▁Akten	243
▁rechenschaft	243
▁vollenden	243
stext	243
▁Konfliktlösung	243
▁Übergangsphase	243
▁Langfristig	243
verträge	243
▁Dupuis	243
▁Fatuzzo	243
uantität	243
▁Mittelbindungen	243
▁durchsetzt	243
▁befindliche	242
▁Mon	242
▁auszuführen	242
▁Autoren	242
swachstum	242
▁Menschenhändler	242
▁Abschnitte	242
▁Sjöstedt	242
▁spezifisch	242
▁Richtern	242
▁Kongreß	242
▁übt	242
▁weiterverfolgen	242
▁Folgemaßnahmen	242
▁teure	242
▁Wahlfreiheit	242
zeug	242
▁führend	242
▁supranationalen	242
▁Cha	242
▁Visionen	242
▁Pöttering	242
tätigkeiten	242
▁Fünftel	242
gleichbehandlung	242
▁Halbinsel	242
▁hörte	242
▁Con	242
▁kolumbianische	242
▁einge	242
▁Privatpersonen	242
▁Überschüsse	242
▁einheimische	242
▁Anteilnahme	242
▁distanzieren	242
▁folgte	242
▁urteilen	242
Übergangsfristen	241
saspekte	241
▁friedens	241
▁greifende	241
▁anfällig	241
▁Plenums	241
▁Aktionäre	241
▁gleichfalls	241
▁Wurtz	241
va	241
▁Vorbeitritt	241
▁Morgan	241
▁ablegen	241
ï	241
▁erschließen	241
tz	241
▁Erfolgs	241
▁Grundversorgung	241
Zu	241
▁Times	241
▁unrechtmäßig	241
▁Deponien	241
sprojekten	241
▁genauestens	241
▁Partnerländern	241
▁Sportler	241
▁geschädigt	241
▁Pilotprojekt	241
▁Cent	241
▁Druckmittel	241
▁Fremdsprachen	241
calan	241
▁deuten	241
▁Übergangsregel	241
▁wirkliches	241
▁inakzeptablen	241
▁erzählt	241
ok	241
▁zugegen	240
▁Bay	240
▁sauberer	240
ker	240
▁beschleunigte	240
kosystem	240
▁Chef	240
▁ratsam	240
▁Deutsch	240
▁Behandlungen	240
▁zurückliegenden	240
▁Nicholson	240
▁Fenster	240
gemeinschaftlich	240
äl	240
▁traurigen	240
▁Weltordnung	240
▁Baumwolle	240
▁Energiequelle	240
▁lenkt	240
▁Juristen	240
Beitrittsprozess	240
▁unterschreiben	240
▁Keiner	240
▁physischen	239
▁richte	239
▁falsches	239
▁souveräne	239
▁repressiven	239
▁Diamantopoulou	239
▁Atlantiks	239
one	239
▁abhängigen	239
▁Giscard	239
▁einzuschätzen	239
▁durchlebt	239
▁komplexes	239
▁vernünftiges	239
▁Belder	239
▁Ansprechpartner	239
▁redet	239
▁geschuldet	239
tur	239
▁Muss	239
▁Fänge	239
▁ernennen	239
▁Buzek	239
▁neutral	239
▁Betriebsräte	239
bewertung	239
▁vorgeht	239
▁untermauern	239
▁Bildungsbereich	239
▁Mode	239
▁Fokus	239
▁Verzug	239
▁Verhältnissen	239
▁ENP	239
▁Verpackungen	239
▁Weniger	239
sein	238
▁Stärken	238
▁Sellafield	238
Le	238
▁Jugoslawiens	238
▁ausgetauscht	238
▁Gaddafi	238
▁dezentralisiert	238
▁eingestehen	238
▁Schwellenländer	238
▁Zurück	238
▁Urteilen	238
▁Eurobarometer	238
▁umstrittenen	238
▁Maßgabe	238
▁verwandelt	238
▁Vermögens	238
▁Laden	238
▁besagen	238
▁Arroganz	238
▁Kritiker	238
▁Jo	238
▁Sichtbarkeit	238
freundschaftlich	238
▁Wäldern	238
kl	238
▁Nettozahler	238
▁Alterung	238
▁Tomlinson	238
▁dauerhafter	238
▁Grundzügen	238
▁wohlwollend	237
▁Aktualität	237
eck	237
sgesetzgebung	237
▁Güterverkehrs	237
▁Mannschaft	237
ungsweise	237
▁Vertretungen	237
▁Kriminellen	237
▁Etappen	237
▁gereichen	237
▁Mängeln	237
▁Journalist	237
verkauf	237
Familienbetriebe	237
▁Agrarhaushalt	237
▁Liter	237
▁anlaufen	237
▁äußeren	237
▁Umso	237
▁Taktik	237
▁Verunreinigung	237
▁Lern	237
▁verkürzen	237
▁Abweichung	237
▁Intelligenz	237
▁starkem	237
▁Mutterschaft	237
Interimsabkommen	237
▁ungenutzt	237
▁ILO	237
ließ	237
Ma	237
▁Grenzschutz	237
▁französischer	237
▁unentbehrlich	237
▁Instituts	237
▁Gewissens	237
▁Me	237
▁thematischen	237
▁begnügen	237
▁Fernsehsender	237
▁Verweise	236
▁Mittelstand	236
▁untätig	236
▁hinausläuft	236
cy	236
▁hervorbringen	236
▁vorzubringen	236
▁Beamter	236
szentrum	236
▁Verbänden	236
▁währungs	236
▁gleichwertige	236
▁aufgelöst	236
▁Siebte	236
▁seriöse	236
▁Zusammenwirken	236
▁bestärken	236
▁Trends	236
▁fruchtbaren	236
▁Aufwertung	236
Abgeordneten	236
▁Barbarei	236
▁abfinden	236
beauftragter	236
▁Minderung	236
▁obersten	236
▁Möglichstes	236
▁Ehrlichkeit	236
▁MAP	236
▁gewährte	236
▁individuell	236
▁Papiere	236
▁Senat	236
▁verbraucht	236
▁diejenige	235
▁Super	235
▁formulierte	235
biotechnologisch	235
ären	235
▁Reparatur	235
▁berechnet	235
▁entgehen	235
æ	235
kra	235
▁Rechtsausschuß	235
konflikt	235
effizienz	235
▁Erwachsene	235
Behörden	235
▁erzwingen	235
▁tragfähige	235
Treten	235
llen	235
▁bot	235
Drogenbekämpfung	235
hor	235
▁Etwas	235
▁Orden	235
▁infiziert	235
wirkung	235
▁herausfinden	235
▁rechtzeitige	235
▁Filme	235
▁eingeschätzt	235
▁Burg	235
▁taten	235
▁schwächeren	235
▁Notwendig	235
▁verschleiern	235
▁gefälscht	234
sverlust	234
Wettbewerbsrecht	234
CO	234
Patentierbarkeit	234
▁Zyprioten	234
sverpflichtungen	234
▁Senegal	234
▁transportieren	234
▁aufzuklären	234
▁basierenden	234
▁Flexicurity	234
▁Straftäter	234
▁erwartete	234
staatlicher	234
▁restriktiv	234
▁Rechtsnormen	234
▁Herkunftsländer	234
▁Pkw	234
spflichtig	234
Auswahlverfahren	234
strägern	234
uropäischen	234
▁Sozialagenda	234
▁Kabotage	234
haushalt	234
▁einfaches	234
▁aufgefallen	233
▁verpflichtend	233
▁baut	233
feindliche	233
▁verwechseln	233
▁bringe	233
▁Masse	233
▁Teilzeitarbeit	233
▁Restriktionen	233
▁kennzeichnen	233
dauer	233
▁zivilisierten	233
▁relevante	233
Konflikt	233
▁Substitution	233
▁Rechtsstaats	233
▁Kommen	233
▁kroatischen	233
▁Kontrollsysteme	233
▁veranstalten	233
einnahmen	233
▁buchstäblich	233
▁Denkweise	233
▁übersteigt	233
Vorsorgeprinzips	233
▁türkisch	233
▁ausgezeichneter	233
Personenverkehrs	233
sgremien	233
ativ	233
▁Eurocontrol	232
▁Zweckmäßigkeit	232
▁Freistellung	232
▁Adoptionen	232
▁befanden	232
▁Ruhestand	232
▁Ho	232
▁wirksameren	232
▁seltenen	232
▁Farce	232
▁niedergelegt	232
▁integrierter	232
▁Linderung	232
▁verständliche	232
▁Fraga	232
▁Schutze	232
▁Genua	232
nach	232
▁Rekord	232
Organisation	232
▁zahlreich	232
▁Haltungen	232
sdestoweniger	232
vers	232
Vertrages	232
▁Reichen	232
▁Verpackung	232
Fischerei	232
Wirtschaftszweig	232
▁konsolidiert	232
▁Marco	232
kraftwagen	232
▁Arbeitswelt	232
Krieg	232
▁zuwider	232
▁Südossetien	232
Wiedereinführung	232
▁strukturierten	232
▁mangelhafte	232
▁ländlicher	232
▁Arbeitskosten	232
▁Mehrheiten	232
▁Londoner	232
▁Richard	232
▁minder	232
▁stellende	232
▁genetischen	232
etz	232
▁anstehende	232
▁Kl	232
▁Generika	231
▁Staatschefs	231
umweltfreundlich	231
▁Experiment	231
▁versteckt	231
sfinanzierung	231
▁Verzerrung	231
▁engem	231
▁Tannock	231
▁Rechtslage	231
▁Erschließung	231
hielt	231
▁Jensen	231
▁Tonne	231
▁verwechselt	231
▁Produktionen	231
igung	231
▁Fortgang	231
▁enttäuschen	231
▁Schlichtung	231
▁wissensbasierte	231
▁Thyssen	231
▁Überschreitung	231
▁Verband	231
▁Provokation	231
Verkehr	231
▁dumm	231
▁starben	231
▁handhaben	231
▁gerüstet	231
▁Kollektiv	231
▁schüren	231
▁verbrauchen	231
▁geänderte	231
skrise	231
tage	231
if	231
▁amerikanischer	231
▁weibliche	231
▁Belästigung	231
▁Unionsbürgern	231
weltverträgliche	231
▁Brennstoffen	231
▁Peijs	230
Verbraucherinnen	230
fisch	230
▁unermüdlich	230
▁tödlichen	230
▁hervorruft	230
▁alledem	230
▁nichtständigen	230
▁Milchsektor	230
▁Rechnungen	230
▁zähle	230
▁zugelassenen	230
▁Stichwort	230
▁bescheidene	230
▁Taschen	230
Projekte	230
▁Mittag	230
▁ausgehandelten	230
verpflichtung	230
konzentration	230
rück	230
▁Umweltzeichen	230
▁unterdrücken	230
▁Ottawa	230
▁Vieh	230
▁mißbraucht	230
▁Ungarns	230
lieb	230
▁Fehlentwicklung	230
▁zögerlich	230
▁angekündigte	230
▁Zeitpläne	230
sunternehmen	230
▁dynamischsten	230
▁zuverlässigen	230
dig	230
▁strikter	230
verträglichkeit	230
ba	229
▁versuchten	229
▁not	229
▁Bewunderung	229
▁unbegreiflich	229
▁Eifer	229
▁Probe	229
▁Afghanistans	229
▁aufgreift	229
pat	229
▁Badegewässer	229
▁inwie	229
▁Schlagzeilen	229
▁Staes	229
▁Vorstand	229
sport	229
Selbstverwaltung	229
▁Galeote	229
▁Lucas	229
Minister	229
Sonder	229
maß	229
▁Kritikpunkte	229
fest	229
bewusste	229
▁Istanbul	229
▁Einheitlichkeit	229
▁willkürlichen	229
▁beruflicher	229
▁vergeblich	228
▁Pakts	228
▁Vertragsentwurf	228
▁spätere	228
▁Verteidiger	228
alter	228
▁Michael	228
▁Mentalität	228
▁Brenner	228
lauf	228
mmerzialisierung	228
▁Deutsche	228
▁heikel	228
▁Madagaskar	228
▁Messung	228
▁Bonn	228
Verkehrsminister	228
zahlung	228
▁Führern	228
‚	228
▁leitet	228
io	228
▁Staatsgebiet	228
aff	228
▁Soja	228
▁URBAN	228
rad	228
▁Banden	228
▁Bezeichnungen	228
▁Teams	228
▁ermöglichte	228
▁unvollständig	228
▁ausnahmsweise	228
▁Einflussnahme	227
▁Hänsch	227
▁entgangen	227
▁wiederfinden	227
▁Ratings	227
▁Unionsebene	227
▁zeichnen	227
▁mangelhaft	227
freiheit	227
▁Urheberrechts	227
▁Fakt	227
formen	227
▁richtiger	227
▁Verbund	227
▁Rote	227
▁Pazifik	227
entgegengebracht	227
▁Energiepreise	227
▁Busse	227
net	227
▁Gegend	227
▁Weinbau	227
▁Ministerrats	227
▁Provinzen	227
▁vorgibt	227
▁jüngeren	227
▁Bandbreite	227
Umwelt	227
▁gewohnt	227
▁entwickelnden	227
▁eingefroren	227
polizei	227
▁technisches	227
ös	227
schulen	227
▁intensivere	227
▁Varela	227
▁Festnahme	227
▁finanzierte	227
▁Telekom	227
▁herrschende	227
▁Spielen	227
ita	227
opfer	226
▁Schmuggel	226
▁nachkommt	226
▁Daphne	226
▁Autobahnen	226
▁schätz	226
▁Einschätzungen	226
▁Andr	226
▁rassistische	226
▁potentielle	226
slager	226
▁Staatsanwalt	226
▁angemeldet	226
Estaing	226
sorgniserregende	226
▁anzuwendende	226
▁gelaufen	226
▁Privatleben	226
uartett	226
▁afghanische	226
▁künstlichen	226
▁zeugen	226
▁Absprachen	226
▁wachsender	226
oli	226
runter	226
▁weltweiter	226
▁Timor	226
▁gebrachte	226
Energiestrategie	226
▁Sturz	226
▁anzumerken	226
▁Gollnisch	226
sätzen	226
▁Attraktivität	226
▁abzudecken	226
▁gelagert	225
Industrie	225
stimmen	225
▁grausamen	225
▁Chichester	225
▁Albaner	225
▁angrenzenden	225
Affäre	225
▁Arbeitsmethoden	225
▁Leit	225
▁Ambition	225
▁immensen	225
▁Zwischenfall	225
▁Jahresabschluss	225
sterreicher	225
▁fundierten	225
▁gleichgestellt	225
▁signalisieren	225
▁Frustration	225
ey	225
▁Billig	225
▁Sechsten	225
ure	225
Mittelmeerländer	225
▁Betrugsfälle	225
▁Euros	225
▁Schriftsteller	225
▁ehrlichen	225
▁initiiert	225
▁Entgelt	224
Á	224
▁Böden	224
▁Niveaus	224
srahmens	224
▁verwies	224
▁fügt	224
▁Piebalgs	224
▁Fertigstellung	224
▁lauter	224
sdaten	224
▁gezielten	224
▁Objektivität	224
▁sensibler	224
▁Schwarze	224
▁mildern	224
▁Entfaltung	224
▁Eingreiftruppe	224
▁verheerend	224
▁einzufordern	224
▁Belang	224
gel	224
▁Uruguay	224
▁("	224
post	224
▁Vergessenheit	224
▁beliebigen	224
▁zurückgelegt	224
▁vertrat	224
▁Chemie	224
▁Geschlossenheit	224
quote	224
ive	224
▁erörterten	224
▁Nutznießer	224
▁Markov	224
▁Wasserqualität	224
▁Nahe	223
bank	223
▁Ergebnisses	223
gehenden	223
▁Fischereiflotte	223
sorgan	223
▁Textilsektor	223
▁Katiforis	223
▁gegenteilige	223
▁Lebensstandards	223
rechtsrat	223
▁Mittelamerika	223
▁Drohung	223
▁Justizminister	223
▁Moslems	223
▁ziehe	223
izi	223
▁Körperschaften	223
▁umzuwandeln	223
▁erdenklichen	223
▁diktiert	223
▁Finanzinstitute	223
planungszeitraum	223
▁Indiens	223
▁vorzutragen	223
▁Tadschikistan	223
▁bedeutendsten	223
srat	223
zentrum	223
▁Schweinefleisch	223
▁effektiveren	223
schiff	223
▁Ehepartner	223
▁Dankbarkeit	223
geht	223
gestellt	223
ett	223
Erklärung	223
▁Verkehrssysteme	223
▁glaubhaft	222
▁Seminar	222
▁Finanzsystems	222
▁Synergie	222
▁Speicherung	222
▁destabilisieren	222
namen	222
▁MKS	222
▁Schmidt	222
spielen	222
▁Wählerschaft	222
Abstimmungsliste	222
▁mehrjährige	222
▁Einstieg	222
▁Zahlungsbilanz	222
▁Richtig	222
▁Gerüchte	222
▁nachgeben	222
▁vermisse	222
▁bestens	222
▁Räumen	222
▁veraltet	222
com	222
kations	222
▁Gegensätze	222
▁herausgenommen	222
Privatwirtschaft	222
▁optimieren	222
▁erneuert	222
▁Absage	222
▁Verhandlungs	222
sziel	222
▁überwältigender	222
widersprüchliche	222
▁abspielt	222
▁aufzubringen	222
▁herangehen	222
▁Nachsicht	222
▁abermals	222
▁Vakuum	222
▁Patentierung	222
▁Auskünfte	221
▁schlimme	221
auch	221
▁Lockerung	221
▁albanische	221
▁anschließenden	221
spartei	221
▁potentiell	221
▁Sicherheitslage	221
▁Lord	221
▁Normalisierung	221
▁unmenschlichen	221
▁beitritt	221
KMU	221
fahrt	221
▁Ozon	221
anbau	221
▁nebenbei	221
▁monatlich	221
freien	221
▁einreisen	221
▁Caudron	221
▁gebrauchen	221
▁weckt	221
Daten	221
spräferenz	221
▁modernisiert	221
▁Voll	221
szeiten	221
▁Felder	221
▁Wählerinnen	221
▁vergleichende	221
▁Vers	221
▁Forums	221
uf	221
▁Teppich	221
▁Potenzials	221
▁Häufig	221
▁schwächt	221
▁Genauigkeit	221
▁Dritter	220
▁kontrollierte	220
▁verfehlt	220
innenschifffahrt	220
▁etabliert	220
▁Expertengruppe	220
▁France	220
ächt	220
flug	220
Vertragsänderung	220
Zusammenschlüsse	220
▁nennenswerte	220
▁muslimischen	220
▁autoritären	220
▁Verurteilungen	220
▁Umfelds	220
▁spiegeln	220
tu	220
▁McCarthy	220
▁Kabinett	220
▁Forschern	220
effekt	220
▁beginne	220
▁LEONARDO	220
Regionalisierung	220
▁Renault	220
▁adäquate	220
▁Machthaber	220
▁beleuchtet	220
▁Schafe	220
händler	220
▁übersteigen	220
▁Exekutiv	220
▁rechtmäßige	220
▁ideale	220
▁mindern	220
▁Erträge	220
▁Fachkräfte	220
low	220
▁aufgeschoben	220
▁Freihandels	220
▁Schwellenwert	220
▁dringen	220
▁Frequenzen	220
▁Fabriken	220
▁dürfe	220
▁gutheißen	220
▁langsamer	220
text	220
▁einmütig	219
Raums	219
▁scheuen	219
gegangen	219
▁Gerichtsbarkeit	219
Wärme	219
▁schieben	219
▁vollständiges	219
▁Widerstände	219
konomie	219
verhältnisse	219
▁geschildert	219
▁wahrnimmt	219
Vor	219
▁Geschenk	219
▁Kirgisistan	219
▁heuchlerisch	219
▁angefordert	219
▁Sieger	219
▁München	219
▁entdecken	219
▁erhoffen	219
▁erholen	219
▁Überschrift	219
▁andern	219
▁Einsätze	219
Versandverfahren	219
▁Beabsichtigt	219
▁errungen	219
denken	219
▁erfunden	219
▁Lektionen	219
Finanzierung	219
▁Offenlegung	218
veranstaltungen	218
by	218
▁Gefüge	218
▁revidieren	218
▁Za	218
▁Abfassung	218
▁innovativ	218
▁Weltkriegs	218
▁Ankunft	218
▁beeindruckend	218
▁Gleichermaßen	218
▁vertraglichen	218
sinn	218
▁Ähnliches	218
kapazitäten	218
▁begannen	218
▁Szenarien	218
▁Geheimdienste	218
▁leichtfertig	218
▁Abu	218
▁stattfindende	218
sgespräche	218
▁abgestimmten	218
▁festhält	218
▁härter	218
▁schmerzhaft	218
▁Kurzstreckensee	218
▁wiegende	218
importe	218
▁Sacconi	218
▁Anderenfalls	218
Scheinheiligkeit	218
▁Thomas	218
▁umgangen	218
▁indessen	218
▁Perry	218
not	218
▁seltene	218
▁Griechen	218
▁touristische	218
▁betrafen	218
uk	218
▁Abbas	218
ero	218
▁wohingegen	218
▁Südostasien	217
sgebiet	217
▁Phänomene	217
▁anschließt	217
▁demographische	217
▁Behebung	217
▁libysche	217
▁besuchte	217
▁werben	217
▁Mitbürgerinnen	217
▁südafrikanische	217
hy	217
▁verschwenden	217
sy	217
▁Einzug	217
▁abläuft	217
▁münden	217
treffen	217
▁Minimal	217
▁praktikabel	217
▁Alavanos	217
arm	217
▁interregionale	217
▁Rückstände	217
del	217
▁heftige	217
▁Höchstmaß	217
▁neoliberale	217
rin	217
▁Ertrag	217
sfaktoren	217
erkrankungen	216
▁Zuwachs	216
▁beispiellose	216
▁assoziierten	216
entscheidung	216
▁alljährlich	216
▁existierende	216
▁Original	216
rig	216
▁Therapie	216
geist	216
▁gewalttätigen	216
▁lehrt	216
fü	216
▁Käufer	216
ott	216
▁verschrieben	216
▁Amtsblatt	216
ock	216
▁geschützten	216
▁Regieren	216
")	216
▁Machenschaften	216
▁beratenden	216
▁Finanzierungen	216
▁Leon	216
strom	216
▁Stromerzeugung	216
▁Bindung	216
▁Zaire	216
tagung	216
▁angepackt	216
Rahmen	216
test	216
▁abzeichnet	216
sdokument	216
▁heikles	216
▁bestenfalls	215
▁harter	215
▁beanspruchen	215
▁Kfz	215
▁ausgezeichnetes	215
▁Brennstoff	215
▁hieße	215
▁Einsparung	215
▁einzuwenden	215
▁Nutzern	215
▁Hauptstädten	215
▁irgendeinen	215
▁beschweren	215
sbezeichnungen	215
ov	215
▁spielte	215
▁Kritiken	215
posten	215
pharmazeutischen	215
▁ereignen	215
kar	215
lle	215
▁einbinden	215
zukommen	215
▁Balkanländer	215
▁Geldmittel	215
▁Unversehrtheit	215
▁Maes	215
verpflichtungen	215
rau	215
▁einzuholen	215
ki	215
verantwortlich	215
▁Kraftwerke	215
tourismus	215
▁ausstehenden	215
▁Frauentag	214
▁British	214
▁brasilianische	214
▁Köpfen	214
iere	214
▁kulturell	214
ER	214
▁Kämpfer	214
▁revidiert	214
▁Economic	214
Kriegsverbrecher	214
▁Medaille	214
hö	214
▁Kabul	214
▁kreative	214
sz	214
▁fragwürdig	214
▁absolutes	214
▁Spieler	214
geräte	214
Hilfe	214
▁Gallagher	214
▁Verschiedene	214
▁Ironie	214
▁ITER	214
lang	214
▁Kar	214
▁Befürwortung	214
ga	214
▁Eurogruppe	214
▁überwiegende	214
ät	214
tive	214
sperspektiven	214
lt	214
▁Geschick	213
▁widerstehen	213
▁Schuman	213
▁Ämter	213
▁Geisel	213
▁verzerren	213
▁Thors	213
▁Vergangene	213
▁Massenmedien	213
▁freigesetzt	213
▁Einkünfte	213
▁sorgfältigen	213
▁Stiftungen	213
▁benachteiligen	213
▁Zahlungsverzug	213
▁verständlichen	213
▁rechte	213
hafte	213
▁War	213
▁Sparsamkeit	213
▁Neuen	213
▁del	213
rahmen	213
▁post	213
IN	213
▁Islamische	213
▁umfangreich	213
▁Ga	213
▁gestrige	213
▁Schadens	213
▁garantierten	213
▁anzugeben	213
strategien	213
▁Explosion	213
▁schwächer	213
▁Anweisungen	213
▁Homophobie	213
▁irreführende	213
▁Hebel	213
▁verfügbare	213
meinschaftlichen	213
nehmer	212
▁Zypernfrage	212
▁Legislative	212
▁Bezugspunkt	212
▁Fünfte	212
kunftsorientiert	212
▁markiert	212
▁zerschlagen	212
▁hegt	212
▁Verbündete	212
Bestimmungen	212
▁manipuliert	212
▁ICAO	212
▁einzigartigen	212
▁sektoralen	212
▁Aufträgen	212
ßt	212
▁Letztes	212
▁andauernde	212
▁neuem	212
▁beharren	212
▁manches	212
lag	212
▁Fl	212
▁Linkohr	212
▁Spekulanten	212
stück	212
▁Außenministers	212
▁thematisiert	212
▁integraler	212
spräferenzen	212
▁entgegengesetzt	212
▁einvernehmlich	212
▁unvorstellbar	212
ls	212
▁Lagendijk	212
▁irreführend	212
▁Epidemie	212
▁Verkehrswesen	212
▁Erfolgen	212
▁Zwischenfälle	211
▁Bertens	211
▁überarbeitete	211
▁zielgerichtete	211
▁verpasst	211
rechtsklausel	211
ströme	211
▁Rezept	211
▁Widerstands	211
▁Endeffekt	211
▁logischerweise	211
▁handele	211
verbindung	211
▁Notlage	211
▁beharrlich	211
▁unver	211
▁Boykott	211
▁Liberalismus	211
ssektors	211
▁mutiger	211
▁Oberhand	211
▁fehlte	211
▁Gläubiger	211
▁Reg	211
▁Auftrieb	211
▁wagt	211
▁eineinhalb	211
anpassung	211
▁Mitleidenschaft	211
▁einschränkt	211
▁erworbenen	211
▁unglaubliche	210
▁zweckdienlich	210
▁beleuchten	210
sucht	210
▁Vorrednerin	210
▁hierauf	210
verarbeitung	210
▁eigenständigen	210
▁euch	210
▁Fingerabdrücke	210
▁Reisende	210
▁fortwährend	210
▁herauskommen	210
förder	210
▁klingen	210
▁Föderalismus	210
▁Rubriken	210
▁allseits	210
▁Eiweiß	210
▁psychologische	210
▁Duty	210
▁Honduras	210
▁Importeure	210
▁Riesen	210
▁objektiver	210
▁Zutaten	210
einanderzusetzen	210
Hoher	210
Internalisierung	210
▁Köpfe	210
▁durchweg	210
wand	210
beträge	210
▁Früher	210
▁Kohl	210
▁kostspielig	210
▁ausgebildete	210
▁nachteilige	210
▁Aufenthalts	210
Wasserressourcen	210
spe	210
▁Mangels	210
freie	210
verschwendung	210
▁Feinde	210
▁Vierten	210
▁Kompensation	210
▁Hunderten	210
▁gespeichert	210
export	210
▁Fürsorge	210
▁beeinflußt	210
rit	210
▁bleibe	209
▁Ferne	209
ys	209
Überschneidungen	209
BIP	209
▁lokal	209
▁verwendete	209
▁Benchmarking	209
China	209
einfuhren	209
▁Tri	209
▁ansässigen	209
▁Schmid	209
▁Muslime	209
▁Administration	209
▁aggressive	209
▁tierische	209
▁hinzuwirken	209
▁Impfung	209
Subventionierung	209
▁bedingten	209
▁zulässige	209
▁Legalität	209
▁konsequenter	209
are	209
▁rückläufig	209
▁Umschulung	209
▁bezweifeln	209
▁vorüber	209
▁legislativer	209
▁unangenehme	209
entschließung	209
▁Nachteilen	209
▁technologischer	209
▁Fischen	209
lassen	209
▁Zana	209
entwurf	209
▁CITES	209
▁Konzessionen	209
▁dominiert	209
pri	209
▁Passagen	209
▁Budapest	209
spotential	209
▁überzogen	208
ausbildung	208
uartal	208
▁Maria	208
▁Liefer	208
▁Wolf	208
▁Papst	208
▁Westens	208
grundlage	208
▁Markts	208
▁überdacht	208
waren	208
Gebiete	208
▁tatkräftig	208
lin	208
▁Vorentwurf	208
▁Flandern	208
▁Mobilfunk	208
▁praktikable	208
Ratsvorsitzender	208
▁Endlich	208
▁prekären	208
▁Bildungssysteme	208
▁ACTA	208
▁Verein	208
▁Erster	208
▁Sozialschutzes	208
▁Verantwortliche	208
▁schottische	208
▁verehrter	208
▁Finnlands	208
▁entschied	208
je	208
▁gewerkschaft	208
▁angehalten	208
▁biologischer	208
▁Briefe	208
Energie	208
Mails	208
ń	208
▁gefälschten	208
intervention	208
rechnung	207
▁intelligenter	207
pflanzen	207
Wie	207
▁jahrzehntelang	207
▁Pandemie	207
▁Opel	207
▁befragen	207
▁Chi	207
▁Cappato	207
gar	207
▁passive	207
spapier	207
▁fälschlich	207
▁Umweltagentur	207
▁Endverbraucher	207
▁Sommerpause	207
▁erwirtschaftet	207
▁Energieträgern	207
▁Bu	207
▁Müttern	207
▁Holocaust	207
▁best	207
▁Dokumentation	207
▁stabiler	207
▁koreanischen	207
▁durchdacht	207
▁Gouverneur	207
▁aufgelistet	207
ary	207
▁Abschreckung	207
▁Ball	207
▁multilateraler	207
▁teils	207
sausschüsse	206
▁verarbeitenden	206
cu	206
▁geheime	206
▁Straflosigkeit	206
▁absehbar	206
▁halbes	206
▁Mauern	206
▁Turmes	206
▁Datenschutzes	206
▁strafbar	206
▁Brot	206
▁vorherrschenden	206
▁Belangen	206
▁Batterien	206
▁präventiven	206
▁Umgangs	206
▁kostenlose	206
▁Schwankungen	206
▁Dankeschön	206
▁erzeugten	206
ualitätsstandard	206
▁langfristiges	206
▁insoweit	206
gebracht	206
▁zuhört	206
isierte	206
▁traditioneller	206
pen	206
▁sowjetischen	206
▁Ribeiro	206
▁entstandene	206
Sicherheit	206
▁bestürzt	206
▁verschleiert	206
▁zurückzugreifen	206
▁Einflusses	206
par	206
▁Dienstleister	206
▁zugeschnitten	206
▁gesunder	206
▁analog	206
▁Herzstück	206
▁vorgreifen	206
▁kon	206
▁ewig	206
▁aufzuzwingen	206
▁zweifache	206
▁Symbole	206
ham	206
▁Rentnerpartei	206
▁Rückzahlung	206
▁Übergangsfrist	206
▁Unfalls	205
▁Lynne	205
EM	205
bewegungen	205
zo	205
tier	205
▁konkretere	205
▁wirkungslos	205
▁James	205
▁durchbrechen	205
▁detaillierter	205
▁dürftig	205
▁Nochmals	205
▁vernehmen	205
▁verschmutzt	205
▁erhebliches	205
▁Colom	205
▁einholen	205
▁Finanzsystem	205
▁Gefängnisse	205
▁Figueiredo	205
▁Manöver	205
▁Vollmachten	205
▁bereitwillig	205
▁konsolidierten	205
saustauschs	205
tat	205
▁Wüstenbildung	205
▁abgelegenen	205
Partner	205
▁Lieferungen	205
▁nachdrückliche	205
▁entfällt	205
▁flankierende	205
▁Autobahn	205
▁Schl	205
▁Sprung	205
▁Pipeline	205
▁Riegel	205
▁Reichtums	205
umweltpolitische	205
▁Handelssystem	205
▁tiefste	205
▁Spuren	204
▁interner	204
▁Mag	204
ech	204
▁gewagt	204
▁absurde	204
▁Horizont	204
▁Fertigkeiten	204
▁halber	204
saufgaben	204
▁Zyprer	204
▁quantitativen	204
enz	204
▁eingeführte	204
▁darlegt	204
▁Schlupflöcher	204
steht	204
▁Kommunikations	204
▁verschieden	204
Bissau	204
▁Ramos	204
▁energische	204
▁Eier	204
▁zweitgrößte	204
▁Aufwendungen	204
▁Abrechnung	204
▁Job	204
▁Schnell	204
▁transparentes	204
▁Todes	204
▁Letzteres	204
betrug	204
▁wirksamste	204
▁bezahlten	204
▁litauischen	204
▁hergestellten	204
▁Antidumping	204
▁Polizeikräfte	204
▁ertragen	204
▁gigantische	204
▁stabiles	204
▁Faschismus	203
▁einzuladen	203
EGF	203
▁glaubwürdiger	203
▁Bezüge	203
▁falscher	203
Kulturhauptstadt	203
▁Sonne	203
▁Tausend	203
▁Weltbühne	203
▁Rossa	203
stellvertretende	203
bauern	203
Vorschlag	203
▁Nachhinein	203
ROM	203
▁symbolischen	203
▁Bewilligung	203
▁vermuten	203
▁integriertes	203
▁Jobs	203
▁Löhnen	203
▁festzusetzen	203
▁abzuändern	203
▁Gräueltaten	203
▁Andersson	203
▁Demagogie	203
berichte	203
▁permanenten	203
don	203
initiative	203
▁Begleit	203
▁nachzuweisen	203
▁Blei	203
▁Zucht	203
▁sachliche	202
▁Gegenüber	202
▁derartig	202
▁übertriebene	202
register	202
▁EFD	202
▁tatenlos	202
ance	202
▁angebliche	202
▁Regen	202
verlust	202
spunkte	202
▁autoritäre	202
pflichtige	202
alismus	202
zin	202
imperialistische	202
▁blutigen	202
▁unbekannt	202
▁abweichende	202
▁Gegengewicht	202
▁vorzugsweise	202
▁Geräten	202
agt	202
▁propagiert	202
▁Lenk	202
▁unwürdig	202
▁Häusern	202
▁Differenz	202
▁seltener	202
▁inständig	202
▁Geldbußen	202
▁rassistischen	202
▁Fluglinien	202
eres	202
▁ausgearbeiteten	202
änderungsantrag	202
▁Nachfolge	202
▁Roaming	202
▁Montreal	202
▁ungelöst	202
▁schnelles	202
▁verwehren	202
▁Hafenstaat	202
Ansatz	202
▁Marktanteil	202
▁Fidschi	202
▁Komitee	202
▁Schwerpunkten	202
▁befriedigend	202
▁schrecklich	202
▁Wettbewerber	202
smitglieds	202
▁Grosch	202
▁Pinochet	202
▁gezielter	202
lat	202
▁Polizeiakademie	202
EC	202
▁ernsthaftes	201
▁engagierten	201
▁Wirtschaftsjahr	201
▁unschuldigen	201
▁No	201
▁Zögern	201
spatent	201
▁Zusatzfragen	201
▁Befähigung	201
▁Strang	201
▁Insolvenz	201
▁Einheitliche	201
krisen	201
▁Glücksspiel	201
▁zusammensetzt	201
▁neigen	201
▁unschätzbare	201
ehr	201
▁spezifisches	201
▁losgelöst	201
▁Seehecht	201
▁anrichten	201
sberichts	201
Handel	201
▁Gewebe	201
▁unterbreitete	201
skapitel	201
swege	201
▁Umweltminister	201
▁Rechtsstaates	201
▁Ärzten	201
betrag	201
▁angewandte	201
▁ansteht	201
▁stufenweise	201
▁sensibles	201
▁Zusammenschluss	201
▁VN	201
▁Verleih	201
▁Vorfällen	201
sfazilität	201
▁Literatur	201
fried	201
▁giftige	201
einheit	200
▁Ros	200
▁Vorbehalten	200
▁Nase	200
▁Passagier	200
▁feierliche	200
▁Drogenpolitik	200
far	200
▁Unstimmigkeiten	200
▁kraft	200
▁weltweites	200
schein	200
.--	200
▁dortige	200
▁Arbeitsplan	200
▁nigerianische	200
▁anspruchsvoll	200
Was	200
männlichen	200
▁repressive	200
▁Wander	200
▁aufwenden	200
▁Carlos	200
oll	200
▁Dogma	200
▁Fukushima	200
▁Bos	200
▁vertraglich	200
▁Umkehr	200
▁Nachlässigkeit	200
▁Politikbereich	200
▁impliziert	200
▁zukünftiger	200
herausgearbeitet	200
▁irgendwelchen	200
▁wiedergegeben	200
▁relative	200
▁Rückgabe	200
▁antreten	200
▁Verkehrsträgern	200
▁erschwinglichen	199
rang	199
fordert	199
▁Sp	199
▁Finanzaufsicht	199
TA	199
▁bereichert	199
▁widersetzt	199
mächte	199
▁schmerzlich	199
▁Hauptpunkte	199
▁Säuberung	199
▁kohärenter	199
▁strategisches	199
Å	199
Marktüberwachung	199
lö	199
▁Mißstände	199
Transeuropäische	199
▁Vergeltung	199
▁Geschäften	199
▁Schnelligkeit	199
▁Kampanien	199
▁Val	199
sraum	199
▁Industriesektor	199
[...]
